{
  "version": "1.0",
  "truncation": null,
  "padding": null,
  "added_tokens": [
    {
      "id": 0,
      "content": "[UNK]",
      "single_word": false,
      "lstrip": false,
      "rstrip": false,
      "normalized": false,
      "special": true
    },
    {
      "id": 1,
      "content": "[PAD]",
      "single_word": false,
      "lstrip": false,
      "rstrip": false,
      "normalized": false,
      "special": true
    },
    {
      "id": 2,
      "content": "[CLS]",
      "single_word": false,
      "lstrip": false,
      "rstrip": false,
      "normalized": false,
      "special": true
    },
    {
      "id": 3,
      "content": "[SEP]",
      "single_word": false,
      "lstrip": false,
      "rstrip": false,
      "normalized": false,
      "special": true
    },
    {
      "id": 4,
      "content": "[MASK]",
      "single_word": false,
      "lstrip": false,
      "rstrip": false,
      "normalized": false,
      "special": true
    }
  ],
  "normalizer": {
    "type": "Sequence",
    "normalizers": [
      {
        "type": "NFD"
      },
      {
        "type": "Lowercase"
      },
      {
        "type": "StripAccents"
      }
    ]
  },
  "pre_tokenizer": {
    "type": "Whitespace"
  },
  "post_processor": {
    "type": "TemplateProcessing",
    "single": [
      {
        "SpecialToken": {
          "id": "[CLS]",
          "type_id": 0
        }
      },
      {
        "Sequence": {
          "id": "A",
          "type_id": 0
        }
      },
      {
        "SpecialToken": {
          "id": "[SEP]",
          "type_id": 0
        }
      }
    ],
    "pair": [
      {
        "SpecialToken": {
          "id": "[CLS]",
          "type_id": 0
        }
      },
      {
        "Sequence": {
          "id": "A",
          "type_id": 0
        }
      },
      {
        "SpecialToken": {
          "id": "[SEP]",
          "type_id": 0
        }
      },
      {
        "Sequence": {
          "id": "B",
          "type_id": 1
        }
      },
      {
        "SpecialToken": {
          "id": "[SEP]",
          "type_id": 1
        }
      }
    ],
    "special_tokens": {
      "[CLS]": {
        "id": "[CLS]",
        "ids": [
          2
        ],
        "tokens": [
          "[CLS]"
        ]
      },
      "[SEP]": {
        "id": "[SEP]",
        "ids": [
          3
        ],
        "tokens": [
          "[SEP]"
        ]
      }
    }
  },
  "decoder": {
    "type": "WordPiece",
    "prefix": "##",
    "cleanup": true
  },
  "model": {
    "type": "WordPiece",
    "unk_token": "[UNK]",
    "continuing_subword_prefix": "##",
    "max_input_chars_per_word": 100,
    "vocab": {
      "[UNK]": 0,
      "[PAD]": 1,
      "[CLS]": 2,
      "[SEP]": 3,
      "[MASK]": 4,
      "!": 5,
      "\"": 6,
      "#": 7,
      "$": 8,
      "%": 9,
      "&": 10,
      "'": 11,
      "(": 12,
      ")": 13,
      "*": 14,
      "+": 15,
      ",": 16,
      "-": 17,
      ".": 18,
      "/": 19,
      "0": 20,
      "1": 21,
      "2": 22,
      "3": 23,
      "4": 24,
      "5": 25,
      "6": 26,
      "7": 27,
      "8": 28,
      "9": 29,
      ":": 30,
      ";": 31,
      "<": 32,
      "=": 33,
      ">": 34,
      "?": 35,
      "@": 36,
      "[": 37,
      "\\": 38,
      "]": 39,
      "^": 40,
      "_": 41,
      "`": 42,
      "a": 43,
      "b": 44,
      "c": 45,
      "d": 46,
      "e": 47,
      "f": 48,
      "g": 49,
      "h": 50,
      "i": 51,
      "j": 52,
      "k": 53,
      "l": 54,
      "m": 55,
      "n": 56,
      "o": 57,
      "p": 58,
      "q": 59,
      "r": 60,
      "s": 61,
      "t": 62,
      "u": 63,
      "v": 64,
      "w": 65,
      "x": 66,
      "y": 67,
      "z": 68,
      "{": 69,
      "|": 70,
      "}": 71,
      "~": 72,
      "¡": 73,
      "´": 74,
      "½": 75,
      "¿": 76,
      "##e": 77,
      "##n": 78,
      "##g": 79,
      "##l": 80,
      "##o": 81,
      "##h": 82,
      "##a": 83,
      "##r": 84,
      "##t": 85,
      "##s": 86,
      "##v": 87,
      "##i": 88,
      "##p": 89,
      "##j": 90,
      "##u": 91,
      "##c": 92,
      "##y": 93,
      "##d": 94,
      "##b": 95,
      "##w": 96,
      "##m": 97,
      "##6": 98,
      "##0": 99,
      "##4": 100,
      "##5": 101,
      "##_": 102,
      "##x": 103,
      "##k": 104,
      "##f": 105,
      "##2": 106,
      "##3": 107,
      "##.": 108,
      "##?": 109,
      "##!": 110,
      "##q": 111,
      "##9": 112,
      "##*": 113,
      "##1": 114,
      "##'": 115,
      "##7": 116,
      "##8": 117,
      "##z": 118,
      "##]": 119,
      "##}": 120,
      "##=": 121,
      "##)": 122,
      "##(": 123,
      "##>": 124,
      "##-": 125,
      "##@": 126,
      "###": 127,
      "##$": 128,
      "##%": 129,
      "##^": 130,
      "##&": 131,
      "##\"": 132,
      "##:": 133,
      "##|": 134,
      "##/": 135,
      "##\\": 136,
      "##~": 137,
      "##;": 138,
      "##,": 139,
      "##½": 140,
      "##<": 141,
      "##+": 142,
      "##[": 143,
      "##{": 144,
      "##`": 145,
      "##in": 146,
      "th": 147,
      "##er": 148,
      "to": 149,
      "##ing": 150,
      "##ou": 151,
      "##or": 152,
      "##an": 153,
      "##at": 154,
      "the": 155,
      "##on": 156,
      "##ll": 157,
      "##ee": 158,
      "##ay": 159,
      "##es": 160,
      "##it": 161,
      "##nd": 162,
      "##oo": 163,
      "##ar": 164,
      "##om": 165,
      "##ed": 166,
      "##st": 167,
      "ha": 168,
      "you": 169,
      "##ot": 170,
      "##ow": 171,
      "##..": 172,
      "##ve": 173,
      "##ea": 174,
      "it": 175,
      "##is": 176,
      "my": 177,
      "##et": 178,
      "##ut": 179,
      "##en": 180,
      "and": 181,
      "##ic": 182,
      "in": 183,
      "...": 184,
      "##gh": 185,
      "on": 186,
      "##ch": 187,
      "is": 188,
      "for": 189,
      "of": 190,
      "##re": 191,
      "##le": 192,
      "##as": 193,
      "wh": 194,
      "##ck": 195,
      "st": 196,
      "##ke": 197,
      "be": 198,
      "##id": 199,
      "me": 200,
      "so": 201,
      "##ly": 202,
      "that": 203,
      "lo": 204,
      "##ght": 205,
      "##ad": 206,
      "##am": 207,
      "sh": 208,
      "go": 209,
      "##ome": 210,
      "li": 211,
      "##ust": 212,
      "have": 213,
      "##ld": 214,
      "##se": 215,
      "##ill": 216,
      "##ight": 217,
      "##ur": 218,
      "##ter": 219,
      "day": 220,
      "##ir": 221,
      "##al": 222,
      "##un": 223,
      "##pp": 224,
      "##ith": 225,
      "##ie": 226,
      "##ver": 227,
      "we": 228,
      "but": 229,
      "fr": 230,
      "##im": 231,
      "##ere": 232,
      "just": 233,
      "!!": 234,
      "an": 235,
      "with": 236,
      "##ood": 237,
      "do": 238,
      "not": 239,
      "he": 240,
      "##day": 241,
      "wor": 242,
      "at": 243,
      "##lly": 244,
      "was": 245,
      "tw": 246,
      "can": 247,
      "##her": 248,
      "##op": 249,
      "ch": 250,
      "get": 251,
      "##one": 252,
      "re": 253,
      "su": 254,
      "ne": 255,
      "good": 256,
      "all": 257,
      "up": 258,
      "##ce": 259,
      "out": 260,
      "##ry": 261,
      "com": 262,
      "rea": 263,
      "##ent": 264,
      "..": 265,
      "##ack": 266,
      "work": 267,
      "now": 268,
      "##th": 269,
      "this": 270,
      "##ess": 271,
      "##il": 272,
      "##ould": 273,
      "##ha": 274,
      "no": 275,
      "pr": 276,
      "##ain": 277,
      "##ant": 278,
      "al": 279,
      "##ks": 280,
      "##tt": 281,
      "##ion": 282,
      "pl": 283,
      "##us": 284,
      "am": 285,
      "like": 286,
      "than": 287,
      "##ast": 288,
      "are": 289,
      "##iss": 290,
      "got": 291,
      "mor": 292,
      "love": 293,
      "don": 294,
      ":/": 295,
      "too": 296,
      "your": 297,
      "happ": 298,
      "##ate": 299,
      "##ra": 300,
      "htt": 301,
      "http": 302,
      "://": 303,
      "##other": 304,
      "##ink": 305,
      "##out": 306,
      "##est": 307,
      "ma": 308,
      "##ct": 309,
      "im": 310,
      "##ri": 311,
      "kn": 312,
      "as": 313,
      "aw": 314,
      "today": 315,
      "see": 316,
      "##ab": 317,
      "##and": 318,
      "tim": 319,
      "##ish": 320,
      "ab": 321,
      "twit": 322,
      "!!!": 323,
      "going": 324,
      "##os": 325,
      "br": 326,
      "what": 327,
      "miss": 328,
      "##el": 329,
      "##art": 330,
      "some": 331,
      "##ead": 332,
      "##um": 333,
      "##ook": 334,
      "happy": 335,
      "##eep": 336,
      "lol": 337,
      "back": 338,
      "know": 339,
      "##eet": 340,
      "##ff": 341,
      "##ong": 342,
      "##ard": 343,
      "from": 344,
      "##na": 345,
      "##ick": 346,
      "##eel": 347,
      "wee": 348,
      "##ul": 349,
      "want": 350,
      "one": 351,
      "##ning": 352,
      "##ers": 353,
      "time": 354,
      "##ol": 355,
      "##ig": 356,
      "will": 357,
      "##ind": 358,
      "off": 359,
      "##nt": 360,
      "##all": 361,
      "feel": 362,
      "did": 363,
      "##ice": 364,
      "ever": 365,
      "there": 366,
      "##ob": 367,
      "really": 368,
      "new": 369,
      "##eed": 370,
      "about": 371,
      "##hh": 372,
      "##ge": 373,
      "##ine": 374,
      "its": 375,
      "any": 376,
      "sp": 377,
      "mo": 378,
      "think": 379,
      "bl": 380,
      "ex": 381,
      "mother": 382,
      "##ting": 383,
      "##atch": 384,
      "night": 385,
      "##een": 386,
      "how": 387,
      "had": 388,
      "##ally": 389,
      "##ope": 390,
      "sl": 391,
      "##uch": 392,
      "home": 393,
      "##mm": 394,
      "ag": 395,
      "they": 396,
      "##ool": 397,
      "##ough": 398,
      "##ite": 399,
      "de": 400,
      "##oll": 401,
      "haha": 402,
      "if": 403,
      "##oy": 404,
      "##reat": 405,
      "##mor": 406,
      "oh": 407,
      "##aa": 408,
      "##our": 409,
      "well": 410,
      "##uck": 411,
      "##ell": 412,
      "##!!": 413,
      "fun": 414,
      "##ving": 415,
      "##ame": 416,
      "##au": 417,
      "##night": 418,
      "gu": 419,
      "need": 420,
      "thanks": 421,
      "wa": 422,
      "when": 423,
      "cl": 424,
      "twitter": 425,
      "##dy": 426,
      "hope": 427,
      "much": 428,
      "gr": 429,
      "watch": 430,
      "still": 431,
      "fa": 432,
      "ll": 433,
      "##ound": 434,
      "##??": 435,
      "mom": 436,
      "##ear": 437,
      "or": 438,
      "....": 439,
      "every": 440,
      "here": 441,
      "##row": 442,
      "more": 443,
      "dr": 444,
      "great": 445,
      "sa": 446,
      "##king": 447,
      "ar": 448,
      "wish": 449,
      "her": 450,
      "sad": 451,
      "sor": 452,
      "##ap": 453,
      "last": 454,
      "##ies": 455,
      "##ous": 456,
      "##oooo": 457,
      "morning": 458,
      "##ake": 459,
      "##if": 460,
      "co": 461,
      "ph": 462,
      "##iend": 463,
      "has": 464,
      "would": 465,
      "en": 466,
      "tr": 467,
      "she": 468,
      "##ery": 469,
      "con": 470,
      "##ang": 471,
      "look": 472,
      "then": 473,
      "##ays": 474,
      "sleep": 475,
      "been": 476,
      "again": 477,
      "##ide": 478,
      "us": 479,
      "ve": 480,
      "bet": 481,
      "po": 482,
      "fin": 483,
      "yea": 484,
      "##em": 485,
      "##ww": 486,
      "##hing": 487,
      "by": 488,
      "##ollow": 489,
      "only": 490,
      "bad": 491,
      "##ag": 492,
      "could": 493,
      "tomor": 494,
      "wait": 495,
      "##own": 496,
      "friend": 497,
      "##ud": 498,
      "won": 499,
      "##ub": 500,
      "##itt": 501,
      "##ile": 502,
      "follow": 503,
      "tonight": 504,
      "may": 505,
      "why": 506,
      "tomorrow": 507,
      "thing": 508,
      "man": 509,
      "##ore": 510,
      "##ation": 511,
      "sorry": 512,
      "##xt": 513,
      "##ive": 514,
      "##ist": 515,
      "##ip": 516,
      "##ber": 517,
      "##irl": 518,
      "se": 519,
      "##lo": 520,
      "af": 521,
      "them": 522,
      "##fe": 523,
      "mon": 524,
      "##ys": 525,
      "very": 526,
      "bit": 527,
      "show": 528,
      "yes": 529,
      "over": 530,
      "##ia": 531,
      "right": 532,
      "##ny": 533,
      "##pic": 534,
      "##ass": 535,
      "should": 536,
      "sw": 537,
      "gon": 538,
      "who": 539,
      "##yy": 540,
      "##az": 541,
      "##up": 542,
      "##og": 543,
      "le": 544,
      "car": 545,
      "##ah": 546,
      "though": 547,
      "nice": 548,
      "##ort": 549,
      "make": 550,
      "qu": 551,
      "try": 552,
      "ok": 553,
      "tweet": 554,
      "head": 555,
      "sc": 556,
      "gonna": 557,
      "##ew": 558,
      "yeah": 559,
      "sch": 560,
      "##kend": 561,
      "eve": 562,
      "##00": 563,
      "pe": 564,
      "##ty": 565,
      "##iz": 566,
      "better": 567,
      "weekend": 568,
      "week": 569,
      "way": 570,
      "##ause": 571,
      "after": 572,
      "lea": 573,
      "getting": 574,
      "##ue": 575,
      "cr": 576,
      "##od": 577,
      "##ac": 578,
      "mothers": 579,
      "##ph": 580,
      "##ock": 581,
      "down": 582,
      "bed": 583,
      "does": 584,
      "sun": 585,
      "##ak": 586,
      "##sh": 587,
      "##ach": 588,
      "come": 589,
      "un": 590,
      "##ans": 591,
      "play": 592,
      "say": 593,
      "##ose": 594,
      "##lf": 595,
      "long": 596,
      "school": 597,
      "ad": 598,
      "hour": 599,
      "##ey": 600,
      "start": 601,
      "mar": 602,
      "##pl": 603,
      "##ug": 604,
      "mad": 605,
      "##rr": 606,
      "peop": 607,
      "twitpic": 608,
      "##eam": 609,
      "next": 610,
      "##ts": 611,
      "fl": 612,
      "som": 613,
      "thank": 614,
      "people": 615,
      "were": 616,
      "##my": 617,
      "##iday": 618,
      "didn": 619,
      "mov": 620,
      "app": 621,
      "awes": 622,
      "##pr": 623,
      "##ma": 624,
      "him": 625,
      "##per": 626,
      "dont": 627,
      "hey": 628,
      "best": 629,
      "days": 630,
      "somet": 631,
      "##cc": 632,
      "watching": 633,
      "hate": 634,
      "##anna": 635,
      "sm": 636,
      "##ought": 637,
      "##eak": 638,
      "##ure": 639,
      "girl": 640,
      "suck": 641,
      "awesome": 642,
      "hi": 643,
      "let": 644,
      "pic": 645,
      "tal": 646,
      "##ace": 647,
      "##ss": 648,
      "bec": 649,
      "##be": 650,
      "jo": 651,
      "call": 652,
      "litt": 653,
      "##xx": 654,
      "plea": 655,
      "di": 656,
      "##ath": 657,
      "##thing": 658,
      "gl": 659,
      "rain": 660,
      "never": 661,
      "##ater": 662,
      "bor": 663,
      "##ci": 664,
      "##to": 665,
      "being": 666,
      "##eeee": 667,
      "little": 668,
      "##ich": 669,
      "ear": 670,
      "##age": 671,
      "##ity": 672,
      "part": 673,
      "ur": 674,
      "even": 675,
      "year": 676,
      "star": 677,
      "wr": 678,
      "##ired": 679,
      "##ways": 680,
      "bab": 681,
      "##ather": 682,
      "soon": 683,
      "##irst": 684,
      ".....": 685,
      "##ft": 686,
      "alr": 687,
      "da": 688,
      "working": 689,
      "¿½": 690,
      "##eal": 691,
      "##der": 692,
      "thr": 693,
      "having": 694,
      "##so": 695,
      "##pt": 696,
      "che": 697,
      "take": 698,
      "list": 699,
      "act": 700,
      "sick": 701,
      "##uff": 702,
      "##ious": 703,
      "##ble": 704,
      "##ouse": 705,
      "prob": 706,
      "his": 707,
      "dam": 708,
      "min": 709,
      "##ond": 710,
      "hur": 711,
      "where": 712,
      "##ment": 713,
      "##ner": 714,
      "la": 715,
      "cool": 716,
      "##ther": 717,
      "##mo": 718,
      "##iv": 719,
      "sure": 720,
      "please": 721,
      "life": 722,
      "##ect": 723,
      "eat": 724,
      "our": 725,
      "doing": 726,
      "done": 727,
      "##br": 728,
      "feeling": 729,
      "loo": 730,
      "##bo": 731,
      "because": 732,
      "##ute": 733,
      "cra": 734,
      "##ii": 735,
      "always": 736,
      "##oss": 737,
      "everyone": 738,
      "lot": 739,
      "om": 740,
      "##ta": 741,
      "##eady": 742,
      "find": 743,
      "hel": 744,
      "##end": 745,
      "##gg": 746,
      "##son": 747,
      "inter": 748,
      "cant": 749,
      "bea": 750,
      "first": 751,
      "id": 752,
      "keep": 753,
      "##urn": 754,
      "tired": 755,
      "yay": 756,
      "##ful": 757,
      "guys": 758,
      "##ily": 759,
      "##fr": 760,
      "wanna": 761,
      "##joy": 762,
      "##qu": 763,
      "friends": 764,
      "already": 765,
      "big": 766,
      "hot": 767,
      "other": 768,
      "##ix": 769,
      "movie": 770,
      "##int": 771,
      "something": 772,
      "##kes": 773,
      "old": 774,
      "amaz": 775,
      "phone": 776,
      "##oke": 777,
      "another": 778,
      "##sp": 779,
      "hours": 780,
      "made": 781,
      "##ash": 782,
      "song": 783,
      "##ord": 784,
      "##wn": 785,
      "##he": 786,
      "##ms": 787,
      "##self": 788,
      "ly": 789,
      "yet": 790,
      "enjoy": 791,
      "trying": 792,
      "thought": 793,
      "??": 794,
      "???": 795,
      "pret": 796,
      "house": 797,
      "live": 798,
      "help": 799,
      "tri": 800,
      "##oc": 801,
      "##ull": 802,
      "real": 803,
      "##!!!!": 804,
      "hard": 805,
      "##ire": 806,
      "##man": 807,
      "##ooo": 808,
      "##ian": 809,
      "##fore": 810,
      "read": 811,
      "ready": 812,
      "dis": 813,
      "##ually": 814,
      "str": 815,
      "before": 816,
      "friday": 817,
      "per": 818,
      "hell": 819,
      "comp": 820,
      "bir": 821,
      "##usic": 822,
      "guess": 823,
      "omg": 824,
      "luck": 825,
      "te": 826,
      "ya": 827,
      "##iny": 828,
      "##url": 829,
      "lov": 830,
      "looking": 831,
      "damn": 832,
      "someone": 833,
      "pretty": 834,
      "kid": 835,
      "##ik": 836,
      "##zy": 837,
      "##unch": 838,
      "monday": 839,
      "dan": 840,
      "tell": 841,
      "##oom": 842,
      "away": 843,
      "exc": 844,
      "sucks": 845,
      "bus": 846,
      "ho": 847,
      "kind": 848,
      "listen": 849,
      "fam": 850,
      "ugh": 851,
      "went": 852,
      "amazing": 853,
      "em": 854,
      "wow": 855,
      "##ank": 856,
      "finally": 857,
      "##by": 858,
      "##ens": 859,
      "bu": 860,
      "##ited": 861,
      "par": 862,
      "same": 863,
      "maybe": 864,
      "war": 865,
      "into": 866,
      "nothing": 867,
      "rem": 868,
      "end": 869,
      "hear": 870,
      "job": 871,
      "##get": 872,
      "##ise": 873,
      "looks": 874,
      "##cr": 875,
      "sound": 876,
      "finish": 877,
      "fuck": 878,
      "run": 879,
      "!!!!": 880,
      "left": 881,
      "boy": 882,
      "##ox": 883,
      "##of": 884,
      "ser": 885,
      "##opp": 886,
      "check": 887,
      "missed": 888,
      "bored": 889,
      "baby": 890,
      "two": 891,
      "boo": 892,
      "tiny": 893,
      "sk": 894,
      "##ward": 895,
      "##are": 896,
      "tra": 897,
      "things": 898,
      "##ated": 899,
      "##les": 900,
      "god": 901,
      "##co": 902,
      "el": 903,
      "cou": 904,
      "10": 905,
      "##gr": 906,
      "##la": 907,
      "##side": 908,
      "sweet": 909,
      "said": 910,
      "cle": 911,
      "dri": 912,
      "jon": 913,
      "those": 914,
      "##ats": 915,
      "##oth": 916,
      "doesn": 917,
      "##ince": 918,
      "face": 919,
      "late": 920,
      "music": 921,
      "##ert": 922,
      "stuff": 923,
      "lost": 924,
      "actually": 925,
      "bel": 926,
      "also": 927,
      "talk": 928,
      "##zz": 929,
      "##ary": 930,
      "while": 931,
      "##able": 932,
      "post": 933,
      "later": 934,
      "put": 935,
      "##io": 936,
      "##cy": 937,
      "##itch": 938,
      "glad": 939,
      "sn": 940,
      "break": 941,
      "##ign": 942,
      "saw": 943,
      "early": 944,
      "acc": 945,
      "free": 946,
      "##nder": 947,
      "world": 948,
      "##ier": 949,
      "weather": 950,
      "##oney": 951,
      "meet": 952,
      "##att": 953,
      "such": 954,
      "sit": 955,
      "##ley": 956,
      "chan": 957,
      "din": 958,
      "must": 959,
      "birth": 960,
      "give": 961,
      "##fly": 962,
      "summ": 963,
      "might": 964,
      "waiting": 965,
      "birthday": 966,
      "?!": 967,
      "##bl": 968,
      "sund": 969,
      "around": 970,
      "wonder": 971,
      "party": 972,
      "##book": 973,
      "hun": 974,
      "##ton": 975,
      "hair": 976,
      "##ence": 977,
      "far": 978,
      "mean": 979,
      "##iew": 980,
      "stay": 981,
      "tinyurl": 982,
      "res": 983,
      "ta": 984,
      "unt": 985,
      "##ates": 986,
      "myself": 987,
      "hahaha": 988,
      "##aaaa": 989,
      "tot": 990,
      "super": 991,
      "awww": 992,
      "poor": 993,
      "##dd": 994,
      "few": 995,
      "##land": 996,
      "gone": 997,
      "##tw": 998,
      "##hhh": 999,
      "cry": 1000,
      "their": 1001,
      "thats": 1002,
      "phot": 1003,
      "##lc": 1004,
      "coming": 1005,
      "des": 1006,
      "mr": 1007,
      "##igh": 1008,
      "since": 1009,
      "class": 1010,
      "##ne": 1011,
      "until": 1012,
      "xx": 1013,
      "##ib": 1014,
      "##terday": 1015,
      "supp": 1016,
      "happen": 1017,
      "makes": 1018,
      "yesterday": 1019,
      "summer": 1020,
      "##ps": 1021,
      "aww": 1022,
      "anything": 1023,
      "family": 1024,
      "dad": 1025,
      "sat": 1026,
      "rec": 1027,
      "beaut": 1028,
      "sunday": 1029,
      "found": 1030,
      "without": 1031,
      "use": 1032,
      "##way": 1033,
      "##fu": 1034,
      "##ins": 1035,
      "stop": 1036,
      "gotta": 1037,
      "everything": 1038,
      "30": 1039,
      "rock": 1040,
      "##ory": 1041,
      "##nn": 1042,
      "##ok": 1043,
      "##cfly": 1044,
      "##iting": 1045,
      "making": 1046,
      "most": 1047,
      "##most": 1048,
      "mum": 1049,
      "##av": 1050,
      "##ating": 1051,
      "cute": 1052,
      "lunch": 1053,
      "wal": 1054,
      "tho": 1055,
      "rep": 1056,
      "almost": 1057,
      "##ffee": 1058,
      "##iful": 1059,
      "fav": 1060,
      "dream": 1061,
      "month": 1062,
      "excited": 1063,
      "pain": 1064,
      "##ike": 1065,
      "##ork": 1066,
      "plan": 1067,
      "tre": 1068,
      "till": 1069,
      "##sw": 1070,
      "cause": 1071,
      "##no": 1072,
      "##ably": 1073,
      "anyone": 1074,
      "pict": 1075,
      "##bs": 1076,
      "def": 1077,
      "okay": 1078,
      "pre": 1079,
      "vide": 1080,
      "##ris": 1081,
      "##ild": 1082,
      "##ple": 1083,
      "welc": 1084,
      "least": 1085,
      "add": 1086,
      "game": 1087,
      "tea": 1088,
      "##line": 1089,
      "##de": 1090,
      "##load": 1091,
      "dinner": 1092,
      "##wh": 1093,
      "##ime": 1094,
      "coffee": 1095,
      "del": 1096,
      "sing": 1097,
      "##ott": 1098,
      "cold": 1099,
      "ste": 1100,
      "##ieve": 1101,
      "food": 1102,
      "##me": 1103,
      "drink": 1104,
      "leave": 1105,
      "listening": 1106,
      "clean": 1107,
      "totally": 1108,
      "##ark": 1109,
      "##ett": 1110,
      "inst": 1111,
      "place": 1112,
      "hurts": 1113,
      "beautiful": 1114,
      "welcome": 1115,
      ";)": 1116,
      "mess": 1117,
      "kill": 1118,
      "money": 1119,
      "char": 1120,
      "##upid": 1121,
      "cam": 1122,
      "hang": 1123,
      "sur": 1124,
      "win": 1125,
      "##uu": 1126,
      "##ets": 1127,
      "forward": 1128,
      "haven": 1129,
      "wanted": 1130,
      "ah": 1131,
      "pa": 1132,
      "forg": 1133,
      "stupid": 1134,
      "many": 1135,
      "##uz": 1136,
      "##ym": 1137,
      "##ina": 1138,
      "these": 1139,
      "isn": 1140,
      "##ions": 1141,
      "hu": 1142,
      "##ever": 1143,
      "##rist": 1144,
      "##ache": 1145,
      "probably": 1146,
      "finished": 1147,
      "##ness": 1148,
      "shit": 1149,
      "through": 1150,
      "##body": 1151,
      "mine": 1152,
      "under": 1153,
      "##ney": 1154,
      "##ail": 1155,
      "##ams": 1156,
      "missing": 1157,
      "book": 1158,
      "hol": 1159,
      "turn": 1160,
      "thinking": 1161,
      "blog": 1162,
      "##ude": 1163,
      "www": 1164,
      "##ons": 1165,
      "ann": 1166,
      "dog": 1167,
      "times": 1168,
      "believe": 1169,
      "hand": 1170,
      "rest": 1171,
      "##hn": 1172,
      "##vid": 1173,
      "##ift": 1174,
      "buy": 1175,
      "ill": 1176,
      "room": 1177,
      "##aw": 1178,
      "send": 1179,
      "sounds": 1180,
      "op": 1181,
      "##orm": 1182,
      "##ana": 1183,
      "which": 1184,
      "playing": 1185,
      "ro": 1186,
      "##ves": 1187,
      "lovely": 1188,
      "ass": 1189,
      "##more": 1190,
      "bo": 1191,
      "hmm": 1192,
      "ke": 1193,
      "##ines": 1194,
      "funny": 1195,
      "fm": 1196,
      "ret": 1197,
      "##ave": 1198,
      "##kk": 1199,
      "##rew": 1200,
      "wasn": 1201,
      "##ently": 1202,
      "##ush": 1203,
      "##erson": 1204,
      "##ds": 1205,
      "eating": 1206,
      "hug": 1207,
      "##eci": 1208,
      "##oot": 1209,
      "##ote": 1210,
      "office": 1211,
      "ey": 1212,
      "##net": 1213,
      "##als": 1214,
      "upd": 1215,
      "kids": 1216,
      "##fully": 1217,
      "ed": 1218,
      "stuck": 1219,
      "##ents": 1220,
      "idea": 1221,
      "sooo": 1222,
      "##act": 1223,
      "##cl": 1224,
      "took": 1225,
      "didnt": 1226,
      "whole": 1227,
      "lad": 1228,
      "##ved": 1229,
      "##....": 1230,
      "##haha": 1231,
      "##ember": 1232,
      "soooo": 1233,
      "##girl": 1234,
      "fail": 1235,
      "hor": 1236,
      "hit": 1237,
      "lu": 1238,
      "##urk": 1239,
      "outside": 1240,
      "high": 1241,
      "red": 1242,
      "##ici": 1243,
      "lil": 1244,
      "enough": 1245,
      "##press": 1246,
      "er": 1247,
      "##ase": 1248,
      "pro": 1249,
      "dou": 1250,
      "set": 1251,
      "ter": 1252,
      "followers": 1253,
      "headache": 1254,
      "cut": 1255,
      "hop": 1256,
      "att": 1257,
      "rev": 1258,
      "##iley": 1259,
      "says": 1260,
      "##ng": 1261,
      "##ont": 1262,
      "chill": 1263,
      "##osed": 1264,
      "scr": 1265,
      "wrong": 1266,
      "##opping": 1267,
      "forgot": 1268,
      "##ird": 1269,
      "##unk": 1270,
      "wants": 1271,
      "grad": 1272,
      "cont": 1273,
      "conc": 1274,
      "##fect": 1275,
      "jam": 1276,
      "##ep": 1277,
      "##ict": 1278,
      "anymore": 1279,
      "exp": 1280,
      "moms": 1281,
      "unf": 1282,
      "cour": 1283,
      "less": 1284,
      "tv": 1285,
      "woke": 1286,
      "##19": 1287,
      "##ayl": 1288,
      "##une": 1289,
      "##hhhh": 1290,
      "ago": 1291,
      "##mail": 1292,
      "comput": 1293,
      "remember": 1294,
      "ind": 1295,
      "##ked": 1296,
      "goodnight": 1297,
      "plurk": 1298,
      "guy": 1299,
      "ms": 1300,
      "##gl": 1301,
      "##ro": 1302,
      "##vin": 1303,
      "##ding": 1304,
      "##ount": 1305,
      "kinda": 1306,
      "--": 1307,
      "came": 1308,
      "rob": 1309,
      "wed": 1310,
      "##ues": 1311,
      "##ors": 1312,
      "##vel": 1313,
      "mac": 1314,
      "##izz": 1315,
      "trek": 1316,
      "full": 1317,
      "##ipp": 1318,
      "##ither": 1319,
      "hehe": 1320,
      "seen": 1321,
      "black": 1322,
      "##ube": 1323,
      "busy": 1324,
      "video": 1325,
      "wind": 1326,
      "yum": 1327,
      "##ual": 1328,
      "##mer": 1329,
      "##ama": 1330,
      "##phone": 1331,
      "proble": 1332,
      "4w": 1333,
      "both": 1334,
      "cur": 1335,
      "card": 1336,
      "person": 1337,
      "prom": 1338,
      "##aught": 1339,
      "hopefully": 1340,
      "years": 1341,
      "name": 1342,
      "##udy": 1343,
      "##ance": 1344,
      "##esh": 1345,
      "##enn": 1346,
      "sitting": 1347,
      "fan": 1348,
      "##gry": 1349,
      "##fl": 1350,
      "##ult": 1351,
      "david": 1352,
      "ac": 1353,
      "##ale": 1354,
      "##yp": 1355,
      "##oud": 1356,
      "##...": 1357,
      "weeks": 1358,
      "diff": 1359,
      "internet": 1360,
      "serious": 1361,
      "else": 1362,
      "sou": 1363,
      "sar": 1364,
      "##12": 1365,
      "compl": 1366,
      "##????": 1367,
      "ap": 1368,
      "bar": 1369,
      "cook": 1370,
      "##a_": 1371,
      "told": 1372,
      "##ann": 1373,
      "grand": 1374,
      "##yyyy": 1375,
      "loved": 1376,
      "computer": 1377,
      "lear": 1378,
      "own": 1379,
      "sam": 1380,
      "half": 1381,
      "dec": 1382,
      "##oooooooo": 1383,
      "couldn": 1384,
      "following": 1385,
      "tweets": 1386,
      "##ces": 1387,
      "online": 1388,
      "heart": 1389,
      "##ife": 1390,
      "bur": 1391,
      "dead": 1392,
      "gra": 1393,
      "woo": 1394,
      "##iver": 1395,
      "##con": 1396,
      "##inks": 1397,
      "##ings": 1398,
      "##its": 1399,
      "##urday": 1400,
      "!!!!!": 1401,
      "hurt": 1402,
      "goo": 1403,
      "iphone": 1404,
      "mid": 1405,
      "##less": 1406,
      "##utes": 1407,
      "##ppy": 1408,
      "alone": 1409,
      "##ately": 1410,
      "spend": 1411,
      "sec": 1412,
      "facebook": 1413,
      "fil": 1414,
      "lau": 1415,
      "sim": 1416,
      "##ane": 1417,
      "inv": 1418,
      "short": 1419,
      "shopping": 1420,
      "##ump": 1421,
      "##ongr": 1422,
      "##ister": 1423,
      "crazy": 1424,
      "ep": 1425,
      "mind": 1426,
      "sea": 1427,
      "##10": 1428,
      "##eee": 1429,
      "study": 1430,
      "rel": 1431,
      "seems": 1432,
      "brother": 1433,
      "quite": 1434,
      "##akes": 1435,
      "john": 1436,
      "minutes": 1437,
      "wars": 1438,
      "taking": 1439,
      "pass": 1440,
      "tick": 1441,
      "##tube": 1442,
      "##ows": 1443,
      "news": 1444,
      "talking": 1445,
      "saturday": 1446,
      "##orn": 1447,
      "youtube": 1448,
      "once": 1449,
      "##apt": 1450,
      "lots": 1451,
      "tried": 1452,
      "perfect": 1453,
      "jonas": 1454,
      "change": 1455,
      "holiday": 1456,
      "open": 1457,
      "congr": 1458,
      "fall": 1459,
      "mil": 1460,
      "soo": 1461,
      "til": 1462,
      "test": 1463,
      "##ree": 1464,
      "##atter": 1465,
      "gets": 1466,
      "able": 1467,
      "called": 1468,
      "hello": 1469,
      "defin": 1470,
      "ice": 1471,
      "met": 1472,
      "##ger": 1473,
      "true": 1474,
      "air": 1475,
      "##gle": 1476,
      "##ied": 1477,
      "##ject": 1478,
      "##fast": 1479,
      "tomm": 1480,
      "##ven": 1481,
      "wont": 1482,
      "lucky": 1483,
      "text": 1484,
      "bank": 1485,
      "link": 1486,
      "vis": 1487,
      "xxx": 1488,
      "##pm": 1489,
      "seeing": 1490,
      "leg": 1491,
      "20": 1492,
      "cal": 1493,
      "email": 1494,
      "##port": 1495,
      "heard": 1496,
      "##ried": 1497,
      "care": 1498,
      "interest": 1499,
      "drive": 1500,
      "instead": 1501,
      "bb": 1502,
      "btw": 1503,
      "cuz": 1504,
      "pack": 1505,
      "##ele": 1506,
      "##app": 1507,
      "##ica": 1508,
      "##irt": 1509,
      "##rible": 1510,
      "fucking": 1511,
      "12": 1512,
      "catch": 1513,
      "sy": 1514,
      "site": 1515,
      "##eb": 1516,
      "##ron": 1517,
      "##13": 1518,
      "##ato": 1519,
      "##ster": 1520,
      "##imes": 1521,
      "choc": 1522,
      "##cept": 1523,
      "pres": 1524,
      "conf": 1525,
      "used": 1526,
      "##ations": 1527,
      "starting": 1528,
      "girls": 1529,
      "ca": 1530,
      "dj": 1531,
      "miley": 1532,
      "##oh": 1533,
      "##ees": 1534,
      "##ower": 1535,
      "leaving": 1536,
      "picture": 1537,
      "av": 1538,
      "dar": 1539,
      "##car": 1540,
      "##med": 1541,
      "##any": 1542,
      "##ones": 1543,
      "##ete": 1544,
      "##amp": 1545,
      "feels": 1546,
      "mommy": 1547,
      "raining": 1548,
      "beach": 1549,
      "breakfast": 1550,
      "cat": 1551,
      "##rs": 1552,
      "##rus": 1553,
      "wear": 1554,
      "awake": 1555,
      "broke": 1556,
      "close": 1557,
      "concert": 1558,
      "dude": 1559,
      "pick": 1560,
      "##cher": 1561,
      "##ade": 1562,
      "##lax": 1563,
      "either": 1564,
      "fast": 1565,
      "##mar": 1566,
      "##eek": 1567,
      "prof": 1568,
      "running": 1569,
      "months": 1570,
      "bum": 1571,
      "coll": 1572,
      "lma": 1573,
      "past": 1574,
      "water": 1575,
      "##ible": 1576,
      "##_b": 1577,
      "##erg": 1578,
      "##osh": 1579,
      "reply": 1580,
      "mic": 1581,
      "##ling": 1582,
      "##ball": 1583,
      "tour": 1584,
      "##ition": 1585,
      "##ared": 1586,
      "relax": 1587,
      "anyway": 1588,
      "hungry": 1589,
      "med": 1590,
      "ton": 1591,
      "##eaking": 1592,
      "##ics": 1593,
      "mel": 1594,
      "offici": 1595,
      "shower": 1596,
      "evening": 1597,
      "laur": 1598,
      "##oken": 1599,
      "fig": 1600,
      "##air": 1601,
      "##iet": 1602,
      "##uk": 1603,
      "##iness": 1604,
      "##ital": 1605,
      "##ures": 1606,
      "move": 1607,
      "trip": 1608,
      "count": 1609,
      "wonderful": 1610,
      "lady": 1611,
      "chocol": 1612,
      "lmao": 1613,
      "dra": 1614,
      "ip": 1615,
      "net": 1616,
      "pay": 1617,
      "##gan": 1618,
      "##time": 1619,
      "##work": 1620,
      "##ming": 1621,
      "ones": 1622,
      "spr": 1623,
      "blip": 1624,
      "block": 1625,
      "watched": 1626,
      "art": 1627,
      "train": 1628,
      "favor": 1629,
      "course": 1630,
      "seriously": 1631,
      "15": 1632,
      "fine": 1633,
      "jack": 1634,
      "mitch": 1635,
      "##ced": 1636,
      "ang": 1637,
      "##uss": 1638,
      "##ages": 1639,
      "##ortun": 1640,
      "writing": 1641,
      "##friend": 1642,
      "couple": 1643,
      "##aylor": 1644,
      "11": 1645,
      "67": 1646,
      "##bur": 1647,
      "##era": 1648,
      "goes": 1649,
      "light": 1650,
      "##illy": 1651,
      "ask": 1652,
      "##arden": 1653,
      "wishing": 1654,
      "sunny": 1655,
      "ju": 1656,
      "june": 1657,
      "##gin": 1658,
      "##ted": 1659,
      "##ops": 1660,
      "ash": 1661,
      "!!!!!!!": 1662,
      "bring": 1663,
      "slow": 1664,
      "bout": 1665,
      "nick": 1666,
      "pap": 1667,
      "ext": 1668,
      "exam": 1669,
      "sometimes": 1670,
      "loves": 1671,
      "happened": 1672,
      "hoping": 1673,
      "differ": 1674,
      "second": 1675,
      "4th": 1676,
      "col": 1677,
      "eas": 1678,
      "##yl": 1679,
      "tom": 1680,
      "ups": 1681,
      "fell": 1682,
      "kar": 1683,
      "sent": 1684,
      "uk": 1685,
      "top": 1686,
      "town": 1687,
      "##ange": 1688,
      "##star": 1689,
      "##astic": 1690,
      "##elm": 1691,
      "##itely": 1692,
      "heading": 1693,
      "dang": 1694,
      "fly": 1695,
      "jess": 1696,
      "##go": 1697,
      "##ole": 1698,
      "##tf": 1699,
      "##ills": 1700,
      "bless": 1701,
      "##rrrr": 1702,
      "definitely": 1703,
      "ipod": 1704,
      "je": 1705,
      "nic": 1706,
      "sigh": 1707,
      "##oint": 1708,
      "##isod": 1709,
      "reason": 1710,
      "##ants": 1711,
      "##aaa": 1712,
      "wake": 1713,
      "##athan": 1714,
      "crap": 1715,
      "100": 1716,
      "4j": 1717,
      "ahh": 1718,
      "bought": 1719,
      "har": 1720,
      "jay": 1721,
      "nat": 1722,
      "ps": 1723,
      "xd": 1724,
      "##jo": 1725,
      "##__": 1726,
      "##lex": 1727,
      "chang": 1728,
      "near": 1729,
      "##els": 1730,
      "##berry": 1731,
      "cream": 1732,
      "started": 1733,
      "reading": 1734,
      "##where": 1735,
      "episod": 1736,
      "fix": 1737,
      "garden": 1738,
      "hon": 1739,
      "ny": 1740,
      "nite": 1741,
      "tum": 1742,
      "##cle": 1743,
      "##boy": 1744,
      "##ene": 1745,
      "##chie": 1746,
      "weird": 1747,
      "##the": 1748,
      "##ize": 1749,
      "pics": 1750,
      "died": 1751,
      "boring": 1752,
      "account": 1753,
      "supposed": 1754,
      "unfortun": 1755,
      "learn": 1756,
      "laugh": 1757,
      "fing": 1758,
      "fel": 1759,
      "gre": 1760,
      "ive": 1761,
      "nap": 1762,
      "##leep": 1763,
      "##oes": 1764,
      "##dle": 1765,
      "##09": 1766,
      "forget": 1767,
      "load": 1768,
      "dear": 1769,
      "sore": 1770,
      "mark": 1771,
      "write": 1772,
      "eyes": 1773,
      "problem": 1774,
      "chocolate": 1775,
      "favorite": 1776,
      "/~": 1777,
      "bud": 1778,
      "ev": 1779,
      "gi": 1780,
      "iam": 1781,
      "jeal": 1782,
      "son": 1783,
      "sign": 1784,
      "##che": 1785,
      "means": 1786,
      "##urs": 1787,
      "chat": 1788,
      "chick": 1789,
      "speci": 1790,
      "moving": 1791,
      "sex": 1792,
      "##love": 1793,
      "join": 1794,
      "##opped": 1795,
      "tommcfly": 1796,
      "jealous": 1797,
      "sal": 1798,
      "##ai": 1799,
      "ther": 1800,
      "##eas": 1801,
      "##eth": 1802,
      "##ical": 1803,
      "chris": 1804,
      "upload": 1805,
      "agree": 1806,
      "moment": 1807,
      "download": 1808,
      "gradu": 1809,
      "band": 1810,
      "city": 1811,
      "due": 1812,
      "esp": 1813,
      "gave": 1814,
      "taylor": 1815,
      "##gt": 1816,
      "##tr": 1817,
      "##mon": 1818,
      "##ense": 1819,
      "christ": 1820,
      "works": 1821,
      "pray": 1822,
      "mag": 1823,
      "sleeping": 1824,
      "flu": 1825,
      "walk": 1826,
      "gym": 1827,
      "sel": 1828,
      "side": 1829,
      "##gar": 1830,
      "##lic": 1831,
      "##iff": 1832,
      "##mit": 1833,
      "ins": 1834,
      "answ": 1835,
      "abs": 1836,
      "green": 1837,
      "fair": 1838,
      "##ized": 1839,
      "afterno": 1840,
      "enjoying": 1841,
      "special": 1842,
      "200": 1843,
      "bas": 1844,
      "hum": 1845,
      "kat": 1846,
      "num": 1847,
      "pink": 1848,
      "pol": 1849,
      "##cing": 1850,
      "comment": 1851,
      "aren": 1852,
      "final": 1853,
      "movies": 1854,
      "three": 1855,
      "songs": 1856,
      "meeting": 1857,
      "season": 1858,
      "cup": 1859,
      "dd": 1860,
      "lay": 1861,
      "lapt": 1862,
      "mood": 1863,
      "pu": 1864,
      "pub": 1865,
      "pizz": 1866,
      "wom": 1867,
      "##ren": 1868,
      "##uct": 1869,
      "##60": 1870,
      "##inc": 1871,
      "##enny": 1872,
      "stud": 1873,
      "goin": 1874,
      "##ention": 1875,
      "using": 1876,
      "##shine": 1877,
      "##ondon": 1878,
      "photo": 1879,
      "ge": 1880,
      "ger": 1881,
      "##com": 1882,
      "##yn": 1883,
      "##wood": 1884,
      "##33": 1885,
      "inf": 1886,
      "worth": 1887,
      "comes": 1888,
      "asleep": 1889,
      "##andy": 1890,
      "##eeps": 1891,
      "##ucks": 1892,
      "##elle": 1893,
      "sadly": 1894,
      "quest": 1895,
      "##cyrus": 1896,
      "cele": 1897,
      "die": 1898,
      "vote": 1899,
      "yep": 1900,
      "##gie": 1901,
      "##oice": 1902,
      "##fer": 1903,
      "##eese": 1904,
      "##ars": 1905,
      "##ots": 1906,
      "##usso": 1907,
      "bye": 1908,
      "park": 1909,
      "##gether": 1910,
      "boys": 1911,
      "resp": 1912,
      "hugs": 1913,
      "interesting": 1914,
      "afternoon": 1915,
      "fb": 1916,
      "mmm": 1917,
      "pat": 1918,
      "ra": 1919,
      "sister": 1920,
      "##ho": 1921,
      "##ress": 1922,
      "##bum": 1923,
      "##ising": 1924,
      "##reci": 1925,
      "store": 1926,
      "needs": 1927,
      "stress": 1928,
      "bra": 1929,
      "eff": 1930,
      "view": 1931,
      "##ya": 1932,
      "##ba": 1933,
      "together": 1934,
      "##uring": 1935,
      "fren": 1936,
      "cance": 1937,
      "reg": 1938,
      "broken": 1939,
      "blood": 1940,
      "warm": 1941,
      "driving": 1942,
      "pictures": 1943,
      "unfortunately": 1944,
      "14": 1945,
      "1st": 1946,
      "cor": 1947,
      "kick": 1948,
      "london": 1949,
      "pet": 1950,
      "rad": 1951,
      "ride": 1952,
      "wtf": 1953,
      "##gas": 1954,
      "##over": 1955,
      "##par": 1956,
      "##min": 1957,
      "##stand": 1958,
      "##ie_": 1959,
      "ate": 1960,
      "sub": 1961,
      "plans": 1962,
      "bro": 1963,
      "exams": 1964,
      "club": 1965,
      "dress": 1966,
      "##itty": 1967,
      "cleaning": 1968,
      "horrible": 1969,
      "wedding": 1970,
      "answer": 1971,
      "laptop": 1972,
      "dv": 1973,
      "fire": 1974,
      "gut": 1975,
      "men": 1976,
      "ppl": 1977,
      "##not": 1978,
      "##ove": 1979,
      "mysp": 1980,
      "shar": 1981,
      "##ters": 1982,
      "knew": 1983,
      "wouldn": 1984,
      "photos": 1985,
      "huge": 1986,
      "complete": 1987,
      "google": 1988,
      "mitchelm": 1989,
      "mitchelmusso": 1990,
      "cake": 1991,
      "date": 1992,
      "poss": 1993,
      "tak": 1994,
      "##gu": 1995,
      "##ye": 1996,
      "##ision": 1997,
      "stand": 1998,
      "word": 1999,
      "shows": 2000,
      "sunshine": 2001,
      "appar": 2002,
      "small": 2003,
      "surpr": 2004,
      "project": 2005,
      "tickets": 2006,
      "present": 2007,
      "different": 2008,
      "pizza": 2009,
      "dm": 2010,
      "fight": 2011,
      "ru": 2012,
      "##sk": 2013,
      "##ial": 2014,
      "inside": 2015,
      "stra": 2016,
      "meant": 2017,
      "##iel": 2018,
      "##vers": 2019,
      "##ries": 2020,
      "seem": 2021,
      "except": 2022,
      "depress": 2023,
      "annoy": 2024,
      "congrats": 2025,
      "upset": 2026,
      "bott": 2027,
      "deal": 2028,
      "mis": 2029,
      "nope": 2030,
      "pea": 2031,
      "rather": 2032,
      "vac": 2033,
      "##ching": 2034,
      "##ches": 2035,
      "white": 2036,
      "##ident": 2037,
      "comm": 2038,
      "##ession": 2039,
      "album": 2040,
      "##ffic": 2041,
      "blue": 2042,
      "quick": 2043,
      "saying": 2044,
      "appreci": 2045,
      "absol": 2046,
      "bday": 2047,
      "bug": 2048,
      "bgt": 2049,
      "fab": 2050,
      "gen": 2051,
      "ner": 2052,
      "nor": 2053,
      "page": 2054,
      "##pa": 2055,
      "##for": 2056,
      "##oop": 2057,
      "young": 2058,
      "beer": 2059,
      "##ider": 2060,
      "liked": 2061,
      "##unt": 2062,
      "##aine": 2063,
      "brit": 2064,
      "spent": 2065,
      "order": 2066,
      "phil": 2067,
      "apple": 2068,
      "drinking": 2069,
      "myspace": 2070,
      "alex": 2071,
      "es": 2072,
      "mi": 2073,
      "tee": 2074,
      "##ging": 2075,
      "##pe": 2076,
      "##ja": 2077,
      "##mcfly": 2078,
      "##ised": 2079,
      "##rect": 2080,
      "##ames": 2081,
      "cheese": 2082,
      "fact": 2083,
      "save": 2084,
      "##ips": 2085,
      "doesnt": 2086,
      "played": 2087,
      "holly": 2088,
      "##ecially": 2089,
      "visit": 2090,
      "celebr": 2091,
      "!?": 2092,
      ".\"": 2093,
      "ahhh": 2094,
      "ben": 2095,
      "hub": 2096,
      "ii": 2097,
      "line": 2098,
      "laz": 2099,
      "mama": 2100,
      "van": 2101,
      "##nes": 2102,
      "##gn": 2103,
      "##ten": 2104,
      "##vice": 2105,
      "story": 2106,
      "##ille": 2107,
      "##urch": 2108,
      "freak": 2109,
      "justin": 2110,
      "words": 2111,
      "chines": 2112,
      "amer": 2113,
      "##ards": 2114,
      "##olog": 2115,
      "momm": 2116,
      "drunk": 2117,
      "##lov": 2118,
      "##annah": 2119,
      "disapp": 2120,
      "dance": 2121,
      "remind": 2122,
      "especially": 2123,
      "dig": 2124,
      "ff": 2125,
      "fant": 2126,
      "hea": 2127,
      "squ": 2128,
      "##led": 2129,
      "##oe": 2130,
      "##ham": 2131,
      "##tc": 2132,
      "##ki": 2133,
      "##77": 2134,
      "##itar": 2135,
      "whate": 2136,
      "living": 2137,
      "##ustr": 2138,
      "web": 2139,
      "worse": 2140,
      "repl": 2141,
      "##osp": 2142,
      "##ears": 2143,
      "looked": 2144,
      "pleas": 2145,
      "##aughter": 2146,
      "sarah": 2147,
      "mileycyrus": 2148,
      "figure": 2149,
      "episode": 2150,
      "13": 2151,
      "40": 2152,
      "ball": 2153,
      "cy": 2154,
      "cop": 2155,
      "cos": 2156,
      "fans": 2157,
      "foot": 2158,
      "gig": 2159,
      "rid": 2160,
      "rub": 2161,
      "sle": 2162,
      "##lin": 2163,
      "##ience": 2164,
      "##kin": 2165,
      "##orge": 2166,
      "shame": 2167,
      "plus": 2168,
      "clos": 2169,
      "trans": 2170,
      "chance": 2171,
      "understand": 2172,
      "luv": 2173,
      "apart": 2174,
      "profile": 2175,
      "apparently": 2176,
      "mike": 2177,
      "ohh": 2178,
      "team": 2179,
      "##eat": 2180,
      "##oid": 2181,
      "##cast": 2182,
      "##boo": 2183,
      "##mi": 2184,
      "##ky": 2185,
      "touch": 2186,
      "##str": 2187,
      "##icious": 2188,
      "shoes": 2189,
      "worry": 2190,
      "prod": 2191,
      "##used": 2192,
      "whats": 2193,
      "arri": 2194,
      "engl": 2195,
      "cross": 2196,
      "earl": 2197,
      "##ealth": 2198,
      "##iiii": 2199,
      "hold": 2200,
      "traffic": 2201,
      "##cover": 2202,
      "english": 2203,
      "16": 2204,
      "2day": 2205,
      "dun": 2206,
      "each": 2207,
      "jer": 2208,
      "joy": 2209,
      "key": 2210,
      "lone": 2211,
      "na": 2212,
      "via": 2213,
      "##oat": 2214,
      "##view": 2215,
      "##uc": 2216,
      "##ugh": 2217,
      "##yle": 2218,
      "##bab": 2219,
      "##wor": 2220,
      "##ka": 2221,
      "##23": 2222,
      "##11": 2223,
      "##88": 2224,
      "##--": 2225,
      "##ically": 2226,
      "yours": 2227,
      "happens": 2228,
      "point": 2229,
      "tech": 2230,
      "business": 2231,
      "travel": 2232,
      "dreams": 2233,
      "message": 2234,
      "update": 2235,
      "paper": 2236,
      "whatever": 2237,
      "aud": 2238,
      "bag": 2239,
      "ent": 2240,
      "gift": 2241,
      "jas": 2242,
      "math": 2243,
      "pot": 2244,
      "pop": 2245,
      "pull": 2246,
      "ry": 2247,
      "ran": 2248,
      "tues": 2249,
      "##ga": 2250,
      "##tv": 2251,
      "##tim": 2252,
      "##vy": 2253,
      "##oun": 2254,
      "##eez": 2255,
      "##ston": 2256,
      "stom": 2257,
      "child": 2258,
      "##aster": 2259,
      "##ract": 2260,
      "cost": 2261,
      "tweeting": 2262,
      "##cial": 2263,
      "##eeeeeeee": 2264,
      "idk": 2265,
      "camera": 2266,
      "hmmm": 2267,
      "easy": 2268,
      "absolute": 2269,
      "slept": 2270,
      "den": 2271,
      "during": 2272,
      "hates": 2273,
      "mc": 2274,
      "mot": 2275,
      "matt": 2276,
      "ouch": 2277,
      "pool": 2278,
      "wol": 2279,
      "wife": 2280,
      "##tin": 2281,
      "##va": 2282,
      "##_d": 2283,
      "##18": 2284,
      "thx": 2285,
      "beh": 2286,
      "beat": 2287,
      "sol": 2288,
      "sold": 2289,
      "##usted": 2290,
      "doct": 2291,
      "worst": 2292,
      "everybody": 2293,
      "smile": 2294,
      "snl": 2295,
      "paul": 2296,
      "##lovato": 2297,
      "earlier": 2298,
      "66": 2299,
      "four": 2300,
      "gd": 2301,
      "hil": 2302,
      "lame": 2303,
      "mu": 2304,
      "pie": 2305,
      "piss": 2306,
      "power": 2307,
      "san": 2308,
      "##ged": 2309,
      "##ald": 2310,
      "##knight": 2311,
      "##fa": 2312,
      "##ara": 2313,
      "##key": 2314,
      "loving": 2315,
      "##alk": 2316,
      "##aste": 2317,
      "##ular": 2318,
      "exper": 2319,
      "guitar": 2320,
      "needed": 2321,
      "longer": 2322,
      "throat": 2323,
      "relaxing": 2324,
      "felt": 2325,
      "number": 2326,
      "lazy": 2327,
      "absolutely": 2328,
      "box": 2329,
      "dark": 2330,
      "ele": 2331,
      "feet": 2332,
      "mam": 2333,
      "mob": 2334,
      "mass": 2335,
      "ob": 2336,
      "pc": 2337,
      "pan": 2338,
      "roll": 2339,
      "ty": 2340,
      "ver": 2341,
      "##sing": 2342,
      "##you": 2343,
      "##_s": 2344,
      "##20": 2345,
      "##14": 2346,
      "thinks": 2347,
      "havent": 2348,
      "prop": 2349,
      "along": 2350,
      "##ulous": 2351,
      "moon": 2352,
      "cover": 2353,
      "track": 2354,
      "......": 2355,
      "?????": 2356,
      "##!!!!!!!!": 2357,
      "jonathan": 2358,
      "record": 2359,
      "steph": 2360,
      "road": 2361,
      "ddlovato": 2362,
      "18": 2363,
      "cous": 2364,
      "dist": 2365,
      "ell": 2366,
      "fu": 2367,
      "hosp": 2368,
      "norm": 2369,
      "ooo": 2370,
      "ten": 2371,
      "wall": 2372,
      "yo": 2373,
      "##gs": 2374,
      "##lake": 2375,
      "##band": 2376,
      "##mc": 2377,
      "##inn": 2378,
      "##ino": 2379,
      "shop": 2380,
      "shirt": 2381,
      "cannot": 2382,
      "chic": 2383,
      "##ilight": 2384,
      "proud": 2385,
      "alth": 2386,
      "ima": 2387,
      "##umb": 2388,
      "safe": 2389,
      "wishes": 2390,
      "enter": 2391,
      "sleepy": 2392,
      "##ssss": 2393,
      "babe": 2394,
      "boyfriend": 2395,
      "fingers": 2396,
      "german": 2397,
      "completely": 2398,
      "fantastic": 2399,
      "lonely": 2400,
      "behind": 2401,
      "kiss": 2402,
      "noooo": 2403,
      "ooh": 2404,
      "vers": 2405,
      "##ler": 2406,
      "##ram": 2407,
      "shall": 2408,
      "atl": 2409,
      "church": 2410,
      "mail": 2411,
      "exact": 2412,
      "homework": 2413,
      "flight": 2414,
      "dave": 2415,
      "law": 2416,
      "##box": 2417,
      "parents": 2418,
      "wondering": 2419,
      "crying": 2420,
      "desk": 2421,
      "expect": 2422,
      "yummy": 2423,
      "curr": 2424,
      "radio": 2425,
      "bri": 2426,
      "burn": 2427,
      "cd": 2428,
      "creat": 2429,
      "hannah": 2430,
      "ow": 2431,
      "pur": 2432,
      "roo": 2433,
      "vid": 2434,
      "##ls": 2435,
      "##i_": 2436,
      "##je": 2437,
      "##ying": 2438,
      "##bb": 2439,
      "##24": 2440,
      "##oup": 2441,
      "##iter": 2442,
      "##ican": 2443,
      "forever": 2444,
      "stor": 2445,
      "stick": 2446,
      "loc": 2447,
      "##ada": 2448,
      "shut": 2449,
      "##illi": 2450,
      "webs": 2451,
      "hahah": 2452,
      "vegas": 2453,
      "##yyy": 2454,
      "starts": 2455,
      "minute": 2456,
      "##ments": 2457,
      "##bye": 2458,
      "walking": 2459,
      "huh": 2460,
      "##ails": 2461,
      "chillin": 2462,
      "film": 2463,
      "chicken": 2464,
      "dvd": 2465,
      "peace": 2466,
      "tuesday": 2467,
      "aint": 2468,
      "cap": 2469,
      "dh": 2470,
      "daughter": 2471,
      "mention": 2472,
      "non": 2473,
      "ye": 2474,
      "##bar": 2475,
      "##kn": 2476,
      "##99": 2477,
      "thurs": 2478,
      "##omb": 2479,
      "##owers": 2480,
      "##etic": 2481,
      "##uth": 2482,
      "##ides": 2483,
      "##ield": 2484,
      "doc": 2485,
      "requ": 2486,
      "pract": 2487,
      "##ains": 2488,
      "yourself": 2489,
      "scared": 2490,
      "talent": 2491,
      "direct": 2492,
      "????": 2493,
      "design": 2494,
      "updates": 2495,
      "windows": 2496,
      "##ype": 2497,
      "bbq": 2498,
      "sexy": 2499,
      "self": 2500,
      "stomach": 2501,
      "although": 2502,
      "bath": 2503,
      "eh": 2504,
      "gar": 2505,
      "hat": 2506,
      "jim": 2507,
      "jus": 2508,
      "lat": 2509,
      "matter": 2510,
      "rand": 2511,
      "round": 2512,
      "sna": 2513,
      "xox": 2514,
      "##nect": 2515,
      "##af": 2516,
      "##uh": 2517,
      "##wr": 2518,
      "##_c": 2519,
      "##ern": 2520,
      "int": 2521,
      "twilight": 2522,
      "prog": 2523,
      "##mmm": 2524,
      "cons": 2525,
      "##berlake": 2526,
      "realized": 2527,
      "screen": 2528,
      "micha": 2529,
      "official": 2530,
      "24": 2531,
      "50": 2532,
      ":-": 2533,
      "dat": 2534,
      "err": 2535,
      "jord": 2536,
      "ring": 2537,
      "vot": 2538,
      "wat": 2539,
      "##ville": 2540,
      "##iq": 2541,
      "##ien": 2542,
      "##22": 2543,
      "##30": 2544,
      "##86": 2545,
      "##ita": 2546,
      "andy": 2547,
      "iss": 2548,
      "bell": 2549,
      "shes": 2550,
      "fresh": 2551,
      "dev": 2552,
      "eng": 2553,
      "usually": 2554,
      "swim": 2555,
      "##ogra": 2556,
      "##friday": 2557,
      "company": 2558,
      "emp": 2559,
      "posted": 2560,
      "staying": 2561,
      "support": 2562,
      "messages": 2563,
      "body": 2564,
      "fml": 2565,
      "eye": 2566,
      "studying": 2567,
      "officially": 2568,
      "##ointed": 2569,
      "tummy": 2570,
      "graduation": 2571,
      "appreciate": 2572,
      "hubby": 2573,
      "(:": 2574,
      "bill": 2575,
      "fat": 2576,
      "jenn": 2577,
      "lab": 2578,
      "land": 2579,
      "nik": 2580,
      "voice": 2581,
      "##nic": 2582,
      "##under": 2583,
      "##burn": 2584,
      "##_l": 2585,
      "##_m": 2586,
      "throw": 2587,
      "##ease": 2588,
      "##ism": 2589,
      "##ison": 2590,
      "##eno": 2591,
      "note": 2592,
      "sum": 2593,
      "worked": 2594,
      "##rib": 2595,
      "brain": 2596,
      "event": 2597,
      "rainy": 2598,
      "alright": 2599,
      "disc": 2600,
      "dougie": 2601,
      "legs": 2602,
      "changed": 2603,
      "question": 2604,
      "gutted": 2605,
      "random": 2606,
      "25": 2607,
      "aff": 2608,
      "ble": 2609,
      "kim": 2610,
      "lar": 2611,
      "low": 2612,
      "mat": 2613,
      "wine": 2614,
      "##gy": 2615,
      "##red": 2616,
      "##ric": 2617,
      "##iot": 2618,
      "##21": 2619,
      "##?!": 2620,
      "##83": 2621,
      "##oul": 2622,
      "##outh": 2623,
      "##lled": 2624,
      "##ester": 2625,
      "##omas": 2626,
      "insp": 2627,
      "isnt": 2628,
      "stopped": 2629,
      "##ided": 2630,
      "##amb": 2631,
      "mach": 2632,
      "##wwww": 2633,
      "##azz": 2634,
      "quiet": 2635,
      "joe": 2636,
      "keeps": 2637,
      "street": 2638,
      "danny": 2639,
      "single": 2640,
      "##ette": 2641,
      "hanging": 2642,
      "sending": 2643,
      "revision": 2644,
      "middle": 2645,
      "ashley": 2646,
      "french": 2647,
      "hospital": 2648,
      "version": 2649,
      "website": 2650,
      "2nd": 2651,
      "ba": 2652,
      "bike": 2653,
      "jen": 2654,
      "kate": 2655,
      "lis": 2656,
      "mich": 2657,
      "none": 2658,
      "port": 2659,
      "sell": 2660,
      "tem": 2661,
      "um": 2662,
      "wit": 2663,
      "yup": 2664,
      "##nite": 2665,
      "##rie": 2666,
      "##room": 2667,
      "##sm": 2668,
      "##jon": 2669,
      "##yd": 2670,
      "##da": 2671,
      "##wind": 2672,
      "##_r": 2673,
      "##idge": 2674,
      "##others": 2675,
      "imp": 2676,
      "##igr": 2677,
      "exha": 2678,
      "death": 2679,
      "cloth": 2680,
      "##ago": 2681,
      "headed": 2682,
      "others": 2683,
      "???????": 2684,
      "problems": 2685,
      "brothers": 2686,
      "colle": 2687,
      "giving": 2688,
      "chinese": 2689,
      "copy": 2690,
      "##orgeous": 2691,
      "jason": 2692,
      "mobile": 2693,
      "currently": 2694,
      "fish": 2695,
      "gf": 2696,
      "gorgeous": 2697,
      "mate": 2698,
      "sis": 2699,
      "tm": 2700,
      "##new": 2701,
      "##hoo": 2702,
      "##vious": 2703,
      "##ior": 2704,
      "##200": 2705,
      "##ze": 2706,
      "##archie": 2707,
      "memor": 2708,
      "##sey": 2709,
      "##illa": 2710,
      "##unny": 2711,
      "##pped": 2712,
      "front": 2713,
      "anim": 2714,
      "alot": 2715,
      "##ction": 2716,
      "##anda": 2717,
      "spot": 2718,
      "spam": 2719,
      "dep": 2720,
      "waking": 2721,
      "##ives": 2722,
      "host": 2723,
      "videos": 2724,
      "review": 2725,
      "wednes": 2726,
      "darn": 2727,
      "public": 2728,
      "product": 2729,
      "exactly": 2730,
      "case": 2731,
      "etc": 2732,
      "hom": 2733,
      "health": 2734,
      "ir": 2735,
      "jk": 2736,
      "rich": 2737,
      "##ec": 2738,
      "##nat": 2739,
      "##ned": 2740,
      "##how": 2741,
      "##head": 2742,
      "##cat": 2743,
      "##den": 2744,
      "##bit": 2745,
      "##fan": 2746,
      "##26": 2747,
      "##ering": 2748,
      "##arn": 2749,
      "##arm": 2750,
      "##arious": 2751,
      "##ste": 2752,
      "##oto": 2753,
      "##idays": 2754,
      "##ami": 2755,
      "shin": 2756,
      "share": 2757,
      "##ured": 2758,
      "ant": 2759,
      "heat": 2760,
      "gettin": 2761,
      "succ": 2762,
      "neigh": 2763,
      "imag": 2764,
      "awful": 2765,
      "brand": 2766,
      "##ape": 2767,
      "usual": 2768,
      "##berg": 2769,
      "bitch": 2770,
      "moved": 2771,
      "smell": 2772,
      "lets": 2773,
      "##xxx": 2774,
      "starb": 2775,
      "##board": 2776,
      "addict": 2777,
      "decided": 2778,
      "congrat": 2779,
      "spring": 2780,
      "angel": 2781,
      "taken": 2782,
      "annoying": 2783,
      "proper": 2784,
      "thursday": 2785,
      "college": 2786,
      "cher": 2787,
      "cried": 2788,
      "eur": 2789,
      "emm": 2790,
      "fill": 2791,
      "feed": 2792,
      "jan": 2793,
      "jul": 2794,
      "kay": 2795,
      "si": 2796,
      "tan": 2797,
      "takes": 2798,
      "uh": 2799,
      "yr": 2800,
      "##ex": 2801,
      "##life": 2802,
      "##ax": 2803,
      "##iest": 2804,
      "##cakes": 2805,
      "##weet": 2806,
      "##**": 2807,
      "##89": 2808,
      "##omm": 2809,
      "shot": 2810,
      "shout": 2811,
      "gosh": 2812,
      "##ural": 2813,
      "goodbye": 2814,
      "allow": 2815,
      "import": 2816,
      "closed": 2817,
      "group": 2818,
      "code": 2819,
      "trou": 2820,
      "swine": 2821,
      "##aces": 2822,
      "##eeeee": 2823,
      ".........": 2824,
      "disney": 2825,
      "##ensive": 2826,
      "sky": 2827,
      "accident": 2828,
      "planning": 2829,
      "singing": 2830,
      "james": 2831,
      "jonasbr": 2832,
      "airport": 2833,
      "cancelled": 2834,
      "wednesday": 2835,
      "neighb": 2836,
      ",,": 2837,
      "19": 2838,
      "17": 2839,
      "45": 2840,
      "bac": 2841,
      "det": 2842,
      "hm": 2843,
      "hay": 2844,
      "hoo": 2845,
      "hist": 2846,
      "mix": 2847,
      "nut": 2848,
      "ol": 2849,
      "pos": 2850,
      "rach": 2851,
      "##here": 2852,
      "##ient": 2853,
      "##wa": 2854,
      "topic": 2855,
      "##ito": 2856,
      "##isd": 2857,
      "##asty": 2858,
      "##raid": 2859,
      "feelin": 2860,
      "##earch": 2861,
      "tru": 2862,
      "##angel": 2863,
      "afraid": 2864,
      "##phy": 2865,
      "##rrr": 2866,
      ".......": 2867,
      "mrs": 2868,
      "favour": 2869,
      "charl": 2870,
      "paid": 2871,
      "south": 2872,
      "burnt": 2873,
      "packing": 2874,
      "lauren": 2875,
      "jeff": 2876,
      "honest": 2877,
      "greg": 2878,
      "doctor": 2879,
      "hilarious": 2880,
      "clothes": 2881,
      ").": 2882,
      "aut": 2883,
      "acr": 2884,
      "bk": 2885,
      "ban": 2886,
      "cert": 2887,
      "dent": 2888,
      "egg": 2889,
      "hook": 2890,
      "hrs": 2891,
      "krist": 2892,
      "lm": 2893,
      "pig": 2894,
      "sand": 2895,
      "tur": 2896,
      "##hi": 2897,
      "##har": 2898,
      "##hol": 2899,
      "##rd": 2900,
      "##rob": 2901,
      "##rknight": 2902,
      "##use": 2903,
      "##cer": 2904,
      "##do": 2905,
      "tor": 2906,
      "##owing": 2907,
      "##ena": 2908,
      "##iced": 2909,
      "incr": 2910,
      "##unes": 2911,
      "door": 2912,
      "wash": 2913,
      "neck": 2914,
      "amy": 2915,
      "donn": 2916,
      "bright": 2917,
      "##ulations": 2918,
      "spell": 2919,
      "followfriday": 2920,
      "manag": 2921,
      "##0000": 2922,
      "crash": 2923,
      "apps": 2924,
      "##eeeeee": 2925,
      "##frog": 2926,
      "ended": 2927,
      "##arely": 2928,
      "##swift": 2929,
      "killing": 2930,
      "camp": 2931,
      "davidarchie": 2932,
      "soul": 2933,
      "spending": 2934,
      "miles": 2935,
      "freakin": 2936,
      "disappointed": 2937,
      "jonathanrknight": 2938,
      "starbucks": 2939,
      "jonasbrothers": 2940,
      "!)": 2941,
      ":'": 2942,
      "bob": 2943,
      "breat": 2944,
      "bang": 2945,
      "cell": 2946,
      "fit": 2947,
      "king": 2948,
      "migr": 2949,
      "nk": 2950,
      "wer": 2951,
      "yall": 2952,
      "##lu": 2953,
      "##oon": 2954,
      "##rol": 2955,
      "##rore": 2956,
      "##vi": 2957,
      "##jor": 2958,
      "##back": 2959,
      "##music": 2960,
      "##08": 2961,
      "##za": 2962,
      "##ined": 2963,
      "##icy": 2964,
      "incl": 2965,
      "gold": 2966,
      "lie": 2967,
      "##illion": 2968,
      "doll": 2969,
      "twee": 2970,
      "recover": 2971,
      "comf": 2972,
      "morn": 2973,
      "##eless": 2974,
      "space": 2975,
      "expl": 2976,
      "nights": 2977,
      "##ific": 2978,
      "screw": 2979,
      "sunburn": 2980,
      "mary": 2981,
      "earth": 2982,
      "cheer": 2983,
      "exciting": 2984,
      "books": 2985,
      "##ground": 2986,
      "lately": 2987,
      "access": 2988,
      "##aaaaaaaa": 2989,
      "retrore": 2990,
      "double": 2991,
      "window": 2992,
      "avail": 2993,
      "bummed": 2994,
      "july": 2995,
      "vacation": 2996,
      "wolver": 2997,
      "germany": 2998,
      "machine": 2999,
      "congratulations": 3000,
      "important": 3001,
      "retrorewind": 3002,
      "bc": 3003,
      "bow": 3004,
      "bal": 3005,
      "gay": 3006,
      "gun": 3007,
      "ign": 3008,
      "jump": 3009,
      "mal": 3010,
      "mist": 3011,
      "nom": 3012,
      "rip": 3013,
      "race": 3014,
      "sir": 3015,
      "sil": 3016,
      "##ost": 3017,
      "##sc": 3018,
      "##cake": 3019,
      "##bt": 3020,
      "##mb": 3021,
      "##mber": 3022,
      "##_j": 3023,
      "##_k": 3024,
      "##ator": 3025,
      "hav": 3026,
      "##uture": 3027,
      "##icks": 3028,
      "##alia": 3029,
      "rece": 3030,
      "press": 3031,
      "priv": 3032,
      "##using": 3033,
      "impress": 3034,
      "somewhere": 3035,
      "speak": 3036,
      "mod": 3037,
      "blah": 3038,
      "degr": 3039,
      "clou": 3040,
      "momma": 3041,
      "connect": 3042,
      "calling": 3043,
      "interview": 3044,
      "enjoyed": 3045,
      "tex": 3046,
      "##wards": 3047,
      "steve": 3048,
      "install": 3049,
      "return": 3050,
      "blackberry": 3051,
      "milk": 3052,
      "wearing": 3053,
      "bummer": 3054,
      "extra": 3055,
      "taylorswift": 3056,
      "puppy": 3057,
      "possible": 3058,
      "##ology": 3059,
      "dunno": 3060,
      "entire": 3061,
      "cousin": 3062,
      "normal": 3063,
      "chicago": 3064,
      "exhausted": 3065,
      "history": 3066,
      "wolverine": 3067,
      "taylorswift13": 3068,
      "ak": 3069,
      "ahhhh": 3070,
      "epic": 3071,
      "fre": 3072,
      "fever": 3073,
      "holl": 3074,
      "honey": 3075,
      "jour": 3076,
      "lang": 3077,
      "row": 3078,
      "session": 3079,
      "vi": 3080,
      "vict": 3081,
      "yah": 3082,
      "##let": 3083,
      "##aly": 3084,
      "##vo": 3085,
      "##ux": 3086,
      "##ule": 3087,
      "##ween": 3088,
      "##05": 3089,
      "##xo": 3090,
      "##25": 3091,
      "##85": 3092,
      "thunder": 3093,
      "##ites": 3094,
      "##eap": 3095,
      "##icle": 3096,
      "form": 3097,
      "##ung": 3098,
      "freaking": 3099,
      "sugar": 3100,
      "mall": 3101,
      "kno": 3102,
      "anyways": 3103,
      "deb": 3104,
      "coz": 3105,
      "scary": 3106,
      "glass": 3107,
      "##ggest": 3108,
      "suppose": 3109,
      "recomm": 3110,
      "expensive": 3111,
      "drag": 3112,
      "loads": 3113,
      "woman": 3114,
      "info": 3115,
      "north": 3116,
      "recommend": 3117,
      "5j": 3118,
      "bon": 3119,
      "bak": 3120,
      "cas": 3121,
      "cent": 3122,
      "caught": 3123,
      "five": 3124,
      "flo": 3125,
      "josh": 3126,
      "mcfly": 3127,
      "nah": 3128,
      "oops": 3129,
      "ros": 3130,
      "ug": 3131,
      "yell": 3132,
      "##lee": 3133,
      "##te": 3134,
      "##vis": 3135,
      "##iam": 3136,
      "##ca": 3137,
      "##cut": 3138,
      "##_p": 3139,
      "##_w": 3140,
      "##17": 3141,
      "##oring": 3142,
      "##ored": 3143,
      "##atus": 3144,
      "##ony": 3145,
      "##itter": 3146,
      "itunes": 3147,
      "##etch": 3148,
      "##ado": 3149,
      "##imp": 3150,
      "doin": 3151,
      "ref": 3152,
      "suggest": 3153,
      "##ilt": 3154,
      "nobody": 3155,
      "brad": 3156,
      "breaking": 3157,
      "knows": 3158,
      "however": 3159,
      "##ours": 3160,
      "twittering": 3161,
      "queen": 3162,
      "keeping": 3163,
      "thoughts": 3164,
      "service": 3165,
      "trail": 3166,
      "clear": 3167,
      "##itchen": 3168,
      "##attle": 3169,
      "awwww": 3170,
      "classes": 3171,
      "daddy": 3172,
      "##deck": 3173,
      "deliver": 3174,
      "surg": 3175,
      "failed": 3176,
      "contin": 3177,
      "indeed": 3178,
      "grandma": 3179,
      "##ergy": 3180,
      "##incess": 3181,
      "xoxo": 3182,
      "program": 3183,
      "dougiemcfly": 3184,
      "success": 3185,
      "trouble": 3186,
      "across": 3187,
      "certain": 3188,
      "\".": 3189,
      "bi": 3190,
      "b4": 3191,
      "bes": 3192,
      "cud": 3193,
      "cats": 3194,
      "future": 3195,
      "hy": 3196,
      "hes": 3197,
      "il": 3198,
      "iron": 3199,
      "jes": 3200,
      "mand": 3201,
      "mart": 3202,
      "mouth": 3203,
      "pen": 3204,
      "six": 3205,
      "sense": 3206,
      "tar": 3207,
      "wk": 3208,
      "##light": 3209,
      "##ov": 3210,
      "##off": 3211,
      "##aur": 3212,
      "##ros": 3213,
      "##dr": 3214,
      "##well": 3215,
      "##form": 3216,
      "##34": 3217,
      "##((": 3218,
      "##otb": 3219,
      "##east": 3220,
      "##eted": 3221,
      "##rey": 3222,
      "##ask": 3223,
      "storm": 3224,
      "social": 3225,
      "shift": 3226,
      "notice": 3227,
      "heh": 3228,
      "thanx": 3229,
      "max": 3230,
      "ages": 3231,
      "sale": 3232,
      "argh": 3233,
      "##oooooo": 3234,
      "between": 3235,
      "follower": 3236,
      "followed": 3237,
      "##ists": 3238,
      "scott": 3239,
      "become": 3240,
      "thru": 3241,
      "mins": 3242,
      "strong": 3243,
      "bird": 3244,
      "build": 3245,
      "checked": 3246,
      "##ibly": 3247,
      "rocks": 3248,
      "delicious": 3249,
      "hands": 3250,
      "assign": 3251,
      "eric": 3252,
      "terrible": 3253,
      "ticket": 3254,
      "draw": 3255,
      "bottle": 3256,
      "gener": 3257,
      "brian": 3258,
      "practice": 3259,
      "empty": 3260,
      "favourite": 3261,
      "!\"": 3262,
      "80": 3263,
      "deep": 3264,
      "dying": 3265,
      "ess": 3266,
      "ga": 3267,
      "ja": 3268,
      "match": 3269,
      "nd": 3270,
      "nan": 3271,
      "nam": 3272,
      "ori": 3273,
      "peeps": 3274,
      "sen": 3275,
      "sem": 3276,
      "silly": 3277,
      "tear": 3278,
      "##bee": 3279,
      "##wk": 3280,
      "##_h": 3281,
      "##ker": 3282,
      "##87": 3283,
      "##ints": 3284,
      "##erry": 3285,
      "##ouch": 3286,
      "##stem": 3287,
      "##vent": 3288,
      "island": 3289,
      "##cked": 3290,
      "##lyn": 3291,
      "log": 3292,
      "lose": 3293,
      "losing": 3294,
      "sha": 3295,
      "lif": 3296,
      "likes": 3297,
      "butter": 3298,
      "tweeps": 3299,
      "chap": 3300,
      "nose": 3301,
      "##aining": 3302,
      "##antly": 3303,
      "major": 3304,
      "background": 3305,
      "anybody": 3306,
      "click": 3307,
      "area": 3308,
      "conta": 3309,
      "mont": 3310,
      "flowers": 3311,
      "##sss": 3312,
      "cheers": 3313,
      "##heart": 3314,
      "mums": 3315,
      "killed": 3316,
      "dogs": 3317,
      "buying": 3318,
      "sooooo": 3319,
      "attack": 3320,
      "soup": 3321,
      "invite": 3322,
      "confused": 3323,
      "tonite": 3324,
      "training": 3325,
      "women": 3326,
      "bloody": 3327,
      "straight": 3328,
      "ryan": 3329,
      "allowed": 3330,
      "available": 3331,
      "contact": 3332,
      "22": 3333,
      "21": 3334,
      "2mor": 3335,
      "bub": 3336,
      "cow": 3337,
      "cough": 3338,
      "hus": 3339,
      "kitchen": 3340,
      "leno": 3341,
      "ng": 3342,
      "opt": 3343,
      "pm": 3344,
      "pal": 3345,
      "tab": 3346,
      "treat": 3347,
      "west": 3348,
      "wild": 3349,
      "yfrog": 3350,
      "##rock": 3351,
      "##jack": 3352,
      "##upp": 3353,
      "##wich": 3354,
      "##word": 3355,
      "##mart": 3356,
      "##01": 3357,
      "##fire": 3358,
      "##16": 3359,
      "##zer": 3360,
      "##itting": 3361,
      "##ices": 3362,
      "often": 3363,
      "##reme": 3364,
      "state": 3365,
      "##ief": 3366,
      "atm": 3367,
      "outta": 3368,
      "##ili": 3369,
      "places": 3370,
      "asked": 3371,
      "brought": 3372,
      "dem": 3373,
      "everyday": 3374,
      "finals": 3375,
      "##ational": 3376,
      "##loc": 3377,
      "swear": 3378,
      "##orts": 3379,
      "sched": 3380,
      "calls": 3381,
      "putting": 3382,
      "hahahaha": 3383,
      "scream": 3384,
      "##ivers": 3385,
      "fixed": 3386,
      "nyc": 3387,
      "children": 3388,
      "imagine": 3389,
      "surgery": 3390,
      "age": 3391,
      "austr": 3392,
      "coo": 3393,
      "cast": 3394,
      "dom": 3395,
      "dry": 3396,
      "games": 3397,
      "ily": 3398,
      "lead": 3399,
      "lake": 3400,
      "lak": 3401,
      "mer": 3402,
      "ni": 3403,
      "sig": 3404,
      "tatt": 3405,
      "ven": 3406,
      "val": 3407,
      "wif": 3408,
      "xo": 3409,
      "##good": 3410,
      "##house": 3411,
      "##vs": 3412,
      "##don": 3413,
      "##bell": 3414,
      "##wise": 3415,
      "##mith": 3416,
      "##_n": 3417,
      "##x3": 3418,
      "##fit": 3419,
      "##fox": 3420,
      "toast": 3421,
      "##atic": 3422,
      "##edy": 3423,
      "andrew": 3424,
      "##asha": 3425,
      "##ades": 3426,
      "##pping": 3427,
      "frank": 3428,
      "noticed": 3429,
      "twice": 3430,
      "allerg": 3431,
      "##cell": 3432,
      "##enty": 3433,
      "nowhere": 3434,
      "##iling": 3435,
      "##ility": 3436,
      "proc": 3437,
      "awe": 3438,
      "##ands": 3439,
      "somebody": 3440,
      "##ums": 3441,
      "anytime": 3442,
      "energy": 3443,
      "const": 3444,
      "##itten": 3445,
      "tweetdeck": 3446,
      "cru": 3447,
      "cred": 3448,
      "crack": 3449,
      "flat": 3450,
      "##xxxx": 3451,
      "dawn": 3452,
      "##ived": 3453,
      "craving": 3454,
      "##iii": 3455,
      "kidding": 3456,
      "jobs": 3457,
      "teacher": 3458,
      "hangover": 3459,
      "ahead": 3460,
      "hugh": 3461,
      "turns": 3462,
      "kelly": 3463,
      "ladies": 3464,
      "lessons": 3465,
      "msn": 3466,
      "learning": 3467,
      "country": 3468,
      "sharing": 3469,
      "apartment": 3470,
      "crossed": 3471,
      "techn": 3472,
      "shining": 3473,
      "private": 3474,
      "),": 3475,
      "aim": 3476,
      "aug": 3477,
      "bf": 3478,
      "bat": 3479,
      "buff": 3480,
      "batter": 3481,
      "dut": 3482,
      "est": 3483,
      "fo": 3484,
      "fol": 3485,
      "gear": 3486,
      "geek": 3487,
      "hee": 3488,
      "jud": 3489,
      "lor": 3490,
      "lind": 3491,
      "mir": 3492,
      "main": 3493,
      "poo": 3494,
      "rh": 3495,
      "rof": 3496,
      "ut": 3497,
      "##ua": 3498,
      "##und": 3499,
      "##cas": 3500,
      "##did": 3501,
      "##we": 3502,
      "##mas": 3503,
      "##mag": 3504,
      "##69": 3505,
      "##74": 3506,
      "tha": 3507,
      "##llll": 3508,
      "hah": 3509,
      "hall": 3510,
      "##cha": 3511,
      "##ids": 3512,
      "loss": 3513,
      "##alc": 3514,
      "frustr": 3515,
      "chi": 3516,
      "##thew": 3517,
      "##iles": 3518,
      "##hall": 3519,
      "##ript": 3520,
      "asking": 3521,
      "##ume": 3522,
      "wanting": 3523,
      "demi": 3524,
      "couldnt": 3525,
      "showing": 3526,
      "maria": 3527,
      "flash": 3528,
      "smart": 3529,
      "joke": 3530,
      "helping": 3531,
      "painting": 3532,
      "court": 3533,
      "macbook": 3534,
      "cookies": 3535,
      "passed": 3536,
      "falling": 3537,
      "system": 3538,
      "blocked": 3539,
      "nearly": 3540,
      "tumbl": 3541,
      "finger": 3542,
      "depressing": 3543,
      "depressed": 3544,
      "philipp": 3545,
      "american": 3546,
      "experience": 3547,
      "jimmy": 3548,
      "michael": 3549,
      "afford": 3550,
      "truly": 3551,
      "dentist": 3552,
      "incred": 3553,
      "00": 3554,
      "3d": 3555,
      "3rd": 3556,
      "::": 3557,
      ":|": 3558,
      "aha": 3559,
      "bull": 3560,
      "barely": 3561,
      "cub": 3562,
      "dow": 3563,
      "dish": 3564,
      "dub": 3565,
      "east": 3566,
      "fest": 3567,
      "gas": 3568,
      "gab": 3569,
      "jp": 3570,
      "jenny": 3571,
      "oce": 3572,
      "ohhh": 3573,
      "pants": 3574,
      "tix": 3575,
      "type": 3576,
      "ul": 3577,
      "##gi": 3578,
      "##gers": 3579,
      "##oa": 3580,
      "##top": 3581,
      "##ban": 3582,
      "##bed": 3583,
      "##mom": 3584,
      "##miss": 3585,
      "##04": 3586,
      "##02": 3587,
      "##76": 3588,
      "##82": 3589,
      "thomas": 3590,
      "toy": 3591,
      "tony": 3592,
      "##anne": 3593,
      "##ances": 3594,
      "##ative": 3595,
      "##itive": 3596,
      "##ooth": 3597,
      "bey": 3598,
      "shoot": 3599,
      "libr": 3600,
      "##irty": 3601,
      "worried": 3602,
      "sudd": 3603,
      "##tttt": 3604,
      "timberlake": 3605,
      "somehow": 3606,
      "##ulu": 3607,
      "excell": 3608,
      "slight": 3609,
      "##rown": 3610,
      "dropped": 3611,
      "sort": 3612,
      "convers": 3613,
      "##ango": 3614,
      "usa": 3615,
      "##www": 3616,
      "##bert": 3617,
      "quiz": 3618,
      "married": 3619,
      "##play": 3620,
      "babys": 3621,
      "mini": 3622,
      "##queen": 3623,
      "hotel": 3624,
      "strange": 3625,
      "telling": 3626,
      "holy": 3627,
      "deser": 3628,
      "##nnn": 3629,
      "delay": 3630,
      "##uuuu": 3631,
      "turned": 3632,
      "personal": 3633,
      "!!!!!!": 3634,
      "##bury": 3635,
      "color": 3636,
      "buddy": 3637,
      "laying": 3638,
      "respond": 3639,
      "##guy": 3640,
      "surprise": 3641,
      "fabulous": 3642,
      "teeth": 3643,
      "##baby": 3644,
      "??????": 3645,
      "latest": 3646,
      "##ography": 3647,
      "husband": 3648,
      "tumblr": 3649,
      "philippines": 3650,
      "5z": 3651,
      ":]": 3652,
      "aaa": 3653,
      "bay": 3654,
      "ci": 3655,
      "dc": 3656,
      "fi": 3657,
      "les": 3658,
      "las": 3659,
      "loud": 3660,
      "oct": 3661,
      "pin": 3662,
      "pam": 3663,
      "rom": 3664,
      "ren": 3665,
      "rose": 3666,
      "tip": 3667,
      "wood": 3668,
      "##hal": 3669,
      "##aff": 3670,
      "##ray": 3671,
      "##tle": 3672,
      "##jay": 3673,
      "##uation": 3674,
      "##yr": 3675,
      "##dog": 3676,
      "##blo": 3677,
      "##ware": 3678,
      "##ml": 3679,
      "##may": 3680,
      "##32": 3681,
      "##79": 3682,
      "tooth": 3683,
      "##anth": 3684,
      "##ari": 3685,
      "##cks": 3686,
      "bear": 3687,
      "soft": 3688,
      "##add": 3689,
      "sher": 3690,
      "##ustin": 3691,
      "##ali": 3692,
      "button": 3693,
      "cheap": 3694,
      "##ental": 3695,
      "##haps": 3696,
      "##ained": 3697,
      "gotten": 3698,
      "blast": 3699,
      "ground": 3700,
      "fave": 3701,
      "org": 3702,
      "everywhere": 3703,
      "drop": 3704,
      "##ooooo": 3705,
      "coast": 3706,
      "philly": 3707,
      "hasn": 3708,
      "scar": 3709,
      "crush": 3710,
      "##ship": 3711,
      "##ugs": 3712,
      "appear": 3713,
      "daily": 3714,
      "##iva": 3715,
      "##ival": 3716,
      "crappy": 3717,
      "perhaps": 3718,
      "dancing": 3719,
      "series": 3720,
      "sweetie": 3721,
      "step": 3722,
      "doubt": 3723,
      "attem": 3724,
      "##????????": 3725,
      "interested": 3726,
      "##carter": 3727,
      "grey": 3728,
      "mommies": 3729,
      "pleasure": 3730,
      "arrived": 3731,
      "piece": 3732,
      "##illiams": 3733,
      "productive": 3734,
      "sandwich": 3735,
      ":'(": 3736,
      "includ": 3737,
      "received": 3738,
      "tattoo": 3739,
      "august": 3740,
      "rofl": 3741,
      "sudden": 3742,
      "excellent": 3743,
      "&&": 3744,
      "000": 3745,
      "2nite": 3746,
      "aly": 3747,
      "bee": 3748,
      "bother": 3749,
      "boss": 3750,
      "bunny": 3751,
      "cab": 3752,
      "dnt": 3753,
      "dumb": 3754,
      "ew": 3755,
      "ic": 3756,
      "jb": 3757,
      "ko": 3758,
      "ka": 3759,
      "kr": 3760,
      "ki": 3761,
      "lam": 3762,
      "mur": 3763,
      "nasty": 3764,
      "tg": 3765,
      "vir": 3766,
      "woot": 3767,
      "waste": 3768,
      "yess": 3769,
      "##nx": 3770,
      "##lim": 3771,
      "##oz": 3772,
      "##hin": 3773,
      "##han": 3774,
      "##ran": 3775,
      "##res": 3776,
      "##val": 3777,
      "##jr": 3778,
      "##bing": 3779,
      "##mic": 3780,
      "##84": 3781,
      "##ini": 3782,
      "##ination": 3783,
      "third": 3784,
      "##erc": 3785,
      "##ered": 3786,
      "tough": 3787,
      "##ora": 3788,
      "theat": 3789,
      "##nding": 3790,
      "##edic": 3791,
      "youre": 3792,
      "##uts": 3793,
      "##ution": 3794,
      "##enter": 3795,
      "onto": 3796,
      "##char": 3797,
      "stri": 3798,
      "stock": 3799,
      "mex": 3800,
      "##ady": 3801,
      "shoo": 3802,
      "lives": 3803,
      "##verse": 3804,
      "ank": 3805,
      "wasnt": 3806,
      "washing": 3807,
      "##oph": 3808,
      "cha": 3809,
      "chem": 3810,
      "##one60": 3811,
      "##ils": 3812,
      "knight": 3813,
      "awh": 3814,
      "brook": 3815,
      "##ults": 3816,
      "watchin": 3817,
      "fault": 3818,
      "dread": 3819,
      "sever": 3820,
      "que": 3821,
      "##izzy": 3822,
      "##photo": 3823,
      "uncle": 3824,
      "adv": 3825,
      "smh": 3826,
      "girlfriend": 3827,
      "##ullen": 3828,
      "mondays": 3829,
      "daniel": 3830,
      "tax": 3831,
      "planned": 3832,
      "##kkkk": 3833,
      "attend": 3834,
      "##ipped": 3835,
      "fancy": 3836,
      "cooking": 3837,
      "##oooooooooooooooo": 3838,
      "simple": 3839,
      "emails": 3840,
      "##marie": 3841,
      "tons": 3842,
      "article": 3843,
      "extreme": 3844,
      "theres": 3845,
      "uploading": 3846,
      "downloaded": 3847,
      "studio": 3848,
      "pissed": 3849,
      "obvious": 3850,
      "entert": 3851,
      "request": 3852,
      "consider": 3853,
      "gfalc": 3854,
      "managed": 3855,
      "battery": 3856,
      "##one601": 3857,
      "gfalcone601": 3858,
      "09": 3859,
      "33": 3860,
      "az": 3861,
      "ahaha": 3862,
      "ache": 3863,
      "econ": 3864,
      "hill": 3865,
      "kell": 3866,
      "lack": 3867,
      "lap": 3868,
      "lord": 3869,
      "mm": 3870,
      "master": 3871,
      "ot": 3872,
      "rac": 3873,
      "tag": 3874,
      "wet": 3875,
      "wide": 3876,
      "xbox": 3877,
      "##ez": 3878,
      "##nal": 3879,
      "##ht": 3880,
      "##aj": 3881,
      "##rad": 3882,
      "##sl": 3883,
      "##vous": 3884,
      "##jam": 3885,
      "##uit": 3886,
      "##cou": 3887,
      "##wl": 3888,
      "##mind": 3889,
      "##mark": 3890,
      "##fm": 3891,
      "##ford": 3892,
      "##ores": 3893,
      "##ani": 3894,
      "##oose": 3895,
      "##oomy": 3896,
      "##omy": 3897,
      "##oming": 3898,
      "##stack": 3899,
      "myloc": 3900,
      "begin": 3901,
      "##ida": 3902,
      "shel": 3903,
      "golf": 3904,
      "##ury": 3905,
      "##ala": 3906,
      "butt": 3907,
      "anna": 3908,
      "angry": 3909,
      "within": 3910,
      "heyy": 3911,
      "candy": 3912,
      "canada": 3913,
      "choice": 3914,
      "workin": 3915,
      "amber": 3916,
      "knock": 3917,
      "abt": 3918,
      "misses": 3919,
      "##eets": 3920,
      "##ntown": 3921,
      "span": 3922,
      "clock": 3923,
      "grr": 3924,
      "gross": 3925,
      "arm": 3926,
      "hero": 3927,
      "trad": 3928,
      "trust": 3929,
      "##ista": 3930,
      "shouldn": 3931,
      "level": 3932,
      "unless": 3933,
      "adam": 3934,
      "##athon": 3935,
      "launch": 3936,
      "finding": 3937,
      "stream": 3938,
      "##cret": 3939,
      "skin": 3940,
      "talkin": 3941,
      "snow": 3942,
      "chann": 3943,
      "given": 3944,
      "plane": 3945,
      "setting": 3946,
      "scratch": 3947,
      "lesson": 3948,
      "cards": 3949,
      "promise": 3950,
      "##123": 3951,
      "##yyyyyyyy": 3952,
      "woohoo": 3953,
      "release": 3954,
      "##ornia": 3955,
      "calif": 3956,
      "catching": 3957,
      "picked": 3958,
      "collect": 3959,
      "juice": 3960,
      "##____": 3961,
      "laughing": 3962,
      "uploaded": 3963,
      "based": 3964,
      "commun": 3965,
      "nerd": 3966,
      "heaven": 3967,
      "football": 3968,
      "distract": 3969,
      "local": 3970,
      "issues": 3971,
      "memories": 3972,
      "addicted": 3973,
      "weren": 3974,
      "ugly": 3975,
      "australia": 3976,
      "library": 3977,
      "\",": 3978,
      "(@": 3979,
      "**": 3980,
      "333": 3981,
      "60": 3982,
      "?\"": 3983,
      "auss": 3984,
      "aunt": 3985,
      "bre": 3986,
      "bills": 3987,
      "cir": 3988,
      "cass": 3989,
      "cash": 3990,
      "cav": 3991,
      "du": 3992,
      "der": 3993,
      "eb": 3994,
      "gah": 3995,
      "hid": 3996,
      "kirst": 3997,
      "kitty": 3998,
      "mus": 3999,
      "mile": 4000,
      "mount": 4001,
      "os": 4002,
      "oper": 4003,
      "pj": 4004,
      "pix": 4005,
      "poop": 4006,
      "rice": 4007,
      "sf": 4008,
      "tac": 4009,
      "wii": 4010,
      "##ns": 4011,
      "##gra": 4012,
      "##gins": 4013,
      "##ror": 4014,
      "##ij": 4015,
      "##iu": 4016,
      "##jen": 4017,
      "##ders": 4018,
      "##bel": 4019,
      "##ws": 4020,
      "##men": 4021,
      "##29": 4022,
      "##zing": 4023,
      "##inting": 4024,
      "##ero": 4025,
      "havin": 4026,
      "##isc": 4027,
      "##ises": 4028,
      "##ico": 4029,
      "fore": 4030,
      "##leigh": 4031,
      "meg": 4032,
      "shots": 4033,
      "##omez": 4034,
      "lived": 4035,
      "##una": 4036,
      "wend": 4037,
      "##erez": 4038,
      "tweep": 4039,
      "sux": 4040,
      "goodness": 4041,
      "##cel": 4042,
      "##ila": 4043,
      "alco": 4044,
      "pls": 4045,
      "##rah": 4046,
      "##rap": 4047,
      "##rif": 4048,
      "awards": 4049,
      "##aby": 4050,
      "##ished": 4051,
      "##icked": 4052,
      "spo": 4053,
      "spin": 4054,
      "fake": 4055,
      "arr": 4056,
      "##ifts": 4057,
      "tree": 4058,
      "lookin": 4059,
      "carol": 4060,
      "quit": 4061,
      "uni": 4062,
      "sucked": 4063,
      "gloomy": 4064,
      "born": 4065,
      "........": 4066,
      "action": 4067,
      "emily": 4068,
      "photosh": 4069,
      "painful": 4070,
      "prefer": 4071,
      "added": 4072,
      "messed": 4073,
      "charac": 4074,
      "handle": 4075,
      "board": 4076,
      "updated": 4077,
      "##ipping": 4078,
      "decide": 4079,
      "midnight": 4080,
      "sims": 4081,
      "figured": 4082,
      "##airs": 4083,
      "lights": 4084,
      "episodes": 4085,
      "market": 4086,
      "evil": 4087,
      "christian": 4088,
      "magic": 4089,
      "2009": 4090,
      "katie": 4091,
      "questions": 4092,
      "frenchie": 4093,
      "celebrating": 4094,
      "closer": 4095,
      "##world": 4096,
      "fourth": 4097,
      "oooh": 4098,
      "desktop": 4099,
      "yeh": 4100,
      "swimming": 4101,
      "##jonas": 4102,
      "healthy": 4103,
      "##natural": 4104,
      "properly": 4105,
      "mornin": 4106,
      "victor": 4107,
      "floor": 4108,
      "credit": 4109,
      "ocean": 4110,
      "california": 4111,
      "alcohol": 4112,
      "ay": 4113,
      "ain": 4114,
      "ach": 4115,
      "bff": 4116,
      "ce": 4117,
      "cust": 4118,
      "core": 4119,
      "capt": 4120,
      "fur": 4121,
      "fash": 4122,
      "gh": 4123,
      "gir": 4124,
      "gal": 4125,
      "hr": 4126,
      "lou": 4127,
      "lem": 4128,
      "mp": 4129,
      "mult": 4130,
      "nl": 4131,
      "nin": 4132,
      "ss": 4133,
      "sym": 4134,
      "tut": 4135,
      "table": 4136,
      "taste": 4137,
      "yog": 4138,
      "##gen": 4139,
      "##right": 4140,
      "##ser": 4141,
      "##sup": 4142,
      "##ium": 4143,
      "##jb": 4144,
      "##core": 4145,
      "##ben": 4146,
      "##bie": 4147,
      "##born": 4148,
      "##with": 4149,
      "##williams": 4150,
      "##07": 4151,
      "##_t": 4152,
      "##fin": 4153,
      "##95": 4154,
      "##zil": 4155,
      "##-)": 4156,
      "##ouston": 4157,
      "##ano": 4158,
      "##eech": 4159,
      "##aron": 4160,
      "ham": 4161,
      "##otion": 4162,
      "##utcher": 4163,
      "##chick": 4164,
      "style": 4165,
      "soph": 4166,
      "goss": 4167,
      "##iem": 4168,
      "anth": 4169,
      "chr": 4170,
      "chall": 4171,
      "sus": 4172,
      "suff": 4173,
      "neither": 4174,
      "print": 4175,
      "bread": 4176,
      "spir": 4177,
      "slee": 4178,
      "twitters": 4179,
      "drama": 4180,
      "arms": 4181,
      "phys": 4182,
      "cond": 4183,
      "badly": 4184,
      "seattle": 4185,
      "##loves": 4186,
      "sweat": 4187,
      "##azine": 4188,
      "lex": 4189,
      "cars": 4190,
      "##ahl": 4191,
      "##izing": 4192,
      "creep": 4193,
      "##shi": 4194,
      "ador": 4195,
      "##ploy": 4196,
      "##ugg": 4197,
      "flor": 4198,
      "awesom": 4199,
      "##pres": 4200,
      "##ends": 4201,
      "helps": 4202,
      "discover": 4203,
      "perfor": 4204,
      "compet": 4205,
      "famous": 4206,
      "?!?!": 4207,
      "supernatural": 4208,
      "mrsk": 4209,
      "happening": 4210,
      "mummy": 4211,
      "deleted": 4212,
      "booked": 4213,
      "kevin": 4214,
      "ideas": 4215,
      "attention": 4216,
      "robert": 4217,
      "hehehe": 4218,
      "simp": 4219,
      "invol": 4220,
      "cali": 4221,
      "easier": 4222,
      "blessed": 4223,
      "nicole": 4224,
      "changing": 4225,
      "iamdid": 4226,
      "joined": 4227,
      "##eased": 4228,
      "##host": 4229,
      "stressed": 4230,
      "effect": 4231,
      "fighting": 4232,
      "straw": 4233,
      "bottom": 4234,
      "nervous": 4235,
      "motiv": 4236,
      "burned": 4237,
      "purple": 4238,
      "england": 4239,
      "migraine": 4240,
      "nkotb": 4241,
      "besides": 4242,
      "hyper": 4243,
      "origin": 4244,
      "montana": 4245,
      "downtown": 4246,
      "iamdiddy": 4247,
      "26": 4248,
      "^^": 4249,
      "cc": 4250,
      "drew": 4251,
      "fem": 4252,
      "father": 4253,
      "ik": 4254,
      "jr": 4255,
      "jtim": 4256,
      "ken": 4257,
      "muff": 4258,
      "mik": 4259,
      "mtv": 4260,
      "nooo": 4261,
      "nails": 4262,
      "push": 4263,
      "rude": 4264,
      "tast": 4265,
      "tips": 4266,
      "tears": 4267,
      "umm": 4268,
      "wx": 4269,
      "wast": 4270,
      "yrs": 4271,
      "zomb": 4272,
      "##gest": 4273,
      "##gue": 4274,
      "##hr": 4275,
      "##hs": 4276,
      "##hay": 4277,
      "##ring": 4278,
      "##ius": 4279,
      "##jones": 4280,
      "##uv": 4281,
      "##uj": 4282,
      "##dra": 4283,
      "##dies": 4284,
      "##bow": 4285,
      "##war": 4286,
      "##44": 4287,
      "##fc": 4288,
      "##15": 4289,
      "##72": 4290,
      "##zzy": 4291,
      "##anc": 4292,
      "##ona": 4293,
      "##esy": 4294,
      "##stal": 4295,
      "##eall": 4296,
      "iti": 4297,
      "##child": 4298,
      "##lect": 4299,
      "##asc": 4300,
      "whoo": 4301,
      "station": 4302,
      "status": 4303,
      "shan": 4304,
      "lim": 4305,
      "limit": 4306,
      "##iller": 4307,
      "##urt": 4308,
      "cancer": 4309,
      "workout": 4310,
      "##essed": 4311,
      "plant": 4312,
      "plenty": 4313,
      "impr": 4314,
      "knee": 4315,
      "bru": 4316,
      "##icky": 4317,
      "speed": 4318,
      "spider": 4319,
      "exist": 4320,
      "##ucky": 4321,
      "clim": 4322,
      "saving": 4323,
      "##ify": 4324,
      "##ittin": 4325,
      "##ups": 4326,
      "tweeted": 4327,
      "##007": 4328,
      "marc": 4329,
      "flick": 4330,
      "wrote": 4331,
      "babies": 4332,
      "dammit": 4333,
      "hurry": 4334,
      "##ivity": 4335,
      "##gggg": 4336,
      "reality": 4337,
      "realize": 4338,
      "hella": 4339,
      "finishing": 4340,
      "fuckin": 4341,
      "##zzzz": 4342,
      "situation": 4343,
      "research": 4344,
      "results": 4345,
      "total": 4346,
      "##dddd": 4347,
      "rocked": 4348,
      "##oked": 4349,
      "report": 4350,
      "camer": 4351,
      "pair": 4352,
      "announ": 4353,
      "rove": 4354,
      "keys": 4355,
      "##icial": 4356,
      "grade": 4357,
      "diffic": 4358,
      "grace": 4359,
      "packed": 4360,
      "syd": 4361,
      "cafe": 4362,
      "media": 4363,
      "nick_": 4364,
      "natal": 4365,
      "learned": 4366,
      "chatting": 4367,
      "praying": 4368,
      "insane": 4369,
      "student": 4370,
      "ruined": 4371,
      "america": 4372,
      "reminds": 4373,
      "discuss": 4374,
      "inspir": 4375,
      "temp": 4376,
      "tmr": 4377,
      "europe": 4378,
      "comfort": 4379,
      "impressed": 4380,
      "langu": 4381,
      "beyond": 4382,
      "theatre": 4383,
      "fashion": 4384,
      "performan": 4385,
      "mrskutcher": 4386,
      "jtimberlake": 4387,
      "35": 4388,
      "90": 4389,
      "ace": 4390,
      "aka": 4391,
      "bound": 4392,
      "dee": 4393,
      "dest": 4394,
      "dirty": 4395,
      "equ": 4396,
      "foc": 4397,
      "fox": 4398,
      "gin": 4399,
      "gam": 4400,
      "ht": 4401,
      "hob": 4402,
      "hills": 4403,
      "iv": 4404,
      "jun": 4405,
      "jap": 4406,
      "lin": 4407,
      "lee": 4408,
      "lic": 4409,
      "liter": 4410,
      "mt": 4411,
      "meal": 4412,
      "opp": 4413,
      "odd": 4414,
      "ree": 4415,
      "rite": 4416,
      "raw": 4417,
      "sg": 4418,
      "sin": 4419,
      "ti": 4420,
      "tat": 4421,
      "tiff": 4422,
      "x2": 4423,
      "zach": 4424,
      "##eg": 4425,
      "##n1": 4426,
      "##nie": 4427,
      "##ners": 4428,
      "##like": 4429,
      "##old": 4430,
      "##rick": 4431,
      "##rup": 4432,
      "##rich": 4433,
      "##ses": 4434,
      "##some": 4435,
      "##vv": 4436,
      "##pen": 4437,
      "##pol": 4438,
      "##just": 4439,
      "##yk": 4440,
      "##ych": 4441,
      "##di": 4442,
      "##but": 4443,
      "##bers": 4444,
      "##bby": 4445,
      "##win": 4446,
      "##mins": 4447,
      "##65": 4448,
      "##_x": 4449,
      "##xs": 4450,
      "##kat": 4451,
      "##fg": 4452,
      "##fs": 4453,
      "##face": 4454,
      "##que": 4455,
      "toe": 4456,
      "##inger": 4457,
      "##orious": 4458,
      "##lla": 4459,
      "##itor": 4460,
      "item": 4461,
      "##ety": 4462,
      "##ched": 4463,
      "whis": 4464,
      "##lynn": 4465,
      "##amps": 4466,
      "lizz": 4467,
      "##sel": 4468,
      "##irts": 4469,
      "##alo": 4470,
      "##alian": 4471,
      "##vert": 4472,
      "fri": 4473,
      "fridays": 4474,
      "heather": 4475,
      "chuck": 4476,
      "champ": 4477,
      "choose": 4478,
      "regr": 4479,
      "sushi": 4480,
      "comin": 4481,
      "comedy": 4482,
      "alive": 4483,
      "happiness": 4484,
      "##rik": 4485,
      "##ander": 4486,
      "##ument": 4487,
      "offer": 4488,
      "spark": 4489,
      "speaking": 4490,
      "blank": 4491,
      "hadn": 4492,
      "deck": 4493,
      "##morning": 4494,
      "##!!!": 4495,
      "cla": 4496,
      "grrr": 4497,
      "##earching": 4498,
      "drinks": 4499,
      "##aph": 4500,
      "friendly": 4501,
      "##isters": 4502,
      "swe": 4503,
      "swed": 4504,
      "quote": 4505,
      "##000": 4506,
      "##aches": 4507,
      "marathon": 4508,
      "appoint": 4509,
      "becoming": 4510,
      "diet": 4511,
      "starving": 4512,
      "##onds": 4513,
      "##brad": 4514,
      "intern": 4515,
      "biggest": 4516,
      "realised": 4517,
      "server": 4518,
      "##laur": 4519,
      "talked": 4520,
      "accord": 4521,
      "?!?": 4522,
      "hahahahaha": 4523,
      "desp": 4524,
      "mostly": 4525,
      "paint": 4526,
      "address": 4527,
      "teach": 4528,
      "roast": 4529,
      "kept": 4530,
      "editing": 4531,
      "horse": 4532,
      "revise": 4533,
      "chilling": 4534,
      "remembered": 4535,
      "medic": 4536,
      "meliss": 4537,
      "paying": 4538,
      "brazil": 4539,
      "peter": 4540,
      "possibly": 4541,
      "surprising": 4542,
      "presentation": 4543,
      "annoyed": 4544,
      "miser": 4545,
      "britains": 4546,
      "ordered": 4547,
      "esc": 4548,
      "miami": 4549,
      "##books": 4550,
      "elect": 4551,
      "massive": 4552,
      "fully": 4553,
      "##know": 4554,
      "voting": 4555,
      "##ique": 4556,
      "issue": 4557,
      "rachel": 4558,
      "lmfa": 4559,
      "texas": 4560,
      "trailer": 4561,
      "essay": 4562,
      "schedule": 4563,
      "lakers": 4564,
      "allergies": 4565,
      "awhile": 4566,
      "channel": 4567,
      "frenchieb": 4568,
      "gossip": 4569,
      "adorable": 4570,
      "difficult": 4571,
      "sydney": 4572,
      "nick_carter": 4573,
      "07": 4574,
      "28": 4575,
      "9am": 4576,
      "ale": 4577,
      "bs": 4578,
      "ber": 4579,
      "booo": 4580,
      "bones": 4581,
      "cs": 4582,
      "cable": 4583,
      "dust": 4584,
      "dud": 4585,
      "feat": 4586,
      "field": 4587,
      "gm": 4588,
      "gee": 4589,
      "goooo": 4590,
      "gives": 4591,
      "ghost": 4592,
      "hd": 4593,
      "ie": 4594,
      "jere": 4595,
      "ky": 4596,
      "kir": 4597,
      "million": 4598,
      "nig": 4599,
      "pump": 4600,
      "pages": 4601,
      "perez": 4602,
      "rough": 4603,
      "rap": 4604,
      "sour": 4605,
      "sens": 4606,
      "ts": 4607,
      "tin": 4608,
      "tis": 4609,
      "typ": 4610,
      "vol": 4611,
      "wisd": 4612,
      "##hip": 4613,
      "##rop": 4614,
      "##real": 4615,
      "##ians": 4616,
      "##pet": 4617,
      "##down": 4618,
      "##bn": 4619,
      "##bug": 4620,
      "##web": 4621,
      "##wars": 4622,
      "##06": 4623,
      "##ko": 4624,
      "##kid": 4625,
      "##fy": 4626,
      "##90": 4627,
      "##92": 4628,
      "##71": 4629,
      "##erts": 4630,
      "##erence": 4631,
      "tooo": 4632,
      "##ities": 4633,
      "##ndry": 4634,
      "##stre": 4635,
      "##isa": 4636,
      "##etcher": 4637,
      "##eness": 4638,
      "##iculous": 4639,
      "##ashing": 4640,
      "staff": 4641,
      "shann": 4642,
      "##illed": 4643,
      "##pper": 4644,
      "##ieb": 4645,
      "weight": 4646,
      "heck": 4647,
      "twist": 4648,
      "china": 4649,
      "neph": 4650,
      "upgr": 4651,
      "price": 4652,
      "##anta": 4653,
      "alarm": 4654,
      "plz": 4655,
      "##ushing": 4656,
      "amand": 4657,
      "##abe": 4658,
      "brown": 4659,
      "brows": 4660,
      "##ela": 4661,
      "knowing": 4662,
      "##ffff": 4663,
      "blame": 4664,
      "##aaay": 4665,
      "wave": 4666,
      "clar": 4667,
      "gray": 4668,
      "orange": 4669,
      "everytime": 4670,
      "points": 4671,
      "##udge": 4672,
      "secret": 4673,
      "##lock": 4674,
      "theme": 4675,
      "switch": 4676,
      "tweetie": 4677,
      "##ode": 4678,
      "##athy": 4679,
      "ears": 4680,
      "urgh": 4681,
      "stars": 4682,
      "starwars": 4683,
      "hurting": 4684,
      "##ggie": 4685,
      "idiot": 4686,
      "amazon": 4687,
      "##ashed": 4688,
      "perform": 4689,
      "birds": 4690,
      "excuse": 4691,
      "driver": 4692,
      "posts": 4693,
      "posting": 4694,
      "stayed": 4695,
      "##aaaaa": 4696,
      "classic": 4697,
      "cleaned": 4698,
      "winter": 4699,
      "forgive": 4700,
      "holidays": 4701,
      "retweet": 4702,
      "unfair": 4703,
      "curious": 4704,
      "accept": 4705,
      "files": 4706,
      "laundry": 4707,
      "simon": 4708,
      "##elearn": 4709,
      "conference": 4710,
      "avat": 4711,
      "avoid": 4712,
      "flying": 4713,
      "jessic": 4714,
      "##john": 4715,
      "thereal": 4716,
      "downloading": 4717,
      "comments": 4718,
      "dressed": 4719,
      "hollyoa": 4720,
      "chineselearn": 4721,
      "kisses": 4722,
      "stories": 4723,
      "bathroom": 4724,
      "large": 4725,
      "michelle": 4726,
      "richard": 4727,
      "cherry": 4728,
      "bacon": 4729,
      "details": 4730,
      "positive": 4731,
      "golden": 4732,
      "gunna": 4733,
      "degrees": 4734,
      "cloudy": 4735,
      "glasses": 4736,
      "yellow": 4737,
      "continue": 4738,
      "building": 4739,
      "##donald": 4740,
      "process": 4741,
      "folks": 4742,
      "slightly": 4743,
      "conversation": 4744,
      "tgif": 4745,
      "several": 4746,
      "custom": 4747,
      "challen": 4748,
      "original": 4749,
      "performance": 4750,
      "literally": 4751,
      "according": 4752,
      "wisdom": 4753,
      "nephew": 4754,
      "hollyoaks": 4755,
      "!...": 4756,
      "\"...": 4757,
      "29": 4758,
      ";-)": 4759,
      "bah": 4760,
      "boom": 4761,
      "cer": 4762,
      "cnt": 4763,
      "duck": 4764,
      "dork": 4765,
      "hood": 4766,
      "hulu": 4767,
      "ilove": 4768,
      "jew": 4769,
      "kry": 4770,
      "mee": 4771,
      "mcr": 4772,
      "noo": 4773,
      "ness": 4774,
      "nathan": 4775,
      "oo": 4776,
      "pit": 4777,
      "pill": 4778,
      "pour": 4779,
      "path": 4780,
      "pier": 4781,
      "ron": 4782,
      "ram": 4783,
      "river": 4784,
      "sow": 4785,
      "search": 4786,
      "tes": 4787,
      "tit": 4788,
      "tight": 4789,
      "ummm": 4790,
      "viv": 4791,
      "virt": 4792,
      "yu": 4793,
      "york": 4794,
      "##ev": 4795,
      "##nter": 4796,
      "##gb": 4797,
      "##gre": 4798,
      "##god": 4799,
      "##hil": 4800,
      "##hrs": 4801,
      "##sen": 4802,
      "##vr": 4803,
      "##jess": 4804,
      "##yb": 4805,
      "##y_": 4806,
      "##bon": 4807,
      "##bour": 4808,
      "##mat": 4809,
      "##42": 4810,
      "##kins": 4811,
      "##27": 4812,
      "##78": 4813,
      "##err": 4814,
      "tow": 4815,
      "todd": 4816,
      "##onse": 4817,
      "##lll": 4818,
      "##ese": 4819,
      "##esign": 4820,
      "##isy": 4821,
      "##eta": 4822,
      "stage": 4823,
      "meh": 4824,
      "soap": 4825,
      "soci": 4826,
      "shake": 4827,
      "shock": 4828,
      "lip": 4829,
      "lies": 4830,
      "liking": 4831,
      "lime": 4832,
      "anx": 4833,
      "chels": 4834,
      "remo": 4835,
      "subs": 4836,
      "neg": 4837,
      "outfit": 4838,
      "##happy": 4839,
      "##uses": 4840,
      "##usion": 4841,
      "##issy": 4842,
      "makin": 4843,
      "awsome": 4844,
      "britt": 4845,
      "mission": 4846,
      "##arts": 4847,
      "##ardash": 4848,
      "##ules": 4849,
      "anywhere": 4850,
      "spec": 4851,
      "blow": 4852,
      "blond": 4853,
      "hows": 4854,
      "guest": 4855,
      "cloud": 4856,
      "grow": 4857,
      "grrrrr": 4858,
      "faith": 4859,
      "drum": 4860,
      "arch": 4861,
      "truck": 4862,
      "user": 4863,
      "pod": 4864,
      "##emy": 4865,
      "##ipe": 4866,
      "scot": 4867,
      "score": 4868,
      "thankful": 4869,
      "appl": 4870,
      "applic": 4871,
      "smo": 4872,
      "smoke": 4873,
      "smooth": 4874,
      "laid": 4875,
      "##break": 4876,
      "otherwise": 4877,
      "hardly": 4878,
      "tele": 4879,
      "parking": 4880,
      "ending": 4881,
      "haircut": 4882,
      "recently": 4883,
      "trending": 4884,
      "adding": 4885,
      "annivers": 4886,
      "termin": 4887,
      "content": 4888,
      "unfollow": 4889,
      "##izzle": 4890,
      "sara": 4891,
      "cookie": 4892,
      "grab": 4893,
      "woop": 4894,
      "opening": 4895,
      "spread": 4896,
      "difference": 4897,
      "salad": 4898,
      "polar": 4899,
      "respect": 4900,
      "response": 4901,
      "cancel": 4902,
      "regular": 4903,
      "firefox": 4904,
      "celebrate": 4905,
      "replace": 4906,
      "replied": 4907,
      "ruby": 4908,
      "closing": 4909,
      "popular": 4910,
      "pulled": 4911,
      "motor": 4912,
      "stephen": 4913,
      "voted": 4914,
      "nikk": 4915,
      "dannywood": 4916,
      "animal": 4917,
      "honestly": 4918,
      "eggs": 4919,
      "journey": 4920,
      "cuddle": 4921,
      "jesus": 4922,
      "senior": 4923,
      "bubble": 4924,
      "frustrated": 4925,
      "including": 4926,
      "shooting": 4927,
      "extremely": 4928,
      "obviously": 4929,
      "cavs": 4930,
      "spoil": 4931,
      "simply": 4932,
      "miserable": 4933,
      "jeremy": 4934,
      "anniversary": 4935,
      "!..": 4936,
      "'.": 4937,
      "//": 4938,
      "48": 4939,
      "austin": 4940,
      "bast": 4941,
      "bunch": 4942,
      "brew": 4943,
      "base": 4944,
      "cine": 4945,
      "ds": 4946,
      "dick": 4947,
      "ec": 4948,
      "eight": 4949,
      "fed": 4950,
      "fir": 4951,
      "ftw": 4952,
      "js": 4953,
      "kh": 4954,
      "links": 4955,
      "moo": 4956,
      "mouse": 4957,
      "mush": 4958,
      "nurs": 4959,
      "pd": 4960,
      "ross": 4961,
      "rush": 4962,
      "sr": 4963,
      "sab": 4964,
      "tb": 4965,
      "tenn": 4966,
      "und": 4967,
      "voc": 4968,
      "wo": 4969,
      "wicked": 4970,
      "yer": 4971,
      "##eh": 4972,
      "##luk": 4973,
      "##hl": 4974,
      "##rin": 4975,
      "##rid": 4976,
      "##roy": 4977,
      "##tra": 4978,
      "##van": 4979,
      "##ias": 4980,
      "##js": 4981,
      "##jan": 4982,
      "##jab": 4983,
      "##cent": 4984,
      "##city": 4985,
      "##cott": 4986,
      "##cullen": 4987,
      "##dc": 4988,
      "##bc": 4989,
      "##bor": 4990,
      "##bre": 4991,
      "##bish": 4992,
      "##mel": 4993,
      "##mers": 4994,
      "##mac": 4995,
      "##66": 4996,
      "##64": 4997,
      "##fish": 4998,
      "##field": 4999,
      "##94": 5000,
      "##75": 5001,
      "##81": 5002,
      "##zi": 5003,
      "##zen": 5004,
      "##ington": 5005,
      "##eem": 5006,
      "##ayy": 5007,
      "##arr": 5008,
      "##oman": 5009,
      "##sth": 5010,
      "##each": 5011,
      "##iser": 5012,
      "##isha": 5013,
      "##enag": 5014,
      "andr": 5015,
      "##icip": 5016,
      "infect": 5017,
      "##chy": 5018,
      "steak": 5019,
      "states": 5020,
      "bein": 5021,
      "socc": 5022,
      "lock": 5023,
      "ship": 5024,
      "liz": 5025,
      "##ality": 5026,
      "wel": 5027,
      "##iment": 5028,
      "worries": 5029,
      "chest": 5030,
      "susp": 5031,
      "neil": 5032,
      "##ryan": 5033,
      "commer": 5034,
      "princess": 5035,
      "##antic": 5036,
      "alas": 5037,
      "##rage": 5038,
      "above": 5039,
      "known": 5040,
      "##eels": 5041,
      "speech": 5042,
      "mode": 5043,
      "exerc": 5044,
      "dece": 5045,
      "funn": 5046,
      "funer": 5047,
      "##aud": 5048,
      "twitterland": 5049,
      "gr8": 5050,
      "greet": 5051,
      "groc": 5052,
      "drove": 5053,
      "arg": 5054,
      "army": 5055,
      "cock": 5056,
      "coach": 5057,
      "against": 5058,
      "manage": 5059,
      "##istic": 5060,
      "seat": 5061,
      "carl": 5062,
      "headaches": 5063,
      "weekends": 5064,
      "cris": 5065,
      "suns": 5066,
      "##aker": 5067,
      "##aked": 5068,
      "##show": 5069,
      "player": 5070,
      "schools": 5071,
      "admit": 5072,
      "advice": 5073,
      "besties": 5074,
      "sometime": 5075,
      "##cca": 5076,
      "letting": 5077,
      "glorious": 5078,
      "parts": 5079,
      "##ended": 5080,
      "##gged": 5081,
      "idol": 5082,
      "##from": 5083,
      "##fresh": 5084,
      "##iki": 5085,
      "hole": 5086,
      "ughhh": 5087,
      "embar": 5088,
      "buzz": 5089,
      "paris": 5090,
      "fucked": 5091,
      "checking": 5092,
      "boot": 5093,
      "skills": 5094,
      "musical": 5095,
      "sniff": 5096,
      "##bled": 5097,
      "##blue": 5098,
      "partying": 5099,
      "##iewahl": 5100,
      "dads": 5101,
      "recog": 5102,
      "walmart": 5103,
      "##sweet": 5104,
      "surv": 5105,
      "boston": 5106,
      "##........": 5107,
      "lucy": 5108,
      "term": 5109,
      "cutting": 5110,
      "revising": 5111,
      "control": 5112,
      "msg": 5113,
      "##fletcher": 5114,
      "grandpa": 5115,
      "meds": 5116,
      "!!!!!!!!": 5117,
      "slowly": 5118,
      "seconds": 5119,
      "fellow": 5120,
      "karen": 5121,
      "danger": 5122,
      "##boys": 5123,
      "laughed": 5124,
      "selenag": 5125,
      "basically": 5126,
      "polit": 5127,
      "police": 5128,
      "subway": 5129,
      "surprised": 5130,
      "##chester": 5131,
      "digital": 5132,
      "ridiculous": 5133,
      "##timel": 5134,
      "mamas": 5135,
      "cousins": 5136,
      "ellen": 5137,
      "nooooo": 5138,
      "expected": 5139,
      "error": 5140,
      "jordan": 5141,
      "##news": 5142,
      ",,,": 5143,
      "charlie": 5144,
      "auto": 5145,
      "donniewahl": 5146,
      "##00000000": 5147,
      "breathe": 5148,
      "recovering": 5149,
      "screwed": 5150,
      "mistake": 5151,
      "clouds": 5152,
      "suggestions": 5153,
      "chapter": 5154,
      "2moro": 5155,
      "wifi": 5156,
      "mariah": 5157,
      "babysitting": 5158,
      "deserve": 5159,
      "delayed": 5160,
      "spanish": 5161,
      "regret": 5162,
      "avatar": 5163,
      "selenagomez": 5164,
      "donniewahlberg": 5165,
      "$$": 5166,
      "***": 5167,
      ".)": 5168,
      "23": 5169,
      "27": 5170,
      "31": 5171,
      "6th": 5172,
      "99": 5173,
      "ally": 5174,
      "ari": 5175,
      "aaron": 5176,
      "bt": 5177,
      "bust": 5178,
      "cu": 5179,
      "cig": 5180,
      "cob": 5181,
      "cult": 5182,
      "center": 5183,
      "dye": 5184,
      "eth": 5185,
      "fear": 5186,
      "fif": 5187,
      "houston": 5188,
      "jt": 5189,
      "jake": 5190,
      "jac": 5191,
      "jose": 5192,
      "jav": 5193,
      "lul": 5194,
      "mia": 5195,
      "mandy": 5196,
      "ox": 5197,
      "oz": 5198,
      "oven": 5199,
      "pad": 5200,
      "ray": 5201,
      "rab": 5202,
      "rick": 5203,
      "sv": 5204,
      "sd": 5205,
      "size": 5206,
      "searching": 5207,
      "ted": 5208,
      "tir": 5209,
      "tun": 5210,
      "tig": 5211,
      "txt": 5212,
      "uber": 5213,
      "ustre": 5214,
      "vs": 5215,
      "vista": 5216,
      "wire": 5217,
      "yard": 5218,
      "##ni": 5219,
      "##nor": 5220,
      "##ges": 5221,
      "##gam": 5222,
      "##lan": 5223,
      "##oft": 5224,
      "##ae": 5225,
      "##run": 5226,
      "##rain": 5227,
      "##reed": 5228,
      "##tell": 5229,
      "##ture": 5230,
      "##sy": 5231,
      "##py": 5232,
      "##pool": 5233,
      "##ji": 5234,
      "##ju": 5235,
      "##dam": 5236,
      "##die": 5237,
      "##bu": 5238,
      "##bird": 5239,
      "##wy": 5240,
      "##wal": 5241,
      "##maine": 5242,
      "##_g": 5243,
      "##_o": 5244,
      "##_f": 5245,
      "##kd": 5246,
      "##food": 5247,
      "##fry": 5248,
      "##fol": 5249,
      "##73": 5250,
      "thnx": 5251,
      "tong": 5252,
      "##anut": 5253,
      "##ata": 5254,
      "##ati": 5255,
      "thes": 5256,
      "##oned": 5257,
      "##online": 5258,
      "##itis": 5259,
      "##oof": 5260,
      "##stone": 5261,
      "hal": 5262,
      "##ota": 5263,
      "##otic": 5264,
      "##isf": 5265,
      "myst": 5266,
      "inn": 5267,
      "forum": 5268,
      "whore": 5269,
      "##cky": 5270,
      "stack": 5271,
      "stalk": 5272,
      "sober": 5273,
      "socks": 5274,
      "shad": 5275,
      "liver": 5276,
      "fred": 5277,
      "france": 5278,
      "##ims": 5279,
      "chas": 5280,
      "sup": 5281,
      "suit": 5282,
      "comb": 5283,
      "##haw": 5284,
      "##ttt": 5285,
      "imma": 5286,
      "asap": 5287,
      "twitt": 5288,
      "brilli": 5289,
      "##elt": 5290,
      "##oles": 5291,
      "spl": 5292,
      "sports": 5293,
      "devel": 5294,
      "##aah": 5295,
      "gud": 5296,
      "growing": 5297,
      "sadd": 5298,
      "sadness": 5299,
      "truth": 5300,
      "##anger": 5301,
      "beta": 5302,
      "pock": 5303,
      "##ement": 5304,
      "##aga": 5305,
      "##iph": 5306,
      "##berries": 5307,
      "monica": 5308,
      "whoa": 5309,
      "scan": 5310,
      "science": 5311,
      "##acey": 5312,
      "div": 5313,
      "urban": 5314,
      "acting": 5315,
      "actual": 5316,
      "##ected": 5317,
      "hott": 5318,
      "helped": 5319,
      "listened": 5320,
      "##anknight": 5321,
      "##ensen": 5322,
      "hearing": 5323,
      "runs": 5324,
      "couch": 5325,
      "sneez": 5326,
      "accom": 5327,
      "freezing": 5328,
      "##black": 5329,
      "hunting": 5330,
      "##ddd": 5331,
      "30pm": 5332,
      "dreaming": 5333,
      "prep": 5334,
      "##what": 5335,
      "charge": 5336,
      "restaur": 5337,
      "boat": 5338,
      "updating": 5339,
      "edit": 5340,
      "erin": 5341,
      "hopes": 5342,
      "##gling": 5343,
      "##yyyyy": 5344,
      "invited": 5345,
      "testing": 5346,
      "definately": 5347,
      "xxxx": 5348,
      "confir": 5349,
      "picking": 5350,
      "counting": 5351,
      "network": 5352,
      "blocks": 5353,
      "juicy": 5354,
      "##aaaay": 5355,
      "ahhhhh": 5356,
      "ps3": 5357,
      "graduate": 5358,
      "geor": 5359,
      "140": 5360,
      "kicked": 5361,
      "subject": 5362,
      "standing": 5363,
      "ruin": 5364,
      "!?!": 5365,
      "replies": 5366,
      "cyrus": 5367,
      "##street": 5368,
      "jerry": 5369,
      "jersey": 5370,
      "keyboard": 5371,
      "##ounge": 5372,
      "denver": 5373,
      "doctors": 5374,
      "panic": 5375,
      "typic": 5376,
      "##!!!!!!!!!!!!!!!!": 5377,
      "creative": 5378,
      "garage": 5379,
      "jennif": 5380,
      "##2009": 5381,
      "neighbor": 5382,
      "breath": 5383,
      "comfy": 5384,
      "degree": 5385,
      "texting": 5386,
      "yahoo": 5387,
      "martin": 5388,
      "assignments": 5389,
      "signing": 5390,
      "duty": 5391,
      "utter": 5392,
      "incredible": 5393,
      "dishes": 5394,
      "attempt": 5395,
      "aussie": 5396,
      "circ": 5397,
      "photoshop": 5398,
      "anthony": 5399,
      "florida": 5400,
      "competition": 5401,
      "appointment": 5402,
      "smoking": 5403,
      "recogn": 5404,
      "tongue": 5405,
      "))": 5406,
      "55": 5407,
      "500": 5408,
      "aid": 5409,
      "bam": 5410,
      "buck": 5411,
      "curl": 5412,
      "corn": 5413,
      "dk": 5414,
      "dedic": 5415,
      "eu": 5416,
      "f1": 5417,
      "fool": 5418,
      "kl": 5419,
      "ker": 5420,
      "kyle": 5421,
      "mater": 5422,
      "nur": 5423,
      "nood": 5424,
      "obs": 5425,
      "pun": 5426,
      "pound": 5427,
      "pays": 5428,
      "pian": 5429,
      "rs": 5430,
      "rp": 5431,
      "rent": 5432,
      "sett": 5433,
      "sittin": 5434,
      "tap": 5435,
      "ugg": 5436,
      "va": 5437,
      "vill": 5438,
      "vent": 5439,
      "wen": 5440,
      "wil": 5441,
      "wats": 5442,
      "##nk": 5443,
      "##now": 5444,
      "##gust": 5445,
      "##gab": 5446,
      "##hood": 5447,
      "##ral": 5448,
      "##roll": 5449,
      "##round": 5450,
      "##rose": 5451,
      "##tar": 5452,
      "##iod": 5453,
      "##ped": 5454,
      "##jd": 5455,
      "##jac": 5456,
      "##cd": 5457,
      "##cool": 5458,
      "##yc": 5459,
      "##bunny": 5460,
      "##wi": 5461,
      "##mad": 5462,
      "##mike": 5463,
      "##kay": 5464,
      "##ken": 5465,
      "##31": 5466,
      "##70": 5467,
      "##zilla": 5468,
      "tht": 5469,
      "##oust": 5470,
      "thel": 5471,
      "##eday": 5472,
      "##vey": 5473,
      "##eag": 5474,
      "italian": 5475,
      "##ether": 5476,
      "##ening": 5477,
      "##icles": 5478,
      "##chris": 5479,
      "ish": 5480,
      "##lew": 5481,
      "whit": 5482,
      "whew": 5483,
      "beans": 5484,
      "locked": 5485,
      "##aded": 5486,
      "##adam": 5487,
      "##amed": 5488,
      "shr": 5489,
      "shiny": 5490,
      "lily": 5491,
      "##sex": 5492,
      "##urance": 5493,
      "##ira": 5494,
      "##ppin": 5495,
      "notes": 5496,
      "nothin": 5497,
      "chees": 5498,
      "reun": 5499,
      "refer": 5500,
      "goodmorning": 5501,
      "reach": 5502,
      "##ential": 5503,
      "##essa": 5504,
      "##ilar": 5505,
      "plug": 5506,
      "amount": 5507,
      "##ateful": 5508,
      "mah": 5509,
      "##elton": 5510,
      "lolz": 5511,
      "##alltimel": 5512,
      "##obe": 5513,
      "##obs": 5514,
      "##gend": 5515,
      "blo": 5516,
      "bleed": 5517,
      "##mme": 5518,
      "##oyd": 5519,
      "##ella": 5520,
      "clue": 5521,
      "gree": 5522,
      "grown": 5523,
      "saved": 5524,
      "##ooooooo": 5525,
      "phones": 5526,
      "conv": 5527,
      "usb": 5528,
      "uses": 5529,
      "yeahh": 5530,
      "sept": 5531,
      "bitter": 5532,
      "##iac": 5533,
      "sway": 5534,
      "tweetphoto": 5535,
      "heads": 5536,
      "scare": 5537,
      "scene": 5538,
      "peanut": 5539,
      "##acy": 5540,
      "##aced": 5541,
      "##shop": 5542,
      "unhappy": 5543,
      "##ugget": 5544,
      "thankyou": 5545,
      "appt": 5546,
      "appro": 5547,
      "##princess": 5548,
      "himself": 5549,
      "hiya": 5550,
      "picnic": 5551,
      "url": 5552,
      "##soci": 5553,
      "##uffy": 5554,
      "minus": 5555,
      "lawn": 5556,
      "##ossible": 5557,
      "##ggy": 5558,
      "##gging": 5559,
      "##ords": 5560,
      "hoor": 5561,
      "emotion": 5562,
      "##cream": 5563,
      "skype": 5564,
      "##grl": 5565,
      "belong": 5566,
      "##zzz": 5567,
      "snip": 5568,
      "snug": 5569,
      "##bling": 5570,
      "30am": 5571,
      "walked": 5572,
      "teaching": 5573,
      "##white": 5574,
      "soooooo": 5575,
      "hitting": 5576,
      "provid": 5577,
      "contest": 5578,
      "contract": 5579,
      "##1974": 5580,
      "robluk": 5581,
      "apolog": 5582,
      "burr": 5583,
      "metal": 5584,
      "tommor": 5585,
      "syn": 5586,
      "cait": 5587,
      "profession": 5588,
      "laura": 5589,
      "!!!!!!!!!!!": 5590,
      "psych": 5591,
      "salt": 5592,
      "prayers": 5593,
      "magazine": 5594,
      "human": 5595,
      "correct": 5596,
      "quickly": 5597,
      "britney": 5598,
      "teena": 5599,
      "mommas": 5600,
      "heavy": 5601,
      "rubbish": 5602,
      "transl": 5603,
      "mikey": 5604,
      "##iiiiiiii": 5605,
      "holding": 5606,
      "##works": 5607,
      "mcdonald": 5608,
      "solange": 5609,
      "pieces": 5610,
      "massage": 5611,
      "roomm": 5612,
      "dhugh": 5613,
      "talented": 5614,
      "snap": 5615,
      "errands": 5616,
      "jordanknight": 5617,
      "##ribly": 5618,
      "events": 5619,
      "matthew": 5620,
      "selling": 5621,
      "irish": 5622,
      "##isdale": 5623,
      "hooked": 5624,
      "spelling": 5625,
      "tweeters": 5626,
      "##mbers": 5627,
      "drawing": 5628,
      "named": 5629,
      "semester": 5630,
      "2morrow": 5631,
      "option": 5632,
      "##words": 5633,
      "##addict": 5634,
      "ankle": 5635,
      "economy": 5636,
      "ebay": 5637,
      "captain": 5638,
      "lemon": 5639,
      "spirit": 5640,
      "tastes": 5641,
      "wasted": 5642,
      "language": 5643,
      "despite": 5644,
      "virtual": 5645,
      "subsc": 5646,
      "soccer": 5647,
      "grocery": 5648,
      "##alltimelow": 5649,
      "robluketic": 5650,
      "->": 5651,
      ".!": 5652,
      "300": 5653,
      "4v": 5654,
      "5th": 5655,
      "=/": 5656,
      "bin": 5657,
      "bing": 5658,
      "bass": 5659,
      "bio": 5660,
      "bomb": 5661,
      "cre": 5662,
      "cind": 5663,
      "cakes": 5664,
      "cries": 5665,
      "dies": 5666,
      "dates": 5667,
      "dizzy": 5668,
      "eww": 5669,
      "fal": 5670,
      "gil": 5671,
      "geez": 5672,
      "hide": 5673,
      "jane": 5674,
      "kp": 5675,
      "kk": 5676,
      "kel": 5677,
      "kitt": 5678,
      "kris": 5679,
      "kwk": 5680,
      "lon": 5681,
      "mill": 5682,
      "ment": 5683,
      "mos": 5684,
      "mang": 5685,
      "nt": 5686,
      "noooooooo": 5687,
      "names": 5688,
      "oil": 5689,
      "ohhhh": 5690,
      "py": 5691,
      "pity": 5692,
      "punch": 5693,
      "pitch": 5694,
      "ris": 5695,
      "rog": 5696,
      "sau": 5697,
      "tc": 5698,
      "td": 5699,
      "tink": 5700,
      "tub": 5701,
      "wy": 5702,
      "wink": 5703,
      "wand": 5704,
      "weak": 5705,
      "woken": 5706,
      "zoo": 5707,
      "~~": 5708,
      "##name": 5709,
      "##gee": 5710,
      "##gic": 5711,
      "##li": 5712,
      "##lam": 5713,
      "##ointing": 5714,
      "##hu": 5715,
      "##away": 5716,
      "##tg": 5717,
      "##town": 5718,
      "##say": 5719,
      "##vie": 5720,
      "##iee": 5721,
      "##po": 5722,
      "##pher": 5723,
      "##pack": 5724,
      "##pting": 5725,
      "##jp": 5726,
      "##jc": 5727,
      "##jour": 5728,
      "##jud": 5729,
      "##ui": 5730,
      "##ued": 5731,
      "##cor": 5732,
      "##cook": 5733,
      "##cia": 5734,
      "##cup": 5735,
      "##dave": 5736,
      "##bd": 5737,
      "##bot": 5738,
      "##bill": 5739,
      "##bra": 5740,
      "##bear": 5741,
      "##wil": 5742,
      "##west": 5743,
      "##mr": 5744,
      "##mich": 5745,
      "##ket": 5746,
      "##felton": 5747,
      "##35": 5748,
      "##100": 5749,
      "##zs": 5750,
      "##zel": 5751,
      "thor": 5752,
      "toss": 5753,
      "##orter": 5754,
      "##orting": 5755,
      "##an_": 5756,
      "##anny": 5757,
      "##anoid": 5758,
      "theater": 5759,
      "theory": 5760,
      "##eesh": 5761,
      "##ooke": 5762,
      "##arian": 5763,
      "hack": 5764,
      "##otha": 5765,
      "##vet": 5766,
      "##eah": 5767,
      "##isher": 5768,
      "##eng": 5769,
      "##ened": 5770,
      "##ency": 5771,
      "##ences": 5772,
      "##enrie": 5773,
      "##icing": 5774,
      "##icia": 5775,
      "...)": 5776,
      "##cho": 5777,
      "##chi": 5778,
      "force": 5779,
      "forced": 5780,
      "##asg": 5781,
      "whether": 5782,
      "stoked": 5783,
      "belly": 5784,
      "##idd": 5785,
      "##idget": 5786,
      "members": 5787,
      "loser": 5788,
      "##amous": 5789,
      "goal": 5790,
      "##sell": 5791,
      "##irou": 5792,
      "##iron": 5793,
      "##unn": 5794,
      "##iece": 5795,
      "fridge": 5796,
      "##imo": 5797,
      "held": 5798,
      "canucks": 5799,
      "##hern": 5800,
      "reh": 5801,
      "refu": 5802,
      "reject": 5803,
      "recept": 5804,
      "supr": 5805,
      "##entr": 5806,
      "##them": 5807,
      "nov": 5808,
      "nove": 5809,
      "prot": 5810,
      "ali": 5811,
      "alter": 5812,
      "alice": 5813,
      "plants": 5814,
      "##usk": 5815,
      "gots": 5816,
      "tool": 5817,
      "##outs": 5818,
      "imm": 5819,
      "image": 5820,
      "##ribe": 5821,
      "aswell": 5822,
      "todays": 5823,
      "brings": 5824,
      "missin": 5825,
      "##uma": 5826,
      "##arded": 5827,
      "##oliver": 5828,
      "##alley": 5829,
      "blues": 5830,
      "wah": 5831,
      "whenever": 5832,
      "client": 5833,
      "grateful": 5834,
      "faces": 5835,
      "drank": 5836,
      "sav": 5837,
      "trade": 5838,
      "waitin": 5839,
      "##itted": 5840,
      "##iped": 5841,
      "select": 5842,
      "##lover": 5843,
      "swee": 5844,
      "carry": 5845,
      "quin": 5846,
      "quar": 5847,
      "script": 5848,
      "leavin": 5849,
      "##ockey": 5850,
      "bedtime": 5851,
      "sunbur": 5852,
      "##shirt": 5853,
      "unlim": 5854,
      "adore": 5855,
      "##ples": 5856,
      "##tsk": 5857,
      "someday": 5858,
      "sms": 5859,
      "##beck": 5860,
      "rains": 5861,
      "rained": 5862,
      "daw": 5863,
      "##moore": 5864,
      "feelings": 5865,
      "loose": 5866,
      "craz": 5867,
      "##gger": 5868,
      "yayy": 5869,
      "older": 5870,
      "##spot": 5871,
      "pretend": 5872,
      "trips": 5873,
      "period": 5874,
      "danie": 5875,
      "tells": 5876,
      "ughh": 5877,
      "paranoid": 5878,
      "trace": 5879,
      "sundays": 5880,
      "##tones": 5881,
      "meaning": 5882,
      "##lando": 5883,
      "##twitter": 5884,
      "beauty": 5885,
      "useless": 5886,
      "rocking": 5887,
      "prepar": 5888,
      "previous": 5889,
      "steven": 5890,
      "killer": 5891,
      "charger": 5892,
      "hangin": 5893,
      "##uuu": 5894,
      "role": 5895,
      "hmmmm": 5896,
      "##hahahaha": 5897,
      "terr": 5898,
      "cutie": 5899,
      "jamie_": 5900,
      "indian": 5901,
      "released": 5902,
      "visiting": 5903,
      "##carey": 5904,
      "trains": 5905,
      "!!!!!!!!!": 5906,
      "colour": 5907,
      "tomfelton": 5908,
      "giant": 5909,
      "sales": 5910,
      "therap": 5911,
      "humid": 5912,
      "pupp": 5913,
      "mmmmm": 5914,
      "register": 5915,
      "##parents": 5916,
      "rule": 5917,
      "bugs": 5918,
      "##paul": 5919,
      "younger": 5920,
      "vancou": 5921,
      "mommys": 5922,
      "square": 5923,
      "pleased": 5924,
      "balls": 5925,
      "arrive": 5926,
      "##---": 5927,
      "traveling": 5928,
      "potato": 5929,
      "wolf": 5930,
      "normally": 5931,
      "atleast": 5932,
      "laws": 5933,
      "ringtones": 5934,
      "bella": 5935,
      "blew": 5936,
      "impossible": 5937,
      "memory": 5938,
      "depends": 5939,
      "##steph": 5940,
      "shoutout": 5941,
      "hmph": 5942,
      "nuts": 5943,
      "topics": 5944,
      "##harris": 5945,
      "bowl": 5946,
      "ignore": 5947,
      "pressure": 5948,
      "installed": 5949,
      "queens": 5950,
      "delivery": 5951,
      "certainly": 5952,
      "assignment": 5953,
      "palm": 5954,
      "constantly": 5955,
      "dutch": 5956,
      "ultim": 5957,
      "alyss": 5958,
      "bothered": 5959,
      "brooklyn": 5960,
      "dreading": 5961,
      "tweeple": 5962,
      "victoria": 5963,
      "creepy": 5964,
      "html": 5965,
      "japan": 5966,
      "surprisingly": 5967,
      "lmfao": 5968,
      "shannon": 5969,
      "cereal": 5970,
      "pathetic": 5971,
      "##bourne": 5972,
      "baseball": 5973,
      "infection": 5974,
      "december": 5975,
      "mariahcarey": 5976,
      "brilliant": 5977,
      "develop": 5978,
      "pocket": 5979,
      "typical": 5980,
      "roommate": 5981,
      "dhughesy": 5982,
      "kwk9": 5983,
      "sunburnt": 5984,
      "unlimited": 5985,
      "vancouver": 5986,
      "3am": 5987,
      "7am": 5988,
      "?)": 5989,
      "aa": 5990,
      "apr": 5991,
      "apt": 5992,
      "aye": 5993,
      "biz": 5994,
      "bump": 5995,
      "cart": 5996,
      "crow": 5997,
      "cale": 5998,
      "db": 5999,
      "df": 6000,
      "dum": 6001,
      "dall": 6002,
      "dump": 6003,
      "ee": 6004,
      "fy": 6005,
      "gg": 6006,
      "g1": 6007,
      "ginger": 6008,
      "hp": 6009,
      "hind": 6010,
      "hating": 6011,
      "hockey": 6012,
      "iw": 6013,
      "jc": 6014,
      "jd": 6015,
      "jet": 6016,
      "jod": 6017,
      "jak": 6018,
      "jazz": 6019,
      "kas": 6020,
      "keen": 6021,
      "lugg": 6022,
      "ml": 6023,
      "mas": 6024,
      "mud": 6025,
      "munch": 6026,
      "mister": 6027,
      "nc": 6028,
      "ore": 6029,
      "oooo": 6030,
      "pb": 6031,
      "pand": 6032,
      "pff": 6033,
      "pure": 6034,
      "pills": 6035,
      "ri": 6036,
      "rot": 6037,
      "sry": 6038,
      "sized": 6039,
      "sisters": 6040,
      "tune": 6041,
      "tyl": 6042,
      "ub": 6043,
      "vet": 6044,
      "ways": 6045,
      "wud": 6046,
      "woss": 6047,
      "waaaa": 6048,
      "wings": 6049,
      "ze": 6050,
      "zac": 6051,
      "##nl": 6052,
      "##nin": 6053,
      "##gal": 6054,
      "##great": 6055,
      "##geek": 6056,
      "##lie": 6057,
      "##luck": 6058,
      "##hm": 6059,
      "##hor": 6060,
      "##hours": 6061,
      "##rass": 6062,
      "##ream": 6063,
      "##sa": 6064,
      "##sed": 6065,
      "##vd": 6066,
      "##vm": 6067,
      "##vee": 6068,
      "##vest": 6069,
      "##ios": 6070,
      "##ients": 6071,
      "##pan": 6072,
      "##jee": 6073,
      "##jirou": 6074,
      "##uel": 6075,
      "##call": 6076,
      "##cmay": 6077,
      "##yed": 6078,
      "##bi": 6079,
      "##bles": 6080,
      "##bstack": 6081,
      "##wing": 6082,
      "##wis": 6083,
      "##walk": 6084,
      "##mate": 6085,
      "##03": 6086,
      "##45": 6087,
      "##_me": 6088,
      "##fo": 6089,
      "##fon": 6090,
      "##fest": 6091,
      "##fab": 6092,
      "##full": 6093,
      "##91": 6094,
      "##zo": 6095,
      "##inner": 6096,
      "##inson": 6097,
      "thumb": 6098,
      "toys": 6099,
      "##orr": 6100,
      "##anks": 6101,
      "##oni": 6102,
      "##onder": 6103,
      "##onica": 6104,
      "##itz": 6105,
      "##itas": 6106,
      "##itions": 6107,
      "##ares": 6108,
      "##oma": 6109,
      "##sta": 6110,
      "haw": 6111,
      "hamm": 6112,
      "##otes": 6113,
      "##eaks": 6114,
      "##icated": 6115,
      "ing": 6116,
      "inj": 6117,
      "inc": 6118,
      "fort": 6119,
      "##asp": 6120,
      "whoop": 6121,
      "stun": 6122,
      "##kelly": 6123,
      "megan": 6124,
      "solo": 6125,
      "loll": 6126,
      "##adee": 6127,
      "shud": 6128,
      "shak": 6129,
      "shitty": 6130,
      "##irre": 6131,
      "fran": 6132,
      "fries": 6133,
      "fruit": 6134,
      "##imi": 6135,
      "##imin": 6136,
      "heid": 6137,
      "##days": 6138,
      "wore": 6139,
      "twpp": 6140,
      "cho": 6141,
      "chant": 6142,
      "chips": 6143,
      "##ento": 6144,
      "..?": 6145,
      "..!": 6146,
      "##thomas": 6147,
      "##esss": 6148,
      "##ilk": 6149,
      "##hael": 6150,
      "##hawk": 6151,
      "noon": 6152,
      "noes": 6153,
      "##aint": 6154,
      "plays": 6155,
      "amusing": 6156,
      "likely": 6157,
      "morris": 6158,
      "morgan": 6159,
      "##rip": 6160,
      "assh": 6161,
      "awa": 6162,
      "##abl": 6163,
      "##abel": 6164,
      "##ability": 6165,
      "##andra": 6166,
      "timing": 6167,
      "bron": 6168,
      "##arty": 6169,
      "backstreet": 6170,
      "##ffe": 6171,
      "##uled": 6172,
      "##olic": 6173,
      "willing": 6174,
      "slam": 6175,
      "agent": 6176,
      "agreed": 6177,
      "demo": 6178,
      "##ollen": 6179,
      "##oytell": 6180,
      "grass": 6181,
      "grrrr": 6182,
      "moments": 6183,
      "drugs": 6184,
      "greatest": 6185,
      "saf": 6186,
      "coc": 6187,
      "cod": 6188,
      "phew": 6189,
      "wouldnt": 6190,
      "trees": 6191,
      "converse": 6192,
      "usern": 6193,
      "##agn": 6194,
      "##agr": 6195,
      "thingy": 6196,
      "showed": 6197,
      "##azing": 6198,
      "cares": 6199,
      "nicely": 6200,
      "makeup": 6201,
      "quality": 6202,
      "##ewl": 6203,
      "cramps": 6204,
      "##ocks": 6205,
      "##shit": 6206,
      "adm": 6207,
      "##ugal": 6208,
      "smiling": 6209,
      "##irsty": 6210,
      "##moon": 6211,
      "surely": 6212,
      "##freak": 6213,
      "bigger": 6214,
      "strug": 6215,
      "guessing": 6216,
      "luckily": 6217,
      "kidd": 6218,
      "##ika": 6219,
      "employ": 6220,
      "##oxy": 6221,
      "eliz": 6222,
      "snack": 6223,
      "##ierd": 6224,
      "sites": 6225,
      "resist": 6226,
      "awwwww": 6227,
      "photography": 6228,
      "stops": 6229,
      "##nnnn": 6230,
      "repair": 6231,
      "singer": 6232,
      "##otte": 6233,
      "foods": 6234,
      "dogbook": 6235,
      "##awa": 6236,
      "kev": 6237,
      "retarded": 6238,
      "##kkk": 6239,
      "terry": 6240,
      "cutest": 6241,
      "jamie": 6242,
      "##roid": 6243,
      "##aughters": 6244,
      "grandparents": 6245,
      "samanth": 6246,
      "decision": 6247,
      "burning": 6248,
      "goose": 6249,
      "invest": 6250,
      "johncmay": 6251,
      "tests": 6252,
      "##ebbstack": 6253,
      "darling": 6254,
      "faster": 6255,
      "angels": 6256,
      "harry": 6257,
      "budget": 6258,
      "buddies": 6259,
      "signed": 6260,
      "insurance": 6261,
      "humor": 6262,
      "cupcakes": 6263,
      "publ": 6264,
      "students": 6265,
      "george": 6266,
      "effort": 6267,
      "viewing": 6268,
      "corner": 6269,
      "broad": 6270,
      "sharon": 6271,
      "wordpress": 6272,
      "appreciated": 6273,
      "disappointing": 6274,
      "riding": 6275,
      "transfer": 6276,
      "jerk": 6277,
      "##babe": 6278,
      "audio": 6279,
      "audition": 6280,
      "bags": 6281,
      "entry": 6282,
      "sanct": 6283,
      "obama": 6284,
      "pancakes": 6285,
      "recording": 6286,
      "##ssssssss": 6287,
      "expecting": 6288,
      "created": 6289,
      "stores": 6290,
      "haters": 6291,
      "data": 6292,
      "##nicole": 6293,
      "anti": 6294,
      "neighbors": 6295,
      "banana": 6296,
      "donnie": 6297,
      "crashed": 6298,
      "camping": 6299,
      "souljab": 6300,
      "explain": 6301,
      "bowling": 6302,
      "model": 6303,
      "hollie": 6304,
      "viol": 6305,
      "central": 6306,
      "rosie": 6307,
      "wknd": 6308,
      "general": 6309,
      "shaun": 6310,
      "screaming": 6311,
      "constant": 6312,
      "dawnrich": 6313,
      "technology": 6314,
      "incredibly": 6315,
      "festival": 6316,
      "##blog": 6317,
      "considering": 6318,
      "community": 6319,
      "distracted": 6320,
      "hiding": 6321,
      "wendy": 6322,
      "carolina": 6323,
      "characters": 6324,
      "##present": 6325,
      "involved": 6326,
      "limited": 6327,
      "tmrw": 6328,
      "comfortable": 6329,
      "focus": 6330,
      "license": 6331,
      "international": 6332,
      "electric": 6333,
      "##knowles": 6334,
      "dudes": 6335,
      "kirk": 6336,
      "browser": 6337,
      "starwarsday": 6338,
      "tesco": 6339,
      "##hilton": 6340,
      "chelsea": 6341,
      "##ardashian": 6342,
      "cinema": 6343,
      "nursing": 6344,
      "tennis": 6345,
      "exercise": 6346,
      "funeral": 6347,
      "survive": 6348,
      "java": 6349,
      "accompl": 6350,
      "restaurant": 6351,
      "village": 6352,
      "snipurl": 6353,
      "solangeknowles": 6354,
      "reception": 6355,
      "november": 6356,
      "luggage": 6357,
      "##oytellem": 6358,
      "username": 6359,
      "johncmayer": 6360,
      "souljaboytellem": 6361,
      "dawnrichard": 6362,
      "!.": 6363,
      "/?": 6364,
      "4am": 6365,
      "8am": 6366,
      "=]": 6367,
      ">.": 6368,
      "aj": 6369,
      "bm": 6370,
      "bul": 6371,
      "battle": 6372,
      "berry": 6373,
      "cit": 6374,
      "crew": 6375,
      "cupp": 6376,
      "dur": 6377,
      "dim": 6378,
      "diss": 6379,
      "fe": 6380,
      "foo": 6381,
      "gum": 6382,
      "gall": 6383,
      "gifts": 6384,
      "hip": 6385,
      "heal": 6386,
      "hated": 6387,
      "heels": 6388,
      "iced": 6389,
      "jj": 6390,
      "jos": 6391,
      "jail": 6392,
      "junk": 6393,
      "kam": 6394,
      "kenny": 6395,
      "kitten": 6396,
      "lan": 6397,
      "lit": 6398,
      "led": 6399,
      "lines": 6400,
      "lance": 6401,
      "lamb": 6402,
      "mn": 6403,
      "mk": 6404,
      "mf": 6405,
      "m8": 6406,
      "mz": 6407,
      "mow": 6408,
      "meeee": 6409,
      "mental": 6410,
      "nh": 6411,
      "nz": 6412,
      "nun": 6413,
      "nint": 6414,
      "nail": 6415,
      "naked": 6416,
      "ping": 6417,
      "pee": 6418,
      "pir": 6419,
      "penny": 6420,
      "rr": 6421,
      "rd": 6422,
      "rou": 6423,
      "rat": 6424,
      "ric": 6425,
      "rly": 6426,
      "rus": 6427,
      "rout": 6428,
      "rum": 6429,
      "rang": 6430,
      "rave": 6431,
      "rarely": 6432,
      "tend": 6433,
      "task": 6434,
      "wi": 6435,
      "wth": 6436,
      "wra": 6437,
      "wise": 6438,
      "yee": 6439,
      "##nia": 6440,
      "##gm": 6441,
      "##got": 6442,
      "##gles": 6443,
      "##lt": 6444,
      "##lou": 6445,
      "##look": 6446,
      "##oi": 6447,
      "##hy": 6448,
      "##hun": 6449,
      "##him": 6450,
      "##aver": 6451,
      "##ael": 6452,
      "##ross": 6453,
      "##tn": 6454,
      "##tastic": 6455,
      "##talk": 6456,
      "##tila": 6457,
      "##vt": 6458,
      "##vine": 6459,
      "##vation": 6460,
      "##vity": 6461,
      "##ieall": 6462,
      "##pd": 6463,
      "##pal": 6464,
      "##pix": 6465,
      "##uy": 6466,
      "##uum": 6467,
      "##uous": 6468,
      "##ucc": 6469,
      "##cs": 6470,
      "##can": 6471,
      "##cra": 6472,
      "##yo": 6473,
      "##dh": 6474,
      "##dee": 6475,
      "##dess": 6476,
      "##bat": 6477,
      "##bies": 6478,
      "##bag": 6479,
      "##bach": 6480,
      "##bath": 6481,
      "##will": 6482,
      "##mes": 6483,
      "##met": 6484,
      "##mine": 6485,
      "##mod": 6486,
      "##mond": 6487,
      "##mary": 6488,
      "##mates": 6489,
      "##63": 6490,
      "##68": 6491,
      "##_xo": 6492,
      "##kr": 6493,
      "##fiss": 6494,
      "##28": 6495,
      "##98": 6496,
      "##1q": 6497,
      "##80": 6498,
      "##zp": 6499,
      "##zie": 6500,
      "##inst": 6501,
      "##inea": 6502,
      "##inion": 6503,
      "toron": 6504,
      "##anie": 6505,
      "thee": 6506,
      "##aries": 6507,
      "##oms": 6508,
      "##stairs": 6509,
      "##vell": 6510,
      "##eaut": 6511,
      "##eapp": 6512,
      "##isco": 6513,
      "##enson": 6514,
      "##iceless": 6515,
      "##chool": 6516,
      "stat": 6517,
      "steel": 6518,
      "steal": 6519,
      "stinks": 6520,
      "bever": 6521,
      "bebo": 6522,
      "begins": 6523,
      "##iders": 6524,
      "member": 6525,
      "sod": 6526,
      "##adi": 6527,
      "shy": 6528,
      "shaw": 6529,
      "shops": 6530,
      "##illian": 6531,
      "##ights": 6532,
      "frick": 6533,
      "frig": 6534,
      "fried": 6535,
      "anime": 6536,
      "withdra": 6537,
      "cand": 6538,
      "chip": 6539,
      "rebe": 6540,
      "represent": 6541,
      "negle": 6542,
      "##hah": 6543,
      "no1": 6544,
      "pra": 6545,
      "##ante": 6546,
      "alp": 6547,
      "##ksha": 6548,
      "plain": 6549,
      "##ctor": 6550,
      "##ctic": 6551,
      "##riff": 6552,
      "##riage": 6553,
      "awk": 6554,
      "##abeth": 6555,
      "twitting": 6556,
      "bridge": 6557,
      "backup": 6558,
      "knowled": 6559,
      "##ulin": 6560,
      "##olo": 6561,
      "##olf": 6562,
      "##ige": 6563,
      "##igirl": 6564,
      "##igner": 6565,
      "willi": 6566,
      "##ober": 6567,
      "##eeds": 6568,
      "##eedom": 6569,
      "##iney": 6570,
      "spock": 6571,
      "moi": 6572,
      "bla": 6573,
      "nighty": 6574,
      "slice": 6575,
      "##mmensen": 6576,
      "##ellen": 6577,
      "##aund": 6578,
      "guil": 6579,
      "guilt": 6580,
      "clip": 6581,
      "organ": 6582,
      "orlando": 6583,
      "every1": 6584,
      "saus": 6585,
      "heroes": 6586,
      "##aper": 6587,
      "##apore": 6588,
      "coke": 6589,
      "convin": 6590,
      "poker": 6591,
      "##eme": 6592,
      "##ager": 6593,
      "wonders": 6594,
      "##ubs": 6595,
      "follows": 6596,
      "manchester": 6597,
      "##istry": 6598,
      "seats": 6599,
      "seven": 6600,
      "separ": 6601,
      "##log": 6602,
      "##loved": 6603,
      "bits": 6604,
      "##nyc": 6605,
      "swing": 6606,
      "swift": 6607,
      "swollen": 6608,
      "leon": 6609,
      "lect": 6610,
      "leigh": 6611,
      "tryin": 6612,
      "##ewell": 6613,
      "##izon": 6614,
      "##izes": 6615,
      "cro": 6616,
      "mothersday": 6617,
      "##phones": 6618,
      "##aki": 6619,
      "##aching": 6620,
      "uns": 6621,
      "united": 6622,
      "##anson": 6623,
      "longest": 6624,
      "adop": 6625,
      "advent": 6626,
      "##eye": 6627,
      "marks": 6628,
      "marley": 6629,
      "flav": 6630,
      "##pro": 6631,
      "##prom": 6632,
      "##prod": 6633,
      "smack": 6634,
      "##beat": 6635,
      "joh": 6636,
      "joey": 6637,
      "glasg": 6638,
      "borrow": 6639,
      "##cious": 6640,
      "partner": 6641,
      "babes": 6642,
      "active": 6643,
      "##ivan": 6644,
      "eaten": 6645,
      "##bro": 6646,
      "crawl": 6647,
      "omfg": 6648,
      "##endo": 6649,
      "##ggg": 6650,
      "beast": 6651,
      "##quel": 6652,
      "lying": 6653,
      "harder": 6654,
      "lovin": 6655,
      "bush": 6656,
      "ends": 6657,
      "##oxo": 6658,
      "stuffed": 6659,
      "hung": 6660,
      "hunt": 6661,
      "farm": 6662,
      "resc": 6663,
      "crystal": 6664,
      "desper": 6665,
      "satisf": 6666,
      "##nold": 6667,
      "preview": 6668,
      "singapore": 6669,
      "##ettes": 6670,
      "charged": 6671,
      "winning": 6672,
      "##nessee": 6673,
      "blogging": 6674,
      "blogspot": 6675,
      "edin": 6676,
      "##club": 6677,
      "##hahaha": 6678,
      "horror": 6679,
      "doug": 6680,
      "attract": 6681,
      "chilled": 6682,
      "concentr": 6683,
      "indust": 6684,
      "india": 6685,
      "robin": 6686,
      "david_h": 6687,
      "acad": 6688,
      "##a_guy": 6689,
      "grandm": 6690,
      "graph": 6691,
      "films": 6692,
      "similar": 6693,
      "##101": 6694,
      "johnny": 6695,
      "##attered": 6696,
      "texted": 6697,
      "legal": 6698,
      "package": 6699,
      "##medi": 6700,
      "touring": 6701,
      "melbourne": 6702,
      "artist": 6703,
      "##burgh": 6704,
      "tomato": 6705,
      "karma": 6706,
      "##rrrrrrrr": 6707,
      "jeans": 6708,
      "honor": 6709,
      "##clemmensen": 6710,
      "##easy": 6711,
      "##track": 6712,
      "##monday": 6713,
      "christmas": 6714,
      "basket": 6715,
      "cupcake": 6716,
      "inform": 6717,
      "infamous": 6718,
      "mmmm": 6719,
      "canceled": 6720,
      "regard": 6721,
      "kicking": 6722,
      "bugger": 6723,
      "##untu": 6724,
      "britain": 6725,
      "hollywood": 6726,
      "americ": 6727,
      "reminder": 6728,
      "reminded": 6729,
      "cyber": 6730,
      "##kyo": 6731,
      "maths": 6732,
      "potter": 6733,
      "potential": 6734,
      "##eeeeeeeeeeeeeeee": 6735,
      "##young": 6736,
      "covered": 6737,
      "tennessee": 6738,
      "##innam": 6739,
      "location": 6740,
      "progress": 6741,
      "michaelm": 6742,
      "officialtila": 6743,
      ":-/": 6744,
      "andyclemmensen": 6745,
      "bleh": 6746,
      "portfol": 6747,
      "impal": 6748,
      "????????": 6749,
      "animals": 6750,
      "homie": 6751,
      "##eringring": 6752,
      "emma": 6753,
      "filled": 6754,
      "accidentally": 6755,
      "hayley": 6756,
      "autom": 6757,
      "bkite": 6758,
      "tweeter": 6759,
      "silver": 6760,
      "connection": 6761,
      "freeringring": 6762,
      "journal": 6763,
      "baked": 6764,
      "centre": 6765,
      "successful": 6766,
      "target": 6767,
      "##rosoft": 6768,
      "contacts": 6769,
      "thomasfiss": 6770,
      "october": 6771,
      "renew": 6772,
      "grounded": 6773,
      "virus": 6774,
      "mexican": 6775,
      "mexico": 6776,
      "entertaining": 6777,
      "beginning": 6778,
      "collection": 6779,
      "brend": 6780,
      "mountain": 6781,
      "spinning": 6782,
      "character": 6783,
      "multip": 6784,
      "sleeep": 6785,
      "motivation": 6786,
      "female": 6787,
      "zombie": 6788,
      "bruce": 6789,
      "flickr": 6790,
      "destroy": 6791,
      "linux": 6792,
      "items": 6793,
      "whisper": 6794,
      "lizzie": 6795,
      "##selves": 6796,
      "claire": 6797,
      "sweating": 6798,
      "medicine": 6799,
      "perezhilton": 6800,
      "typing": 6801,
      "twisted": 6802,
      "challenge": 6803,
      "pillow": 6804,
      "pouring": 6805,
      "society": 6806,
      "brittany": 6807,
      "application": 6808,
      "tbh": 6809,
      "wireless": 6810,
      "liverpool": 6811,
      "noodles": 6812,
      "reunion": 6813,
      "convince": 6814,
      "hooray": 6815,
      "emotional": 6816,
      "rehears": 6817,
      "therapy": 6818,
      "dallas": 6819,
      "wossy": 6820,
      "sanctu": 6821,
      "cuppa": 6822,
      "toronto": 6823,
      "friggin": 6824,
      "neglect": 6825,
      "convinced": 6826,
      "glasgow": 6827,
      "david_henrie": 6828,
      "portfolio": 6829,
      "-.": 6830,
      "06": 6831,
      "05": 6832,
      "08": 6833,
      "360": 6834,
      "400": 6835,
      "5k": 6836,
      "5pm": 6837,
      "6am": 6838,
      ":@": 6839,
      "</": 6840,
      "?!!": 6841,
      "ack": 6842,
      "ara": 6843,
      "aqu": 6844,
      "aaaa": 6845,
      "auth": 6846,
      "billy": 6847,
      "bene": 6848,
      "cn": 6849,
      "cw": 6850,
      "cad": 6851,
      "cate": 6852,
      "dl": 6853,
      "dirt": 6854,
      "dyl": 6855,
      "daughters": 6856,
      "eee": 6857,
      "emo": 6858,
      "edd": 6859,
      "ft": 6860,
      "fone": 6861,
      "flew": 6862,
      "ftsk": 6863,
      "gem": 6864,
      "gnite": 6865,
      "gaga": 6866,
      "hq": 6867,
      "hed": 6868,
      "hyp": 6869,
      "ih": 6870,
      "ian": 6871,
      "ire": 6872,
      "jaz": 6873,
      "jury": 6874,
      "kin": 6875,
      "kor": 6876,
      "kal": 6877,
      "kra": 6878,
      "kore": 6879,
      "kath": 6880,
      "lj": 6881,
      "lun": 6882,
      "lower": 6883,
      "lounge": 6884,
      "nar": 6885,
      "og": 6886,
      "oy": 6887,
      "ooooo": 6888,
      "pt": 6889,
      "pas": 6890,
      "pil": 6891,
      "pant": 6892,
      "patch": 6893,
      "pac": 6894,
      "pets": 6895,
      "punk": 6896,
      "porn": 6897,
      "panda": 6898,
      "pony": 6899,
      "rc": 6900,
      "rq": 6901,
      "rate": 6902,
      "rod": 6903,
      "rise": 6904,
      "sj": 6905,
      "sink": 6906,
      "sang": 6907,
      "sass": 6908,
      "tx": 6909,
      "tid": 6910,
      "tam": 6911,
      "tayl": 6912,
      "una": 6913,
      "uhh": 6914,
      "vamp": 6915,
      "vicky": 6916,
      "valley": 6917,
      "wu": 6918,
      "wooo": 6919,
      "wins": 6920,
      "wana": 6921,
      "xp": 6922,
      "xk": 6923,
      "yi": 6924,
      "yipp": 6925,
      "yucky": 6926,
      "##nate": 6927,
      "##nik": 6928,
      "##gon": 6929,
      "##gun": 6930,
      "##gate": 6931,
      "##gian": 6932,
      "##gory": 6933,
      "##lj": 6934,
      "##lady": 6935,
      "##o_": 6936,
      "##oor": 6937,
      "##oen": 6938,
      "##oha": 6939,
      "##oons": 6940,
      "##hat": 6941,
      "##hee": 6942,
      "##hen": 6943,
      "##hand": 6944,
      "##hem": 6945,
      "##hod": 6946,
      "##aid": 6947,
      "##roo": 6948,
      "##sn": 6949,
      "##sat": 6950,
      "##iors": 6951,
      "##pi": 6952,
      "##put": 6953,
      "##pink": 6954,
      "##patt": 6955,
      "##coo": 6956,
      "##cal": 6957,
      "##cie": 6958,
      "##coll": 6959,
      "##corn": 6960,
      "##camp": 6961,
      "##dia": 6962,
      "##bg": 6963,
      "##big": 6964,
      "##bull": 6965,
      "##bank": 6966,
      "##bster": 6967,
      "##brown": 6968,
      "##wm": 6969,
      "##wee": 6970,
      "##woman": 6971,
      "##mur": 6972,
      "##mum": 6973,
      "##mia": 6974,
      "##67": 6975,
      "##49": 6976,
      "##55": 6977,
      "##57": 6978,
      "##_a_": 6979,
      "##xter": 6980,
      "##kiss": 6981,
      "##fi": 6982,
      "##fic": 6983,
      "##3r": 6984,
      "##36": 6985,
      "##97": 6986,
      "##inter": 6987,
      "##erd": 6988,
      "##eres": 6989,
      "toooo": 6990,
      "##ature": 6991,
      "##oning": 6992,
      "##iters": 6993,
      "##omor": 6994,
      "##sty": 6995,
      "##store": 6996,
      "hai": 6997,
      "hawa": 6998,
      "youth": 6999,
      "itself": 7000,
      "italy": 7001,
      "##isn": 7002,
      "##eter": 7003,
      "##eting": 7004,
      "##ghh": 7005,
      "##chu": 7006,
      "##chan": 7007,
      "##christ": 7008,
      "##rep": 7009,
      "##rell": 7010,
      "##rend": 7011,
      "##reck": 7012,
      "##lem": 7013,
      "##lection": 7014,
      "whil": 7015,
      "wheel": 7016,
      "stood": 7017,
      "stol": 7018,
      "stub": 7019,
      "stitch": 7020,
      "beck": 7021,
      "bears": 7022,
      "mega": 7023,
      "sob": 7024,
      "sof": 7025,
      "##lys": 7026,
      "lover": 7027,
      "sho": 7028,
      "shell": 7029,
      "shoe": 7030,
      "shifts": 7031,
      "##sem": 7032,
      "##urity": 7033,
      "##alan": 7034,
      "##alking": 7035,
      "fry": 7036,
      "frm": 7037,
      "frost": 7038,
      "freedom": 7039,
      "wassup": 7040,
      "twurl": 7041,
      "suz": 7042,
      "allah": 7043,
      "upon": 7044,
      "outlook": 7045,
      "##thin": 7046,
      "##ileen": 7047,
      "noise": 7048,
      "prim": 7049,
      "pros": 7050,
      "prince": 7051,
      "prior": 7052,
      "priceless": 7053,
      "##antal": 7054,
      "##raz": 7055,
      "##inky": 7056,
      "immedi": 7057,
      "##ria": 7058,
      "##rix": 7059,
      "asp": 7060,
      "##osa": 7061,
      "##osis": 7062,
      "bran": 7063,
      "brandy": 7064,
      "brooke": 7065,
      "miss_": 7066,
      "missx": 7067,
      "##elf": 7068,
      "##arten": 7069,
      "somewhat": 7070,
      "##ership": 7071,
      "##olt": 7072,
      "##igan": 7073,
      "william": 7074,
      "##inez": 7075,
      "spain": 7076,
      "spoke": 7077,
      "mock": 7078,
      "molly": 7079,
      "thinkin": 7080,
      "blu": 7081,
      "blind": 7082,
      "blows": 7083,
      "homeless": 7084,
      "##mma": 7085,
      "##olla": 7086,
      "function": 7087,
      "twitterberry": 7088,
      "groo": 7089,
      "##earl": 7090,
      "arent": 7091,
      "##aps": 7092,
      "##ified": 7093,
      "coding": 7094,
      "enth": 7095,
      "trent": 7096,
      "poet": 7097,
      "popped": 7098,
      "tomorow": 7099,
      "sean": 7100,
      "afr": 7101,
      "##ysh": 7102,
      "##ysp": 7103,
      "overcast": 7104,
      "##iao": 7105,
      "shoulder": 7106,
      "gona": 7107,
      "whoever": 7108,
      "##yyjirou": 7109,
      "lemme": 7110,
      "carr": 7111,
      "afterwards": 7112,
      "leaves": 7113,
      "##acity": 7114,
      "univers": 7115,
      "playin": 7116,
      "sayin": 7117,
      "ads": 7118,
      "advert": 7119,
      "mars": 7120,
      "mari": 7121,
      "marry": 7122,
      "margar": 7123,
      "marriage": 7124,
      "flood": 7125,
      "smiley": 7126,
      "letter": 7127,
      "joj": 7128,
      "##atherine": 7129,
      "sooner": 7130,
      "##ealand": 7131,
      "thread": 7132,
      "thrilled": 7133,
      "probs": 7134,
      "minor": 7135,
      "coolest": 7136,
      "##ection": 7137,
      "loop": 7138,
      "craw": 7139,
      "craig": 7140,
      "##tail": 7141,
      "helen": 7142,
      "##free": 7143,
      "##quet": 7144,
      "##quid": 7145,
      "helpful": 7146,
      "realise": 7147,
      "perth": 7148,
      "teh": 7149,
      "##iko": 7150,
      "listenin": 7151,
      "parent": 7152,
      "warning": 7153,
      "soundtrack": 7154,
      "travis": 7155,
      "gods": 7156,
      "10th": 7157,
      "drivers": 7158,
      "belie": 7159,
      "mighty": 7160,
      "result": 7161,
      "##tweet": 7162,
      "recent": 7163,
      "useful": 7164,
      "delete": 7165,
      "##otten": 7166,
      "##etti": 7167,
      "instant": 7168,
      "surf": 7169,
      "surround": 7170,
      "winner": 7171,
      "opinion": 7172,
      "edge": 7173,
      "educ": 7174,
      "luke": 7175,
      "lucas": 7176,
      "highly": 7177,
      "terribly": 7178,
      "##unky": 7179,
      "concern": 7180,
      "##iction": 7181,
      "##hhhhhh": 7182,
      "computers": 7183,
      "indie": 7184,
      "##glass": 7185,
      "complain": 7186,
      "complicated": 7187,
      "barry": 7188,
      "burger": 7189,
      "deadline": 7190,
      "##iverse": 7191,
      "##connect": 7192,
      "goood": 7193,
      "shortly": 7194,
      "##106": 7195,
      "relation": 7196,
      "related": 7197,
      "tommy": 7198,
      "2010": 7199,
      "careful": 7200,
      "confusing": 7201,
      "darren": 7202,
      "##_benson": 7203,
      "replying": 7204,
      "##itional": 7205,
      "melt": 7206,
      "##iety": 7207,
      "##burg": 7208,
      "bringing": 7209,
      "papers": 7210,
      "blessings": 7211,
      "1000": 7212,
      "nature": 7213,
      "changes": 7214,
      "accounts": 7215,
      "loaded": 7216,
      "evry": 7217,
      "joining": 7218,
      "insom": 7219,
      "2008": 7220,
      "katy": 7221,
      "numbers": 7222,
      "##coming": 7223,
      "diego": 7224,
      "respons": 7225,
      "patrick": 7226,
      "raise": 7227,
      "dealing": 7228,
      "digg": 7229,
      "heaps": 7230,
      "arrival": 7231,
      "crossing": 7232,
      "##worth": 7233,
      "ryans": 7234,
      "costume": 7235,
      "muah": 7236,
      "roads": 7237,
      "distur": 7238,
      "imax": 7239,
      "owe": 7240,
      "purse": 7241,
      "vids": 7242,
      "mentioned": 7243,
      "latin": 7244,
      "##writer": 7245,
      "datab": 7246,
      "devon": 7247,
      "engage": 7248,
      "##ograph": 7249,
      "kimber": 7250,
      "tempt": 7251,
      "##jonathan": 7252,
      "##2001": 7253,
      "reviews": 7254,
      "##stein": 7255,
      "anticip": 7256,
      "filling": 7257,
      "##exp": 7258,
      "kristen": 7259,
      "pigs": 7260,
      "turning": 7261,
      "turtle": 7262,
      "washed": 7263,
      "sunburned": 7264,
      "silence": 7265,
      "models": 7266,
      "holla": 7267,
      "delivered": 7268,
      "mandyyjirou": 7269,
      "##((((": 7270,
      "lifes": 7271,
      "butterfly": 7272,
      "cruise": 7273,
      "judge": 7274,
      "courtney": 7275,
      "cubs": 7276,
      "dublin": 7277,
      "lesley": 7278,
      "##????????????????": 7279,
      "suddenly": 7280,
      "murder": 7281,
      "##charl": 7282,
      "advance": 7283,
      "entertain": 7284,
      "settings": 7285,
      "kirstieall": 7286,
      "mountains": 7287,
      "foreign": 7288,
      "##rific": 7289,
      "yoga": 7290,
      "printed": 7291,
      "discovered": 7292,
      "effects": 7293,
      "strawberries": 7294,
      "climb": 7295,
      "cameron": 7296,
      "rove1974": 7297,
      "natalie": 7298,
      "inspiration": 7299,
      "sweden": 7300,
      "escape": 7301,
      "upgrade": 7302,
      "customer": 7303,
      "kryst": 7304,
      "shocked": 7305,
      "anxious": 7306,
      "negative": 7307,
      "replacement": 7308,
      "commercial": 7309,
      "embarrass": 7310,
      "allyson": 7311,
      "fifth": 7312,
      "mystery": 7313,
      "saddest": 7314,
      "recognize": 7315,
      "dedicated": 7316,
      "material": 7317,
      "obsessed": 7318,
      "piano": 7319,
      "burrito": 7320,
      "mcdonalds": 7321,
      "preparing": 7322,
      "ultimate": 7323,
      "fyi": 7324,
      "nintendo": 7325,
      "awkward": 7326,
      "knowledge": 7327,
      "williams": 7328,
      "guilty": 7329,
      "edinburgh": 7330,
      "impala_guy": 7331,
      "hawaii": 7332,
      "whilst": 7333,
      "stolen": 7334,
      "immediately": 7335,
      "mandyyjirouxx": 7336,
      "kirstiealley": 7337,
      "\"?": 7338,
      "',": 7339,
      ")...": 7340,
      "199": 7341,
      "3g": 7342,
      "36": 7343,
      "38": 7344,
      "4pm": 7345,
      "64": 7346,
      "75": 7347,
      "7th": 7348,
      "800": 7349,
      ";;": 7350,
      "<<": 7351,
      "?,": 7352,
      "ai": 7353,
      "aer": 7354,
      "aah": 7355,
      "aching": 7356,
      "bh": 7357,
      "bot": 7358,
      "bite": 7359,
      "boooo": 7360,
      "bby": 7361,
      "bare": 7362,
      "boun": 7363,
      "bwa": 7364,
      "ct": 7365,
      "cath": 7366,
      "cyn": 7367,
      "crown": 7368,
      "dor": 7369,
      "dill": 7370,
      "drow": 7371,
      "dia": 7372,
      "dash": 7373,
      "dull": 7374,
      "dare": 7375,
      "duh": 7376,
      "eag": 7377,
      "ets": 7378,
      "ecl": 7379,
      "erik": 7380,
      "fn": 7381,
      "fc": 7382,
      "fift": 7383,
      "fudge": 7384,
      "gang": 7385,
      "gmail": 7386,
      "gene": 7387,
      "hw": 7388,
      "iz": 7389,
      "ira": 7390,
      "irr": 7391,
      "ji": 7392,
      "jst": 7393,
      "jog": 7394,
      "jared": 7395,
      "juss": 7396,
      "kon": 7397,
      "kud": 7398,
      "kayl": 7399,
      "kewl": 7400,
      "lr": 7401,
      "lc": 7402,
      "lah": 7403,
      "lac": 7404,
      "mut": 7405,
      "mim": 7406,
      "mite": 7407,
      "miz": 7408,
      "mcc": 7409,
      "nu": 7410,
      "nim": 7411,
      "nine": 7412,
      "nach": 7413,
      "nash": 7414,
      "naw": 7415,
      "nana": 7416,
      "nhi": 7417,
      "national": 7418,
      "niece": 7419,
      "occ": 7420,
      "ped": 7421,
      "pow": 7422,
      "pers": 7423,
      "poll": 7424,
      "pork": 7425,
      "pete": 7426,
      "pedic": 7427,
      "riot": 7428,
      "sq": 7429,
      "sant": 7430,
      "sally": 7431,
      "sasha": 7432,
      "tiss": 7433,
      "tall": 7434,
      "tuck": 7435,
      "tire": 7436,
      "tape": 7437,
      "vine": 7438,
      "vog": 7439,
      "vod": 7440,
      "wook": 7441,
      "wiz": 7442,
      "wik": 7443,
      "yas": 7444,
      "yuk": 7445,
      "zoe": 7446,
      "zealand": 7447,
      "##nz": 7448,
      "##nam": 7449,
      "##gies": 7450,
      "##lis": 7451,
      "##lers": 7452,
      "##list": 7453,
      "##lace": 7454,
      "##lib": 7455,
      "##o3": 7456,
      "##oong": 7457,
      "##oves": 7458,
      "##hart": 7459,
      "##aoke": 7460,
      "##ault": 7461,
      "##rast": 7462,
      "##read": 7463,
      "##ti": 7464,
      "##spr": 7465,
      "##vl": 7466,
      "##vp": 7467,
      "##via": 7468,
      "##iar": 7469,
      "##pn": 7470,
      "##pes": 7471,
      "##pea": 7472,
      "##pad": 7473,
      "##power": 7474,
      "##jer": 7475,
      "##jul": 7476,
      "##junk": 7477,
      "##james": 7478,
      "##cam": 7479,
      "##cop": 7480,
      "##cass": 7481,
      "##yer": 7482,
      "##dj": 7483,
      "##del": 7484,
      "##bud": 7485,
      "##biz": 7486,
      "##bits": 7487,
      "##wd": 7488,
      "##wer": 7489,
      "##wit": 7490,
      "##wid": 7491,
      "##mg": 7492,
      "##md": 7493,
      "##mz": 7494,
      "##mcc": 7495,
      "##muse": 7496,
      "##0n1": 7497,
      "##47": 7498,
      "##_in": 7499,
      "##_au": 7500,
      "##_the": 7501,
      "##xe": 7502,
      "##xa": 7503,
      "##xi": 7504,
      "##xc": 7505,
      "##kar": 7506,
      "##kardashian": 7507,
      "##far": 7508,
      "##fall": 7509,
      "##foot": 7510,
      "##2k": 7511,
      "##39": 7512,
      "##,,": 7513,
      "##iner": 7514,
      "##inis": 7515,
      "##inty": 7516,
      "##inating": 7517,
      "thi": 7518,
      "thail": 7519,
      "threw": 7520,
      "##erie": 7521,
      "##erina": 7522,
      "toes": 7523,
      "toil": 7524,
      "tokyo": 7525,
      "##ingo": 7526,
      "##anas": 7527,
      "##ators": 7528,
      "theb": 7529,
      "theellen": 7530,
      "##onic": 7531,
      "##eezy": 7532,
      "##arin": 7533,
      "##stor": 7534,
      "##storm": 7535,
      "##style": 7536,
      "##othing": 7537,
      "##eaa": 7538,
      "##ealy": 7539,
      "##eally": 7540,
      "itouch": 7541,
      "andre": 7542,
      "android": 7543,
      "infl": 7544,
      "inbox": 7545,
      "...\"": 7546,
      "##ghhh": 7547,
      "##chell": 7548,
      "##change": 7549,
      "##rek": 7550,
      "whom": 7551,
      "stu": 7552,
      "stell": 7553,
      "stopping": 7554,
      "stole": 7555,
      "bend": 7556,
      "beha": 7557,
      "beats": 7558,
      "##iding": 7559,
      "##idence": 7560,
      "##iddle": 7561,
      "meat": 7562,
      "mell": 7563,
      "meow": 7564,
      "##lym": 7565,
      "##lying": 7566,
      "lobster": 7567,
      "##aden": 7568,
      "##adget": 7569,
      "##amor": 7570,
      "##amas": 7571,
      "##amore": 7572,
      "shuff": 7573,
      "shark": 7574,
      "shade": 7575,
      "shared": 7576,
      "shirts": 7577,
      "sheesh": 7578,
      "shaund": 7579,
      "limo": 7580,
      "##lda": 7581,
      "##sec": 7582,
      "##ura": 7583,
      "##urdy": 7584,
      "##iro": 7585,
      "##ales": 7586,
      "##alog": 7587,
      "frame": 7588,
      "frog": 7589,
      "!!)": 7590,
      "anton": 7591,
      "dod": 7592,
      "twi": 7593,
      "cani": 7594,
      "chin": 7595,
      "chili": 7596,
      "chores": 7597,
      "refresh": 7598,
      "suzy": 7599,
      "comics": 7600,
      "common": 7601,
      "reall": 7602,
      "reader": 7603,
      "##thep": 7604,
      "##theb": 7605,
      "thisis": 7606,
      "##hale": 7607,
      "pred": 7608,
      "prison": 7609,
      "prices": 7610,
      "proof": 7611,
      "##antom": 7612,
      "alan": 7613,
      "plastic": 7614,
      "##usive": 7615,
      "lovel": 7616,
      "tools": 7617,
      "happier": 7618,
      "##este": 7619,
      "##ripp": 7620,
      "##rizz": 7621,
      "asyl": 7622,
      "seemed": 7623,
      "##ando": 7624,
      "abby": 7625,
      "twits": 7626,
      "twitts": 7627,
      "brb": 7628,
      "brent": 7629,
      "brick": 7630,
      "bride": 7631,
      "brunch": 7632,
      "breast": 7633,
      "missy": 7634,
      "##eline": 7635,
      "##umber": 7636,
      "##umbs": 7637,
      "##fficial": 7638,
      "##eeling": 7639,
      "weed": 7640,
      "##ola": 7641,
      "willy": 7642,
      "##inda": 7643,
      "offline": 7644,
      "newcast": 7645,
      "##inem": 7646,
      "spa": 7647,
      "spiders": 7648,
      "moz": 7649,
      "moder": 7650,
      "blink": 7651,
      "howie_": 7652,
      "decl": 7653,
      "device": 7654,
      "debb": 7655,
      "##aac": 7656,
      "##aaah": 7657,
      "##ello": 7658,
      "clients": 7659,
      "twitterverse": 7660,
      "##eared": 7661,
      "##rows": 7662,
      "sac": 7663,
      "sorting": 7664,
      "##apr": 7665,
      "mornings": 7666,
      "##akeup": 7667,
      "coco": 7668,
      "phill": 7669,
      "trash": 7670,
      "sleepin": 7671,
      "sleepover": 7672,
      "veget": 7673,
      "finale": 7674,
      "##eman": 7675,
      "##ags": 7676,
      "##ague": 7677,
      "waited": 7678,
      "friendster": 7679,
      "##iper": 7680,
      "##ipse": 7681,
      "##loe": 7682,
      "##lode": 7683,
      "monster": 7684,
      "monitor": 7685,
      "bites": 7686,
      "bitches": 7687,
      "overall": 7688,
      "shouldnt": 7689,
      "##aze": 7690,
      "legend": 7691,
      "carn": 7692,
      "quotes": 7693,
      "scen": 7694,
      "##ews": 7695,
      "##ewart": 7696,
      "leah": 7697,
      "cran": 7698,
      "crashing": 7699,
      "##odd": 7700,
      "##phot": 7701,
      "##phere": 7702,
      "##she": 7703,
      "unc": 7704,
      "unable": 7705,
      "marian": 7706,
      "##rrl": 7707,
      "peoples": 7708,
      "flip": 7709,
      "flower": 7710,
      "##perry": 7711,
      "smok": 7712,
      "smiles": 7713,
      "became": 7714,
      "joint": 7715,
      "diam": 7716,
      "rainbow": 7717,
      "##eeeeeee": 7718,
      "littlefletcher": 7719,
      "parties": 7720,
      "wrk": 7721,
      "daisy": 7722,
      "##uffin": 7723,
      "lappy": 7724,
      "##quin": 7725,
      "##ashes": 7726,
      "lyr": 7727,
      "damnit": 7728,
      "famil": 7729,
      "ughhhh": 7730,
      "parade": 7731,
      "remix": 7732,
      "remote": 7733,
      "sounded": 7734,
      "boredom": 7735,
      "skate": 7736,
      "skip": 7737,
      "tracy": 7738,
      "coup": 7739,
      "counter": 7740,
      "##green": 7741,
      "stuffs": 7742,
      "belive": 7743,
      "##atte": 7744,
      "sitter": 7745,
      "chances": 7746,
      "farewell": 7747,
      "##iewebbstack": 7748,
      "resched": 7749,
      "##aaaaaa": 7750,
      "cryin": 7751,
      "##ibes": 7752,
      "recipe": 7753,
      "##avin": 7754,
      "##avis": 7755,
      "reports": 7756,
      "pregn": 7757,
      "##meg": 7758,
      "##uzzy": 7759,
      "handy": 7760,
      "##awd": 7761,
      "keza": 7762,
      "##.....": 7763,
      "sooooooo": 7764,
      "failing": 7765,
      "highlight": 7766,
      "prov": 7767,
      "hopeless": 7768,
      "##icted": 7769,
      "indo": 7770,
      "##gled": 7771,
      "macar": 7772,
      "windy": 7773,
      "promised": 7774,
      "acoust": 7775,
      "cooked": 7776,
      "gravity": 7777,
      "##conrad": 7778,
      "security": 7779,
      "filming": 7780,
      "epiph": 7781,
      "seafood": 7782,
      "passes": 7783,
      "password": 7784,
      "milksha": 7785,
      "legit": 7786,
      "calm": 7787,
      "calvin": 7788,
      "bbc": 7789,
      "##carr": 7790,
      "##marsh": 7791,
      "colleag": 7792,
      "microsoft": 7793,
      "chocolates": 7794,
      "dragged": 7795,
      "jackson": 7796,
      "mitchel": 7797,
      "##burger": 7798,
      "sentence": 7799,
      "##gold": 7800,
      "jean": 7801,
      "reasons": 7802,
      "harley": 7803,
      "##joe": 7804,
      "gardening": 7805,
      "##theart": 7806,
      "##thegreat": 7807,
      "unfortunat": 7808,
      "gregg": 7809,
      "forgetting": 7810,
      "iamjonathan": 7811,
      "##check": 7812,
      "bands": 7813,
      "geoff": 7814,
      "stressful": 7815,
      "brave": 7816,
      "views": 7817,
      "##paris": 7818,
      "factor": 7819,
      "factory": 7820,
      "celebrity": 7821,
      "vanilla": 7822,
      "squirre": 7823,
      "gigs": 7824,
      "transport": 7825,
      "##boots": 7826,
      "##struct": 7827,
      "produ": 7828,
      "##iiiii": 7829,
      "audi": 7830,
      "pulling": 7831,
      "##eeze": 7832,
      "costs": 7833,
      "solid": 7834,
      "muse": 7835,
      "rolls": 7836,
      "verizon": 7837,
      "fund": 7838,
      "wallet": 7839,
      "roof": 7840,
      "require": 7841,
      "garr": 7842,
      "empire": 7843,
      "nikki": 7844,
      "notebook": 7845,
      "randomly": 7846,
      "inspired": 7847,
      "##wwwwwwww": 7848,
      "ashleyt": 7849,
      "jenna": 7850,
      "lisa": 7851,
      "michigan": 7852,
      "portugal": 7853,
      "##smith": 7854,
      "homes": 7855,
      "smells": 7856,
      "feedback": 7857,
      "tanning": 7858,
      "position": 7859,
      "laurenconrad": 7860,
      "torn": 7861,
      "manager": 7862,
      "bobby": 7863,
      "bangs": 7864,
      "dollars": 7865,
      "ignoring": 7866,
      "jumped": 7867,
      "connected": 7868,
      "yelled": 7869,
      "bradiewebbstack": 7870,
      "##official": 7871,
      "##aurus": 7872,
      "attacked": 7873,
      "cooper": 7874,
      "allergic": 7875,
      "##xxxxxxxx": 7876,
      "buffalo": 7877,
      "fold": 7878,
      "judd": 7879,
      "frustrating": 7880,
      "##mommy": 7881,
      "deserved": 7882,
      "econom": 7883,
      "shelby": 7884,
      "amber_benson": 7885,
      "knocked": 7886,
      "auntie": 7887,
      "muscle": 7888,
      "taco": 7889,
      "tacos": 7890,
      "galax": 7891,
      "sophie": 7892,
      "chrome": 7893,
      "suffering": 7894,
      "condition": 7895,
      "ikea": 7896,
      "muffin": 7897,
      "climbing": 7898,
      "announce": 7899,
      "discussion": 7900,
      "gaming": 7901,
      "opportun": 7902,
      "feature": 7903,
      "goooood": 7904,
      "##bnation": 7905,
      "jewel": 7906,
      "title": 7907,
      "podcast": 7908,
      "applied": 7909,
      "terminator": 7910,
      "woah": 7911,
      "welsh": 7912,
      "greetings": 7913,
      "teddy": 7914,
      "tuned": 7915,
      "innoc": 7916,
      "sneezing": 7917,
      "prepare": 7918,
      "confirmed": 7919,
      "!?!?!": 7920,
      ")))": 7921,
      "nurse": 7922,
      "blokes": 7923,
      "september": 7924,
      "tommorow": 7925,
      "sauce": 7926,
      "tubes": 7927,
      "terrence": 7928,
      "registered": 7929,
      "april": 7930,
      "tyler": 7931,
      "ubuntu": 7932,
      "stunning": 7933,
      "asshole": 7934,
      ">.<": 7935,
      "##install": 7936,
      "sausage": 7937,
      "satisfied": 7938,
      "basketball": 7939,
      "dylan": 7940,
      "hq0n1": 7941,
      "korea": 7942,
      "prosper": 7943,
      "##connected": 7944,
      "eclipse": 7945,
      "vinegar": 7946,
      "thailand": 7947,
      "theellenshow": 7948,
      "newcastle": 7949,
      "howie_d": 7950,
      "pregnant": 7951,
      "keza34": 7952,
      "colleagues": 7953,
      "iamjonathancook": 7954,
      "!:": 7955,
      "\"!": 7956,
      "'!": 7957,
      "'..": 7958,
      "'...": 7959,
      "1am": 7960,
      "2night": 7961,
      "42": 7962,
      "4ever": 7963,
      "5am": 7964,
      "70": 7965,
      "88": 7966,
      "8th": 7967,
      "94": 7968,
      "95": 7969,
      ":\"": 7970,
      ":[": 7971,
      "?...": 7972,
      "aun": 7973,
      "apl": 7974,
      "bj": 7975,
      "bom": 7976,
      "bun": 7977,
      "bake": 7978,
      "bod": 7979,
      "bond": 7980,
      "bbl": 7981,
      "bail": 7982,
      "bald": 7983,
      "boooooo": 7984,
      "cp": 7985,
      "cus": 7986,
      "cac": 7987,
      "css": 7988,
      "civ": 7989,
      "cinnam": 7990,
      "dot": 7991,
      "dre": 7992,
      "dere": 7993,
      "dess": 7994,
      "dip": 7995,
      "denny": 7996,
      "dyn": 7997,
      "duc": 7998,
      "e3": 7999,
      "fot": 8000,
      "file": 8001,
      "fog": 8002,
      "furn": 8003,
      "font": 8004,
      "ferr": 8005,
      "fusion": 8006,
      "gt": 8007,
      "gim": 8008,
      "gel": 8009,
      "gna": 8010,
      "giv": 8011,
      "gary": 8012,
      "gib": 8013,
      "grew": 8014,
      "het": 8015,
      "hic": 8016,
      "hud": 8017,
      "hog": 8018,
      "ist": 8019,
      "icon": 8020,
      "izzy": 8021,
      "iantal": 8022,
      "jill": 8023,
      "jays": 8024,
      "judy": 8025,
      "kg": 8026,
      "kan": 8027,
      "kenn": 8028,
      "kale": 8029,
      "kicks": 8030,
      "l8": 8031,
      "lal": 8032,
      "laughter": 8033,
      "lulu": 8034,
      "mb": 8035,
      "mun": 8036,
      "mug": 8037,
      "mates": 8038,
      "mask": 8039,
      "mango": 8040,
      "nj": 8041,
      "nas": 8042,
      "nad": 8043,
      "nest": 8044,
      "nort": 8045,
      "nipp": 8046,
      "naught": 8047,
      "nugget": 8048,
      "od": 8049,
      "pg": 8050,
      "pp": 8051,
      "pw": 8052,
      "pul": 8053,
      "pem": 8054,
      "pup": 8055,
      "patter": 8056,
      "peas": 8057,
      "rt": 8058,
      "rome": 8059,
      "rant": 8060,
      "roy": 8061,
      "rox": 8062,
      "russ": 8063,
      "rails": 8064,
      "ripped": 8065,
      "rules": 8066,
      "sed": 8067,
      "sid": 8068,
      "sight": 8069,
      "sack": 8070,
      "sons": 8071,
      "srs": 8072,
      "sandy": 8073,
      "sissy": 8074,
      "tp": 8075,
      "tay": 8076,
      "tack": 8077,
      "tess": 8078,
      "tel": 8079,
      "tang": 8080,
      "tank": 8081,
      "tierd": 8082,
      "wes": 8083,
      "wut": 8084,
      "wack": 8085,
      "wrap": 8086,
      "zone": 8087,
      "zack": 8088,
      "zero": 8089,
      "##nm": 8090,
      "##nar": 8091,
      "##nut": 8092,
      "##gir": 8093,
      "##gia": 8094,
      "##lor": 8095,
      "##len": 8096,
      "##live": 8097,
      "##hw": 8098,
      "##hes": 8099,
      "##hot": 8100,
      "##hill": 8101,
      "##hard": 8102,
      "##hib": 8103,
      "##hinks": 8104,
      "##a8": 8105,
      "##ru": 8106,
      "##ras": 8107,
      "##rated": 8108,
      "##rams": 8109,
      "##tal": 8110,
      "##sg": 8111,
      "##sd": 8112,
      "##sav": 8113,
      "##iott": 8114,
      "##ieee": 8115,
      "##iya": 8116,
      "##pot": 8117,
      "##pie": 8118,
      "##point": 8119,
      "##jt": 8120,
      "##jv": 8121,
      "##j106": 8122,
      "##uzz": 8123,
      "##uits": 8124,
      "##come": 8125,
      "##cess": 8126,
      "##cul": 8127,
      "##col": 8128,
      "##cour": 8129,
      "##cash": 8130,
      "##cript": 8131,
      "##yan": 8132,
      "##df": 8133,
      "##dz": 8134,
      "##dan": 8135,
      "##des": 8136,
      "##dar": 8137,
      "##date": 8138,
      "##dul": 8139,
      "##bz": 8140,
      "##bal": 8141,
      "##bone": 8142,
      "##bob": 8143,
      "##bitch": 8144,
      "##wp": 8145,
      "##wan": 8146,
      "##wine": 8147,
      "##wife": 8148,
      "##mal": 8149,
      "##mie": 8150,
      "##mil": 8151,
      "##mys": 8152,
      "##mach": 8153,
      "##mont": 8154,
      "##made": 8155,
      "##61": 8156,
      "##0o": 8157,
      "##0r": 8158,
      "##4d": 8159,
      "##41": 8160,
      "##56": 8161,
      "##54": 8162,
      "##53": 8163,
      "##58": 8164,
      "##_e": 8165,
      "##_xx": 8166,
      "##_sp": 8167,
      "##xy": 8168,
      "##kp": 8169,
      "##kit": 8170,
      "##kate": 8171,
      "##kitty": 8172,
      "##f3": 8173,
      "##fort": 8174,
      "##father": 8175,
      "##fair": 8176,
      "##fillion": 8177,
      "##2b": 8178,
      "##300": 8179,
      "##360": 8180,
      "##qe": 8181,
      "##qp": 8182,
      "##zu": 8183,
      "##zon": 8184,
      "##==": 8185,
      "##\\/": 8186,
      "##inee": 8187,
      "##inate": 8188,
      "thou": 8189,
      "threat": 8190,
      "thirty": 8191,
      "##erin": 8192,
      "##erto": 8193,
      "tooooo": 8194,
      "tourn": 8195,
      "towards": 8196,
      "##inge": 8197,
      "##order": 8198,
      "##anz": 8199,
      "##ancy": 8200,
      "the_": 8201,
      "##lle": 8202,
      "##aya": 8203,
      "##iton": 8204,
      "##itation": 8205,
      "##iture": 8206,
      "##itude": 8207,
      "##ndr": 8208,
      "##arah": 8209,
      "##stood": 8210,
      "##stick": 8211,
      "##stud": 8212,
      "haa": 8213,
      "haz": 8214,
      "halo": 8215,
      "youu": 8216,
      "youuuuu": 8217,
      "##otton": 8218,
      "##eau": 8219,
      "itag": 8220,
      "##etime": 8221,
      "##uto": 8222,
      "##enc": 8223,
      "##enz": 8224,
      "##icular": 8225,
      "onion": 8226,
      "##cht": 8227,
      "isaac": 8228,
      "forth": 8229,
      "##asher": 8230,
      "##asco": 8231,
      "stink": 8232,
      "steam": 8233,
      "styl": 8234,
      "stacey": 8235,
      "##kel": 8236,
      "beating": 8237,
      "melo": 8238,
      "sos": 8239,
      "##lyw": 8240,
      "logo": 8241,
      "logging": 8242,
      "##ads": 8243,
      "##amber": 8244,
      "shir": 8245,
      "shine": 8246,
      "shattered": 8247,
      "lift": 8248,
      "dayy": 8249,
      "##ires": 8250,
      "##aling": 8251,
      "##alcon": 8252,
      "##uns": 8253,
      "##pppp": 8254,
      "##imental": 8255,
      "justice": 8256,
      "anne": 8257,
      "dol": 8258,
      "twins": 8259,
      "twenty": 8260,
      "##opo": 8261,
      "##opia": 8262,
      "chal": 8263,
      "chew": 8264,
      "chatt": 8265,
      "chase": 8266,
      "reb": 8267,
      "rez": 8268,
      "reinstall": 8269,
      "sud": 8270,
      "suic": 8271,
      "allison": 8272,
      "upcoming": 8273,
      "comed": 8274,
      "comet": 8275,
      "realy": 8276,
      "##tha": 8277,
      "##thon": 8278,
      "##thes": 8279,
      "##hac": 8280,
      "##hab": 8281,
      "prat": 8282,
      "pride": 8283,
      "alm": 8284,
      "aloha": 8285,
      "amb": 8286,
      "among": 8287,
      "##aston": 8288,
      "##astar": 8289,
      "##issa": 8290,
      "donna": 8291,
      "happiest": 8292,
      "##eston": 8293,
      "##estar": 8294,
      "male": 8295,
      "##cts": 8296,
      "imo": 8297,
      "imac": 8298,
      "##rier": 8299,
      "##rian": 8300,
      "award": 8301,
      "sees": 8302,
      "##abs": 8303,
      "##abear": 8304,
      "aband": 8305,
      "ability": 8306,
      "!!!...": 8307,
      "bris": 8308,
      "brun": 8309,
      "bros": 8310,
      "##arted": 8311,
      "some1": 8312,
      "lolol": 8313,
      "##ffy": 8314,
      "##icket": 8315,
      "##ulk": 8316,
      "##uleta": 8317,
      "##olar": 8318,
      "##olis": 8319,
      "##olution": 8320,
      "##obile": 8321,
      "spook": 8322,
      "sport": 8323,
      "bliss": 8324,
      "blowing": 8325,
      "exotic": 8326,
      "exchange": 8327,
      "slower": 8328,
      "dez": 8329,
      "dean": 8330,
      "dexter": 8331,
      "##olley": 8332,
      "##oynter": 8333,
      "##reative": 8334,
      "##morgan": 8335,
      "ohio": 8336,
      "funky": 8337,
      "guinea": 8338,
      "wax": 8339,
      "waves": 8340,
      "clap": 8341,
      "clare": 8342,
      "twitterers": 8343,
      "grin": 8344,
      "gran": 8345,
      "gram": 8346,
      "grub": 8347,
      "sail": 8348,
      "sacr": 8349,
      "herself": 8350,
      "sorted": 8351,
      "##apa": 8352,
      "coat": 8353,
      "phase": 8354,
      "env": 8355,
      "trick": 8356,
      "convo": 8357,
      "##angirl": 8358,
      "beth": 8359,
      "betty": 8360,
      "pole": 8361,
      "finan": 8362,
      "yeaa": 8363,
      "##emic": 8364,
      "##employ": 8365,
      "##aged": 8366,
      "##agne": 8367,
      "section": 8368,
      "themselves": 8369,
      "##fever": 8370,
      "##uper": 8371,
      "leather": 8372,
      "##aholic": 8373,
      "tweetup": 8374,
      "pepper": 8375,
      "crit": 8376,
      "cramp": 8377,
      "##aka": 8378,
      "##shot": 8379,
      "unemploy": 8380,
      "##anscott": 8381,
      "adams": 8382,
      "adult": 8383,
      "##eyes": 8384,
      "march": 8385,
      "flow": 8386,
      "flies": 8387,
      "fluffy": 8388,
      "bestie": 8389,
      "somethin": 8390,
      "smashed": 8391,
      "sucky": 8392,
      "##belly": 8393,
      "jokes": 8394,
      "##ichelle": 8395,
      "particular": 8396,
      "yearbook": 8397,
      "starship": 8398,
      "daft": 8399,
      "actress": 8400,
      "mint": 8401,
      "##nerd": 8402,
      "cooler": 8403,
      "##iviney": 8404,
      "##bron": 8405,
      "looove": 8406,
      "loosing": 8407,
      "##fred": 8408,
      "##inton": 8409,
      "##ordan": 8410,
      "lyn": 8411,
      "hardcore": 8412,
      "##mann": 8413,
      "dislike": 8414,
      "disgust": 8415,
      "pero": 8416,
      "percent": 8417,
      "compared": 8418,
      "lovee": 8419,
      "dann": 8420,
      "danc": 8421,
      "excite": 8422,
      "kinds": 8423,
      "kinderg": 8424,
      "famili": 8425,
      "built": 8426,
      "paramore": 8427,
      "nothings": 8428,
      "##creen": 8429,
      "checkin": 8430,
      "babygirl": 8431,
      "ski": 8432,
      "##coach": 8433,
      "##coffee": 8434,
      "10pm": 8435,
      "##law": 8436,
      "clever": 8437,
      "cleared": 8438,
      "musicmonday": 8439,
      "##zzle": 8440,
      "##cycle": 8441,
      "meetings": 8442,
      "##blond": 8443,
      "hahahah": 8444,
      "awwwwwww": 8445,
      "##tweets": 8446,
      "desire": 8447,
      "##ibility": 8448,
      "supply": 8449,
      "recital": 8450,
      "repeat": 8451,
      "planet": 8452,
      "trekk": 8453,
      "prec": 8454,
      "prem": 8455,
      "##dev": 8456,
      "coldplay": 8457,
      "instr": 8458,
      "kills": 8459,
      "killers": 8460,
      "charm": 8461,
      "##uuup": 8462,
      "blogtv": 8463,
      "annie": 8464,
      "restr": 8465,
      "oprah": 8466,
      "assist": 8467,
      "assume": 8468,
      "keith": 8469,
      "##cloud": 8470,
      "hits": 8471,
      "##onte": 8472,
      "scrubs": 8473,
      "contrib": 8474,
      "expired": 8475,
      "##1986": 8476,
      "index": 8477,
      "curve": 8478,
      "acqu": 8479,
      "##121": 8480,
      "##1234": 8481,
      "completed": 8482,
      "compliment": 8483,
      "##annab": 8484,
      "##yyyyyy": 8485,
      "decent": 8486,
      "burgers": 8487,
      "grabb": 8488,
      "gooood": 8489,
      "invis": 8490,
      "shorts": 8491,
      "##umpy": 8492,
      "##umpet": 8493,
      "minds": 8494,
      "relief": 8495,
      "passing": 8496,
      "passion": 8497,
      "opened": 8498,
      "icecream": 8499,
      "texts": 8500,
      "linked": 8501,
      "xxxxx": 8502,
      "12th": 8503,
      "president": 8504,
      "##ampa": 8505,
      "pasta": 8506,
      "laurie": 8507,
      "county": 8508,
      "##mingham": 8509,
      "artists": 8510,
      "jacket": 8511,
      "jackie": 8512,
      "angie": 8513,
      "lightning": 8514,
      "nicky": 8515,
      "karaoke": 8516,
      "##stars": 8517,
      "##starchild": 8518,
      "##star007": 8519,
      "nicks": 8520,
      "nicol": 8521,
      "4jb": 8522,
      "fixing": 8523,
      "honour": 8524,
      "##mony": 8525,
      "##monster": 8526,
      "magn": 8527,
      "selena": 8528,
      "basement": 8529,
      "seasons": 8530,
      "layout": 8531,
      "geography": 8532,
      "mmmmmm": 8533,
      "patron": 8534,
      "raff": 8535,
      "effin": 8536,
      "guts": 8537,
      "standard": 8538,
      "smaller": 8539,
      "##sketch": 8540,
      "commute": 8541,
      "absolut": 8542,
      "genius": 8543,
      "british": 8544,
      "espress": 8545,
      "digging": 8546,
      "pleasant": 8547,
      "transform": 8548,
      "apartments": 8549,
      "touched": 8550,
      "holds": 8551,
      "audience": 8552,
      "solution": 8553,
      "mua": 8554,
      "experien": 8555,
      "boxes": 8556,
      "18th": 8557,
      "distance": 8558,
      "elle": 8559,
      "fuel": 8560,
      "current": 8561,
      "creating": 8562,
      "owner": 8563,
      "##jean": 8564,
      "document": 8565,
      "matters": 8566,
      "votes": 8567,
      "devast": 8568,
      "engine": 8569,
      "fatty": 8570,
      "larry": 8571,
      "baking": 8572,
      "bahaha": 8573,
      "umbre": 8574,
      "jasonbrad": 8575,
      "spamming": 8576,
      "depend": 8577,
      "addiction": 8578,
      ".................": 8579,
      "neighbours": 8580,
      "hayfever": 8581,
      "oliv": 8582,
      "rachael": 8583,
      "##roberts": 8584,
      "soulja": 8585,
      "include": 8586,
      "dollar": 8587,
      "recovered": 8588,
      "ignored": 8589,
      "silent": 8590,
      "ahhhhhh": 8591,
      "victory": 8592,
      "dragon": 8593,
      "bonus": 8594,
      "##impson": 8595,
      "programme": 8596,
      "cudd": 8597,
      "jesse": 8598,
      "generation": 8599,
      "80s": 8600,
      "seniors": 8601,
      "##hearts": 8602,
      "cowork": 8603,
      "optim": 8604,
      "##rocks": 8605,
      "atmos": 8606,
      "domain": 8607,
      "venue": 8608,
      "cruel": 8609,
      "technically": 8610,
      "batman": 8611,
      "estate": 8612,
      "##0210": 8613,
      "pamper": 8614,
      "woods": 8615,
      "cabin": 8616,
      "kriss": 8617,
      "virgin": 8618,
      "##michael": 8619,
      "strip": 8620,
      "chaos": 8621,
      "chemistry": 8622,
      "girlfriends": 8623,
      "taxi": 8624,
      "attending": 8625,
      "skinny": 8626,
      "##________": 8627,
      "opera": 8628,
      "operation": 8629,
      "##grace": 8630,
      "marketing": 8631,
      "girly": 8632,
      "louis": 8633,
      "symp": 8634,
      "tutor": 8635,
      "sweaty": 8636,
      "awesomeness": 8637,
      "hehehehe": 8638,
      "strawberry": 8639,
      "motivated": 8640,
      "muffins": 8641,
      "zombies": 8642,
      "##hayes": 8643,
      "improve": 8644,
      "tiffany": 8645,
      "##rupt": 8646,
      "champion": 8647,
      "swedish": 8648,
      "nigga": 8649,
      "accepted": 8650,
      "nathanfillion": 8651,
      "sowwy": 8652,
      "limeice": 8653,
      "anxiety": 8654,
      "removed": 8655,
      "archuleta": 8656,
      "scotland": 8657,
      "polaroid": 8658,
      "stephenfry": 8659,
      "spoiled": 8660,
      "bastard": 8661,
      "management": 8662,
      "sunset": 8663,
      "ridiculously": 8664,
      "$$$": 8665,
      "cigar": 8666,
      "cobra": 8667,
      "joseph": 8668,
      "tiger": 8669,
      "stalker": 8670,
      "shadow": 8671,
      "juicystar007": 8672,
      "utterly": 8673,
      "circus": 8674,
      "pounds": 8675,
      "settle": 8676,
      "cheesy": 8677,
      "reference": 8678,
      "snuggle": 8679,
      "professional": 8680,
      "translation": 8681,
      "kitties": 8682,
      "##pherd": 8683,
      "refuse": 8684,
      "##ipedia": 8685,
      "selected": 8686,
      "quarter": 8687,
      "jamie_oliver": 8688,
      "kasey": 8689,
      "ooooh": 8690,
      "safari": 8691,
      "struggling": 8692,
      "accomplished": 8693,
      "citiz": 8694,
      "dissap": 8695,
      "##eautiful": 8696,
      "##eapple": 8697,
      "rebecc": 8698,
      "separate": 8699,
      "rescue": 8700,
      "concentrate": 8701,
      "industry": 8702,
      "grandmother": 8703,
      "americans": 8704,
      "-.-": 8705,
      "ireland": 8706,
      "korean": 8707,
      "##oenix": 8708,
      "crawling": 8709,
      "surrounded": 8710,
      "##glasses": 8711,
      "cynth": 8712,
      "etsy": 8713,
      "fifteen": 8714,
      "kudos": 8715,
      "nachos": 8716,
      "wikipedia": 8717,
      "##junkie": 8718,
      "shuffle": 8719,
      "shaundiviney": 8720,
      "debbie": 8721,
      "lyrics": 8722,
      "indoors": 8723,
      "acoustic": 8724,
      "ashleytisdale": 8725,
      "juddday": 8726,
      "blokeslib": 8727,
      "terrencej106": 8728,
      "dessert": 8729,
      "furniture": 8730,
      "iantalbot": 8731,
      "kalebnation": 8732,
      "pattern": 8733,
      "srsly": 8734,
      "itagg": 8735,
      "jasonbradbury": 8736,
      "!,": 8737,
      "*.": 8738,
      ".'": 8739,
      "04": 8740,
      "32": 8741,
      "37": 8742,
      "44": 8743,
      "79": 8744,
      "90210": 8745,
      ":\\": 8746,
      "<--": 8747,
      "__": 8748,
      "ast": 8749,
      "aust": 8750,
      "aver": 8751,
      "aub": 8752,
      "aaaaa": 8753,
      "aches": 8754,
      "bone": 8755,
      "bry": 8756,
      "bart": 8757,
      "bead": 8758,
      "beet": 8759,
      "bik": 8760,
      "batt": 8761,
      "bkk": 8762,
      "bucks": 8763,
      "busted": 8764,
      "booooo": 8765,
      "bryan": 8766,
      "ck": 8767,
      "cf": 8768,
      "cld": 8769,
      "cere": 8770,
      "cum": 8771,
      "cure": 8772,
      "cord": 8773,
      "crist": 8774,
      "cache": 8775,
      "dg": 8776,
      "ding": 8777,
      "doo": 8778,
      "dood": 8779,
      "dion": 8780,
      "dag": 8781,
      "dunk": 8782,
      "dual": 8783,
      "dyed": 8784,
      "ez": 8785,
      "ether": 8786,
      "ego": 8787,
      "ewww": 8788,
      "fer": 8789,
      "fon": 8790,
      "fee": 8791,
      "fasc": 8792,
      "gent": 8793,
      "gnight": 8794,
      "gurl": 8795,
      "gained": 8796,
      "h1": 8797,
      "han": 8798,
      "hater": 8799,
      "hint": 8800,
      "ia": 8801,
      "izz": 8802,
      "jin": 8803,
      "jar": 8804,
      "jade": 8805,
      "kle": 8806,
      "kos": 8807,
      "kap": 8808,
      "kathy": 8809,
      "lg": 8810,
      "lys": 8811,
      "lens": 8812,
      "leeds": 8813,
      "mh": 8814,
      "mit": 8815,
      "mast": 8816,
      "mash": 8817,
      "np": 8818,
      "nes": 8819,
      "nit": 8820,
      "nate": 8821,
      "nag": 8822,
      "nxt": 8823,
      "nause": 8824,
      "nath": 8825,
      "nich": 8826,
      "nats": 8827,
      "nina": 8828,
      "niq": 8829,
      "nvm": 8830,
      "oi": 8831,
      "oak": 8832,
      "o_o": 8833,
      "olym": 8834,
      "pk": 8835,
      "pout": 8836,
      "peep": 8837,
      "pong": 8838,
      "pine": 8839,
      "pau": 8840,
      "pops": 8841,
      "purch": 8842,
      "powers": 8843,
      "qld": 8844,
      "rb": 8845,
      "rf": 8846,
      "reel": 8847,
      "rul": 8848,
      "rays": 8849,
      "rag": 8850,
      "rss": 8851,
      "rib": 8852,
      "sess": 8853,
      "santa": 8854,
      "tn": 8855,
      "tu": 8856,
      "tas": 8857,
      "tie": 8858,
      "teen": 8859,
      "tty": 8860,
      "tisdale": 8861,
      "ud": 8862,
      "u2": 8863,
      "vo": 8864,
      "vm": 8865,
      "var": 8866,
      "vast": 8867,
      "vel": 8868,
      "vene": 8869,
      "wot": 8870,
      "wid": 8871,
      "wrist": 8872,
      "weth": 8873,
      "wango": 8874,
      "wreck": 8875,
      "yeeee": 8876,
      "yooo": 8877,
      "zo": 8878,
      "##gp": 8879,
      "##gw": 8880,
      "##g3": 8881,
      "##gel": 8882,
      "##gig": 8883,
      "##gens": 8884,
      "##grrl": 8885,
      "##l0": 8886,
      "##lon": 8887,
      "##lea": 8888,
      "##lal": 8889,
      "##lking": 8890,
      "##lets": 8891,
      "##lines": 8892,
      "##hd": 8893,
      "##hel": 8894,
      "##hum": 8895,
      "##hig": 8896,
      "##hey": 8897,
      "##hopp": 8898,
      "##high": 8899,
      "##hugh": 8900,
      "##aan": 8901,
      "##rt": 8902,
      "##rp": 8903,
      "##ril": 8904,
      "##roc": 8905,
      "##rina": 8906,
      "##tp": 8907,
      "##tu": 8908,
      "##tam": 8909,
      "##tur": 8910,
      "##v3": 8911,
      "##vor": 8912,
      "##vas": 8913,
      "##vol": 8914,
      "##iving": 8915,
      "##ioc": 8916,
      "##ping": 8917,
      "##pit": 8918,
      "##pers": 8919,
      "##park": 8920,
      "##pants": 8921,
      "##jk": 8922,
      "##jas": 8923,
      "##jew": 8924,
      "##jose": 8925,
      "##uals": 8926,
      "##cee": 8927,
      "##care": 8928,
      "##cles": 8929,
      "##case": 8930,
      "##cups": 8931,
      "##yh": 8932,
      "##yx": 8933,
      "##yard": 8934,
      "##yles": 8935,
      "##ygirl": 8936,
      "##dm": 8937,
      "##ded": 8938,
      "##dig": 8939,
      "##dav": 8940,
      "##dress": 8941,
      "##bm": 8942,
      "##bes": 8943,
      "##bir": 8944,
      "##bol": 8945,
      "##bod": 8946,
      "##bak": 8947,
      "##bike": 8948,
      "##btr": 8949,
      "##bears": 8950,
      "##bomb": 8951,
      "##wb": 8952,
      "##wel": 8953,
      "##wall": 8954,
      "##watch": 8955,
      "##wag": 8956,
      "##mp": 8957,
      "##mill": 8958,
      "##mell": 8959,
      "##mans": 8960,
      "##mare": 8961,
      "##master": 8962,
      "##mouth": 8963,
      "##617": 8964,
      "##4h": 8965,
      "##4life": 8966,
      "##52": 8967,
      "##_a": 8968,
      "##_y": 8969,
      "##_0": 8970,
      "##_re": 8971,
      "##_ra": 8972,
      "##_and": 8973,
      "##_sh": 8974,
      "##_girl": 8975,
      "##_sk": 8976,
      "##xie": 8977,
      "##kb": 8978,
      "##kf": 8979,
      "##kee": 8980,
      "##kill": 8981,
      "##kers": 8982,
      "##kies": 8983,
      "##kia": 8984,
      "##krist": 8985,
      "##f4": 8986,
      "##fur": 8987,
      "##fah": 8988,
      "##fty": 8989,
      "##fact": 8990,
      "##214": 8991,
      "##96": 8992,
      "##93": 8993,
      "##1p": 8994,
      "##>>": 8995,
      "thirsty": 8996,
      "thumbs": 8997,
      "##eric": 8998,
      "##eries": 8999,
      "torr": 9000,
      "tops": 9001,
      "tootha": 9002,
      "##orp": 9003,
      "##orks": 9004,
      "##orate": 9005,
      "##oration": 9006,
      "##oria": 9007,
      "##orary": 9008,
      "##anic": 9009,
      "##anner": 9010,
      "##anced": 9011,
      "##atomy": 9012,
      "##once": 9013,
      "##onne": 9014,
      "##llike": 9015,
      "##eena": 9016,
      "##esa": 9017,
      "##ndar": 9018,
      "##ndred": 9019,
      "##oos": 9020,
      "##arys": 9021,
      "##army": 9022,
      "##omo": 9023,
      "##omit": 9024,
      "##omet": 9025,
      "##omen": 9026,
      "##eds": 9027,
      "##stop": 9028,
      "##stra": 9029,
      "##stell": 9030,
      "hairst": 9031,
      "habit": 9032,
      "hacked": 9033,
      "##oted": 9034,
      "##otcom": 9035,
      "##veland": 9036,
      "##eash": 9037,
      "##ealf": 9038,
      "##isis": 9039,
      "mys": 9040,
      "##etty": 9041,
      "##utter": 9042,
      "andys": 9043,
      "##icit": 9044,
      "ink": 9045,
      "ingr": 9046,
      "inlove": 9047,
      "intr": 9048,
      "invent": 9049,
      "...?": 9050,
      "##ghan": 9051,
      "##chin": 9052,
      "##chet": 9053,
      "##chik": 9054,
      "fors": 9055,
      "forest": 9056,
      "forums": 9057,
      "##asi": 9058,
      "whack": 9059,
      "wheres": 9060,
      "stan": 9061,
      "stone": 9062,
      "stac": 9063,
      "stamp": 9064,
      "stealth": 9065,
      "sticks": 9066,
      "stairs": 9067,
      "beard": 9068,
      "beers": 9069,
      "beloved": 9070,
      "##idy": 9071,
      "##iden": 9072,
      "##idel": 9073,
      "soy": 9074,
      "##lyah": 9075,
      "lobby": 9076,
      "##ading": 9077,
      "##adon": 9078,
      "##aday": 9079,
      "##addy": 9080,
      "##amc": 9081,
      "##amar": 9082,
      "##amad": 9083,
      "sham": 9084,
      "shopp": 9085,
      "shave": 9086,
      "shane": 9087,
      "shape": 9088,
      "gos": 9089,
      "gov": 9090,
      "goat": 9091,
      "gover": 9092,
      "##usting": 9093,
      "##ldn": 9094,
      "##lder": 9095,
      "##uro": 9096,
      "##tera": 9097,
      "##alis": 9098,
      "##alie": 9099,
      "##aline": 9100,
      "##ppus": 9101,
      "##ieo": 9102,
      "froz": 9103,
      "##imm": 9104,
      "##imum": 9105,
      "!!...": 9106,
      "analy": 9107,
      "##oody": 9108,
      "doh": 9109,
      "dos": 9110,
      "dope": 9111,
      "doggy": 9112,
      "heath": 9113,
      "worn": 9114,
      "twin": 9115,
      "canal": 9116,
      "##opher": 9117,
      "chu": 9118,
      "chea": 9119,
      "chile": 9120,
      "chose": 9121,
      "chron": 9122,
      "cheek": 9123,
      "chair": 9124,
      "chai": 9125,
      "reck": 9126,
      "rebel": 9127,
      "neat": 9128,
      "nell": 9129,
      "goodby": 9130,
      "##ryder": 9131,
      "##ryanscott": 9132,
      "react": 9133,
      "##entz": 9134,
      "##thr": 9135,
      "##ths": 9136,
      "##thel": 9137,
      "thisstarchild": 9138,
      "##essive": 9139,
      "##ilee": 9140,
      "novel": 9141,
      "##anted": 9142,
      "##usch": 9143,
      "amor": 9144,
      "amen": 9145,
      "likey": 9146,
      "gotcha": 9147,
      "donny": 9148,
      "##rab": 9149,
      "##ested": 9150,
      "mak": 9151,
      "##rien": 9152,
      "knw": 9153,
      "knack": 9154,
      "seek": 9155,
      "##ishing": 9156,
      "##oso": 9157,
      "##osen": 9158,
      "##osoph": 9159,
      "breed": 9160,
      "misss": 9161,
      "##artist": 9162,
      "##umble": 9163,
      "##umps": 9164,
      "##eeping": 9165,
      "##ardo": 9166,
      "##ardi": 9167,
      "##ulg": 9168,
      "##ula": 9169,
      "##nington": 9170,
      "##oline": 9171,
      "##obb": 9172,
      "newborn": 9173,
      "##gele": 9174,
      "spare": 9175,
      "spicy": 9176,
      "blisters": 9177,
      "exited": 9178,
      "nightmar": 9179,
      "howard": 9180,
      "##opez": 9181,
      "slim": 9182,
      "slack": 9183,
      "slap": 9184,
      "##mmmm": 9185,
      "dew": 9186,
      "##uckle": 9187,
      "guide": 9188,
      "clay": 9189,
      "clau": 9190,
      "clair": 9191,
      "clothing": 9192,
      "twittered": 9193,
      "twitterville": 9194,
      "hopeful": 9195,
      "grill": 9196,
      "faire": 9197,
      "##ounds": 9198,
      "orch": 9199,
      "dropping": 9200,
      "sao": 9201,
      "sorta": 9202,
      "##apan": 9203,
      "##ously": 9204,
      "coff": 9205,
      "encou": 9206,
      "trop": 9207,
      "tricky": 9208,
      "convert": 9209,
      "construct": 9210,
      "##angers": 9211,
      "poke": 9212,
      "poly": 9213,
      "popp": 9214,
      "popping": 9215,
      "##emp": 9216,
      "##empl": 9217,
      "##aging": 9218,
      "##owns": 9219,
      "tonights": 9220,
      "mann": 9221,
      "manly": 9222,
      "##istan": 9223,
      "##irlines": 9224,
      "selection": 9225,
      "##logger": 9226,
      "monkey": 9227,
      "overhe": 9228,
      "##nya": 9229,
      "##picture": 9230,
      "##asso": 9231,
      "shoulda": 9232,
      "sweep": 9233,
      "##aza": 9234,
      "leop": 9235,
      "carrie": 9236,
      "quad": 9237,
      "quilt": 9238,
      "tryna": 9239,
      "scrap": 9240,
      "league": 9241,
      "crunch": 9242,
      "crime": 9243,
      "creek": 9244,
      "##oda": 9245,
      "##phill": 9246,
      "##phel": 9247,
      "downstairs": 9248,
      "sunglasses": 9249,
      "##shire": 9250,
      "##ships": 9251,
      "unit": 9252,
      "uncom": 9253,
      "universe": 9254,
      "unexp": 9255,
      "admin": 9256,
      "startrek": 9257,
      "marie": 9258,
      "##place": 9259,
      "madre": 9260,
      "thankfully": 9261,
      "werew": 9262,
      "movin": 9263,
      "moves": 9264,
      "apples": 9265,
      "##max": 9266,
      "smith": 9267,
      "##eaky": 9268,
      "sucker": 9269,
      "hire": 9270,
      "##bec": 9271,
      "##beats": 9272,
      "diana": 9273,
      "glen": 9274,
      "glenn": 9275,
      "nevermind": 9276,
      "##cience": 9277,
      "##toad": 9278,
      "earn": 9279,
      "particip": 9280,
      "urs": 9281,
      "written": 9282,
      "chef": 9283,
      "acts": 9284,
      "activity": 9285,
      "sickness": 9286,
      "damage": 9287,
      "##mental": 9288,
      "ours": 9289,
      "##brand": 9290,
      "##broken": 9291,
      "##bridge": 9292,
      "loooong": 9293,
      "crab": 9294,
      "##ender": 9295,
      "##sons": 9296,
      "##fran": 9297,
      "##frank": 9298,
      "##frances": 9299,
      "hot30": 9300,
      "##spark": 9301,
      "##heather": 9302,
      "triple": 9303,
      "realbill": 9304,
      "hardest": 9305,
      "##mania": 9306,
      "##iann": 9307,
      "string": 9308,
      "strand": 9309,
      "perman": 9310,
      "hellen": 9311,
      "compan": 9312,
      "birmingham": 9313,
      "omgosh": 9314,
      "yaay": 9315,
      "loveeee": 9316,
      "lovato": 9317,
      "##iku": 9318,
      "hoppus": 9319,
      "kindle": 9320,
      "emerg": 9321,
      "eminem": 9322,
      "##anky": 9323,
      "warren": 9324,
      "reminis": 9325,
      "endless": 9326,
      "runny": 9327,
      "skool": 9328,
      "tragic": 9329,
      "travell": 9330,
      "##cole": 9331,
      "##laire": 9332,
      "sweety": 9333,
      "sweetest": 9334,
      "belated": 9335,
      "postp": 9336,
      "##cynic": 9337,
      "##itchard": 9338,
      "snoo": 9339,
      "snoring": 9340,
      "accent": 9341,
      "##ierce": 9342,
      "hungo": 9343,
      "hairdress": 9344,
      "resort": 9345,
      "tail": 9346,
      "superb": 9347,
      "poorly": 9348,
      "theirs": 9349,
      "designer": 9350,
      "awwh": 9351,
      "recall": 9352,
      "recession": 9353,
      "foundation": 9354,
      "rocky": 9355,
      "rockin": 9356,
      "##oko": 9357,
      "mumm": 9358,
      "wales": 9359,
      "repe": 9360,
      "defo": 9361,
      "default": 9362,
      "okayy": 9363,
      "premi": 9364,
      "tease": 9365,
      "delhi": 9366,
      "sings": 9367,
      "steff": 9368,
      "stevie": 9369,
      "##ettem": 9370,
      "charity": 9371,
      "charming": 9372,
      "win7": 9373,
      "##uuut": 9374,
      "forgotten": 9375,
      "hundred": 9376,
      "holes": 9377,
      "blogs": 9378,
      "boiling": 9379,
[...]
