{
  "version": "1.0",
  "truncation": null,
  "padding": null,
  "added_tokens": [
    {
      "id": 0,
      "content": "[UNK]",
      "single_word": false,
      "lstrip": false,
      "rstrip": false,
      "normalized": false,
      "special": true
    },
    {
      "id": 1,
      "content": "[PAD]",
      "single_word": false,
      "lstrip": false,
      "rstrip": false,
      "normalized": false,
      "special": true
    },
    {
      "id": 2,
      "content": "[CLS]",
      "single_word": false,
      "lstrip": false,
      "rstrip": false,
      "normalized": false,
      "special": true
    },
    {
      "id": 3,
      "content": "[SEP]",
      "single_word": false,
      "lstrip": false,
      "rstrip": false,
      "normalized": false,
      "special": true
    },
    {
      "id": 4,
      "content": "[MASK]",
      "single_word": false,
      "lstrip": false,
      "rstrip": false,
      "normalized": false,
      "special": true
    }
  ],
  "normalizer": {
    "type": "Sequence",
    "normalizers": [
      {
        "type": "NFD"
      },
      {
        "type": "Lowercase"
      },
      {
        "type": "StripAccents"
      }
    ]
  },
  "pre_tokenizer": {
    "type": "Whitespace"
  },
  "post_processor": {
    "type": "TemplateProcessing",
    "single": [
      {
        "SpecialToken": {
          "id": "[CLS]",
          "type_id": 0
        }
      },
      {
        "Sequence": {
          "id": "A",
          "type_id": 0
        }
      },
      {
        "SpecialToken": {
          "id": "[SEP]",
          "type_id": 0
        }
      }
    ],
    "pair": [
      {
        "SpecialToken": {
          "id": "[CLS]",
          "type_id": 0
        }
      },
      {
        "Sequence": {
          "id": "A",
          "type_id": 0
        }
      },
      {
        "SpecialToken": {
          "id": "[SEP]",
          "type_id": 0
        }
      },
      {
        "Sequence": {
          "id": "B",
          "type_id": 1
        }
      },
      {
        "SpecialToken": {
          "id": "[SEP]",
          "type_id": 1
        }
      }
    ],
    "special_tokens": {
      "[CLS]": {
        "id": "[CLS]",
        "ids": [
          2
        ],
        "tokens": [
          "[CLS]"
        ]
      },
      "[SEP]": {
        "id": "[SEP]",
        "ids": [
          3
        ],
        "tokens": [
          "[SEP]"
        ]
      }
    }
  },
  "decoder": {
    "type": "WordPiece",
    "prefix": "##",
    "cleanup": true
  },
  "model": {
    "type": "WordPiece",
    "unk_token": "[UNK]",
    "continuing_subword_prefix": "##",
    "max_input_chars_per_word": 100,
    "vocab": {
      "[UNK]": 0,
      "[PAD]": 1,
      "[CLS]": 2,
      "[SEP]": 3,
      "[MASK]": 4,
      "!": 5,
      "\"": 6,
      "#": 7,
      "$": 8,
      "%": 9,
      "&": 10,
      "'": 11,
      "(": 12,
      ")": 13,
      "*": 14,
      "+": 15,
      ",": 16,
      "-": 17,
      ".": 18,
      "/": 19,
      "0": 20,
      "1": 21,
      "2": 22,
      "3": 23,
      "4": 24,
      "5": 25,
      "6": 26,
      "7": 27,
      "8": 28,
      "9": 29,
      ":": 30,
      ";": 31,
      "<": 32,
      "=": 33,
      ">": 34,
      "?": 35,
      "@": 36,
      "[": 37,
      "\\": 38,
      "]": 39,
      "^": 40,
      "_": 41,
      "`": 42,
      "a": 43,
      "b": 44,
      "c": 45,
      "d": 46,
      "e": 47,
      "f": 48,
      "g": 49,
      "h": 50,
      "i": 51,
      "j": 52,
      "k": 53,
      "l": 54,
      "m": 55,
      "n": 56,
      "o": 57,
      "p": 58,
      "q": 59,
      "r": 60,
      "s": 61,
      "t": 62,
      "u": 63,
      "v": 64,
      "w": 65,
      "x": 66,
      "y": 67,
      "z": 68,
      "{": 69,
      "|": 70,
      "}": 71,
      "~": 72,
      "¡": 73,
      "´": 74,
      "½": 75,
      "¿": 76,
      "##p": 77,
      "##k": 78,
      "##h": 79,
      "##o": 80,
      "##r": 81,
      "##t": 82,
      "##a": 83,
      "##g": 84,
      "##e": 85,
      "##y": 86,
      "##v": 87,
      "##i": 88,
      "##n": 89,
      "##s": 90,
      "##u": 91,
      "##m": 92,
      "##l": 93,
      "##c": 94,
      "##8": 95,
      "##_": 96,
      "##j": 97,
      "##q": 98,
      "##b": 99,
      "##d": 100,
      "##z": 101,
      "##9": 102,
      "##f": 103,
      "##w": 104,
      "##2": 105,
      "##0": 106,
      "##x": 107,
      "##4": 108,
      "##1": 109,
      "##3": 110,
      "##7": 111,
      "##5": 112,
      "##.": 113,
      "##6": 114,
      "##½": 115,
      "##!": 116,
      "##-": 117,
      "##^": 118,
      "##,": 119,
      "##\"": 120,
      "##?": 121,
      "##]": 122,
      "##)": 123,
      "##\\": 124,
      "##/": 125,
      "##(": 126,
      "##'": 127,
      "##~": 128,
      "##*": 129,
      "##>": 130,
      "##|": 131,
      "##<": 132,
      "##@": 133,
      "##=": 134,
      "##;": 135,
      "##:": 136,
      "##$": 137,
      "##[": 138,
      "###": 139,
      "##&": 140,
      "##{": 141,
      "##}": 142,
      "##+": 143,
      "##%": 144,
      "##in": 145,
      "th": 146,
      "##er": 147,
      "to": 148,
      "##ing": 149,
      "##ou": 150,
      "##or": 151,
      "##an": 152,
      "##at": 153,
      "the": 154,
      "##on": 155,
      "##ll": 156,
      "##ee": 157,
      "##ay": 158,
      "##es": 159,
      "##it": 160,
      "##nd": 161,
      "##oo": 162,
      "##ar": 163,
      "##om": 164,
      "##ed": 165,
      "##st": 166,
      "ha": 167,
      "you": 168,
      "##ot": 169,
      "##ow": 170,
      "##..": 171,
      "##ve": 172,
      "it": 173,
      "##ea": 174,
      "##is": 175,
      "my": 176,
      "##et": 177,
      "##ut": 178,
      "##en": 179,
      "and": 180,
      "##ic": 181,
      "in": 182,
      "...": 183,
      "on": 184,
      "##gh": 185,
      "##ch": 186,
      "is": 187,
      "for": 188,
      "of": 189,
      "##le": 190,
      "##as": 191,
      "##re": 192,
      "wh": 193,
      "##ck": 194,
      "##ke": 195,
      "st": 196,
      "me": 197,
      "##id": 198,
      "be": 199,
      "so": 200,
      "that": 201,
      "##ly": 202,
      "##ght": 203,
      "lo": 204,
      "##ad": 205,
      "##am": 206,
      "sh": 207,
      "##ome": 208,
      "go": 209,
      "have": 210,
      "li": 211,
      "##ust": 212,
      "##ld": 213,
      "##se": 214,
      "##ill": 215,
      "##ight": 216,
      "##ter": 217,
      "##ur": 218,
      "day": 219,
      "##ir": 220,
      "##al": 221,
      "##pp": 222,
      "##un": 223,
      "##ver": 224,
      "but": 225,
      "we": 226,
      "##ie": 227,
      "##ith": 228,
      "##ere": 229,
      "##im": 230,
      "fr": 231,
      "!!": 232,
      "an": 233,
      "just": 234,
      "##ood": 235,
      "do": 236,
      "with": 237,
      "at": 238,
      "##day": 239,
      "not": 240,
      "he": 241,
      "wor": 242,
      "##op": 243,
      "was": 244,
      "##her": 245,
      "##lly": 246,
      "tw": 247,
      "can": 248,
      "ch": 249,
      "##one": 250,
      "get": 251,
      "re": 252,
      "su": 253,
      "ne": 254,
      "up": 255,
      "com": 256,
      "good": 257,
      "##ce": 258,
      "all": 259,
      "rea": 260,
      "##ent": 261,
      "out": 262,
      "##ry": 263,
      "##ha": 264,
      "..": 265,
      "now": 266,
      "##ack": 267,
      "##ess": 268,
      "##il": 269,
      "this": 270,
      "work": 271,
      "##th": 272,
      "no": 273,
      "##ould": 274,
      "##ant": 275,
      "##ro": 276,
      "##ra": 277,
      "al": 278,
      "##ks": 279,
      "##ion": 280,
      "##tt": 281,
      "pl": 282,
      "am": 283,
      "##us": 284,
      "than": 285,
      "##ast": 286,
      "are": 287,
      "got": 288,
      "mor": 289,
      "like": 290,
      ":/": 291,
      "##iss": 292,
      "ma": 293,
      "##other": 294,
      "don": 295,
      "##ri": 296,
      "htt": 297,
      "http": 298,
      "##ink": 299,
      "://": 300,
      "##ain": 301,
      "happ": 302,
      "love": 303,
      "too": 304,
      "your": 305,
      "##out": 306,
      "im": 307,
      "##est": 308,
      "as": 309,
      "##ct": 310,
      "##ate": 311,
      "##ab": 312,
      "kn": 313,
      "see": 314,
      "today": 315,
      "aw": 316,
      "ab": 317,
      "##!!": 318,
      "tim": 319,
      "##ish": 320,
      "twit": 321,
      "##and": 322,
      "going": 323,
      "##art": 324,
      "what": 325,
      "##um": 326,
      "miss": 327,
      "##el": 328,
      "some": 329,
      "##ook": 330,
      "##ead": 331,
      "##lo": 332,
      "lol": 333,
      "happy": 334,
      "##ers": 335,
      "know": 336,
      "fee": 337,
      "##eep": 338,
      "back": 339,
      "want": 340,
      "##ong": 341,
      "from": 342,
      "##ard": 343,
      "##ick": 344,
      "wee": 345,
      "##na": 346,
      "one": 347,
      "##ning": 348,
      "mo": 349,
      "##ig": 350,
      "##ff": 351,
      "##ting": 352,
      "##ul": 353,
      "will": 354,
      "##all": 355,
      "time": 356,
      "did": 357,
      "feel": 358,
      "ever": 359,
      "##ice": 360,
      "##nt": 361,
      "off": 362,
      "##ind": 363,
      "new": 364,
      "really": 365,
      "##ine": 366,
      "there": 367,
      "think": 368,
      "about": 369,
      "ex": 370,
      "##hh": 371,
      "its": 372,
      "##ge": 373,
      "night": 374,
      "sp": 375,
      "##eed": 376,
      "##een": 377,
      "br": 378,
      "mother": 379,
      "any": 380,
      "##atch": 381,
      "##eet": 382,
      "##ol": 383,
      "##ope": 384,
      "had": 385,
      "they": 386,
      "##ite": 387,
      "##ally": 388,
      "##os": 389,
      "home": 390,
      "##mm": 391,
      "how": 392,
      "##oll": 393,
      "pr": 394,
      "de": 395,
      "sl": 396,
      "##ough": 397,
      "haha": 398,
      "##mor": 399,
      "##uch": 400,
      "##ool": 401,
      "ag": 402,
      "wa": 403,
      "if": 404,
      "##ell": 405,
      "!!!": 406,
      "oh": 407,
      "##reat": 408,
      "##oy": 409,
      "##uck": 410,
      "##au": 411,
      "well": 412,
      "##our": 413,
      "thanks": 414,
      "when": 415,
      "fun": 416,
      "##ame": 417,
      "need": 418,
      "gu": 419,
      "twitter": 420,
      "##night": 421,
      "ll": 422,
      "hope": 423,
      "still": 424,
      "##row": 425,
      "fa": 426,
      "##ound": 427,
      "here": 428,
      "watch": 429,
      "or": 430,
      "every": 431,
      "mom": 432,
      "##ving": 433,
      "##aa": 434,
      "##dy": 435,
      "....": 436,
      "much": 437,
      "##ear": 438,
      "##king": 439,
      "##??": 440,
      "more": 441,
      "sa": 442,
      "ar": 443,
      "her": 444,
      "last": 445,
      "bl": 446,
      "great": 447,
      "ta": 448,
      "wish": 449,
      "ph": 450,
      "##oooo": 451,
      "morning": 452,
      "##ies": 453,
      "gr": 454,
      "##ous": 455,
      "en": 456,
      "sor": 457,
      "sad": 458,
      "##ap": 459,
      "##if": 460,
      "co": 461,
      "pro": 462,
      "she": 463,
      "has": 464,
      "con": 465,
      "dr": 466,
      "jo": 467,
      "##iend": 468,
      "##ays": 469,
      "then": 470,
      "look": 471,
      "ve": 472,
      "been": 473,
      "##ide": 474,
      "po": 475,
      "bet": 476,
      "##ery": 477,
      "##ollow": 478,
      "would": 479,
      "##ub": 480,
      "us": 481,
      "##em": 482,
      "by": 483,
      "fin": 484,
      "##ang": 485,
      "sleep": 486,
      "cl": 487,
      "##hing": 488,
      "could": 489,
      "##ww": 490,
      "tomor": 491,
      "wait": 492,
      "yea": 493,
      "##ber": 494,
      "follow": 495,
      "won": 496,
      "##ile": 497,
      "##ud": 498,
      "why": 499,
      "bad": 500,
      "again": 501,
      "tomorrow": 502,
      "##ip": 503,
      "may": 504,
      "only": 505,
      "##xt": 506,
      "##itt": 507,
      "tr": 508,
      "##ist": 509,
      "se": 510,
      "##ation": 511,
      "show": 512,
      "thing": 513,
      "##ore": 514,
      "##ag": 515,
      "tonight": 516,
      "friend": 517,
      "##ive": 518,
      "yes": 519,
      "##ass": 520,
      "man": 521,
      "mon": 522,
      "##irl": 523,
      "##ny": 524,
      "sorry": 525,
      "##ia": 526,
      "them": 527,
      "##own": 528,
      "##fe": 529,
      "##ys": 530,
      "nice": 531,
      "over": 532,
      "af": 533,
      "make": 534,
      "##pic": 535,
      "sw": 536,
      "very": 537,
      "##ort": 538,
      "should": 539,
      "pe": 540,
      "car": 541,
      "right": 542,
      "who": 543,
      "##ew": 544,
      "better": 545,
      "ro": 546,
      "##az": 547,
      "##up": 548,
      "##00": 549,
      "eve": 550,
      "bit": 551,
      "ok": 552,
      "try": 553,
      "##ss": 554,
      "though": 555,
      "qu": 556,
      "gon": 557,
      "head": 558,
      "way": 559,
      "le": 560,
      "sc": 561,
      "##iz": 562,
      "week": 563,
      "##gg": 564,
      "yeah": 565,
      "##ah": 566,
      "gonna": 567,
      "##ue": 568,
      "##kend": 569,
      "##ause": 570,
      "##ty": 571,
      "does": 572,
      "weekend": 573,
      "sch": 574,
      "un": 575,
      "after": 576,
      "lea": 577,
      "##yy": 578,
      "##ma": 579,
      "##sh": 580,
      "bed": 581,
      "getting": 582,
      "play": 583,
      "ad": 584,
      "mothers": 585,
      "peop": 586,
      "tweet": 587,
      "##ph": 588,
      "come": 589,
      "##ans": 590,
      "say": 591,
      "##ble": 592,
      "people": 593,
      "long": 594,
      "down": 595,
      "mar": 596,
      "##ey": 597,
      "sun": 598,
      "##my": 599,
      "##lf": 600,
      "!!!!": 601,
      "##ts": 602,
      "start": 603,
      "mad": 604,
      "som": 605,
      "##pl": 606,
      "hour": 607,
      "mov": 608,
      "didn": 609,
      "##be": 610,
      "##ought": 611,
      "awes": 612,
      "twitpic": 613,
      "##cc": 614,
      "school": 615,
      "##ach": 616,
      "fl": 617,
      "were": 618,
      "##kes": 619,
      "next": 620,
      "##rr": 621,
      "thank": 622,
      "plea": 623,
      "##eam": 624,
      "app": 625,
      "pic": 626,
      "him": 627,
      "call": 628,
      "##ure": 629,
      "dont": 630,
      "somet": 631,
      "awesome": 632,
      "hey": 633,
      "##ac": 634,
      "##mo": 635,
      "##iday": 636,
      "days": 637,
      "watching": 638,
      "best": 639,
      "##per": 640,
      "##anna": 641,
      "##eak": 642,
      "hi": 643,
      "litt": 644,
      "tho": 645,
      "girl": 646,
      "let": 647,
      "##to": 648,
      "suck": 649,
      "tal": 650,
      "##so": 651,
      "ur": 652,
      "bor": 653,
      "cr": 654,
      "ear": 655,
      "##ace": 656,
      "##xx": 657,
      "bec": 658,
      "gl": 659,
      "hate": 660,
      "never": 661,
      "little": 662,
      "##ake": 663,
      "part": 664,
      "da": 665,
      "##ways": 666,
      "##ath": 667,
      "##thing": 668,
      "even": 669,
      "soon": 670,
      "rain": 671,
      "di": 672,
      "wr": 673,
      "##ater": 674,
      "##ity": 675,
      "year": 676,
      "##bo": 677,
      "##ich": 678,
      "star": 679,
      "##pt": 680,
      "##ci": 681,
      "##pr": 682,
      "##eal": 683,
      "dam": 684,
      "¿½": 685,
      "bu": 686,
      "bab": 687,
      "##ather": 688,
      "##ft": 689,
      "##age": 690,
      "##ired": 691,
      "##der": 692,
      "please": 693,
      "##eeee": 694,
      "list": 695,
      "working": 696,
      "la": 697,
      "##irst": 698,
      "alr": 699,
      "sm": 700,
      "che": 701,
      "his": 702,
      "##od": 703,
      "min": 704,
      "being": 705,
      "take": 706,
      "##ouse": 707,
      ".....": 708,
      "sure": 709,
      "our": 710,
      "##int": 711,
      "everyone": 712,
      "cant": 713,
      "hur": 714,
      "##ta": 715,
      "##ment": 716,
      "##son": 717,
      "always": 718,
      "##ious": 719,
      "find": 720,
      "##ond": 721,
      "stu": 722,
      "cra": 723,
      "##ner": 724,
      "##ute": 725,
      "act": 726,
      "cool": 727,
      "lot": 728,
      "ot": 729,
      "doing": 730,
      "having": 731,
      "##pe": 732,
      "##ating": 733,
      "big": 734,
      "sick": 735,
      "##joy": 736,
      "another": 737,
      "done": 738,
      "life": 739,
      "phone": 740,
      "bea": 741,
      "hel": 742,
      "om": 743,
      "where": 744,
      "feeling": 745,
      "inter": 746,
      "guys": 747,
      "tra": 748,
      "##ful": 749,
      "tired": 750,
      "##urn": 751,
      "movie": 752,
      "##he": 753,
      "##iv": 754,
      "##eady": 755,
      "yay": 756,
      "##qu": 757,
      "first": 758,
      "keep": 759,
      "##br": 760,
      "real": 761,
      "##man": 762,
      "##ooks": 763,
      "wanna": 764,
      "##ily": 765,
      "ho": 766,
      "##ix": 767,
      "because": 768,
      "already": 769,
      "other": 770,
      "old": 771,
      "tri": 772,
      "thought": 773,
      "id": 774,
      "enjoy": 775,
      "##ash": 776,
      "friends": 777,
      "hu": 778,
      "something": 779,
      "dis": 780,
      "hot": 781,
      "##ms": 782,
      "live": 783,
      "##ooo": 784,
      "amaz": 785,
      "made": 786,
      "##ii": 787,
      "thr": 788,
      "##ord": 789,
      "te": 790,
      "##iny": 791,
      "##url": 792,
      "##co": 793,
      "help": 794,
      "trying": 795,
      "house": 796,
      "yet": 797,
      "kid": 798,
      "comp": 799,
      "???": 800,
      "damn": 801,
      "##self": 802,
      "luck": 803,
      "ya": 804,
      "##wn": 805,
      "hard": 806,
      "song": 807,
      "##fore": 808,
      "exc": 809,
      "dan": 810,
      "##fr": 811,
      "looking": 812,
      "lov": 813,
      "bir": 814,
      "hell": 815,
      "guess": 816,
      "hours": 817,
      "##zy": 818,
      "before": 819,
      "ly": 820,
      "##ually": 821,
      "##ited": 822,
      "read": 823,
      "mus": 824,
      "##ank": 825,
      "??": 826,
      "tell": 827,
      "##gr": 828,
      "##ian": 829,
      "pret": 830,
      "war": 831,
      "##ire": 832,
      "str": 833,
      "##by": 834,
      "friday": 835,
      "##gs": 836,
      "monday": 837,
      "bo": 838,
      "bro": 839,
      "bus": 840,
      "em": 841,
      "fam": 842,
      "##end": 843,
      "##ik": 844,
      "##!!!!": 845,
      "##ens": 846,
      "##unch": 847,
      "listen": 848,
      "omg": 849,
      "par": 850,
      "tiny": 851,
      "into": 852,
      "per": 853,
      "went": 854,
      "##bs": 855,
      "ready": 856,
      "maybe": 857,
      "##io": 858,
      "wow": 859,
      "##les": 860,
      "finally": 861,
      "amazing": 862,
      "blo": 863,
      "end": 864,
      "ugh": 865,
      "##oom": 866,
      "##ne": 867,
      "left": 868,
      "##ull": 869,
      "same": 870,
      "bored": 871,
      "boy": 872,
      "kind": 873,
      "hear": 874,
      "away": 875,
      "finish": 876,
      "sucks": 877,
      "nothing": 878,
      "rem": 879,
      "missed": 880,
      "baby": 881,
      "fuck": 882,
      "sound": 883,
      "two": 884,
      "doesn": 885,
      "pretty": 886,
      "ser": 887,
      "##ak": 888,
      "forg": 889,
      "god": 890,
      "jon": 891,
      "someone": 892,
      "run": 893,
      "sk": 894,
      "##side": 895,
      "##ise": 896,
      "while": 897,
      "also": 898,
      "check": 899,
      "##oney": 900,
      "cle": 901,
      "looks": 902,
      "##ward": 903,
      "hair": 904,
      "##bab": 905,
      "##zz": 906,
      "##haha": 907,
      "break": 908,
      "those": 909,
      "##cy": 910,
      "later": 911,
      "things": 912,
      "10": 913,
      "##ated": 914,
      "face": 915,
      "early": 916,
      "put": 917,
      "##ince": 918,
      "##are": 919,
      "##ary": 920,
      "post": 921,
      "might": 922,
      "##no": 923,
      "sho": 924,
      "said": 925,
      "talk": 926,
      "glad": 927,
      "cou": 928,
      "##oth": 929,
      "saw": 930,
      "dri": 931,
      "##ats": 932,
      "bel": 933,
      "##able": 934,
      "birth": 935,
      "music": 936,
      "world": 937,
      "##aw": 938,
      "party": 939,
      "tinyurl": 940,
      "##itch": 941,
      "free": 942,
      "chan": 943,
      "el": 944,
      "##ier": 945,
      "birthday": 946,
      "must": 947,
      "weather": 948,
      "sweet": 949,
      "clo": 950,
      "##bl": 951,
      "##fly": 952,
      "##att": 953,
      "##ign": 954,
      "##cr": 955,
      "acc": 956,
      "such": 957,
      "stuff": 958,
      "sn": 959,
      "lost": 960,
      "around": 961,
      "##sp": 962,
      "summ": 963,
      "rel": 964,
      "sit": 965,
      "coming": 966,
      "give": 967,
      "sund": 968,
      "job": 969,
      "actually": 970,
      "makes": 971,
      "wonder": 972,
      "?!": 973,
      "din": 974,
      "stay": 975,
      "unt": 976,
      "##nder": 977,
      "poor": 978,
      "few": 979,
      "##book": 980,
      "##dd": 981,
      "##ins": 982,
      "##terday": 983,
      "yesterday": 984,
      "late": 985,
      "##ates": 986,
      "##ence": 987,
      "thats": 988,
      "##ton": 989,
      "found": 990,
      "##ley": 991,
      "waiting": 992,
      "far": 993,
      "##lc": 994,
      "tot": 995,
      "gotta": 996,
      "making": 997,
      "since": 998,
      "their": 999,
      "most": 1000,
      "class": 1001,
      "hun": 1002,
      "res": 1003,
      "##ors": 1004,
      "##iew": 1005,
      "until": 1006,
      "cry": 1007,
      "des": 1008,
      "myself": 1009,
      "##pping": 1010,
      "##hhhh": 1011,
      "phot": 1012,
      "mean": 1013,
      "boo": 1014,
      "##ps": 1015,
      "awww": 1016,
      "##wh": 1017,
      "summer": 1018,
      "mr": 1019,
      "##ib": 1020,
      "supp": 1021,
      "cause": 1022,
      "excited": 1023,
      "gone": 1024,
      "##igh": 1025,
      "##cfly": 1026,
      "fav": 1027,
      "sunday": 1028,
      "dad": 1029,
      "##tw": 1030,
      "##ike": 1031,
      "##iting": 1032,
      "##ets": 1033,
      "happen": 1034,
      "family": 1035,
      "30": 1036,
      "mum": 1037,
      "tea": 1038,
      "wo": 1039,
      "##nn": 1040,
      "aww": 1041,
      "##most": 1042,
      "month": 1043,
      "##ork": 1044,
      "super": 1045,
      "almost": 1046,
      "anything": 1047,
      "beaut": 1048,
      "everything": 1049,
      "add": 1050,
      "clean": 1051,
      "sat": 1052,
      "##land": 1053,
      "rec": 1054,
      "pict": 1055,
      "cute": 1056,
      "##de": 1057,
      "till": 1058,
      "vide": 1059,
      "##oc": 1060,
      "##ory": 1061,
      "##ime": 1062,
      "mess": 1063,
      "##fu": 1064,
      "##ert": 1065,
      "rock": 1066,
      "##iful": 1067,
      "sing": 1068,
      "welc": 1069,
      "lunch": 1070,
      "##ett": 1071,
      "stop": 1072,
      "least": 1073,
      "listening": 1074,
      "food": 1075,
      "##load": 1076,
      "thinking": 1077,
      "anyone": 1078,
      "##aaaa": 1079,
      "cold": 1080,
      "leave": 1081,
      ";)": 1082,
      "pre": 1083,
      "wal": 1084,
      "##av": 1085,
      "pain": 1086,
      "##ild": 1087,
      "##line": 1088,
      "##ude": 1089,
      "welcome": 1090,
      "eat": 1091,
      "kill": 1092,
      "money": 1093,
      "tre": 1094,
      "use": 1095,
      "stup": 1096,
      "##ieve": 1097,
      "def": 1098,
      "drink": 1099,
      "totally": 1100,
      "win": 1101,
      "##ox": 1102,
      "##ris": 1103,
      "wanted": 1104,
      "funny": 1105,
      "many": 1106,
      "##body": 1107,
      "stupid": 1108,
      "ste": 1109,
      "without": 1110,
      "dream": 1111,
      "dinner": 1112,
      "xx": 1113,
      "##ken": 1114,
      "##cl": 1115,
      "probab": 1116,
      "www": 1117,
      "##og": 1118,
      "forward": 1119,
      "okay": 1120,
      "hurts": 1121,
      "game": 1122,
      "##ym": 1123,
      "##uu": 1124,
      "##uz": 1125,
      "##ines": 1126,
      "del": 1127,
      "hang": 1128,
      "##ect": 1129,
      "##ves": 1130,
      "##ott": 1131,
      "beautiful": 1132,
      "##hn": 1133,
      "##way": 1134,
      "shit": 1135,
      "probably": 1136,
      "ke": 1137,
      "isn": 1138,
      "rep": 1139,
      "through": 1140,
      "##rist": 1141,
      "missing": 1142,
      "##ffee": 1143,
      "hahaha": 1144,
      "buy": 1145,
      "mine": 1146,
      "##oot": 1147,
      "##ams": 1148,
      "##oss": 1149,
      "sounds": 1150,
      "book": 1151,
      "soooo": 1152,
      "turn": 1153,
      "##ple": 1154,
      "##ked": 1155,
      "##me": 1156,
      "char": 1157,
      "plan": 1158,
      "##erson": 1159,
      "send": 1160,
      "playing": 1161,
      "believe": 1162,
      "##vid": 1163,
      "place": 1164,
      "##ift": 1165,
      "##ever": 1166,
      "##rew": 1167,
      "which": 1168,
      "haven": 1169,
      "ass": 1170,
      "##more": 1171,
      "ill": 1172,
      "sur": 1173,
      "##ave": 1174,
      "inst": 1175,
      "##ions": 1176,
      "ac": 1177,
      "ret": 1178,
      "##ons": 1179,
      "##ark": 1180,
      "times": 1181,
      "coffee": 1182,
      "ah": 1183,
      "##ney": 1184,
      "##ote": 1185,
      "lovely": 1186,
      "##hhh": 1187,
      "fail": 1188,
      "finished": 1189,
      "cam": 1190,
      "room": 1191,
      "ann": 1192,
      "upd": 1193,
      "##cial": 1194,
      "##ache": 1195,
      "##ail": 1196,
      "ind": 1197,
      "these": 1198,
      "fm": 1199,
      "hand": 1200,
      "lad": 1201,
      "op": 1202,
      "rest": 1203,
      "##ds": 1204,
      "enough": 1205,
      "kids": 1206,
      "under": 1207,
      "##ax": 1208,
      "##eeting": 1209,
      "##ase": 1210,
      "office": 1211,
      "followers": 1212,
      "intern": 1213,
      "hol": 1214,
      "says": 1215,
      "##ents": 1216,
      "##ently": 1217,
      "outside": 1218,
      "##essed": 1219,
      "##ember": 1220,
      "##fl": 1221,
      "##ina": 1222,
      "hehe": 1223,
      "lu": 1224,
      "##ved": 1225,
      "##urk": 1226,
      "##ross": 1227,
      "ed": 1228,
      "att": 1229,
      "wasn": 1230,
      "idea": 1231,
      "eating": 1232,
      "less": 1233,
      "##ness": 1234,
      "##pped": 1235,
      "cont": 1236,
      "##iley": 1237,
      "woke": 1238,
      "hit": 1239,
      "pa": 1240,
      "##ayl": 1241,
      "##vel": 1242,
      "stuck": 1243,
      "##ube": 1244,
      "video": 1245,
      "hop": 1246,
      "person": 1247,
      "sooo": 1248,
      "tick": 1249,
      "##ding": 1250,
      "##orm": 1251,
      "seen": 1252,
      "didnt": 1253,
      "anymore": 1254,
      "hmm": 1255,
      "##get": 1256,
      "##girl": 1257,
      "##ial": 1258,
      "dou": 1259,
      "yum": 1260,
      "high": 1261,
      "##fully": 1262,
      "cut": 1263,
      "er": 1264,
      "lau": 1265,
      "lil": 1266,
      "plurk": 1267,
      "scr": 1268,
      "ca": 1269,
      "ms": 1270,
      "meet": 1271,
      "red": 1272,
      "set": 1273,
      "##ted": 1274,
      "##...": 1275,
      "wants": 1276,
      "taking": 1277,
      "comput": 1278,
      "hor": 1279,
      "##ana": 1280,
      "##ird": 1281,
      "##mail": 1282,
      "wrong": 1283,
      "remember": 1284,
      "forgot": 1285,
      "came": 1286,
      "full": 1287,
      "##mer": 1288,
      "##19": 1289,
      "rev": 1290,
      "took": 1291,
      "tv": 1292,
      "chill": 1293,
      "compl": 1294,
      "goodnight": 1295,
      "ago": 1296,
      "whole": 1297,
      "fil": 1298,
      "wed": 1299,
      "##ep": 1300,
      "##con": 1301,
      "##une": 1302,
      "heart": 1303,
      "kinda": 1304,
      "bar": 1305,
      "fan": 1306,
      "name": 1307,
      "ty": 1308,
      "##a_": 1309,
      "##ng": 1310,
      "##ount": 1311,
      "##unk": 1312,
      "##ither": 1313,
      "grad": 1314,
      "headache": 1315,
      "--": 1316,
      "cour": 1317,
      "jam": 1318,
      "##vin": 1319,
      "proble": 1320,
      "##fect": 1321,
      "david": 1322,
      "trek": 1323,
      "ep": 1324,
      "mid": 1325,
      "ter": 1326,
      "##sw": 1327,
      "##ane": 1328,
      "unf": 1329,
      "loved": 1330,
      "jen": 1331,
      "##ug": 1332,
      "yout": 1333,
      "following": 1334,
      "##phone": 1335,
      "years": 1336,
      "4w": 1337,
      "bur": 1338,
      "pass": 1339,
      "wind": 1340,
      "##ama": 1341,
      "alone": 1342,
      "dec": 1343,
      "guy": 1344,
      "##izz": 1345,
      "youtube": 1346,
      "ap": 1347,
      "ey": 1348,
      "own": 1349,
      "sar": 1350,
      "##gl": 1351,
      "##mus": 1352,
      "##esh": 1353,
      "##als": 1354,
      "dog": 1355,
      "##ush": 1356,
      "weeks": 1357,
      "moms": 1358,
      "black": 1359,
      "busy": 1360,
      "shopping": 1361,
      "internet": 1362,
      "##ance": 1363,
      "half": 1364,
      "mac": 1365,
      "##aught": 1366,
      "conc": 1367,
      "tweets": 1368,
      "wars": 1369,
      "jonas": 1370,
      "sitting": 1371,
      "cook": 1372,
      "lear": 1373,
      "##ues": 1374,
      "##bb": 1375,
      "news": 1376,
      "couldn": 1377,
      "diff": 1378,
      "crazy": 1379,
      "facebook": 1380,
      "##10": 1381,
      "##ump": 1382,
      "##ult": 1383,
      "##ife": 1384,
      "lots": 1385,
      "both": 1386,
      "cur": 1387,
      "sea": 1388,
      "##ont": 1389,
      "##ete": 1390,
      "john": 1391,
      "blog": 1392,
      "cal": 1393,
      "card": 1394,
      "goo": 1395,
      "sou": 1396,
      "##ale": 1397,
      "##12": 1398,
      "##ann": 1399,
      "computer": 1400,
      "xxx": 1401,
      "##ven": 1402,
      "seems": 1403,
      "prom": 1404,
      "tried": 1405,
      "serious": 1406,
      "fall": 1407,
      "mind": 1408,
      "sim": 1409,
      "##iver": 1410,
      "##inks": 1411,
      "##ower": 1412,
      "##ppy": 1413,
      "able": 1414,
      "spend": 1415,
      "hopefully": 1416,
      "##oooooooo": 1417,
      "sec": 1418,
      "text": 1419,
      "hello": 1420,
      "else": 1421,
      "met": 1422,
      "brother": 1423,
      "bb": 1424,
      "woo": 1425,
      "##port": 1426,
      "##oud": 1427,
      "##ows": 1428,
      "short": 1429,
      "wear": 1430,
      "##ister": 1431,
      "open": 1432,
      "sam": 1433,
      "vis": 1434,
      "##ree": 1435,
      "##less": 1436,
      "##fast": 1437,
      "##orn": 1438,
      "##its": 1439,
      "online": 1440,
      "used": 1441,
      "care": 1442,
      "hurt": 1443,
      "bra": 1444,
      "iphone": 1445,
      "mil": 1446,
      "soo": 1447,
      "test": 1448,
      "##gry": 1449,
      "##ual": 1450,
      "told": 1451,
      "##utes": 1452,
      "once": 1453,
      "gets": 1454,
      "cat": 1455,
      "dead": 1456,
      "dude": 1457,
      "es": 1458,
      "gra": 1459,
      "sy": 1460,
      "##of": 1461,
      "##time": 1462,
      "##atter": 1463,
      "##ica": 1464,
      "grand": 1465,
      "true": 1466,
      "quite": 1467,
      "change": 1468,
      "cuz": 1469,
      "link": 1470,
      "##top": 1471,
      "##ces": 1472,
      "##ings": 1473,
      "##eee": 1474,
      "inv": 1475,
      "##urday": 1476,
      "beach": 1477,
      "air": 1478,
      "bank": 1479,
      "dj": 1480,
      "email": 1481,
      "##kk": 1482,
      "##ied": 1483,
      "##ster": 1484,
      "##ade": 1485,
      "##ongr": 1486,
      "called": 1487,
      "minutes": 1488,
      "study": 1489,
      "20": 1490,
      "miley": 1491,
      "##rs": 1492,
      "##ling": 1493,
      "##ones": 1494,
      "##....": 1495,
      "##imes": 1496,
      "##ract": 1497,
      "##ately": 1498,
      "fucking": 1499,
      "btw": 1500,
      "ice": 1501,
      "##app": 1502,
      "##act": 1503,
      "tomm": 1504,
      "mommy": 1505,
      "conf": 1506,
      "talking": 1507,
      "lucky": 1508,
      "breakfast": 1509,
      "saturday": 1510,
      "bum": 1511,
      "catch": 1512,
      "##mar": 1513,
      "##any": 1514,
      "awake": 1515,
      "pres": 1516,
      "watched": 1517,
      "##????": 1518,
      "blip": 1519,
      "broke": 1520,
      "drive": 1521,
      "defin": 1522,
      "congr": 1523,
      "either": 1524,
      "ju": 1525,
      "##ition": 1526,
      "spe": 1527,
      "wont": 1528,
      "##mao": 1529,
      "tour": 1530,
      "##eek": 1531,
      "move": 1532,
      "shower": 1533,
      "interest": 1534,
      "clos": 1535,
      "picture": 1536,
      "lap": 1537,
      "site": 1538,
      "##ron": 1539,
      "##go": 1540,
      "##ele": 1541,
      "##med": 1542,
      "##car": 1543,
      "##amp": 1544,
      "##ures": 1545,
      "##rible": 1546,
      "favor": 1547,
      "lady": 1548,
      "holiday": 1549,
      "12": 1550,
      "av": 1551,
      "lmao": 1552,
      "##rus": 1553,
      "##ger": 1554,
      "##gle": 1555,
      "##ball": 1556,
      "##ato": 1557,
      "heard": 1558,
      "##ations": 1559,
      "##pect": 1560,
      "trip": 1561,
      "perfect": 1562,
      "wonderful": 1563,
      "net": 1564,
      "pack": 1565,
      "pick": 1566,
      "##13": 1567,
      "##ared": 1568,
      "##cher": 1569,
      "##ried": 1570,
      "feels": 1571,
      "offic": 1572,
      "girls": 1573,
      "raining": 1574,
      "instead": 1575,
      "coll": 1576,
      "past": 1577,
      "til": 1578,
      "##gy": 1579,
      "##du": 1580,
      "mel": 1581,
      "##cept": 1582,
      "seeing": 1583,
      "evening": 1584,
      "dra": 1585,
      "med": 1586,
      "##pm": 1587,
      "##ics": 1588,
      "wake": 1589,
      "fig": 1590,
      "mitch": 1591,
      "##oh": 1592,
      "##ock": 1593,
      "##gin": 1594,
      "##iet": 1595,
      "##ital": 1596,
      "##ict": 1597,
      "reply": 1598,
      "67": 1599,
      "dar": 1600,
      "jeal": 1601,
      "##jo": 1602,
      "##33": 1603,
      "ther": 1604,
      "ask": 1605,
      "slow": 1606,
      "months": 1607,
      "fine": 1608,
      "tayl": 1609,
      "##uk": 1610,
      "##ming": 1611,
      "##ject": 1612,
      "##iness": 1613,
      "##isod": 1614,
      "##irt": 1615,
      "ext": 1616,
      "##osed": 1617,
      "starting": 1618,
      "sometimes": 1619,
      "jealous": 1620,
      "11": 1621,
      "mic": 1622,
      "##ible": 1623,
      "##__": 1624,
      "##work": 1625,
      "ton": 1626,
      "art": 1627,
      "##friend": 1628,
      "episod": 1629,
      "second": 1630,
      "bout": 1631,
      "jack": 1632,
      "xd": 1633,
      "##gn": 1634,
      "top": 1635,
      "anyway": 1636,
      "##osh": 1637,
      "relax": 1638,
      "##where": 1639,
      "laugh": 1640,
      "differ": 1641,
      "15": 1642,
      "fast": 1643,
      "fell": 1644,
      "gre": 1645,
      "pay": 1646,
      "##oint": 1647,
      "##gan": 1648,
      "##leep": 1649,
      "##ca": 1650,
      "tom": 1651,
      "##ees": 1652,
      "##yyyy": 1653,
      "mark": 1654,
      "4th": 1655,
      "bought": 1656,
      "kat": 1657,
      "sign": 1658,
      "##bur": 1659,
      "##era": 1660,
      "##eaking": 1661,
      "ones": 1662,
      "light": 1663,
      "exam": 1664,
      "writing": 1665,
      "loves": 1666,
      "season": 1667,
      "##ange": 1668,
      "choc": 1669,
      "green": 1670,
      "join": 1671,
      "##ortun": 1672,
      "leaving": 1673,
      "!!!!!": 1674,
      "##press": 1675,
      "concert": 1676,
      "fix": 1677,
      "pu": 1678,
      "pap": 1679,
      "uk": 1680,
      "##ole": 1681,
      "##air": 1682,
      "##boy": 1683,
      "ups": 1684,
      "##uss": 1685,
      "needs": 1686,
      "wishing": 1687,
      "prof": 1688,
      "write": 1689,
      "course": 1690,
      "problem": 1691,
      "june": 1692,
      "nite": 1693,
      "sigh": 1694,
      "water": 1695,
      "##ls": 1696,
      "##inc": 1697,
      "##chie": 1698,
      "goes": 1699,
      "##ops": 1700,
      "reason": 1701,
      "##the": 1702,
      "bring": 1703,
      "##itely": 1704,
      "##aaa": 1705,
      "sex": 1706,
      "##rrrr": 1707,
      "boring": 1708,
      "##athan": 1709,
      "crap": 1710,
      "hungry": 1711,
      "hoping": 1712,
      "special": 1713,
      "/~": 1714,
      "ip": 1715,
      "ny": 1716,
      "nick": 1717,
      "##ba": 1718,
      "##che": 1719,
      "near": 1720,
      "ash": 1721,
      "dear": 1722,
      "##ages": 1723,
      "heading": 1724,
      "happened": 1725,
      "definitely": 1726,
      "hon": 1727,
      "har": 1728,
      "ps": 1729,
      "##ced": 1730,
      "##cle": 1731,
      "##lex": 1732,
      "##urs": 1733,
      "asleep": 1734,
      "##love": 1735,
      "moving": 1736,
      "favorite": 1737,
      "100": 1738,
      "200": 1739,
      "city": 1740,
      "eas": 1741,
      "son": 1742,
      "sent": 1743,
      "##gt": 1744,
      "##09": 1745,
      "comment": 1746,
      "exp": 1747,
      "##ize": 1748,
      "started": 1749,
      "##!!!!!!!!": 1750,
      "running": 1751,
      "tickets": 1752,
      "fing": 1753,
      "##ned": 1754,
      "##illy": 1755,
      "weird": 1756,
      "chang": 1757,
      "chris": 1758,
      "christ": 1759,
      "upload": 1760,
      "##andy": 1761,
      "##els": 1762,
      "bye": 1763,
      "##ized": 1764,
      "forget": 1765,
      "close": 1766,
      "supposed": 1767,
      "complete": 1768,
      "seriously": 1769,
      "mitchel": 1770,
      "chocol": 1771,
      "col": 1772,
      "fel": 1773,
      "je": 1774,
      "sel": 1775,
      "tum": 1776,
      "##mon": 1777,
      "##dle": 1778,
      "##ars": 1779,
      "load": 1780,
      "##arden": 1781,
      "##ffic": 1782,
      "pray": 1783,
      "moment": 1784,
      "sore": 1785,
      "block": 1786,
      "account": 1787,
      "photo": 1788,
      "unfortun": 1789,
      "band": 1790,
      "bud": 1791,
      "kar": 1792,
      "mu": 1793,
      "##ho": 1794,
      "means": 1795,
      "##ention": 1796,
      "##astic": 1797,
      "##ction": 1798,
      "spr": 1799,
      "fair": 1800,
      "sunny": 1801,
      "flu": 1802,
      "pics": 1803,
      "tommcfly": 1804,
      "ben": 1805,
      "dang": 1806,
      "gi": 1807,
      "jay": 1808,
      "##cing": 1809,
      "##eas": 1810,
      "ins": 1811,
      "ang": 1812,
      "comes": 1813,
      "final": 1814,
      "laur": 1815,
      "train": 1816,
      "count": 1817,
      "couple": 1818,
      "laptop": 1819,
      "dy": 1820,
      "ev": 1821,
      "hum": 1822,
      "men": 1823,
      "nap": 1824,
      "yep": 1825,
      "##ren": 1826,
      "##mit": 1827,
      "##com": 1828,
      "##fer": 1829,
      "##eth": 1830,
      "##ical": 1831,
      "cream": 1832,
      "reading": 1833,
      "##cyrus": 1834,
      "fly": 1835,
      "ive": 1836,
      "mis": 1837,
      "##ker": 1838,
      "##ense": 1839,
      "abs": 1840,
      "sleeping": 1841,
      "club": 1842,
      "##berry": 1843,
      "download": 1844,
      "movies": 1845,
      "chocolate": 1846,
      "ge": 1847,
      "gym": 1848,
      "meeting": 1849,
      "nic": 1850,
      "num": 1851,
      "sal": 1852,
      "vote": 1853,
      "##ose": 1854,
      "##60": 1855,
      "##elle": 1856,
      "aren": 1857,
      "using": 1858,
      "saying": 1859,
      "died": 1860,
      "broken": 1861,
      "cleaning": 1862,
      "pictures": 1863,
      "gradu": 1864,
      "cup": 1865,
      "dd": 1866,
      "die": 1867,
      "due": 1868,
      "fb": 1869,
      "gen": 1870,
      "gave": 1871,
      "iam": 1872,
      "mmm": 1873,
      "ppl": 1874,
      "ra": 1875,
      "##tf": 1876,
      "##gu": 1877,
      "##la": 1878,
      "##led": 1879,
      "##lic": 1880,
      "##eese": 1881,
      "inf": 1882,
      "##vers": 1883,
      "fren": 1884,
      "agree": 1885,
      "sadly": 1886,
      "ipod": 1887,
      "cor": 1888,
      "date": 1889,
      "garden": 1890,
      "lay": 1891,
      "pub": 1892,
      "side": 1893,
      "##ya": 1894,
      "##ipp": 1895,
      "##oop": 1896,
      "##ches": 1897,
      "chick": 1898,
      "songs": 1899,
      "warm": 1900,
      "annoy": 1901,
      "nat": 1902,
      "ru": 1903,
      "##gar": 1904,
      "##vice": 1905,
      "##nes": 1906,
      "##ision": 1907,
      "mysp": 1908,
      "stra": 1909,
      "##ills": 1910,
      "chat": 1911,
      "rob": 1912,
      "doesnt": 1913,
      "##musso": 1914,
      "mitchelmusso": 1915,
      "cap": 1916,
      "mood": 1917,
      "sister": 1918,
      "##min": 1919,
      "town": 1920,
      "##reci": 1921,
      "##uring": 1922,
      "word": 1923,
      "knew": 1924,
      "##eeps": 1925,
      "point": 1926,
      "##itty": 1927,
      "##shine": 1928,
      "eyes": 1929,
      "episode": 1930,
      "different": 1931,
      "4j": 1932,
      "bas": 1933,
      "jess": 1934,
      "##tr": 1935,
      "##vd": 1936,
      "##ugg": 1937,
      "##_b": 1938,
      "##for": 1939,
      "##wood": 1940,
      "toget": 1941,
      "##star": 1942,
      "##ching": 1943,
      "stud": 1944,
      "liked": 1945,
      "spent": 1946,
      "afterno": 1947,
      "hugs": 1948,
      "three": 1949,
      "horrible": 1950,
      "1st": 1951,
      "fight": 1952,
      "fab": 1953,
      "mi": 1954,
      "pat": 1955,
      "pink": 1956,
      "##bum": 1957,
      "##11": 1958,
      "answ": 1959,
      "plans": 1960,
      "wedding": 1961,
      "together": 1962,
      "bgt": 1963,
      "cy": 1964,
      "ger": 1965,
      "pet": 1966,
      "ride": 1967,
      "##kin": 1968,
      "##ai": 1969,
      "##gas": 1970,
      "##gie": 1971,
      "##we": 1972,
      "##key": 1973,
      "reg": 1974,
      "##ants": 1975,
      "##ards": 1976,
      "exams": 1977,
      "emp": 1978,
      "boys": 1979,
      "google": 1980,
      "unfortunately": 1981,
      "14": 1982,
      "cop": 1983,
      "eff": 1984,
      "lond": 1985,
      "nope": 1986,
      "ry": 1987,
      "##iff": 1988,
      "##ience": 1989,
      "##lin": 1990,
      "##ots": 1991,
      "inside": 1992,
      "store": 1993,
      "worth": 1994,
      "chines": 1995,
      "##cell": 1996,
      "produ": 1997,
      "enjoying": 1998,
      "park": 1999,
      "photos": 2000,
      "myspace": 2001,
      "aud": 2002,
      "cele": 2003,
      "den": 2004,
      "dig": 2005,
      "gut": 2006,
      "hub": 2007,
      "kick": 2008,
      "pol": 2009,
      "##ky": 2010,
      "##oice": 2011,
      "##itar": 2012,
      "##ider": 2013,
      "##ters": 2014,
      "ate": 2015,
      "cheese": 2016,
      "repl": 2017,
      "comm": 2018,
      "appreci": 2019,
      "sky": 2020,
      "driving": 2021,
      "visit": 2022,
      "interesting": 2023,
      "afternoon": 2024,
      "hea": 2025,
      "nor": 2026,
      "pea": 2027,
      "pizz": 2028,
      "rad": 2029,
      "wom": 2030,
      "##par": 2031,
      "##ka": 2032,
      "##tc": 2033,
      "##yle": 2034,
      "##not": 2035,
      "##ising": 2036,
      "stand": 2037,
      "goin": 2038,
      "web": 2039,
      "worse": 2040,
      "words": 2041,
      "imp": 2042,
      "seem": 2043,
      "order": 2044,
      "phil": 2045,
      "appar": 2046,
      "disapp": 2047,
      "surpr": 2048,
      "alex": 2049,
      "ball": 2050,
      "dm": 2051,
      "jas": 2052,
      "joy": 2053,
      "mc": 2054,
      "rub": 2055,
      "wol": 2056,
      "##mi": 2057,
      "##?!": 2058,
      "##ustr": 2059,
      "worry": 2060,
      "##ession": 2061,
      "works": 2062,
      "whats": 2063,
      "##ucks": 2064,
      "fact": 2065,
      "everybody": 2066,
      "bless": 2067,
      "earl": 2068,
      "holly": 2069,
      "huge": 2070,
      "walk": 2071,
      "yummy": 2072,
      "sarah": 2073,
      "mileycyrus": 2074,
      "present": 2075,
      "london": 2076,
      "cake": 2077,
      "dun": 2078,
      "daught": 2079,
      "mama": 2080,
      "pc": 2081,
      "rather": 2082,
      "##oun": 2083,
      "##ised": 2084,
      "meant": 2085,
      "##ames": 2086,
      "shar": 2087,
      "##urch": 2088,
      "album": 2089,
      "##lov": 2090,
      "shows": 2091,
      "remind": 2092,
      "chance": 2093,
      "drinking": 2094,
      "upset": 2095,
      "absol": 2096,
      "bday": 2097,
      "cos": 2098,
      "fans": 2099,
      "jer": 2100,
      "key": 2101,
      "poss": 2102,
      "power": 2103,
      "tee": 2104,
      "view": 2105,
      "##ki": 2106,
      "##ham": 2107,
      "##ob": 2108,
      "##mcfly": 2109,
      "##cast": 2110,
      "##enn": 2111,
      "white": 2112,
      "story": 2113,
      "##ident": 2114,
      "##ie_": 2115,
      "blood": 2116,
      "quest": 2117,
      "quick": 2118,
      "sunshine": 2119,
      "##cover": 2120,
      ".\"": 2121,
      "deal": 2122,
      "line": 2123,
      "mike": 2124,
      "##vy": 2125,
      "##ler": 2126,
      "##--": 2127,
      "thro": 2128,
      "##stand": 2129,
      "##ille": 2130,
      "##ries": 2131,
      "guitar": 2132,
      "##ears": 2133,
      "arri": 2134,
      "project": 2135,
      "trans": 2136,
      "mrs": 2137,
      "congrats": 2138,
      "completely": 2139,
      "answer": 2140,
      "18": 2141,
      "four": 2142,
      "gig": 2143,
      "hy": 2144,
      "math": 2145,
      "ner": 2146,
      "roll": 2147,
      "team": 2148,
      "vac": 2149,
      "##tin": 2150,
      "##gic": 2151,
      "##ja": 2152,
      "##77": 2153,
      "young": 2154,
      "shop": 2155,
      "sub": 2156,
      "yours": 2157,
      "moon": 2158,
      "exact": 2159,
      "blue": 2160,
      "engl": 2161,
      "played": 2162,
      "tech": 2163,
      "dance": 2164,
      "paper": 2165,
      "bott": 2166,
      "foot": 2167,
      "matt": 2168,
      "pan": 2169,
      "pop": 2170,
      "page": 2171,
      "ran": 2172,
      "sle": 2173,
      "##nic": 2174,
      "##ugh": 2175,
      "##wor": 2176,
      "##icious": 2177,
      "sto": 2178,
      "living": 2179,
      "##unt": 2180,
      "##iel": 2181,
      "freak": 2182,
      "##used": 2183,
      "happens": 2184,
      "except": 2185,
      "brit": 2186,
      "save": 2187,
      "sleepy": 2188,
      "##ips": 2189,
      "pleas": 2190,
      "##annah": 2191,
      "hug": 2192,
      "box": 2193,
      "jonathan": 2194,
      "figure": 2195,
      "felt": 2196,
      "celebr": 2197,
      "apparently": 2198,
      "earlier": 2199,
      "english": 2200,
      "40": 2201,
      "cross": 2202,
      "dist": 2203,
      "fu": 2204,
      "lone": 2205,
      "pri": 2206,
      "pull": 2207,
      "ver": 2208,
      "via": 2209,
      "wife": 2210,
      "wtf": 2211,
      "xox": 2212,
      "##knight": 2213,
      "##ege": 2214,
      "##va": 2215,
      "##ially": 2216,
      "##22": 2217,
      "##18": 2218,
      "touch": 2219,
      "##ara": 2220,
      "beat": 2221,
      "loving": 2222,
      "##ada": 2223,
      "atl": 2224,
      "tweeting": 2225,
      "dress": 2226,
      "apple": 2227,
      "##cially": 2228,
      "babe": 2229,
      "pizza": 2230,
      "bag": 2231,
      "gift": 2232,
      "ii": 2233,
      "laz": 2234,
      "piss": 2235,
      "##eez": 2236,
      "##usted": 2237,
      "justin": 2238,
      "doct": 2239,
      "child": 2240,
      "amer": 2241,
      "starts": 2242,
      "smile": 2243,
      "##pecially": 2244,
      "traffic": 2245,
      "snl": 2246,
      "message": 2247,
      "steph": 2248,
      "dreams": 2249,
      "update": 2250,
      "luv": 2251,
      "especially": 2252,
      "absolute": 2253,
      "ahh": 2254,
      "during": 2255,
      "ff": 2256,
      "fant": 2257,
      "fire": 2258,
      "lame": 2259,
      "na": 2260,
      "pot": 2261,
      "rid": 2262,
      "san": 2263,
      "##ress": 2264,
      "##ga": 2265,
      "##88": 2266,
      "##_s": 2267,
      "##bile": 2268,
      "##do": 2269,
      "##20": 2270,
      "##ino": 2271,
      "##str": 2272,
      "plus": 2273,
      "##aste": 2274,
      "##aster": 2275,
      "##ular": 2276,
      "grou": 2277,
      "cover": 2278,
      "dave": 2279,
      "##ealth": 2280,
      "law": 2281,
      "small": 2282,
      "hold": 2283,
      "##ette": 2284,
      "apart": 2285,
      "easy": 2286,
      "throat": 2287,
      "slept": 2288,
      "ahhh": 2289,
      "cous": 2290,
      "ent": 2291,
      "jim": 2292,
      "mention": 2293,
      "ouch": 2294,
      "squ": 2295,
      "vers": 2296,
      "##ric": 2297,
      "##view": 2298,
      "##mc": 2299,
      "##je": 2300,
      "##30": 2301,
      "thx": 2302,
      "throw": 2303,
      "thurs": 2304,
      "##ene": 2305,
      "stom": 2306,
      "stick": 2307,
      "havent": 2308,
      "doc": 2309,
      "exper": 2310,
      "##osp": 2311,
      "looked": 2312,
      "!!!!!!": 2313,
      "?????": 2314,
      "business": 2315,
      "parents": 2316,
      "posted": 2317,
      "updates": 2318,
      "film": 2319,
      "learn": 2320,
      "relaxing": 2321,
      "profile": 2322,
      "sexy": 2323,
      "absolutely": 2324,
      "ba": 2325,
      "bri": 2326,
      "bike": 2327,
      "each": 2328,
      "fat": 2329,
      "land": 2330,
      "van": 2331,
      "##over": 2332,
      "##ten": 2333,
      "##band": 2334,
      "##omb": 2335,
      "##owers": 2336,
      "##ison": 2337,
      "andy": 2338,
      "int": 2339,
      "beer": 2340,
      "church": 2341,
      "##log": 2342,
      "dev": 2343,
      "needed": 2344,
      "safe": 2345,
      "##ooooo": 2346,
      "joe": 2347,
      "wouldn": 2348,
      "##yyy": 2349,
      "travel": 2350,
      "##iiii": 2351,
      "body": 2352,
      "boyfriend": 2353,
      "shoes": 2354,
      "wondering": 2355,
      "understand": 2356,
      "##ointed": 2357,
      "##lovato": 2358,
      "lonely": 2359,
      "2nd": 2360,
      "2day": 2361,
      "66": 2362,
      "ele": 2363,
      "flo": 2364,
      "##oid": 2365,
      "##tv": 2366,
      "##tim": 2367,
      "##yl": 2368,
      "##lake": 2369,
      "##21": 2370,
      "forever": 2371,
      "##rect": 2372,
      "whate": 2373,
      "beh": 2374,
      "shame": 2375,
      "webs": 2376,
      "chic": 2377,
      "##hael": 2378,
      "alth": 2379,
      "prop": 2380,
      "momm": 2381,
      "enter": 2382,
      "cons": 2383,
      "##azz": 2384,
      "longer": 2385,
      "##pressed": 2386,
      "realized": 2387,
      "idk": 2388,
      "resp": 2389,
      "crying": 2390,
      "bbq": 2391,
      "ddlovato": 2392,
      "german": 2393,
      ").": 2394,
      "16": 2395,
      "aut": 2396,
      "aint": 2397,
      "dark": 2398,
      "mam": 2399,
      "ooh": 2400,
      "port": 2401,
      "round": 2402,
      "yo": 2403,
      "##ko": 2404,
      "##eh": 2405,
      "##uh": 2406,
      "##_l": 2407,
      "##_d": 2408,
      "##bar": 2409,
      "thinks": 2410,
      "##orge": 2411,
      "##iter": 2412,
      "##ican": 2413,
      "requ": 2414,
      "along": 2415,
      "mail": 2416,
      "##others": 2417,
      "##ains": 2418,
      "##ulous": 2419,
      "expect": 2420,
      "hahahaha": 2421,
      "usually": 2422,
      "leg": 2423,
      "minute": 2424,
      "......": 2425,
      "staying": 2426,
      "record": 2427,
      "single": 2428,
      "screen": 2429,
      "fingers": 2430,
      "19": 2431,
      "50": 2432,
      "ahhhh": 2433,
      "dvd": 2434,
      "err": 2435,
      "gd": 2436,
      "hates": 2437,
      "hannah": 2438,
      "mot": 2439,
      "mass": 2440,
      "non": 2441,
      "roo": 2442,
      "##you": 2443,
      "##ient": 2444,
      "##da": 2445,
      "##ston": 2446,
      "##etic": 2447,
      "sol": 2448,
      "los": 2449,
      "##ilight": 2450,
      "exha": 2451,
      "spo": 2452,
      "cost": 2453,
      "drunk": 2454,
      "##bert": 2455,
      "track": 2456,
      "event": 2457,
      "huh": 2458,
      "camera": 2459,
      "chillin": 2460,
      "college": 2461,
      "hubby": 2462,
      "peace": 2463,
      "daughter": 2464,
      "lazy": 2465,
      "13": 2466,
      "25": 2467,
      "ell": 2468,
      "grow": 2469,
      "hom": 2470,
      "jus": 2471,
      "low": 2472,
      "lab": 2473,
      "matter": 2474,
      "ooo": 2475,
      "ohh": 2476,
      "pool": 2477,
      "vid": 2478,
      "##pa": 2479,
      "##kn": 2480,
      "##ville": 2481,
      "##nite": 2482,
      "##cri": 2483,
      "##23": 2484,
      "##inn": 2485,
      "##omm": 2486,
      "##uts": 2487,
      "##amb": 2488,
      "##ured": 2489,
      "cannot": 2490,
      "##andom": 2491,
      "hahah": 2492,
      "wishes": 2493,
      "eng": 2494,
      "vegas": 2495,
      "cloth": 2496,
      "talent": 2497,
      "##eeeeeeee": 2498,
      "##ives": 2499,
      "company": 2500,
      "danny": 2501,
      "##bye": 2502,
      "design": 2503,
      "##ails": 2504,
      "hmmm": 2505,
      "jonasbr": 2506,
      "number": 2507,
      "radio": 2508,
      "jason": 2509,
      "whatever": 2510,
      "behind": 2511,
      "(:": 2512,
      "bill": 2513,
      "burn": 2514,
      "fo": 2515,
      "gar": 2516,
      "hil": 2517,
      "hosp": 2518,
      "kim": 2519,
      "lar": 2520,
      "none": 2521,
      "pur": 2522,
      "smo": 2523,
      "wat": 2524,
      "##uff": 2525,
      "##fa": 2526,
      "##fan": 2527,
      "##200": 2528,
      "##ined": 2529,
      "##eel": 2530,
      "##ito": 2531,
      "##ease": 2532,
      "##idays": 2533,
      "shall": 2534,
      "yourself": 2535,
      "feet": 2536,
      "mobile": 2537,
      "##berlake": 2538,
      "quiet": 2539,
      "flight": 2540,
      "##box": 2541,
      "????": 2542,
      "support": 2543,
      "walking": 2544,
      "##ogra": 2545,
      "hanging": 2546,
      "middle": 2547,
      "officially": 2548,
      "changed": 2549,
      "self": 2550,
      "version": 2551,
      "thursday": 2552,
      "although": 2553,
      "fut": 2554,
      "fish": 2555,
      "lis": 2556,
      "ob": 2557,
      "pract": 2558,
      "tues": 2559,
      "##kers": 2560,
      "##vo": 2561,
      "##iq": 2562,
      "##fro": 2563,
      "##oul": 2564,
      "##llll": 2565,
      "##ester": 2566,
      "##ste": 2567,
      "iss": 2568,
      "##ided": 2569,
      "sold": 2570,
      "shirt": 2571,
      "worst": 2572,
      "twilight": 2573,
      "succ": 2574,
      "mach": 2575,
      "ima": 2576,
      "proud": 2577,
      "alright": 2578,
      "disc": 2579,
      "##friday": 2580,
      "paul": 2581,
      "jenn": 2582,
      "windows": 2583,
      "curr": 2584,
      "airport": 2585,
      "graduation": 2586,
      "french": 2587,
      "annoying": 2588,
      "copy": 2589,
      "appreciate": 2590,
      "exactly": 2591,
      "fantastic": 2592,
      "jonasbrothers": 2593,
      "!?": 2594,
      ":-": 2595,
      "cd": 2596,
      "eh": 2597,
      "etc": 2598,
      "jul": 2599,
      "kate": 2600,
      "loo": 2601,
      "random": 2602,
      "sna": 2603,
      "vi": 2604,
      "vot": 2605,
      "wit": 2606,
      "wall": 2607,
      "wine": 2608,
      "##rie": 2609,
      "##iot": 2610,
      "##uc": 2611,
      "##mith": 2612,
      "bell": 2613,
      "##urt": 2614,
      "##ield": 2615,
      "heat": 2616,
      "imag": 2617,
      "homework": 2618,
      "taken": 2619,
      "trou": 2620,
      "scared": 2621,
      "desk": 2622,
      "messages": 2623,
      "studying": 2624,
      "closed": 2625,
      "chinese": 2626,
      "website": 2627,
      "dh": 2628,
      "dat": 2629,
      "jord": 2630,
      "kiss": 2631,
      "rich": 2632,
      "sell": 2633,
      "yr": 2634,
      "##te": 2635,
      "##_m": 2636,
      "##24": 2637,
      "##14": 2638,
      "##outh": 2639,
      "##ona": 2640,
      "shes": 2641,
      "##sey": 2642,
      "##illi": 2643,
      "##rock": 2644,
      "##umb": 2645,
      "mod": 2646,
      "death": 2647,
      "progr": 2648,
      "##emp": 2649,
      "swim": 2650,
      "swine": 2651,
      "road": 2652,
      "sunb": 2653,
      ".......": 2654,
      "keeps": 2655,
      "stress": 2656,
      "dougie": 2657,
      "revision": 2658,
      "spending": 2659,
      "july": 2660,
      "extra": 2661,
      "product": 2662,
      "gutted": 2663,
      "group": 2664,
      "stomach": 2665,
      "clothes": 2666,
      "creat": 2667,
      "dro": 2668,
      "gf": 2669,
      "hat": 2670,
      "honey": 2671,
      "lat": 2672,
      "mich": 2673,
      "nik": 2674,
      "norm": 2675,
      "ol": 2676,
      "ow": 2677,
      "pie": 2678,
      "ten": 2679,
      "voice": 2680,
      "wer": 2681,
      "##eat": 2682,
      "##nat": 2683,
      "##under": 2684,
      "##cer": 2685,
      "##89": 2686,
      "##86": 2687,
      "##archie": 2688,
      "##oto": 2689,
      "memor": 2690,
      "shout": 2691,
      "##unny": 2692,
      "front": 2693,
      "note": 2694,
      "##asty": 2695,
      "conne": 2696,
      "rainy": 2697,
      "##ments": 2698,
      "???????": 2699,
      "service": 2700,
      "recomm": 2701,
      "camp": 2702,
      "burnt": 2703,
      "brain": 2704,
      "official": 2705,
      "taylor": 2706,
      "tummy": 2707,
      "wolver": 2708,
      "tuesday": 2709,
      "recommend": 2710,
      "21": 2711,
      "cert": 2712,
      "case": 2713,
      "ir": 2714,
      "mal": 2715,
      "mig": 2716,
      "mix": 2717,
      "pen": 2718,
      "si": 2719,
      "um": 2720,
      "##hi": 2721,
      "##hoo": 2722,
      "##red": 2723,
      "##rknight": 2724,
      "##af": 2725,
      "##_k": 2726,
      "##_c": 2727,
      "##den": 2728,
      "##wift": 2729,
      "##**": 2730,
      "##erg": 2731,
      "##ita": 2732,
      "##uth": 2733,
      "##icle": 2734,
      "isnt": 2735,
      "shot": 2736,
      "shut": 2737,
      "##illa": 2738,
      "##unes": 2739,
      "anim": 2740,
      "gettin": 2741,
      "sus": 2742,
      "spot": 2743,
      "##mmm": 2744,
      "prob": 2745,
      "##board": 2746,
      "smell": 2747,
      "exciting": 2748,
      "ticket": 2749,
      "wednes": 2750,
      "decided": 2751,
      "eye": 2752,
      "##cakes": 2753,
      "chicken": 2754,
      "disappointed": 2755,
      "jonathanrknight": 2756,
      "future": 2757,
      "wolverine": 2758,
      "24": 2759,
      "ban": 2760,
      "cher": 2761,
      "det": 2762,
      "holl": 2763,
      "jan": 2764,
      "mcfly": 2765,
      "sis": 2766,
      "tan": 2767,
      "##rd": 2768,
      "##let": 2769,
      "##jon": 2770,
      "tor": 2771,
      "##eni": 2772,
      "incl": 2773,
      "##cked": 2774,
      "##idge": 2775,
      "share": 2776,
      "##alia": 2777,
      "wash": 2778,
      "worked": 2779,
      "feelin": 2780,
      "spell": 2781,
      "brand": 2782,
      "##www": 2783,
      "##berg": 2784,
      "bitch": 2785,
      "headed": 2786,
      "##gging": 2787,
      "##phy": 2788,
      "lets": 2789,
      "crash": 2790,
      "enjoyed": 2791,
      "street": 2792,
      "double": 2793,
      "south": 2794,
      "taylors": 2795,
      "xoxo": 2796,
      "hospital": 2797,
      "machine": 2798,
      "aff": 2799,
      "dent": 2800,
      "egg": 2801,
      "fre": 2802,
      "fill": 2803,
      "hoo": 2804,
      "mat": 2805,
      "pos": 2806,
      "ring": 2807,
      "yup": 2808,
      "##hol": 2809,
      "##new": 2810,
      "##back": 2811,
      "##ze": 2812,
      "##wr": 2813,
      "##wa": 2814,
      "##well": 2815,
      "##25": 2816,
      "##ering": 2817,
      "##ator": 2818,
      "##arn": 2819,
      "##arm": 2820,
      "##eap": 2821,
      "##ism": 2822,
      "##iced": 2823,
      "insp": 2824,
      "form": 2825,
      "##ami": 2826,
      "fresh": 2827,
      "doll": 2828,
      "recover": 2829,
      "sum": 2830,
      "neigh": 2831,
      "##ific": 2832,
      "##ssss": 2833,
      "calling": 2834,
      "##ensive": 2835,
      "killing": 2836,
      "indeed": 2837,
      "james": 2838,
      "##music": 2839,
      "brothers": 2840,
      "wearing": 2841,
      "milk": 2842,
      "congrat": 2843,
      "michael": 2844,
      "honest": 2845,
      "public": 2846,
      "proper": 2847,
      "success": 2848,
      "##wift13": 2849,
      "wednesday": 2850,
      "taylorswift13": 2851,
      "neighb": 2852,
      "!)": 2853,
      "45": 2854,
      "books": 2855,
      "caught": 2856,
      "eur": 2857,
      "hee": 2858,
      "hrs": 2859,
      "jump": 2860,
      "rach": 2861,
      "##har": 2862,
      "##tain": 2863,
      "##ae": 2864,
      "##yn": 2865,
      "##ien": 2866,
      "##ux": 2867,
      "##83": 2868,
      "##vent": 2869,
      "itunes": 2870,
      "incr": 2871,
      "stor": 2872,
      "twee": 2873,
      "##eless": 2874,
      "##loc": 2875,
      "##earch": 2876,
      "takes": 2877,
      "legs": 2878,
      "screw": 2879,
      "!!!!!!!!": 2880,
      "apps": 2881,
      "glass": 2882,
      "starb": 2883,
      "##eeeee": 2884,
      "tex": 2885,
      "favour": 2886,
      "videos": 2887,
      "return": 2888,
      "hands": 2889,
      "review": 2890,
      "problems": 2891,
      "davidarchie": 2892,
      "soul": 2893,
      "bummed": 2894,
      "greg": 2895,
      "##incess": 2896,
      "giving": 2897,
      "angel": 2898,
      "cousin": 2899,
      "exhausted": 2900,
      "##frog": 2901,
      "17": 2902,
      ":'": 2903,
      "bal": 2904,
      "cried": 2905,
      "hm": 2906,
      "jk": 2907,
      "lm": 2908,
      "mate": 2909,
      "pig": 2910,
      "row": 2911,
      "ug": 2912,
      "yall": 2913,
      "##ye": 2914,
      "##vis": 2915,
      "##vious": 2916,
      "##nin": 2917,
      "##ule": 2918,
      "##mber": 2919,
      "##cat": 2920,
      "##jor": 2921,
      "##bers": 2922,
      "##wind": 2923,
      "##atic": 2924,
      "##east": 2925,
      "##eno": 2926,
      "##rey": 2927,
      "loc": 2928,
      "door": 2929,
      "rece": 2930,
      "neck": 2931,
      "somewhere": 2932,
      "spam": 2933,
      "bright": 2934,
      "code": 2935,
      "usual": 2936,
      "##ago": 2937,
      "##ggest": 2938,
      "mary": 2939,
      "moved": 2940,
      "##aces": 2941,
      "direct": 2942,
      "deser": 2943,
      "sending": 2944,
      "miles": 2945,
      "bummer": 2946,
      "puppy": 2947,
      "jeff": 2948,
      "stopped": 2949,
      "doctor": 2950,
      "currently": 2951,
      "trouble": 2952,
      "ble": 2953,
      "bath": 2954,
      "fit": 2955,
      "hay": 2956,
      "hist": 2957,
      "health": 2958,
      "mer": 2959,
      "mart": 2960,
      "mist": 2961,
      "sand": 2962,
      "sense": 2963,
      "tm": 2964,
      "##room": 2965,
      "##aly": 2966,
      "##ged": 2967,
      "##vi": 2968,
      "##nie": 2969,
      "##cake": 2970,
      "##bby": 2971,
      "##word": 2972,
      "##26": 2973,
      "##ony": 2974,
      "##ites": 2975,
      "state": 2976,
      "##ides": 2977,
      "lose": 2978,
      "##ado": 2979,
      "##ady": 2980,
      "gosh": 2981,
      "lie": 2982,
      "##illion": 2983,
      "cancell": 2984,
      "suggest": 2985,
      "goodbye": 2986,
      "##rib": 2987,
      "import": 2988,
      "##cted": 2989,
      "##logy": 2990,
      "nights": 2991,
      "waking": 2992,
      "hero": 2993,
      "##angel": 2994,
      "followfriday": 2995,
      "##0000": 2996,
      "calls": 2997,
      "##xxxx": 2998,
      "interview": 2999,
      "disney": 3000,
      "ended": 3001,
      "access": 3002,
      "rocks": 3003,
      "singing": 3004,
      "info": 3005,
      "dunno": 3006,
      "question": 3007,
      "freakin": 3008,
      "certain": 3009,
      "b4": 3010,
      "bee": 3011,
      "cas": 3012,
      "cell": 3013,
      "cats": 3014,
      "emm": 3015,
      "epic": 3016,
      "gay": 3017,
      "games": 3018,
      "hook": 3019,
      "josh": 3020,
      "krist": 3021,
      "peeps": 3022,
      "yah": 3023,
      "##head": 3024,
      "##iest": 3025,
      "##life": 3026,
      "##85": 3027,
      "##bee": 3028,
      "##boo": 3029,
      "##fy": 3030,
      "##weet": 3031,
      "##08": 3032,
      "##ining": 3033,
      "##ints": 3034,
      "##itter": 3035,
      "##arious": 3036,
      "hav": 3037,
      "##isd": 3038,
      "##eted": 3039,
      "andrew": 3040,
      "##cha": 3041,
      "social": 3042,
      "ant": 3043,
      "sugar": 3044,
      "##cel": 3045,
      "max": 3046,
      "##abb": 3047,
      "anyways": 3048,
      "clou": 3049,
      "tru": 3050,
      "manag": 3051,
      "queen": 3052,
      "scary": 3053,
      "flowers": 3054,
      "earth": 3055,
      "##ption": 3056,
      "##eeeeee": 3057,
      "cheer": 3058,
      "##pend": 3059,
      "##ground": 3060,
      "accident": 3061,
      "##ibly": 3062,
      "install": 3063,
      "failed": 3064,
      "paid": 3065,
      "learning": 3066,
      "fixed": 3067,
      "spring": 3068,
      "lauren": 3069,
      "ryan": 3070,
      "experience": 3071,
      "germany": 3072,
      "congratul": 3073,
      "ahaha": 3074,
      "bk": 3075,
      "bow": 3076,
      "bac": 3077,
      "ess": 3078,
      "five": 3079,
      "fever": 3080,
      "gas": 3081,
      "gorge": 3082,
      "il": 3083,
      "jes": 3084,
      "mas": 3085,
      "nan": 3086,
      "pal": 3087,
      "six": 3088,
      "treat": 3089,
      "##here": 3090,
      "##rad": 3091,
      "##ex": 3092,
      "##iam": 3093,
      "##mart": 3094,
      "##light": 3095,
      "##_p": 3096,
      "##_j": 3097,
      "tha": 3098,
      "##ena": 3099,
      "##icy": 3100,
      "##icks": 3101,
      "gold": 3102,
      "nobody": 3103,
      "alot": 3104,
      "brought": 3105,
      "##oooooo": 3106,
      "conta": 3107,
      "showing": 3108,
      "sched": 3109,
      "trail": 3110,
      "others": 3111,
      "thoughts": 3112,
      "##baby": 3113,
      "##arely": 3114,
      "suppose": 3115,
      "fml": 3116,
      "lessons": 3117,
      "contin": 3118,
      "window": 3119,
      "packing": 3120,
      "tonite": 3121,
      "ashley": 3122,
      "expensive": 3123,
      "loads": 3124,
      "straight": 3125,
      "dougiemcfly": 3126,
      "starbucks": 3127,
      "favourite": 3128,
      "gorgeous": 3129,
      "2mor": 3130,
      "5j": 3131,
      "austr": 3132,
      "bc": 3133,
      "bother": 3134,
      "breat": 3135,
      "cent": 3136,
      "fol": 3137,
      "gun": 3138,
      "ign": 3139,
      "king": 3140,
      "kay": 3141,
      "match": 3142,
      "pm": 3143,
      "race": 3144,
      "sil": 3145,
      "silly": 3146,
      "val": 3147,
      "##how": 3148,
      "##vs": 3149,
      "##use": 3150,
      "##cut": 3151,
      "##dr": 3152,
      "##dney": 3153,
      "##za": 3154,
      "##zer": 3155,
      "##ween": 3156,
      "##((": 3157,
      "thunder": 3158,
      "topic": 3159,
      "##oring": 3160,
      "mex": 3161,
      "##ades": 3162,
      "butter": 3163,
      "##ief": 3164,
      "freaking": 3165,
      "doin": 3166,
      "dogs": 3167,
      "##ros": 3168,
      "awful": 3169,
      "##anda": 3170,
      "speak": 3171,
      "space": 3172,
      "brad": 3173,
      "dem": 3174,
      "degr": 3175,
      "follower": 3176,
      ".........": 3177,
      "host": 3178,
      "kidding": 3179,
      "passed": 3180,
      "blackberry": 3181,
      "grandma": 3182,
      "drag": 3183,
      "##bury": 3184,
      "gener": 3185,
      "imagine": 3186,
      "dentist": 3187,
      "history": 3188,
      "cancelled": 3189,
      "important": 3190,
      "contact": 3191,
      ",,": 3192,
      "22": 3193,
      "aha": 3194,
      "bat": 3195,
      "bak": 3196,
      "gab": 3197,
      "hes": 3198,
      "mouth": 3199,
      "nd": 3200,
      "ori": 3201,
      "rip": 3202,
      "sir": 3203,
      "tar": 3204,
      "tab": 3205,
      "uh": 3206,
      "wif": 3207,
      "xo": 3208,
      "yfrog": 3209,
      "##rore": 3210,
      "##eb": 3211,
      "##i_": 3212,
      "##ij": 3213,
      "##lu": 3214,
      "##_h": 3215,
      "##27": 3216,
      "##05": 3217,
      "##17": 3218,
      "##ored": 3219,
      "##itting": 3220,
      "##omas": 3221,
      "##stem": 3222,
      "##ices": 3223,
      "storm": 3224,
      "shoot": 3225,
      "##ural": 3226,
      "##alk": 3227,
      "frank": 3228,
      "worried": 3229,
      "ref": 3230,
      "allow": 3231,
      "##acking": 3232,
      "##ila": 3233,
      "major": 3234,
      "##ours": 3235,
      "coz": 3236,
      "between": 3237,
      "click": 3238,
      "mont": 3239,
      "cheers": 3240,
      "dancing": 3241,
      "strong": 3242,
      "##wards": 3243,
      "##attle": 3244,
      "classes": 3245,
      "mums": 3246,
      "teacher": 3247,
      "killed": 3248,
      "planning": 3249,
      "across": 3250,
      "retrore": 3251,
      "eric": 3252,
      "msn": 3253,
      "darn": 3254,
      "nyc": 3255,
      "dying": 3256,
      "north": 3257,
      "vacation": 3258,
      "priv": 3259,
      "entire": 3260,
      "brian": 3261,
      "sunburn": 3262,
      "congratulations": 3263,
      "retrorewind": 3264,
      "ber": 3265,
      "bang": 3266,
      "dnt": 3267,
      "ga": 3268,
      "gross": 3269,
      "geek": 3270,
      "ily": 3271,
      "iron": 3272,
      "jour": 3273,
      "ken": 3274,
      "nk": 3275,
      "ni": 3276,
      "nam": 3277,
      "nah": 3278,
      "sig": 3279,
      "seni": 3280,
      "wild": 3281,
      "##ped": 3282,
      "##ost": 3283,
      "##ml": 3284,
      "##mas": 3285,
      "##lee": 3286,
      "##bt": 3287,
      "##16": 3288,
      "##ination": 3289,
      "hall": 3290,
      "##icted": 3291,
      "stat": 3292,
      "shift": 3293,
      "##alc": 3294,
      "##ung": 3295,
      "atm": 3296,
      "twice": 3297,
      "cho": 3298,
      "##raid": 3299,
      "amy": 3300,
      "thanx": 3301,
      "mag": 3302,
      "feed": 3303,
      "anytime": 3304,
      "blast": 3305,
      "blah": 3306,
      "grrr": 3307,
      "const": 3308,
      "##ubb": 3309,
      "usa": 3310,
      "##empt": 3311,
      "couldnt": 3312,
      "##ational": 3313,
      "afraid": 3314,
      "##shi": 3315,
      "cru": 3316,
      "become": 3317,
      "helping": 3318,
      "##itchen": 3319,
      "awwww": 3320,
      "daddy": 3321,
      "deliver": 3322,
      "kelly": 3323,
      "surg": 3324,
      "simple": 3325,
      "theres": 3326,
      "market": 3327,
      "jimmy": 3328,
      "chicago": 3329,
      "losing": 3330,
      "hilarious": 3331,
      "program": 3332,
      "incred": 3333,
      "80": 3334,
      "bon": 3335,
      "dry": 3336,
      "jb": 3337,
      "ng": 3338,
      "nom": 3339,
      "poo": 3340,
      "ven": 3341,
      "wk": 3342,
      "##hy": 3343,
      "##aur": 3344,
      "##ging": 3345,
      "##van": 3346,
      "##cap": 3347,
      "##87": 3348,
      "##jam": 3349,
      "##jack": 3350,
      "##bra": 3351,
      "##ari": 3352,
      "onto": 3353,
      "##chy": 3354,
      "##reme": 3355,
      "##lyn": 3356,
      "chap": 3357,
      "##haw": 3358,
      "##ili": 3359,
      "##thew": 3360,
      "asking": 3361,
      "asked": 3362,
      "knee": 3363,
      "##ands": 3364,
      "##ums": 3365,
      "somebody": 3366,
      "background": 3367,
      "offer": 3368,
      "ages": 3369,
      "twittering": 3370,
      "everyday": 3371,
      "momma": 3372,
      "sale": 3373,
      "blow": 3374,
      "scott": 3375,
      "##xxx": 3376,
      "##heart": 3377,
      "##iva": 3378,
      "thru": 3379,
      "bird": 3380,
      "##cret": 3381,
      "##deck": 3382,
      "##aaaaaaaa": 3383,
      "steve": 3384,
      "buying": 3385,
      "charl": 3386,
      "personal": 3387,
      "scream": 3388,
      "jenny": 3389,
      "##123": 3390,
      "##ivers": 3391,
      "invite": 3392,
      "confused": 3393,
      "interested": 3394,
      "draw": 3395,
      "nearly": 3396,
      "finger": 3397,
      "buddy": 3398,
      "country": 3399,
      "empty": 3400,
      "pissed": 3401,
      "normal": 3402,
      "ugly": 3403,
      "australia": 3404,
      "\".": 3405,
      "2nite": 3406,
      "90": 3407,
      ":]": 3408,
      "aaa": 3409,
      "cast": 3410,
      "east": 3411,
      "les": 3412,
      "lead": 3413,
      "lang": 3414,
      "ros": 3415,
      "sem": 3416,
      "session": 3417,
      "vict": 3418,
      "yess": 3419,
      "##pro": 3420,
      "##han": 3421,
      "##good": 3422,
      "##sk": 3423,
      "##may": 3424,
      "##_w": 3425,
      "##_x": 3426,
      "##95": 3427,
      "##fo": 3428,
      "##fort": 3429,
      "##04": 3430,
      "##ini": 3431,
      "##ergy": 3432,
      "toast": 3433,
      "myloc": 3434,
      "##iddy": 3435,
      "likes": 3436,
      "##ility": 3437,
      "##roll": 3438,
      "mall": 3439,
      "##aine": 3440,
      "kno": 3441,
      "##ume": 3442,
      "expl": 3443,
      "anybody": 3444,
      "however": 3445,
      "demi": 3446,
      "sort": 3447,
      "##ubs": 3448,
      "scar": 3449,
      "unl": 3450,
      "ador": 3451,
      "daily": 3452,
      "build": 3453,
      "mins": 3454,
      "craving": 3455,
      "##queen": 3456,
      "holy": 3457,
      "skin": 3458,
      "checked": 3459,
      "clear": 3460,
      "coun": 3461,
      "delicious": 3462,
      "report": 3463,
      "turned": 3464,
      "ladies": 3465,
      "court": 3466,
      "terrible": 3467,
      "cooking": 3468,
      "falling": 3469,
      "system": 3470,
      "article": 3471,
      "katie": 3472,
      "uploaded": 3473,
      "color": 3474,
      "tumbl": 3475,
      "heaven": 3476,
      "women": 3477,
      "possible": 3478,
      "bottle": 3479,
      "crossed": 3480,
      "??????": 3481,
      "##ography": 3482,
      ":'(": 3483,
      "surgery": 3484,
      "!\"": 3485,
      "),": 3486,
      "00": 3487,
      "3d": 3488,
      "3rd": 3489,
      "5z": 3490,
      "aug": 3491,
      "ci": 3492,
      "cow": 3493,
      "cough": 3494,
      "dc": 3495,
      "dom": 3496,
      "dut": 3497,
      "kitchen": 3498,
      "lind": 3499,
      "west": 3500,
      "##hal": 3501,
      "##ray": 3502,
      "##gi": 3503,
      "##nel": 3504,
      "##sl": 3505,
      "##und": 3506,
      "##mom": 3507,
      "##miss": 3508,
      "##84": 3509,
      "##fire": 3510,
      "##01": 3511,
      "##x3": 3512,
      "tooth": 3513,
      "##ese": 3514,
      "##itive": 3515,
      "##stack": 3516,
      "##ico": 3517,
      "island": 3518,
      "often": 3519,
      "style": 3520,
      "sher": 3521,
      "##imp": 3522,
      "noticed": 3523,
      "canada": 3524,
      "chem": 3525,
      "##one60": 3526,
      "sushi": 3527,
      "comed": 3528,
      "##enty": 3529,
      "##haps": 3530,
      "nowhere": 3531,
      "##antly": 3532,
      "amber": 3533,
      "##using": 3534,
      "knows": 3535,
      "excell": 3536,
      "span": 3537,
      "depress": 3538,
      "everywhere": 3539,
      "arm": 3540,
      "area": 3541,
      "argh": 3542,
      "joke": 3543,
      "##ggy": 3544,
      "##gged": 3545,
      "unless": 3546,
      "##ship": 3547,
      "##photo": 3548,
      "maria": 3549,
      "!!!!!!!!!!!!": 3550,
      "##play": 3551,
      "flat": 3552,
      "##athon": 3553,
      "dammit": 3554,
      "bug": 3555,
      "smart": 3556,
      "##ival": 3557,
      "keeping": 3558,
      "##ashion": 3559,
      "telling": 3560,
      "perhaps": 3561,
      "lately": 3562,
      "##nnn": 3563,
      "step": 3564,
      "turns": 3565,
      "hehehe": 3566,
      "sydney": 3567,
      "catching": 3568,
      "avail": 3569,
      "thereal": 3570,
      "grey": 3571,
      "blocked": 3572,
      "training": 3573,
      "##guy": 3574,
      "##ippines": 3575,
      "fabulous": 3576,
      "woman": 3577,
      "ordered": 3578,
      "philippines": 3579,
      "sharing": 3580,
      "teeth": 3581,
      "bloody": 3582,
      "respond": 3583,
      "practice": 3584,
      "productive": 3585,
      "gfalc": 3586,
      "tumblr": 3587,
      "##one601": 3588,
      "gfalcone601": 3589,
      "&&": 3590,
      "333": 3591,
      "aly": 3592,
      "ace": 3593,
      "age": 3594,
      "bes": 3595,
      "barely": 3596,
      "cash": 3597,
      "fest": 3598,
      "hus": 3599,
      "ja": 3600,
      "jap": 3601,
      "ko": 3602,
      "lor": 3603,
      "lem": 3604,
      "loud": 3605,
      "noooo": 3606,
      "pin": 3607,
      "tit": 3608,
      "tatt": 3609,
      "woot": 3610,
      "yell": 3611,
      "##kr": 3612,
      "##kid": 3613,
      "##hs": 3614,
      "##oon": 3615,
      "##ror": 3616,
      "##iy": 3617,
      "##ias": 3618,
      "##ians": 3619,
      "##nal": 3620,
      "##ua": 3621,
      "##ugs": 3622,
      "##cess": 3623,
      "##bell": 3624,
      "##ders": 3625,
      "##fit": 3626,
      "##wich": 3627,
      "##15": 3628,
      "##ative": 3629,
      "##ayy": 3630,
      "##enter": 3631,
      "##chick": 3632,
      "##cks": 3633,
      "soft": 3634,
      "sha": 3635,
      "lif": 3636,
      "lives": 3637,
      "lived": 3638,
      "##ury": 3639,
      "button": 3640,
      "frustr": 3641,
      "washing": 3642,
      "tweeps": 3643,
      "cheap": 3644,
      "suff": 3645,
      "sudd": 3646,
      "outta": 3647,
      "##ilt": 3648,
      "##iles": 3649,
      "##roy": 3650,
      "##rol": 3651,
      "alco": 3652,
      "mornin": 3653,
      "knight": 3654,
      "awe": 3655,
      "timberlake": 3656,
      "press": 3657,
      "slight": 3658,
      "##rown": 3659,
      "blessed": 3660,
      "convers": 3661,
      "##wwww": 3662,
      "followed": 3663,
      "##udge": 3664,
      "trad": 3665,
      "rofl": 3666,
      "##sss": 3667,
      "quiz": 3668,
      "babys": 3669,
      "##ived": 3670,
      "##brary": 3671,
      "hotel": 3672,
      "strange": 3673,
      "##zzzz": 3674,
      "putting": 3675,
      "sweetie": 3676,
      "##uuuu": 3677,
      "sooooo": 3678,
      "cookies": 3679,
      "soup": 3680,
      "##attery": 3681,
      "picked": 3682,
      "figured": 3683,
      "2009": 3684,
      "studio": 3685,
      "children": 3686,
      "consider": 3687,
      "request": 3688,
      "latest": 3689,
      "weren": 3690,
      "private": 3691,
      "excellent": 3692,
      "sudden": 3693,
      "alcohol": 3694,
      "ak": 3695,
      "aim": 3696,
      "bf": 3697,
      "bub": 3698,
      "boss": 3699,
      "coo": 3700,
      "cud": 3701,
      "cass": 3702,
      "deep": 3703,
      "est": 3704,
      "fashion": 3705,
      "las": 3706,
      "mm": 3707,
      "master": 3708,
      "nasty": 3709,
      "ohhh": 3710,
      "oops": 3711,
      "rice": 3712,
      "ss": 3713,
      "ul": 3714,
      "vir": 3715,
      "wet": 3716,
      "wide": 3717,
      "##hor": 3718,
      "##house": 3719,
      "##oa": 3720,
      "##ove": 3721,
      "##ring": 3722,
      "##ez": 3723,
      "##mic": 3724,
      "##mag": 3725,
      "##_g": 3726,
      "##_n": 3727,
      "##bro": 3728,
      "##99": 3729,
      "##face": 3730,
      "##wl": 3731,
      "##ero": 3732,
      "theat": 3733,
      "hah": 3734,
      "##isa": 3735,
      "##ically": 3736,
      "##char": 3737,
      "meg": 3738,
      "begin": 3739,
      "loss": 3740,
      "shel": 3741,
      "##omez": 3742,
      "library": 3743,
      "##imb": 3744,
      "ank": 3745,
      "wasnt": 3746,
      "cha": 3747,
      "chi": 3748,
      "##hall": 3749,
      "##ils": 3750,
      "nose": 3751,
      "##tttt": 3752,
      "plz": 3753,
      "places": 3754,
      "awh": 3755,
      "misses": 3756,
      "##ulu": 3757,
      "breaking": 3758,
      "print": 3759,
      "deb": 3760,
      "depressed": 3761,
      "tax": 3762,
      "ground": 3763,
      "##ango": 3764,
      "sever": 3765,
      "swear": 3766,
      "shouldn": 3767,
      "tweetdeck": 3768,
      "flash": 3769,
      "becom": 3770,
      "bull": 3771,
      "lakers": 3772,
      "mini": 3773,
      "finding": 3774,
      "hugh": 3775,
      "##iii": 3776,
      "compet": 3777,
      "stream": 3778,
      "board": 3779,
      "perfor": 3780,
      "situ": 3781,
      "messed": 3782,
      "painting": 3783,
      "delay": 3784,
      "assign": 3785,
      "attack": 3786,
      "lesson": 3787,
      "scratch": 3788,
      "midnight": 3789,
      "calif": 3790,
      "##ornia": 3791,
      "emails": 3792,
      "##marie": 3793,
      "surprise": 3794,
      "arrived": 3795,
      "american": 3796,
      "apartment": 3797,
      "memories": 3798,
      "afford": 3799,
      "allowed": 3800,
      "adorable": 3801,
      "august": 3802,
      "60": 3803,
      ":|": 3804,
      "?\"": 3805,
      "bunny": 3806,
      "du": 3807,
      "eb": 3808,
      "hill": 3809,
      "lam": 3810,
      "lake": 3811,
      "nut": 3812,
      "obs": 3813,
      "rom": 3814,
      "ren": 3815,
      "tear": 3816,
      "tip": 3817,
      "tix": 3818,
      "##pot": 3819,
      "##oe": 3820,
      "##tra": 3821,
      "##gue": 3822,
      "##val": 3823,
      "##sup": 3824,
      "##fox": 3825,
      "##wise": 3826,
      "##ware": 3827,
      "##76": 3828,
      "##-)": 3829,
      "thn": 3830,
      "##ern": 3831,
      "toy": 3832,
      "##ouch": 3833,
      "##ani": 3834,
      "##edic": 3835,
      "##otb": 3836,
      "##ises": 3837,
      "##ety": 3838,
      "stri": 3839,
      "bey": 3840,
      "##add": 3841,
      "shake": 3842,
      "shining": 3843,
      "##irty": 3844,
      "anna": 3845,
      "workin": 3846,
      "##rah": 3847,
      "alarm": 3848,
      "##uses": 3849,
      "magic": 3850,
      "donn": 3851,
      "knock": 3852,
      "##ished": 3853,
      "##icked": 3854,
      "##allen": 3855,
      "bru": 3856,
      "fault": 3857,
      "org": 3858,
      "energy": 3859,
      "##ify": 3860,
      "coast": 3861,
      "drop": 3862,
      "dread": 3863,
      "lookin": 3864,
      "##itten": 3865,
      "tree": 3866,
      "secret": 3867,
      "cars": 3868,
      "rose": 3869,
      "level": 3870,
      "##izzy": 3871,
      "marc": 3872,
      "flor": 3873,
      "girlfriend": 3874,
      "dawn": 3875,
      "smh": 3876,
      "crappy": 3877,
      "teach": 3878,
      "added": 3879,
      "keys": 3880,
      "holidays": 3881,
      "attend": 3882,
      "setting": 3883,
      "fancy": 3884,
      "type": 3885,
      "macbook": 3886,
      "learned": 3887,
      "##oooooooooooooooo": 3888,
      "closing": 3889,
      "##____": 3890,
      "laughing": 3891,
      "lights": 3892,
      "joined": 3893,
      "##airs": 3894,
      "evil": 3895,
      "fighting": 3896,
      "fourth": 3897,
      "floor": 3898,
      "##natural": 3899,
      "includ": 3900,
      "deserve": 3901,
      "performan": 3902,
      "california": 3903,
      "000": 3904,
      "ay": 3905,
      "ain": 3906,
      "ache": 3907,
      "bio": 3908,
      "battery": 3909,
      "ce": 3910,
      "der": 3911,
      "dish": 3912,
      "dub": 3913,
      "esp": 3914,
      "father": 3915,
      "gal": 3916,
      "gro": 3917,
      "gear": 3918,
      "ht": 3919,
      "lou": 3920,
      "lord": 3921,
      "mir": 3922,
      "mount": 3923,
      "pam": 3924,
      "poop": 3925,
      "rac": 3926,
      "sym": 3927,
      "tur": 3928,
      "taste": 3929,
      "ut": 3930,
      "umm": 3931,
      "wood": 3932,
      "wii": 3933,
      "yog": 3934,
      "##po": 3935,
      "##hin": 3936,
      "##gins": 3937,
      "##upp": 3938,
      "##men": 3939,
      "##_r": 3940,
      "##jr": 3941,
      "##que": 3942,
      "##ban": 3943,
      "##bed": 3944,
      "##bel": 3945,
      "##books": 3946,
      "##07": 3947,
      "##79": 3948,
      "third": 3949,
      "##nding": 3950,
      "##aron": 3951,
      "##etch": 3952,
      "##ida": 3953,
      "bear": 3954,
      "shoo": 3955,
      "lim": 3956,
      "##ality": 3957,
      "##verse": 3958,
      "notice": 3959,
      "sux": 3960,
      "##iling": 3961,
      "gotten": 3962,
      "##loy": 3963,
      "watchin": 3964,
      "jobs": 3965,
      "finals": 3966,
      "##ups": 3967,
      "##007": 3968,
      "##gger": 3969,
      "##gggg": 3970,
      "marathon": 3971,
      "##rrr": 3972,
      "action": 3973,
      "##ivity": 3974,
      "##brad": 3975,
      "helps": 3976,
      "mondays": 3977,
      "series": 3978,
      "happening": 3979,
      "hangover": 3980,
      "kevin": 3981,
      "ahead": 3982,
      "ideas": 3983,
      "juice": 3984,
      "slowly": 3985,
      "extreme": 3986,
      "##host": 3987,
      "miser": 3988,
      "straw": 3989,
      "hyper": 3990,
      "pleasure": 3991,
      "distract": 3992,
      "!!!!!!!": 3993,
      "issues": 3994,
      "##illiams": 3995,
      "dropped": 3996,
      "piece": 3997,
      "##jonas": 3998,
      "inspir": 3999,
      "received": 4000,
      "essay": 4001,
      "schedule": 4002,
      "folks": 4003,
      "origin": 4004,
      "available": 4005,
      "husband": 4006,
      "\",": 4007,
      "::": 4008,
      "bay": 4009,
      "base": 4010,
      "cust": 4011,
      "cir": 4012,
      "dest": 4013,
      "econ": 4014,
      "hr": 4015,
      "hd": 4016,
      "jp": 4017,
      "mand": 4018,
      "os": 4019,
      "oct": 4020,
      "tg": 4021,
      "tat": 4022,
      "table": 4023,
      "waste": 4024,
      "xbox": 4025,
      "yeh": 4026,
      "zomb": 4027,
      "##kat": 4028,
      "##kut": 4029,
      "##kins": 4030,
      "##hay": 4031,
      "##right": 4032,
      "##eg": 4033,
      "##y_": 4034,
      "##vous": 4035,
      "##iu": 4036,
      "##ipping": 4037,
      "##ipped": 4038,
      "##n1": 4039,
      "##mind": 4040,
      "##cs": 4041,
      "##cra": 4042,
      "##js": 4043,
      "##just": 4044,
      "##dies": 4045,
      "##zing": 4046,
      "##fs": 4047,
      "##form": 4048,
      "##win": 4049,
      "##32": 4050,
      "##74": 4051,
      "toe": 4052,
      "tough": 4053,
      "##ora": 4054,
      "##ores": 4055,
      "##lla": 4056,
      "##eech": 4057,
      "##ndry": 4058,
      "##ooth": 4059,
      "##omy": 4060,
      "##stre": 4061,
      "youre": 4062,
      "##isc": 4063,
      "##leigh": 4064,
      "whoo": 4065,
      "##aming": 4066,
      "golf": 4067,
      "##lds": 4068,
      "wend": 4069,
      "##iem": 4070,
      "angry": 4071,
      "within": 4072,
      "heh": 4073,
      "heather": 4074,
      "challen": 4075,
      "reach": 4076,
      "##ental": 4077,
      "##ryan": 4078,
      "##rob": 4079,
      "##raine": 4080,
      "amand": 4081,
      "##asted": 4082,
      "impress": 4083,
      "impressed": 4084,
      "##lock": 4085,
      "##ults": 4086,
      "speed": 4087,
      "price": 4088,
      "depend": 4089,
      "##ucky": 4090,
      "twitters": 4091,
      "everytime": 4092,
      "arr": 4093,
      "cla": 4094,
      "trust": 4095,
      "##ists": 4096,
      "##000": 4097,
      "flick": 4098,
      "sucked": 4099,
      "born": 4100,
      "crack": 4101,
      "crush": 4102,
      "realize": 4103,
      "daniel": 4104,
      "stressed": 4105,
      "emily": 4106,
      "talkin": 4107,
      "clock": 4108,
      "given": 4109,
      "?!?!": 4110,
      "mostly": 4111,
      "addicted": 4112,
      "doubt": 4113,
      "woohoo": 4114,
      "##carter": 4115,
      "iamd": 4116,
      "frenchie": 4117,
      "ruined": 4118,
      "peter": 4119,
      "commun": 4120,
      "reminds": 4121,
      "mommies": 4122,
      "england": 4123,
      "##ique": 4124,
      "desktop": 4125,
      "richard": 4126,
      "sandwich": 4127,
      "truly": 4128,
      "managed": 4129,
      "theatre": 4130,
      "!..": 4131,
      "!...": 4132,
      "**": 4133,
      "09": 4134,
      ";-)": 4135,
      "^^": 4136,
      "az": 4137,
      "auss": 4138,
      "aunt": 4139,
      "bs": 4140,
      "bones": 4141,
      "cab": 4142,
      "cine": 4143,
      "dumb": 4144,
      "fem": 4145,
      "gh": 4146,
      "gah": 4147,
      "ghost": 4148,
      "hid": 4149,
      "jun": 4150,
      "kir": 4151,
      "kirst": 4152,
      "kitty": 4153,
      "mile": 4154,
      "nin": 4155,
      "nig": 4156,
      "oce": 4157,
      "oper": 4158,
      "pix": 4159,
      "push": 4160,
      "pants": 4161,
      "raw": 4162,
      "sist": 4163,
      "vs": 4164,
      "x2": 4165,
      "##ping": 4166,
      "##off": 4167,
      "##ran": 4168,
      "##gers": 4169,
      "##ych": 4170,
      "##82": 4171,
      "##jb": 4172,
      "##jay": 4173,
      "##bn": 4174,
      "##di": 4175,
      "##down": 4176,
      "##fg": 4177,
      "##ford": 4178,
      "##williams": 4179,
      "##69": 4180,
      "##65": 4181,
      "##erc": 4182,
      "##ities": 4183,
      "##oomy": 4184,
      "ham": 4185,
      "##otion": 4186,
      "##isy": 4187,
      "##ution": 4188,
      "##enag": 4189,
      "##ids": 4190,
      "shan": 4191,
      "shann": 4192,
      "shots": 4193,
      "##sel": 4194,
      "butt": 4195,
      "heyy": 4196,
      "chuck": 4197,
      "regr": 4198,
      "pls": 4199,
      "imma": 4200,
      "awards": 4201,
      "abt": 4202,
      "wanting": 4203,
      "##ffff": 4204,
      "speaking": 4205,
      "bread": 4206,
      "hows": 4207,
      "princess": 4208,
      "deck": 4209,
      "fave": 4210,
      "fake": 4211,
      "arms": 4212,
      "blame": 4213,
      "grr": 4214,
      "##ifts": 4215,
      "drinks": 4216,
      "badly": 4217,
      "seattle": 4218,
      "quote": 4219,
      "lex": 4220,
      "##ahl": 4221,
      "uni": 4222,
      "uncle": 4223,
      "player": 4224,
      "##onds": 4225,
      "idiot": 4226,
      "channel": 4227,
      "release": 4228,
      "##dddd": 4229,
      "plane": 4230,
      "pair": 4231,
      "laundry": 4232,
      "remembered": 4233,
      "unfollow": 4234,
      "decide": 4235,
      "diffic": 4236,
      "promise": 4237,
      "sims": 4238,
      "##elearn": 4239,
      "tons": 4240,
      "episodes": 4241,
      "paying": 4242,
      "christian": 4243,
      "##eased": 4244,
      "insane": 4245,
      "downloaded": 4246,
      "nicole": 4247,
      "annoyed": 4248,
      "based": 4249,
      "chineselearn": 4250,
      "presentation": 4251,
      "entertain": 4252,
      "connect": 4253,
      "cherry": 4254,
      "properly": 4255,
      "bacon": 4256,
      "montana": 4257,
      "depressing": 4258,
      "tattoo": 4259,
      "performance": 4260,
      "iamdiddy": 4261,
      "bre": 4262,
      "bound": 4263,
      "booo": 4264,
      "bunch": 4265,
      "cc": 4266,
      "feat": 4267,
      "ic": 4268,
      "ilove": 4269,
      "jr": 4270,
      "kell": 4271,
      "lee": 4272,
      "liter": 4273,
      "leno": 4274,
      "mp": 4275,
      "meal": 4276,
      "mik": 4277,
      "nooo": 4278,
      "nails": 4279,
      "odd": 4280,
      "pill": 4281,
      "rh": 4282,
      "ree": 4283,
      "sg": 4284,
      "vol": 4285,
      "ye": 4286,
      "yrs": 4287,
      "##pet": 4288,
      "##pen": 4289,
      "##pol": 4290,
      "##hil": 4291,
      "##res": 4292,
      "##rick": 4293,
      "##rup": 4294,
      "##gest": 4295,
      "##vr": 4296,
      "##sa": 4297,
      "##mad": 4298,
      "##cas": 4299,
      "##core": 4300,
      "##_t": 4301,
      "##bow": 4302,
      "##des": 4303,
      "##zil": 4304,
      "##fic": 4305,
      "##war": 4306,
      "##with": 4307,
      "##xy": 4308,
      "##42": 4309,
      "##72": 4310,
      "##inting": 4311,
      "tony": 4312,
      "tong": 4313,
      "##anne": 4314,
      "##atar": 4315,
      "##esy": 4316,
      "##stal": 4317,
      "##child": 4318,
      "soph": 4319,
      "##ustin": 4320,
      "##iller": 4321,
      "##vert": 4322,
      "fridays": 4323,
      "heck": 4324,
      "tweep": 4325,
      "chr": 4326,
      "subs": 4327,
      "comfort": 4328,
      "##rain": 4329,
      "makin": 4330,
      "##abe": 4331,
      "mode": 4332,
      "spin": 4333,
      "sport": 4334,
      "brows": 4335,
      "##morning": 4336,
      "arch": 4337,
      "hasn": 4338,
      "dressed": 4339,
      "pod": 4340,
      "##emy": 4341,
      "theme": 4342,
      "carol": 4343,
      "que": 4344,
      "##izing": 4345,
      "adam": 4346,
      "awesom": 4347,
      "appear": 4348,
      "gloomy": 4349,
      "buff": 4350,
      "buzz": 4351,
      "launch": 4352,
      "hurry": 4353,
      "discover": 4354,
      "##fresh": 4355,
      "famous": 4356,
      "##ensen": 4357,
      "finishing": 4358,
      "fuckin": 4359,
      "talked": 4360,
      "##blue": 4361,
      "research": 4362,
      "address": 4363,
      "paint": 4364,
      "deleted": 4365,
      "booked": 4366,
      "charac": 4367,
      "planned": 4368,
      "updating": 4369,
      "edit": 4370,
      "cali": 4371,
      "cards": 4372,
      "collect": 4373,
      "media": 4374,
      "##iction": 4375,
      "seconds": 4376,
      "selenag": 4377,
      "muff": 4378,
      "digital": 4379,
      "replace": 4380,
      "surprising": 4381,
      "mrskut": 4382,
      "football": 4383,
      "##world": 4384,
      "celebrate": 4385,
      "celebrating": 4386,
      "elect": 4387,
      "motiv": 4388,
      "obvious": 4389,
      "honestly": 4390,
      "cloudy": 4391,
      "victor": 4392,
      "comedy": 4393,
      "spanish": 4394,
      "conversation": 4395,
      "several": 4396,
      "difficult": 4397,
      "tongue": 4398,
      "selenagomez": 4399,
      "mrskutcher": 4400,
      "33": 4401,
      "bff": 4402,
      "ew": 4403,
      "fool": 4404,
      "iv": 4405,
      "jt": 4406,
      "jtim": 4407,
      "ka": 4408,
      "ki": 4409,
      "ker": 4410,
      "mt": 4411,
      "mur": 4412,
      "mtv": 4413,
      "nl": 4414,
      "oo": 4415,
      "ohhhh": 4416,
      "sin": 4417,
      "tis": 4418,
      "tut": 4419,
      "tiff": 4420,
      "ustre": 4421,
      "wx": 4422,
      "wra": 4423,
      "yu": 4424,
      "york": 4425,
      "##run": 4426,
      "##rop": 4427,
      "##gra": 4428,
      "##ius": 4429,
      "##sm": 4430,
      "##mark": 4431,
      "##cou": 4432,
      "##cott": 4433,
      "##bish": 4434,
      "##bour": 4435,
      "##bug": 4436,
      "##dra": 4437,
      "##dog": 4438,
      "##zen": 4439,
      "##90": 4440,
      "##fm": 4441,
      "##29": 4442,
      "thomas": 4443,
      "##err": 4444,
      "##orious": 4445,
      "##ances": 4446,
      "thes": 4447,
      "##lll": 4448,
      "##eness": 4449,
      "station": 4450,
      "states": 4451,
      "mem": 4452,
      "##lynn": 4453,
      "##amps": 4454,
      "goss": 4455,
      "##pper": 4456,
      "##erez": 4457,
      "anth": 4458,
      "twist": 4459,
      "candy": 4460,
      "choice": 4461,
      "remo": 4462,
      "alas": 4463,
      "alive": 4464,
      "##ushing": 4465,
      "##issy": 4466,
      "happiness": 4467,
      "somehow": 4468,
      "##loves": 4469,
      "knowing": 4470,
      "##icky": 4471,
      "##ules": 4472,
      "exist": 4473,
      "spl": 4474,
      "brook": 4475,
      "britt": 4476,
      "##eets": 4477,
      "wave": 4478,
      "philly": 4479,
      "drama": 4480,
      "points": 4481,
      "##ista": 4482,
      "friendly": 4483,
      "robert": 4484,
      "quit": 4485,
      "##ggie": 4486,
      "weekends": 4487,
      "##show": 4488,
      "appoint": 4489,
      "diet": 4490,
      "wrote": 4491,
      "stars": 4492,
      "##pres": 4493,
      "........": 4494,
      "amazon": 4495,
      "posting": 4496,
      "accord": 4497,
      "snow": 4498,
      "respect": 4499,
      "##hhhhhhhh": 4500,
      "photosh": 4501,
      "teaching": 4502,
      "cleaned": 4503,
      "prefer": 4504,
      "painful": 4505,
      "winter": 4506,
      "kept": 4507,
      "accept": 4508,
      "announ": 4509,
      "updated": 4510,
      "attempt": 4511,
      "cafe": 4512,
      "revise": 4513,
      "grade": 4514,
      "invol": 4515,
      "avatar": 4516,
      "medic": 4517,
      "##laur": 4518,
      "laying": 4519,
      "student": 4520,
      "effect": 4521,
      "ruby": 4522,
      "possibly": 4523,
      "questions": 4524,
      "nerd": 4525,
      "nervous": 4526,
      "britains": 4527,
      "america": 4528,
      "stephen": 4529,
      "oooh": 4530,
      "discuss": 4531,
      "swimming": 4532,
      "positive": 4533,
      "screwed": 4534,
      "texas": 4535,
      "local": 4536,
      "trailer": 4537,
      "continue": 4538,
      "senior": 4539,
      "status": 4540,
      "lemon": 4541,
      "becoming": 4542,
      "beyond": 4543,
      "original": 4544,
      "custom": 4545,
      "frenchieb": 4546,
      "literally": 4547,
      "jtimberlake": 4548,
      "\"...": 4549,
      "23": 4550,
      "35": 4551,
      "ach": 4552,
      "ale": 4553,
      "ari": 4554,
      "aka": 4555,
      "bi": 4556,
      "bah": 4557,
      "cro": 4558,
      "core": 4559,
      "cav": 4560,
      "center": 4561,
      "dee": 4562,
      "dum": 4563,
      "dirty": 4564,
      "ec": 4565,
      "fi": 4566,
      "fox": 4567,
      "gir": 4568,
      "kr": 4569,
      "lin": 4570,
      "lack": 4571,
      "links": 4572,
      "mee": 4573,
      "mandy": 4574,
      "noo": 4575,
      "oz": 4576,
      "opp": 4577,
      "oooo": 4578,
      "rp": 4579,
      "ray": 4580,
      "ram": 4581,
      "river": 4582,
      "tun": 4583,
      "txt": 4584,
      "tears": 4585,
      "tips": 4586,
      "va": 4587,
      "vet": 4588,
      "##kd": 4589,
      "##k9": 4590,
      "##kar": 4591,
      "##hr": 4592,
      "##ht": 4593,
      "##hrs": 4594,
      "##ov": 4595,
      "##ral": 4596,
      "##ao": 4597,
      "##aff": 4598,
      "##gen": 4599,
      "##yr": 4600,
      "##ium": 4601,
      "##ni": 4602,
      "##some": 4603,
      "##uj": 4604,
      "##cd": 4605,
      "##cent": 4606,
      "##_o": 4607,
      "##ji": 4608,
      "##jen": 4609,
      "##jones": 4610,
      "##bon": 4611,
      "##but": 4612,
      "##ben": 4613,
      "##die": 4614,
      "##zi": 4615,
      "##92": 4616,
      "##fc": 4617,
      "##fish": 4618,
      "##wal": 4619,
      "##wars": 4620,
      "##xo": 4621,
      "##44": 4622,
      "##78": 4623,
      "##ouston": 4624,
      "##ano": 4625,
      "##online": 4626,
      "##sth": 4627,
      "havin": 4628,
      "infect": 4629,
      "stock": 4630,
      "lies": 4631,
      "lime": 4632,
      "limit": 4633,
      "##usting": 4634,
      "##ali": 4635,
      "anx": 4636,
      "reco": 4637,
      "main": 4638,
      "##aby": 4639,
      "##ument": 4640,
      "##loss": 4641,
      "spark": 4642,
      "spider": 4643,
      "speech": 4644,
      "anywhere": 4645,
      "devel": 4646,
      "slee": 4647,
      "##ella": 4648,
      "##ounds": 4649,
      "army": 4650,
      "gray": 4651,
      "##ape": 4652,
      "coach": 4653,
      "clar": 4654,
      "climb": 4655,
      "against": 4656,
      "##ipe": 4657,
      "truth": 4658,
      "adv": 4659,
      "advice": 4660,
      "tweetphoto": 4661,
      "married": 4662,
      "appro": 4663,
      "urgh": 4664,
      "cred": 4665,
      "creep": 4666,
      "parts": 4667,
      "starving": 4668,
      "starwars": 4669,
      "##ciety": 4670,
      "hurting": 4671,
      "biggest": 4672,
      "realised": 4673,
      "##from": 4674,
      "parking": 4675,
      "##aked": 4676,
      "##hahahaha": 4677,
      "snugg": 4678,
      "results": 4679,
      "recently": 4680,
      "walmart": 4681,
      "camer": 4682,
      "contest": 4683,
      "##bbie": 4684,
      "simon": 4685,
      "brazil": 4686,
      "grace": 4687,
      "confir": 4688,
      "closer": 4689,
      "network": 4690,
      "##john": 4691,
      "##aaaay": 4692,
      "easier": 4693,
      "comments": 4694,
      "uploading": 4695,
      "spread": 4696,
      "miami": 4697,
      "polit": 4698,
      "keyboard": 4699,
      "techno": 4700,
      "bottom": 4701,
      "popular": 4702,
      "fully": 4703,
      "pulled": 4704,
      "atleast": 4705,
      "expected": 4706,
      "error": 4707,
      "spoil": 4708,
      "##know": 4709,
      "dannywood": 4710,
      "burned": 4711,
      "issue": 4712,
      "nikk": 4713,
      "migraine": 4714,
      "2moro": 4715,
      "building": 4716,
      "counting": 4717,
      "japan": 4718,
      "slightly": 4719,
      "babysitting": 4720,
      "shooting": 4721,
      "miserable": 4722,
      "baseball": 4723,
      "tgif": 4724,
      "ocean": 4725,
      "regret": 4726,
      "according": 4727,
      "!?!": 4728,
      "(@": 4729,
      "***": 4730,
      "ally": 4731,
      "aaron": 4732,
      "bt": 4733,
      "cig": 4734,
      "dust": 4735,
      "et": 4736,
      "eww": 4737,
      "fear": 4738,
      "foc": 4739,
      "gee": 4740,
      "jere": 4741,
      "jud": 4742,
      "mouse": 4743,
      "million": 4744,
      "nh": 4745,
      "nood": 4746,
      "nathan": 4747,
      "nooooo": 4748,
      "oven": 4749,
      "pad": 4750,
      "pour": 4751,
      "pages": 4752,
      "sf": 4753,
      "sow": 4754,
      "search": 4755,
      "ti": 4756,
      "tight": 4757,
      "wy": 4758,
      "wicked": 4759,
      "yer": 4760,
      "##pes": 4761,
      "##hen": 4762,
      "##olog": 4763,
      "##rw": 4764,
      "##rea": 4765,
      "##ges": 4766,
      "##uv": 4767,
      "##uit": 4768,
      "##ued": 4769,
      "##uct": 4770,
      "##mat": 4771,
      "##mel": 4772,
      "##mins": 4773,
      "##city": 4774,
      "##bd": 4775,
      "##bre": 4776,
      "##del": 4777,
      "##zs": 4778,
      "##fin": 4779,
      "##fry": 4780,
      "##field": 4781,
      "##wy": 4782,
      "##45": 4783,
      "##66": 4784,
      "##,,": 4785,
      "##inger": 4786,
      "##anut": 4787,
      "##oose": 4788,
      "##stone": 4789,
      "iti": 4790,
      "##eaks": 4791,
      "##eta": 4792,
      "##asha": 4793,
      "##ashing": 4794,
      "##cky": 4795,
      "log": 4796,
      "##aded": 4797,
      "shir": 4798,
      "liver": 4799,
      "liking": 4800,
      "##illed": 4801,
      "weight": 4802,
      "##oph": 4803,
      "cancer": 4804,
      "chest": 4805,
      "chips": 4806,
      "reun": 4807,
      "neither": 4808,
      "upgr": 4809,
      "comin": 4810,
      "allerg": 4811,
      "##happy": 4812,
      "##rose": 4813,
      "alter": 4814,
      "plant": 4815,
      "above": 4816,
      "##!!!": 4817,
      "known": 4818,
      "##ardash": 4819,
      "##ffy": 4820,
      "##alley": 4821,
      "spir": 4822,
      "brings": 4823,
      "##olf": 4824,
      "orange": 4825,
      "saving": 4826,
      "blank": 4827,
      "tag": 4828,
      "phys": 4829,
      "cond": 4830,
      "drum": 4831,
      "cloud": 4832,
      "client": 4833,
      "##berries": 4834,
      "##istic": 4835,
      "sele": 4836,
      "sept": 4837,
      "##pical": 4838,
      "swe": 4839,
      "switch": 4840,
      "robl": 4841,
      "##azine": 4842,
      "quality": 4843,
      "tweeted": 4844,
      "tweetie": 4845,
      "##aches": 4846,
      "appl": 4847,
      "sometime": 4848,
      "cris": 4849,
      "ears": 4850,
      "##athy": 4851,
      "smooth": 4852,
      "bigger": 4853,
      "reality": 4854,
      "hole": 4855,
      "otherwise": 4856,
      "hardly": 4857,
      "excuse": 4858,
      "danie": 4859,
      "hella": 4860,
      "blogs": 4861,
      "hearing": 4862,
      "forgive": 4863,
      "haircut": 4864,
      "posts": 4865,
      "couch": 4866,
      "##away": 4867,
      "partying": 4868,
      "freezing": 4869,
      "classic": 4870,
      "desp": 4871,
      "supernatural": 4872,
      "adding": 4873,
      "soooooo": 4874,
      "indian": 4875,
      "handle": 4876,
      "attention": 4877,
      "cutting": 4878,
      "erin": 4879,
      "cakes": 4880,
      "files": 4881,
      "##izzle": 4882,
      "sara": 4883,
      "visiting": 4884,
      "##kkkk": 4885,
      "packed": 4886,
      "meliss": 4887,
      "##uketic": 4888,
      "laughed": 4889,
      "fellow": 4890,
      "changing": 4891,
      "praying": 4892,
      "rule": 4893,
      "chatting": 4894,
      "audio": 4895,
      "replied": 4896,
      "mcd": 4897,
      "hollyoa": 4898,
      "jerry": 4899,
      "doctors": 4900,
      "laws": 4901,
      "massive": 4902,
      "roomm": 4903,
      "large": 4904,
      "voting": 4905,
      "voted": 4906,
      "jordan": 4907,
      "details": 4908,
      "hollie": 4909,
      "europe": 4910,
      "glasses": 4911,
      "texting": 4912,
      "mistake": 4913,
      "jesus": 4914,
      "gunna": 4915,
      "##mayer": 4916,
      "awhile": 4917,
      "delayed": 4918,
      "florida": 4919,
      "including": 4920,
      "aussie": 4921,
      "obviously": 4922,
      "gossip": 4923,
      "recogn": 4924,
      "robluketic": 4925,
      "hollyoaks": 4926,
      ".!": 4927,
      "07": 4928,
      "28": 4929,
      "29": 4930,
      "27": 4931,
      "26": 4932,
      "55": 4933,
      "bills": 4934,
      "cs": 4935,
      "cer": 4936,
      "cable": 4937,
      "cult": 4938,
      "dow": 4939,
      "diss": 4940,
      "drew": 4941,
      "eight": 4942,
      "equ": 4943,
      "fir": 4944,
      "field": 4945,
      "gm": 4946,
      "goooo": 4947,
      "hills": 4948,
      "jj": 4949,
      "jew": 4950,
      "kw": 4951,
      "lon": 4952,
      "lic": 4953,
      "mult": 4954,
      "ness": 4955,
      "nuts": 4956,
      "option": 4957,
      "pee": 4958,
      "pit": 4959,
      "rite": 4960,
      "rude": 4961,
      "ross": 4962,
      "sab": 4963,
      "sour": 4964,
      "ts": 4965,
      "temp": 4966,
      "wil": 4967,
      "wire": 4968,
      "##pan": 4969,
      "##part": 4970,
      "##pool": 4971,
      "##hip": 4972,
      "##rich": 4973,
      "##god": 4974,
      "##ebb": 4975,
      "##yd": 4976,
      "##now": 4977,
      "##sing": 4978,
      "##ui": 4979,
      "##mers": 4980,
      "##li": 4981,
      "##lan": 4982,
      "##cmayer": 4983,
      "##_carter": 4984,
      "##jess": 4985,
      "##jab": 4986,
      "##bu": 4987,
      "##bird": 4988,
      "##blog": 4989,
      "##dam": 4990,
      "##dig": 4991,
      "##02": 4992,
      "##xs": 4993,
      "##ered": 4994,
      "tow": 4995,
      "todd": 4996,
      "##ati": 4997,
      "##itor": 4998,
      "haw": 4999,
      "item": 5000,
      "##each": 5001,
      "##iser": 5002,
      "##etcher": 5003,
      "##icip": 5004,
      "ish": 5005,
      "whis": 5006,
      "whore": 5007,
      "##ckey": 5008,
      "stage": 5009,
      "meh": 5010,
      "bein": 5011,
      "socc": 5012,
      "lock": 5013,
      "lily": 5014,
      "##sex": 5015,
      "##alo": 5016,
      "##ala": 5017,
      "##alian": 5018,
      "##ppin": 5019,
      "fri": 5020,
      "notes": 5021,
      "chees": 5022,
      "chels": 5023,
      "sup": 5024,
      "neg": 5025,
      "goodness": 5026,
      "workout": 5027,
      "##rage": 5028,
      "plenty": 5029,
      "aswell": 5030,
      "##ably": 5031,
      "awsome": 5032,
      "##ander": 5033,
      "mission": 5034,
      "##ollen": 5035,
      "dece": 5036,
      "gud": 5037,
      "twitterland": 5038,
      "organ": 5039,
      "##earching": 5040,
      "blond": 5041,
      "greatest": 5042,
      "grrrrr": 5043,
      "##aps": 5044,
      "cock": 5045,
      "jose": 5046,
      "user": 5047,
      "clue": 5048,
      "waitin": 5049,
      "sweat": 5050,
      "peanut": 5051,
      "whoa": 5052,
      "quot": 5053,
      "scot": 5054,
      "scri": 5055,
      "##ggg": 5056,
      "bedtime": 5057,
      "besties": 5058,
      "##acey": 5059,
      "glorious": 5060,
      "rains": 5061,
      "div": 5062,
      "babies": 5063,
      "##ode": 5064,
      "acting": 5065,
      "##ashed": 5066,
      "##ullen": 5067,
      "server": 5068,
      "runs": 5069,
      "##babe": 5070,
      "released": 5071,
      "total": 5072,
      "##iewahl": 5073,
      "boot": 5074,
      "dads": 5075,
      "##uuu": 5076,
      "##ossible": 5077,
      "charger": 5078,
      "retweet": 5079,
      "editing": 5080,
      "content": 5081,
      "msg": 5082,
      "chilling": 5083,
      "complain": 5084,
      "typical": 5085,
      "cookie": 5086,
      "johncmayer": 5087,
      "woop": 5088,
      "##????????": 5089,
      "spec": 5090,
      "meds": 5091,
      "nick_carter": 5092,
      "prayers": 5093,
      "danger": 5094,
      "humid": 5095,
      "geor": 5096,
      "mmmm": 5097,
      "natal": 5098,
      "jessic": 5099,
      "regular": 5100,
      "effort": 5101,
      "skype": 5102,
      "surprised": 5103,
      "mikey": 5104,
      "arrive": 5105,
      "subway": 5106,
      "panic": 5107,
      "covered": 5108,
      "square": 5109,
      "mamas": 5110,
      "motor": 5111,
      "smoking": 5112,
      "##2009": 5113,
      "kisses": 5114,
      "michelle": 5115,
      "shoutout": 5116,
      "irish": 5117,
      "recovering": 5118,
      "rachel": 5119,
      "healthy": 5120,
      "##words": 5121,
      "suggestions": 5122,
      "##00000000": 5123,
      "##isdom": 5124,
      "bothered": 5125,
      "breathe": 5126,
      "mexican": 5127,
      "degrees": 5128,
      "wifi": 5129,
      "nkotb": 5130,
      "incredible": 5131,
      "chapter": 5132,
      "mariah": 5133,
      "besides": 5134,
      "bubble": 5135,
      "competition": 5136,
      "situation": 5137,
      "donniewahl": 5138,
      "extremely": 5139,
      "cinema": 5140,
      "subscri": 5141,
      "develop": 5142,
      "jeremy": 5143,
      "allergies": 5144,
      "##ebbstack": 5145,
      "donniewahlberg": 5146,
      "$$": 5147,
      "'.": 5148,
      "//": 5149,
      "31": 5150,
      "300": 5151,
      "48": 5152,
      "4am": 5153,
      "500": 5154,
      "99": 5155,
      "9am": 5156,
      "aa": 5157,
      "aid": 5158,
      "biz": 5159,
      "boom": 5160,
      "cu": 5161,
      "cre": 5162,
      "cel": 5163,
      "corn": 5164,
      "ds": 5165,
      "doo": 5166,
      "dick": 5167,
      "dud": 5168,
      "emo": 5169,
      "gin": 5170,
      "gall": 5171,
      "gives": 5172,
      "hood": 5173,
      "hulu": 5174,
      "ik": 5175,
      "ie": 5176,
      "jac": 5177,
      "kel": 5178,
      "kris": 5179,
      "len": 5180,
      "nj": 5181,
      "noooooooo": 5182,
      "nurs": 5183,
      "opt": 5184,
      "owe": 5185,
      "pra": 5186,
      "path": 5187,
      "pump": 5188,
      "perez": 5189,
      "rs": 5190,
      "ron": 5191,
      "rough": 5192,
      "sd": 5193,
      "sens": 5194,
      "sett": 5195,
      "size": 5196,
      "tin": 5197,
      "tas": 5198,
      "tir": 5199,
      "tast": 5200,
      "tig": 5201,
      "tem": 5202,
      "tenn": 5203,
      "virt": 5204,
      "wasted": 5205,
      "zoo": 5206,
      "zach": 5207,
      "##ku": 5208,
      "##oen": 5209,
      "##rin": 5210,
      "##reed": 5211,
      "##real": 5212,
      "##tar": 5213,
      "##ture": 5214,
      "##aj": 5215,
      "##gm": 5216,
      "##gee": 5217,
      "##great": 5218,
      "##iea": 5219,
      "##iod": 5220,
      "##ns": 5221,
      "##nor": 5222,
      "##nam": 5223,
      "##ners": 5224,
      "##uel": 5225,
      "##lam": 5226,
      "##lie": 5227,
      "##like": 5228,
      "##lady": 5229,
      "##cam": 5230,
      "##cook": 5231,
      "##81": 5232,
      "##jan": 5233,
      "##bit": 5234,
      "##bot": 5235,
      "##bunny": 5236,
      "##don": 5237,
      "##fi": 5238,
      "##wi": 5239,
      "##ws": 5240,
      "##wil": 5241,
      "##31": 5242,
      "##71": 5243,
      "##75": 5244,
      "##erence": 5245,
      "##ington": 5246,
      "##oust": 5247,
      "##orter": 5248,
      "##anc": 5249,
      "##anie": 5250,
      "##anth": 5251,
      "##anny": 5252,
      "##oned": 5253,
      "##onse": 5254,
      "##eem": 5255,
      "##arr": 5256,
      "##oman": 5257,
      "##otic": 5258,
      "##vey": 5259,
      "##eaut": 5260,
      "##isha": 5261,
      "myst": 5262,
      "##enrie": 5263,
      "fort": 5264,
      "fore": 5265,
      "force": 5266,
      "whit": 5267,
      "staff": 5268,
      "beans": 5269,
      "##ament": 5270,
      "shad": 5271,
      "shitty": 5272,
      "lip": 5273,
      "lizz": 5274,
      "##sell": 5275,
      "##ppers": 5276,
      "wel": 5277,
      "##iece": 5278,
      "##ims": 5279,
      "##imited": 5280,
      "worries": 5281,
      "twpp": 5282,
      "chas": 5283,
      "champ": 5284,
      "reh": 5285,
      "repe": 5286,
      "suit": 5287,
      "neph": 5288,
      "comb": 5289,
      "commer": 5290,
      "goodmorning": 5291,
      "outfit": 5292,
      "##hah": 5293,
      "nove": 5294,
      "##antic": 5295,
      "##ttt": 5296,
      "##usion": 5297,
      "magn": 5298,
      "##ained": 5299,
      "tool": 5300,
      "asap": 5301,
      "##uma": 5302,
      "##lover": 5303,
      "brilli": 5304,
      "hadn": 5305,
      "##mmensen": 5306,
      "wah": 5307,
      "funer": 5308,
      "guest": 5309,
      "sav": 5310,
      "saved": 5311,
      "arg": 5312,
      "bla": 5313,
      "phones": 5314,
      "gr8": 5315,
      "process": 5316,
      "joey": 5317,
      "beta": 5318,
      "##iph": 5319,
      "swift": 5320,
      "swollen": 5321,
      "roast": 5322,
      "heads": 5323,
      "science": 5324,
      "admit": 5325,
      "sunbur": 5326,
      "##tsk": 5327,
      "thankful": 5328,
      "applic": 5329,
      "letting": 5330,
      "url": 5331,
      "##bob": 5332,
      "##princess": 5333,
      "surely": 5334,
      "##ivine": 5335,
      "yayy": 5336,
      "##break": 5337,
      "hockey": 5338,
      "idol": 5339,
      "tele": 5340,
      "helped": 5341,
      "birds": 5342,
      "##anknight": 5343,
      "##iano": 5344,
      "listened": 5345,
      "paris": 5346,
      "ending": 5347,
      "fucked": 5348,
      "checking": 5349,
      "belong": 5350,
      "##cream": 5351,
      "accom": 5352,
      "sneez": 5353,
      "?!?": 5354,
      "stayed": 5355,
      "rocking": 5356,
      "##aaaaa": 5357,
      "##fletcher": 5358,
      "contract": 5359,
      "hopes": 5360,
      "revising": 5361,
      "films": 5362,
      "burr": 5363,
      "simp": 5364,
      "metal": 5365,
      "invited": 5366,
      "avoid": 5367,
      "##boys": 5368,
      "psych": 5369,
      "##clemmensen": 5370,
      "inform": 5371,
      "##chester": 5372,
      "denver": 5373,
      "kicked": 5374,
      "polar": 5375,
      "heavy": 5376,
      "impossible": 5377,
      "rubbish": 5378,
      "##---": 5379,
      "transl": 5380,
      "cousins": 5381,
      "andyclemmensen": 5382,
      "mommas": 5383,
      "auto": 5384,
      "massage": 5385,
      "solange": 5386,
      "spoke": 5387,
      "talented": 5388,
      "garage": 5389,
      "purple": 5390,
      "jordanknight": 5391,
      "selling": 5392,
      "model": 5393,
      "animal": 5394,
      "spelling": 5395,
      "eggs": 5396,
      "matthew": 5397,
      "##news": 5398,
      "successful": 5399,
      "neighbors": 5400,
      "stories": 5401,
      "tweeters": 5402,
      "!!!!!!!!!": 5403,
      "lmfa": 5404,
      "bathroom": 5405,
      "##ribly": 5406,
      "certainly": 5407,
      "yahoo": 5408,
      "##isdale": 5409,
      "clouds": 5410,
      "golden": 5411,
      "2morrow": 5412,
      "mexico": 5413,
      "degree": 5414,
      "general": 5415,
      "journey": 5416,
      "named": 5417,
      "incredibly": 5418,
      "langu": 5419,
      "ebay": 5420,
      "thnx": 5421,
      "female": 5422,
      "appointment": 5423,
      "cavs": 5424,
      "infection": 5425,
      "nephew": 5426,
      "sunburnt": 5427,
      "apt": 5428,
      "austin": 5429,
      "bast": 5430,
      "bul": 5431,
      "buck": 5432,
      "brew": 5433,
      "bump": 5434,
      "cnt": 5435,
      "cub": 5436,
      "curl": 5437,
      "dork": 5438,
      "dizzy": 5439,
      "eth": 5440,
      "f1": 5441,
      "fif": 5442,
      "hq": 5443,
      "hind": 5444,
      "jake": 5445,
      "ky": 5446,
      "kry": 5447,
      "kyle": 5448,
      "lul": 5449,
      "looo": 5450,
      "mn": 5451,
      "mow": 5452,
      "mim": 5453,
      "mud": 5454,
      "mater": 5455,
      "nz": 5456,
      "oil": 5457,
      "py": 5458,
      "rot": 5459,
      "rave": 5460,
      "rush": 5461,
      "sr": 5462,
      "sau": 5463,
      "tes": 5464,
      "ted": 5465,
      "tam": 5466,
      "und": 5467,
      "ummm": 5468,
      "viv": 5469,
      "vista": 5470,
      "valley": 5471,
      "ways": 5472,
      "wisdom": 5473,
      "yard": 5474,
      "##py": 5475,
      "##hod": 5476,
      "##old": 5477,
      "##vie": 5478,
      "##ients": 5479,
      "##nia": 5480,
      "##sen": 5481,
      "##mb": 5482,
      "##mike": 5483,
      "##cor": 5484,
      "##can": 5485,
      "##cul": 5486,
      "##cool": 5487,
      "##cery": 5488,
      "##cia": 5489,
      "##cord": 5490,
      "##_me": 5491,
      "##jac": 5492,
      "##bh": 5493,
      "##bi": 5494,
      "##bie": 5495,
      "##bear": 5496,
      "##brown": 5497,
      "##dest": 5498,
      "##dave": 5499,
      "##zie": 5500,
      "##zzy": 5501,
      "##94": 5502,
      "##91": 5503,
      "##food": 5504,
      "##fel": 5505,
      "##west": 5506,
      "##28": 5507,
      "##03": 5508,
      "##06": 5509,
      "##35": 5510,
      "##63": 5511,
      "##inson": 5512,
      "tht": 5513,
      "##erie": 5514,
      "##an_": 5515,
      "##lle": 5516,
      "##nds": 5517,
      "##eday": 5518,
      "hal": 5519,
      "hack": 5520,
      "##ota": 5521,
      "##etty": 5522,
      "##ening": 5523,
      "##ency": 5524,
      "##ences": 5525,
      "##iculous": 5526,
      "...)": 5527,
      "##lew": 5528,
      "whew": 5529,
      "stack": 5530,
      "steak": 5531,
      "##iders": 5532,
      "belly": 5533,
      "socks": 5534,
      "##adam": 5535,
      "ship": 5536,
      "shiny": 5537,
      "##urse": 5538,
      "##urance": 5539,
      "##una": 5540,
      "##uns": 5541,
      "##iment": 5542,
      "fridge": 5543,
      "cance": 5544,
      "refer": 5545,
      "comfy": 5546,
      "##ilty": 5547,
      "nov": 5548,
      "ali": 5549,
      "likely": 5550,
      "##riff": 5551,
      "##ateful": 5552,
      "##abel": 5553,
      "twitt": 5554,
      "##los": 5555,
      "knowled": 5556,
      "brown": 5557,
      "##mme": 5558,
      "prot": 5559,
      "agent": 5560,
      "##ellem": 5561,
      "##aah": 5562,
      "bleed": 5563,
      "taco": 5564,
      "gree": 5565,
      "provid": 5566,
      "pock": 5567,
      "usb": 5568,
      "wonders": 5569,
      "truck": 5570,
      "seat": 5571,
      "##aga": 5572,
      "manage": 5573,
      "nicely": 5574,
      "swee": 5575,
      "swed": 5576,
      "role": 5577,
      "headaches": 5578,
      "score": 5579,
      "adop": 5580,
      "advent": 5581,
      "suns": 5582,
      "##becc": 5583,
      "thankyou": 5584,
      "letter": 5585,
      "partner": 5586,
      "minus": 5587,
      "craz": 5588,
      "hoor": 5589,
      "hott": 5590,
      "tells": 5591,
      "bob": 5592,
      "broad": 5593,
      "embar": 5594,
      "##iki": 5595,
      "perform": 5596,
      "period": 5597,
      "blogging": 5598,
      "driver": 5599,
      "##awa": 5600,
      "##bled": 5601,
      "##black": 5602,
      "snip": 5603,
      "sites": 5604,
      "##ddd": 5605,
      "awwwww": 5606,
      "##who": 5607,
      "##what": 5608,
      "mummy": 5609,
      "beauty": 5610,
      "rocked": 5611,
      "previous": 5612,
      "##ava": 5613,
      "trending": 5614,
      "hangin": 5615,
      "##otten": 5616,
      "acad": 5617,
      "restaur": 5618,
      "lucy": 5619,
      "attemp": 5620,
      "hitting": 5621,
      "hmmmm": 5622,
      "horror": 5623,
      "term": 5624,
      "termin": 5625,
      "##sweet": 5626,
      "unfair": 5627,
      "burning": 5628,
      "curious": 5629,
      "xxxx": 5630,
      "opening": 5631,
      "testing": 5632,
      "escap": 5633,
      "grab": 5634,
      "conference": 5635,
      "juicy": 5636,
      "micro": 5637,
      "difference": 5638,
      "##yyyyy": 5639,
      "signed": 5640,
      "ps3": 5641,
      "christmas": 5642,
      "##fficial": 5643,
      "karen": 5644,
      "giant": 5645,
      "human": 5646,
      "flying": 5647,
      "downloading": 5648,
      "numbers": 5649,
      "salt": 5650,
      "captain": 5651,
      "##web": 5652,
      "empire": 5653,
      "audition": 5654,
      "replies": 5655,
      "impro": 5656,
      "wolf": 5657,
      "##ounge": 5658,
      "jersey": 5659,
      "transfer": 5660,
      "pancakes": 5661,
      "##nicole": 5662,
      "potato": 5663,
      "riding": 5664,
      "##street": 5665,
      "##iiiiiiii": 5666,
      "response": 5667,
      "events": 5668,
      "smoke": 5669,
      "jennif": 5670,
      "loose": 5671,
      "bella": 5672,
      "##onalds": 5673,
      "camping": 5674,
      "crashed": 5675,
      "hooked": 5676,
      "central": 5677,
      "signing": 5678,
      "unlimited": 5679,
      "dutch": 5680,
      "alyss": 5681,
      "festival": 5682,
      "title": 5683,
      "ankle": 5684,
      "grocery": 5685,
      "html": 5686,
      "turning": 5687,
      "circ": 5688,
      "sisters": 5689,
      "shannon": 5690,
      "sports": 5691,
      "anthony": 5692,
      "roommate": 5693,
      "soccer": 5694,
      "november": 5695,
      "!.": 5696,
      "))": 5697,
      "05": 5698,
      "5th": 5699,
      "6th": 5700,
      "70": 5701,
      ">.": 5702,
      "aj": 5703,
      "cad": 5704,
      "crow": 5705,
      "cries": 5706,
      "dates": 5707,
      "dedic": 5708,
      "ee": 5709,
      "eu": 5710,
      "fy": 5711,
      "fal": 5712,
      "ftw": 5713,
      "hw": 5714,
      "houston": 5715,
      "iw": 5716,
      "js": 5717,
      "jd": 5718,
      "jet": 5719,
      "kl": 5720,
      "lan": 5721,
      "lines": 5722,
      "md": 5723,
      "moo": 5724,
      "ment": 5725,
      "meeee": 5726,
      "mister": 5727,
      "pau": 5728,
      "pity": 5729,
      "pens": 5730,
      "pitch": 5731,
      "pork": 5732,
      "rent": 5733,
      "rus": 5734,
      "rout": 5735,
      "rick": 5736,
      "rap": 5737,
      "sass": 5738,
      "tune": 5739,
      "una": 5740,
      "uber": 5741,
      "wen": 5742,
      "weak": 5743,
      "woss": 5744,
      "~~": 5745,
      "##pal": 5746,
      "##pos": 5747,
      "##patt": 5748,
      "##ket": 5749,
      "##kies": 5750,
      "##kardash": 5751,
      "##hm": 5752,
      "##ok": 5753,
      "##ology": 5754,
      "##rid": 5755,
      "##read": 5756,
      "##akes": 5757,
      "##gb": 5758,
      "##gon": 5759,
      "##yp": 5760,
      "##vt": 5761,
      "##vee": 5762,
      "##name": 5763,
      "##nik": 5764,
      "##mr": 5765,
      "##met": 5766,
      "##mich": 5767,
      "##mary": 5768,
      "##maine": 5769,
      "##luck": 5770,
      "##cin": 5771,
      "##cup": 5772,
      "##case": 5773,
      "##jp": 5774,
      "##bag": 5775,
      "##dri": 5776,
      "##dia": 5777,
      "##zilla": 5778,
      "##fab": 5779,
      "##fol": 5780,
      "##fty": 5781,
      "##49": 5782,
      "##inst": 5783,
      "threw": 5784,
      "tooo": 5785,
      "toys": 5786,
      "##ingo": 5787,
      "##anch": 5788,
      "##ata": 5789,
      "theater": 5790,
      "theory": 5791,
      "##oning": 5792,
      "##onica": 5793,
      "##ndivine": 5794,
      "##edge": 5795,
      "italian": 5796,
      "##eah": 5797,
      "##isher": 5798,
      "##ether": 5799,
      "##ened": 5800,
      "##enson": 5801,
      "ing": 5802,
      "##chi": 5803,
      "##chool": 5804,
      "##chris": 5805,
      "whether": 5806,
      "stal": 5807,
      "steel": 5808,
      "solo": 5809,
      "loll": 5810,
      "locked": 5811,
      "##amer": 5812,
      "##amed": 5813,
      "##amore": 5814,
      "shud": 5815,
      "goal": 5816,
      "liz": 5817,
      "##iron": 5818,
      "##ppus": 5819,
      "##imo": 5820,
      "fred": 5821,
      "france": 5822,
      "nothin": 5823,
      "wore": 5824,
      "cancel": 5825,
      "choose": 5826,
      "neil": 5827,
      "##ential": 5828,
      "..!": 5829,
      "##esss": 5830,
      "##ilo": 5831,
      "##anta": 5832,
      "alp": 5833,
      "##riage": 5834,
      "##outs": 5835,
      "timing": 5836,
      "##andra": 5837,
      "##arts": 5838,
      "missx": 5839,
      "lolz": 5840,
      "mos": 5841,
      "exerc": 5842,
      "bron": 5843,
      "##oles": 5844,
      "dean": 5845,
      "demo": 5846,
      "agreed": 5847,
      "##oyt": 5848,
      "funn": 5849,
      "guilty": 5850,
      "faith": 5851,
      "faces": 5852,
      "##aaay": 5853,
      "saf": 5854,
      "grateful": 5855,
      "##aper": 5856,
      "drank": 5857,
      "##ement": 5858,
      "clip": 5859,
      "##iper": 5860,
      "##istry": 5861,
      "##agr": 5862,
      "sway": 5863,
      "rove": 5864,
      "scare": 5865,
      "united": 5866,
      "univers": 5867,
      "unhappy": 5868,
      "##mac": 5869,
      "##shirt": 5870,
      "adore": 5871,
      "someday": 5872,
      "##beat": 5873,
      "schools": 5874,
      "appt": 5875,
      "picnic": 5876,
      "##moore": 5877,
      "hiya": 5878,
      "rained": 5879,
      "lawn": 5880,
      "smiling": 5881,
      "beast": 5882,
      "omfg": 5883,
      "feelings": 5884,
      "trace": 5885,
      "strugg": 5886,
      "boat": 5887,
      "boston": 5888,
      "emotion": 5889,
      "##zzz": 5890,
      "##hahaha": 5891,
      "##aws": 5892,
      "##ierd": 5893,
      "sniff": 5894,
      "##tones": 5895,
      "hunting": 5896,
      "photography": 5897,
      "##white": 5898,
      "30am": 5899,
      "30pm": 5900,
      "woken": 5901,
      "##lando": 5902,
      "##etti": 5903,
      "prep": 5904,
      "walked": 5905,
      "dreaming": 5906,
      "surv": 5907,
      "doug": 5908,
      "cait": 5909,
      "computers": 5910,
      "horse": 5911,
      "##conne": 5912,
      "jamie": 5913,
      "david_h": 5914,
      "jenna": 5915,
      "windy": 5916,
      "decision": 5917,
      "apolog": 5918,
      "concer": 5919,
      "goood": 5920,
      "syn": 5921,
      "grandpa": 5922,
      "tommor": 5923,
      "touring": 5924,
      "picking": 5925,
      "##monday": 5926,
      "blocks": 5927,
      "dye": 5928,
      "salad": 5929,
      "mmmmm": 5930,
      "correct": 5931,
      "employ": 5932,
      "##kyo": 5933,
      "appreciated": 5934,
      "standing": 5935,
      "balls": 5936,
      "sharon": 5937,
      "jerk": 5938,
      "viewing": 5939,
      "##ughesy": 5940,
      "##works": 5941,
      "ridiculous": 5942,
      "errands": 5943,
      "ellen": 5944,
      "growing": 5945,
      "##innam": 5946,
      "fold": 5947,
      "##steph": 5948,
      "snap": 5949,
      "viol": 5950,
      "dhughesy": 5951,
      "connection": 5952,
      "include": 5953,
      "freering": 5954,
      "ringtones": 5955,
      "neighbor": 5956,
      "bowl": 5957,
      "palm": 5958,
      "ignore": 5959,
      "topics": 5960,
      "constantly": 5961,
      "cruise": 5962,
      "marketing": 5963,
      "charlie": 5964,
      "drawing": 5965,
      "tradition": 5966,
      "mountain": 5967,
      "utter": 5968,
      "strawberries": 5969,
      "destroy": 5970,
      "octo": 5971,
      "wendy": 5972,
      "challenge": 5973,
      "depends": 5974,
      "community": 5975,
      "hiding": 5976,
      "podcast": 5977,
      "surprisingly": 5978,
      "##bourne": 5979,
      "twisted": 5980,
      "technology": 5981,
      "##knowles": 5982,
      "reunion": 5983,
      "despite": 5984,
      "downt": 5985,
      "december": 5986,
      "script": 5987,
      "pathetic": 5988,
      "##oenix": 5989,
      "rehears": 5990,
      "brilliant": 5991,
      "solangeknowles": 5992,
      "canceled": 5993,
      "knowledge": 5994,
      "snipurl": 5995,
      "david_henrie": 5996,
      "freeringring": 5997,
      "->": 5998,
      ".)": 5999,
      "/?": 6000,
      "08": 6001,
      "=]": 6002,
      "?)": 6003,
      "apr": 6004,
      "aye": 6005,
      "bin": 6006,
      "bot": 6007,
      "bun": 6008,
      "bbl": 6009,
      "bomb": 6010,
      "ct": 6011,
      "cit": 6012,
      "cind": 6013,
      "db": 6014,
      "duck": 6015,
      "foo": 6016,
      "fed": 6017,
      "fur": 6018,
      "ftsk": 6019,
      "gg": 6020,
      "gil": 6021,
      "geez": 6022,
      "gifts": 6023,
      "hen": 6024,
      "heal": 6025,
      "hating": 6026,
      "ian": 6027,
      "jill": 6028,
      "jak": 6029,
      "jail": 6030,
      "jazz": 6031,
      "kk": 6032,
      "kh": 6033,
      "kas": 6034,
      "kitt": 6035,
      "kore": 6036,
      "kayl": 6037,
      "lounge": 6038,
      "ml": 6039,
      "mut": 6040,
      "mill": 6041,
      "mang": 6042,
      "mia": 6043,
      "mcc": 6044,
      "mcr": 6045,
      "naw": 6046,
      "nail": 6047,
      "naked": 6048,
      "oy": 6049,
      "od": 6050,
      "ox": 6051,
      "pant": 6052,
      "pure": 6053,
      "punch": 6054,
      "pills": 6055,
      "rat": 6056,
      "rum": 6057,
      "sight": 6058,
      "sry": 6059,
      "td": 6060,
      "tink": 6061,
      "tub": 6062,
      "turt": 6063,
      "tempt": 6064,
      "ub": 6065,
      "vine": 6066,
      "voc": 6067,
      "wings": 6068,
      "yas": 6069,
      "yipp": 6070,
      "##pn": 6071,
      "##park": 6072,
      "##kay": 6073,
      "##hu": 6074,
      "##hun": 6075,
      "##him": 6076,
      "##oz": 6077,
      "##oons": 6078,
      "##ointing": 6079,
      "##round": 6080,
      "##tila": 6081,
      "##vv": 6082,
      "##iya": 6083,
      "##nl": 6084,
      "##sy": 6085,
      "##sb": 6086,
      "##sed": 6087,
      "##sav": 6088,
      "##uy": 6089,
      "##uum": 6090,
      "##mine": 6091,
      "##cu": 6092,
      "##cot": 6093,
      "##cre": 6094,
      "##cos": 6095,
      "##80": 6096,
      "##_f": 6097,
      "##ju": 6098,
      "##jee": 6099,
      "##jud": 6100,
      "##junk": 6101,
      "##bal": 6102,
      "##bles": 6103,
      "##dc": 6104,
      "##fest": 6105,
      "##fied": 6106,
      "##will": 6107,
      "##100": 6108,
      "##73": 6109,
      "##68": 6110,
      "thor": 6111,
      "##anks": 6112,
      "##anoid": 6113,
      "##oni": 6114,
      "##eesh": 6115,
      "##eezy": 6116,
      "##arian": 6117,
      "##omo": 6118,
      "##edia": 6119,
      "##sty": 6120,
      "##store": 6121,
      "##stairs": 6122,
      "hai": 6123,
      "hamm": 6124,
      "##vet": 6125,
      "##vell": 6126,
      "##eag": 6127,
      "##icles": 6128,
      "inj": 6129,
      "##ched": 6130,
      "forum": 6131,
      "##rep": 6132,
      "##rell": 6133,
      "stun": 6134,
      "mell": 6135,
      "##idy": 6136,
      "soap": 6137,
      "society": 6138,
      "lover": 6139,
      "logo": 6140,
      "shr": 6141,
      "shau": 6142,
      "shared": 6143,
      "##urb": 6144,
      "##alog": 6145,
      "##imin": 6146,
      "heid": 6147,
      "held": 6148,
      "##hern": 6149,
      "cand": 6150,
      "canucks": 6151,
      "chip": 6152,
      "china": 6153,
      "refu": 6154,
      "recept": 6155,
      "supr": 6156,
      "noes": 6157,
      "##raz": 6158,
      "plain": 6159,
      "amb": 6160,
      "morris": 6161,
      "donnie": 6162,
      "##rik": 6163,
      "image": 6164,
      "##ctor": 6165,
      "todays": 6166,
      "abby": 6167,
      "##eline": 6168,
      "backstreet": 6169,
      "##igan": 6170,
      "##igirl": 6171,
      "##ffe": 6172,
      "##ula": 6173,
      "##uled": 6174,
      "thinkin": 6175,
      "nighty": 6176,
      "spain": 6177,
      "##oliver": 6178,
      "whenever": 6179,
      "twitterverse": 6180,
      "every1": 6181,
      "moments": 6182,
      "blink": 6183,
      "blind": 6184,
      "phew": 6185,
      "grass": 6186,
      "##ified": 6187,
      "pros": 6188,
      "conv": 6189,
      "poker": 6190,
      "finale": 6191,
      "tomorow": 6192,
      "yeahh": 6193,
      "trade": 6194,
      "##aged": 6195,
      "monica": 6196,
      "makeup": 6197,
      "swing": 6198,
      "carl": 6199,
      "carry": 6200,
      "bitter": 6201,
      "tryin": 6202,
      "quin": 6203,
      "##izab": 6204,
      "leaves": 6205,
      "##shit": 6206,
      "##shop": 6207,
      "advert": 6208,
      "peoples": 6209,
      "mars": 6210,
      "marriage": 6211,
      "##acy": 6212,
      "##aced": 6213,
      "##moon": 6214,
      "##perate": 6215,
      "##soft": 6216,
      "urban": 6217,
      "borrow": 6218,
      "became": 6219,
      "glas": 6220,
      "daisy": 6221,
      "diam": 6222,
      "wrk": 6223,
      "bugs": 6224,
      "laid": 6225,
      "sms": 6226,
      "smack": 6227,
      "craig": 6228,
      "crawl": 6229,
      "##quet": 6230,
      "older": 6231,
      "trips": 6232,
      "disg": 6233,
      "kidd": 6234,
      "luckily": 6235,
      "harder": 6236,
      "##freak": 6237,
      "##green": 6238,
      "pretend": 6239,
      "##ika": 6240,
      "paramore": 6241,
      "paranoid": 6242,
      "ughh": 6243,
      "ughhh": 6244,
      "gods": 6245,
      "skip": 6246,
      "##bling": 6247,
      "snack": 6248,
      "sundays": 6249,
      "hung": 6250,
      "resist": 6251,
      "##iewebbstack": 6252,
      "##nnnn": 6253,
      "prepar": 6254,
      "keith": 6255,
      "charge": 6256,
      "charged": 6257,
      "annivers": 6258,
      "india": 6259,
      "educ": 6260,
      "control": 6261,
      "cutie": 6262,
      "tyler": 6263,
      "jamie_": 6264,
      "terry": 6265,
      "terri": 6266,
      "##ugal": 6267,
      "shortly": 6268,
      "graph": 6269,
      "grandpar": 6270,
      "invest": 6271,
      "2010": 6272,
      "definately": 6273,
      "##medi": 6274,
      "##carey": 6275,
      "darren": 6276,
      "gregg": 6277,
      "tomfel": 6278,
      "katy": 6279,
      "profession": 6280,
      "jeans": 6281,
      "bands": 6282,
      "karma": 6283,
      "insurance": 6284,
      "sales": 6285,
      "graduate": 6286,
      "cupcakes": 6287,
      "corner": 6288,
      "basically": 6289,
      "cyrus": 6290,
      "register": 6291,
      "140": 6292,
      "police": 6293,
      "daughters": 6294,
      "maths": 6295,
      "subject": 6296,
      "technic": 6297,
      "firefox": 6298,
      "holding": 6299,
      "autom": 6300,
      "hahahahaha": 6301,
      "recording": 6302,
      "loser": 6303,
      "models": 6304,
      "created": 6305,
      "creative": 6306,
      "drove": 6307,
      "pieces": 6308,
      "memory": 6309,
      "officialtila": 6310,
      "animals": 6311,
      "suspect": 6312,
      "smells": 6313,
      "filling": 6314,
      "souljab": 6315,
      "martin": 6316,
      "bowling": 6317,
      "breath": 6318,
      "bradiewebbstack": 6319,
      ".............": 6320,
      "baked": 6321,
      "kenny": 6322,
      "seniors": 6323,
      "magazine": 6324,
      "constant": 6325,
      "delivery": 6326,
      "duty": 6327,
      "yellow": 6328,
      "frustrated": 6329,
      "cuddle": 6330,
      "ultim": 6331,
      "virus": 6332,
      "beginning": 6333,
      "assignment": 6334,
      "obsessed": 6335,
      "dreading": 6336,
      "dishes": 6337,
      "dublin": 6338,
      "##bradbury": 6339,
      "economy": 6340,
      "claire": 6341,
      "kirk": 6342,
      "pillow": 6343,
      "comfortable": 6344,
      "motivation": 6345,
      "victoria": 6346,
      "brittany": 6347,
      "photoshop": 6348,
      "credit": 6349,
      "starwarsday": 6350,
      "noodles": 6351,
      "liverpool": 6352,
      "spirit": 6353,
      "blogspot": 6354,
      "mcdonalds": 6355,
      "cereal": 6356,
      "mariahcarey": 6357,
      "dudes": 6358,
      "nursing": 6359,
      "commercial": 6360,
      "funeral": 6361,
      "burrito": 6362,
      "simply": 6363,
      "pocket": 6364,
      "fyi": 6365,
      "wossy": 6366,
      "##ndiviney": 6367,
      "##oytellem": 6368,
      "shaundiviney": 6369,
      "anniversary": 6370,
      "grandparents": 6371,
      "tomfelton": 6372,
      "souljaboytellem": 6373,
      "5k": 6374,
      "5am": 6375,
      "6am": 6376,
      "7am": 6377,
      "8th": 6378,
      ":@": 6379,
      "=/": 6380,
      "aun": 6381,
      "aqu": 6382,
      "aaaaa": 6383,
      "bm": 6384,
      "bust": 6385,
      "bry": 6386,
      "bass": 6387,
      "boun": 6388,
      "bamb": 6389,
      "cate": 6390,
      "cart": 6391,
      "crew": 6392,
      "cubs": 6393,
      "dor": 6394,
      "dall": 6395,
      "dies": 6396,
      "e3": 6397,
      "eee": 6398,
      "ets": 6399,
      "edd": 6400,
      "fone": 6401,
      "fudge": 6402,
      "gum": 6403,
      "glo": 6404,
      "hide": 6405,
      "hip": 6406,
      "jos": 6407,
      "jane": 6408,
      "keen": 6409,
      "kale": 6410,
      "lew": 6411,
      "lower": 6412,
      "loop": 6413,
      "lamb": 6414,
      "mz": 6415,
      "munch": 6416,
      "nt": 6417,
      "nu": 6418,
      "nun": 6419,
      "nine": 6420,
      "national": 6421,
      "niece": 6422,
      "ore": 6423,
      "pj": 6424,
      "ping": 6425,
      "pear": 6426,
      "pac": 6427,
      "punk": 6428,
      "porn": 6429,
      "pony": 6430,
      "pounds": 6431,
      "ri": 6432,
      "ris": 6433,
      "ric": 6434,
      "rate": 6435,
      "rang": 6436,
      "rabb": 6437,
      "sj": 6438,
      "sized": 6439,
      "searching": 6440,
      "tu": 6441,
      "vo": 6442,
      "vent": 6443,
      "vod": 6444,
      "vamp": 6445,
      "wth": 6446,
      "wink": 6447,
      "wats": 6448,
      "yee": 6449,
      "##put": 6450,
      "##pher": 6451,
      "##pack": 6452,
      "##kas": 6453,
      "##hee": 6454,
      "##hot": 6455,
      "##hood": 6456,
      "##hell": 6457,
      "##hours": 6458,
      "##obs": 6459,
      "##rt": 6460,
      "##rence": 6461,
      "##tg": 6462,
      "##town": 6463,
      "##gal": 6464,
      "##gth": 6465,
      "##geek": 6466,
      "##vm": 6467,
      "##iee": 6468,
      "##nk": 6469,
      "##nb": 6470,
      "##mur": 6471,
      "##mil": 6472,
      "##mond": 6473,
      "##mates": 6474,
      "##made": 6475,
      "##cow": 6476,
      "##cers": 6477,
      "##call": 6478,
      "##col": 6479,
      "##cles": 6480,
      "##bat": 6481,
      "##bill": 6482,
      "##bud": 6483,
      "##born": 6484,
      "##dh": 6485,
      "##dj": 6486,
      "##dav": 6487,
      "##98": 6488,
      "##fon": 6489,
      "##far": 6490,
      "##fall": 6491,
      "##full": 6492,
      "##0n1": 6493,
      "##41": 6494,
      "##1q": 6495,
      "##34": 6496,
      "##36": 6497,
      "##70": 6498,
      "##55": 6499,
      "##67": 6500,
      "##inis": 6501,
      "##inion": 6502,
      "##inty": 6503,
      "##inner": 6504,
      "toes": 6505,
      "tokyo": 6506,
      "##anas": 6507,
      "##onder": 6508,
      "##itz": 6509,
      "##itas": 6510,
      "##oof": 6511,
      "##ooke": 6512,
      "##ares": 6513,
      "##aries": 6514,
      "##omic": 6515,
      "##sta": 6516,
      "##stin": 6517,
      "##storm": 6518,
      "##eapp": 6519,
      "##etry": 6520,
      "##enna": 6521,
      "ink": 6522,
      "##chu": 6523,
      "##leg": 6524,
      "##lem": 6525,
      "##cking": 6526,
      "##kelly": 6527,
      "stood": 6528,
      "stubb": 6529,
      "bever": 6530,
      "beats": 6531,
      "begins": 6532,
      "sos": 6533,
      "##adee": 6534,
      "##amous": 6535,
      "shin": 6536,
      "shak": 6537,
      "shops": 6538,
      "##ira": 6539,
      "##irou": 6540,
      "##pppp": 6541,
      "fro": 6542,
      "fries": 6543,
      "fried": 6544,
      "frost": 6545,
      "anne": 6546,
      "wassup": 6547,
      "twurl": 6548,
      "chir": 6549,
      "reject": 6550,
      "negle": 6551,
      "##cep": 6552,
      "outl": 6553,
      "##iled": 6554,
      "##ileen": 6555,
      "##thy": 6556,
      "no1": 6557,
      "noon": 6558,
      "##ante": 6559,
      "##antal": 6560,
      "amount": 6561,
      "gots": 6562,
      "morn": 6563,
      "##rip": 6564,
      "imm": 6565,
      "imac": 6566,
      "assh": 6567,
      "awa": 6568,
      "award": 6569,
      "aband": 6570,
      "##umbs": 6571,
      "##ela": 6572,
      "##elow": 6573,
      "backup": 6574,
      "moz": 6575,
      "##igo": 6576,
      "##ige": 6577,
      "willi": 6578,
      "willing": 6579,
      "william": 6580,
      "spock": 6581,
      "##eeds": 6582,
      "brunch": 6583,
      "brandy": 6584,
      "##osa": 6585,
      "prim": 6586,
      "waves": 6587,
      "##aud": 6588,
      "arent": 6589,
      "blues": 6590,
      "php": 6591,
      "##ooooooo": 6592,
      "greeting": 6593,
      "sadness": 6594,
      "##apore": 6595,
      "coco": 6596,
      "drugs": 6597,
      "joel": 6598,
      "jokes": 6599,
      "wouldnt": 6600,
      "##eme": 6601,
      "waited": 6602,
      "##ittin": 6603,
      "trees": 6604,
      "sean": 6605,
      "##ager": 6606,
      "manchester": 6607,
      "monster": 6608,
      "##ewart": 6609,
      "rox": 6610,
      "robb": 6611,
      "##azing": 6612,
      "leon": 6613,
      "lect": 6614,
      "scan": 6615,
      "scene": 6616,
      "##izon": 6617,
      "##ggage": 6618,
      "##phones": 6619,
      "##anson": 6620,
      "sayin": 6621,
      "marks": 6622,
      "##ples": 6623,
      "##beck": 6624,
      "flow": 6625,
      "flood": 6626,
      "flav": 6627,
      "himself": 6628,
      "cramps": 6629,
      "daw": 6630,
      "##ealand": 6631,
      "##irsty": 6632,
      "minor": 6633,
      "actual": 6634,
      "##bron": 6635,
      "realise": 6636,
      "lovin": 6637,
      "lying": 6638,
      "strang": 6639,
      "ends": 6640,
      "boredom": 6641,
      "skate": 6642,
      "drivers": 6643,
      "musical": 6644,
      "relation": 6645,
      "related": 6646,
      "hunt": 6647,
      "##twitter": 6648,
      "satis": 6649,
      "singer": 6650,
      "singapore": 6651,
      "stops": 6652,
      "foods": 6653,
      "eaten": 6654,
      "killers": 6655,
      "useful": 6656,
      "delete": 6657,
      "repair": 6658,
      "indo": 6659,
      "indie": 6660,
      "luggage": 6661,
      "cale": 6662,
      "##1974": 6663,
      "filming": 6664,
      "##unky": 6665,
      "passes": 6666,
      "password": 6667,
      "dogbook": 6668,
      "goose": 6669,
      "xxxxxxx": 6670,
      "##iverse": 6671,
      "texted": 6672,
      "careful": 6673,
      "tests": 6674,
      "##carr": 6675,
      "package": 6676,
      "therap": 6677,
      "faster": 6678,
      "pupp": 6679,
      "##thegreat": 6680,
      "bringing": 6681,
      "##rrrrrrrr": 6682,
      "##check": 6683,
      "honor": 6684,
      "harry": 6685,
      "1000": 6686,
      "2008": 6687,
      "##!!!!!!!!!!!!!!!!": 6688,
      "colour": 6689,
      "budget": 6690,
      "muse": 6691,
      "bene": 6692,
      "laura": 6693,
      "humor": 6694,
      "george": 6695,
      "diego": 6696,
      "ruin": 6697,
      "robin": 6698,
      "basket": 6699,
      "##_benson": 6700,
      "##paris": 6701,
      "disappointing": 6702,
      "quickly": 6703,
      "pleased": 6704,
      "fund": 6705,
      "xoxox": 6706,
      "bags": 6707,
      "potter": 6708,
      "sanct": 6709,
      "mentioned": 6710,
      "intro": 6711,
      "expecting": 6712,
      "ahhhhh": 6713,
      "lisa": 6714,
      "obama": 6715,
      "##llllllll": 6716,
      "##stein": 6717,
      "##rocks": 6718,
      "progress": 6719,
      "haters": 6720,
      "nikki": 6721,
      "????????": 6722,
      "penny": 6723,
      "banana": 6724,
      "tanning": 6725,
      "washed": 6726,
      "filled": 6727,
      "heels": 6728,
      "##harris": 6729,
      "tweeter": 6730,
      "reviews": 6731,
      "hmph": 6732,
      "bleh": 6733,
      "tmrw": 6734,
      "bkite": 6735,
      "mask": 6736,
      "contacts": 6737,
      "wknd": 6738,
      "##hawk": 6739,
      "lesley": 6740,
      "semester": 6741,
      "courtney": 6742,
      "##cessary": 6743,
      "printed": 6744,
      "grounded": 6745,
      "assignments": 6746,
      "##addict": 6747,
      "bruce": 6748,
      "limited": 6749,
      "distracted": 6750,
      "inspiration": 6751,
      "impressive": 6752,
      "entertaining": 6753,
      "brend": 6754,
      "feature": 6755,
      "##rupt": 6756,
      "tweeple": 6757,
      "browser": 6758,
      "carolina": 6759,
      "character": 6760,
      "collection": 6761,
      "members": 6762,
      "involved": 6763,
      "ooooh": 6764,
      "anxious": 6765,
      "japanese": 6766,
      "allyson": 6767,
      "focus": 6768,
      "september": 6769,
      "sweating": 6770,
      "recognize": 6771,
      "wireless": 6772,
      "##richard": 6773,
      "tastes": 6774,
      "tennis": 6775,
      "accompl": 6776,
      "sneezing": 6777,
      "hq0n1": 6778,
      "hooray": 6779,
      "restaurant": 6780,
      "downtown": 6781,
      "reception": 6782,
      "ultimate": 6783,
      ".,": 6784,
      "38": 6785,
      "36": 6786,
      "3am": 6787,
      "360": 6788,
      "4v": 6789,
      "64": 6790,
      "75": 6791,
      "7th": 6792,
      "</": 6793,
      "=(": 6794,
      "?!!": 6795,
      "ack": 6796,
      "aub": 6797,
      "bom": 6798,
      "bone": 6799,
      "bby": 6800,
      "bryan": 6801,
      "cinnam": 6802,
      "dv": 6803,
      "drow": 6804,
      "dip": 6805,
      "dash": 6806,
      "dull": 6807,
      "dump": 6808,
      "ecl": 6809,
      "ewww": 6810,
      "file": 6811,
      "fuk": 6812,
      "gem": 6813,
      "gary": 6814,
      "gaming": 6815,
      "ginger": 6816,
      "hors": 6817,
      "ire": 6818,
      "jc": 6819,
      "jst": 6820,
      "jared": 6821,
      "kp": 6822,
      "kg": 6823,
      "kam": 6824,
      "kew": 6825,
      "lit": 6826,
      "led": 6827,
      "m8": 6828,
      "mf": 6829,
      "mw": 6830,
      "mite": 6831,
      "miz": 6832,
      "nas": 6833,
      "nash": 6834,
      "pt": 6835,
      "pas": 6836,
      "pun": 6837,
      "pil": 6838,
      "patch": 6839,
      "pays": 6840,
      "pup": 6841,
      "pier": 6842,
      "pete": 6843,
      "piano": 6844,
      "rq": 6845,
      "rou": 6846,
      "rly": 6847,
      "rio": 6848,
      "russ": 6849,
      "sink": 6850,
      "sons": 6851,
      "srs": 6852,
      "tn": 6853,
      "tx": 6854,
      "tess": 6855,
      "vill": 6856,
      "vicky": 6857,
      "wi": 6858,
      "wand": 6859,
      "wook": 6860,
      "wiz": 6861,
      "wooo": 6862,
      "wrist": 6863,
      "wana": 6864,
      "xp": 6865,
      "yucky": 6866,
      "ze": 6867,
      "zac": 6868,
      "zero": 6869,
      "zealand": 6870,
      "##pea": 6871,
      "##pers": 6872,
      "##pix": 6873,
      "##kiss": 6874,
      "##hat": 6875,
      "##hes": 6876,
      "##holl": 6877,
      "##hugh": 6878,
      "##roo": 6879,
      "##ream": 6880,
      "##tastic": 6881,
      "##gow": 6882,
      "##gre": 6883,
      "##gab": 6884,
      "##gia": 6885,
      "##ev": 6886,
      "##yk": 6887,
      "##vest": 6888,
      "##ior": 6889,
      "##nz": 6890,
      "##nate": 6891,
      "##sn": 6892,
      "##say": 6893,
      "##ucc": 6894,
      "##uary": 6895,
      "##md": 6896,
      "##mcc": 6897,
      "##lt": 6898,
      "##len": 6899,
      "##lim": 6900,
      "##lest": 6901,
      "##list": 6902,
      "##lines": 6903,
      "##cal": 6904,
      "##cope": 6905,
      "##corn": 6906,
      "##camp": 6907,
      "##_a_": 6908,
      "##jour": 6909,
      "##jirou": 6910,
      "##bc": 6911,
      "##bor": 6912,
      "##biz": 6913,
      "##bull": 6914,
      "##bster": 6915,
      "##dee": 6916,
      "##dess": 6917,
      "##93": 6918,
      "##wolf": 6919,
      "##woman": 6920,
      "##210": 6921,
      "##xa": 6922,
      "##57": 6923,
      "##517": 6924,
      "##62": 6925,
      "##inea": 6926,
      "##inter": 6927,
      "thumb": 6928,
      "toss": 6929,
      "toooo": 6930,
      "toron": 6931,
      "##oup": 6932,
      "##ouise": 6933,
      "##ories": 6934,
      "##anic": 6935,
      "##ature": 6936,
      "thel": 6937,
      "##lley": 6938,
      "##itis": 6939,
      "##aro": 6940,
      "##oms": 6941,
      "##omor": 6942,
      "##sto": 6943,
      "haz": 6944,
      "##otha": 6945,
      "itself": 6946,
      "italy": 6947,
      "##eting": 6948,
      "##enz": 6949,
      "andre": 6950,
      "infl": 6951,
      "...\"": 6952,
      "##asp": 6953,
      "##rend": 6954,
      "whee": 6955,
      "whoop": 6956,
      "stitch": 6957,
      "stinks": 6958,
      "stole": 6959,
      "melo": 6960,
      "member": 6961,
      "bebo": 6962,
      "sober": 6963,
      "shatter": 6964,
      "shade": 6965,
      "##ldo": 6966,
      "##ires": 6967,
      "##ales": 6968,
      "frm": 6969,
      "frick": 6970,
      "frig": 6971,
      "anton": 6972,
      "anime": 6973,
      "##days": 6974,
      "twi": 6975,
      "twenty": 6976,
      "chin": 6977,
      "chili": 6978,
      "chores": 6979,
      "upon": 6980,
      "comics": 6981,
      "reall": 6982,
      "##entr": 6983,
      "##hac": 6984,
      "##hack": 6985,
      "..?": 6986,
      "##thin": 6987,
      "##thep": 6988,
      "##thomas": 6989,
      "##rap": 6990,
      "##ksha": 6991,
      "amusing": 6992,
      "##usk": 6993,
      "mah": 6994,
      "##aint": 6995,
      "tools": 6996,
      "immedi": 6997,
      "##ctic": 6998,
      "awk": 6999,
      "twitting": 7000,
      "twitts": 7001,
      "##arten": 7002,
      "##umm": 7003,
      "missy": 7004,
      "miss_": 7005,
      "somewhat": 7006,
      "##ership": 7007,
      "##onge": 7008,
      "moi": 7009,
      "moder": 7010,
      "##alltim": 7011,
      "##inda": 7012,
      "##gend": 7013,
      "spiders": 7014,
      "bris": 7015,
      "bride": 7016,
      "bridge": 7017,
      "##olic": 7018,
      "##mmmm": 7019,
      "pric": 7020,
      "pride": 7021,
      "prince": 7022,
      "princ": 7023,
      "prison": 7024,
      "prices": 7025,
      "dew": 7026,
      "decl": 7027,
      "slam": 7028,
      "slice": 7029,
      "wax": 7030,
      "##ellen": 7031,
      "function": 7032,
      "orlando": 7033,
      "saus": 7034,
      "tap": 7035,
      "##aph": 7036,
      "coke": 7037,
      "coding": 7038,
      "procra": 7039,
      "convin": 7040,
      "converse": 7041,
      "veget": 7042,
      "popped": 7043,
      "betty": 7044,
      "##eman": 7045,
      "finan": 7046,
      "clients": 7047,
      "##berts": 7048,
      "##ipse": 7049,
      "showed": 7050,
      "thingy": 7051,
      "##agn": 7052,
      "friendster": 7053,
      "monkey": 7054,
      "##iao": 7055,
      "##ysp": 7056,
      "overcast": 7057,
      "carr": 7058,
      "##uper": 7059,
      "bitches": 7060,
      "quar": 7061,
      "leigh": 7062,
      "lemme": 7063,
      "scen": 7064,
      "afterwards": 7065,
      "adams": 7066,
      "mothersday": 7067,
      "longest": 7068,
      "mari": 7069,
      "##eye": 7070,
      "##aching": 7071,
      "flip": 7072,
      "##acity": 7073,
      "sucky": 7074,
      "mines": 7075,
      "##tail": 7076,
      "craw": 7077,
      "##nerd": 7078,
      "active": 7079,
      "##ivan": 7080,
      "thread": 7081,
      "##ordan": 7082,
      "teh": 7083,
      "compared": 7084,
      "hardest": 7085,
      "##free": 7086,
      "guessing": 7087,
      "lyn": 7088,
      "muscle": 7089,
      "##anky": 7090,
      "##ended": 7091,
      "babygirl": 7092,
      "##aki": 7093,
      "##aker": 7094,
      "forgotten": 7095,
      "skills": 7096,
      "clever": 7097,
      "10th": 7098,
      "shoe": 7099,
      "shocked": 7100,
      "musicmonday": 7101,
      "crystal": 7102,
      "meaning": 7103,
      "tease": 7104,
      "woah": 7105,
      "addiction": 7106,
      "##dev": 7107,
      "##ettes": 7108,
      "prem": 7109,
      "pregn": 7110,
      "##avin": 7111,
      "killer": 7112,
      "winner": 7113,
      "steven": 7114,
      "##uzzy": 7115,
      "##otte": 7116,
      "kev": 7117,
      "hahahah": 7118,
      "planet": 7119,
      "indust": 7120,
      "index": 7121,
      "opinion": 7122,
      "international": 7123,
      "##aylor": 7124,
      "hopeless": 7125,
      "highly": 7126,
      "scrubs": 7127,
      "completed": 7128,
      "##conrad": 7129,
      "typing": 7130,
      "-->": 7131,
      "##106": 7132,
      "##umpet": 7133,
      "johnny": 7134,
      "calm": 7135,
      "texts": 7136,
      "bbc": 7137,
      "bb517": 7138,
      "##marsh": 7139,
      "pasta": 7140,
      "melt": 7141,
      "##iety": 7142,
      "darling": 7143,
      "artist": 7144,
      "##yyyyyyyy": 7145,
      "lightning": 7146,
      "joining": 7147,
      "reasons": 7148,
      "explo": 7149,
      "changes": 7150,
      "unfortunat": 7151,
      "insom": 7152,
      "##coming": 7153,
      "geography": 7154,
      "cupcake": 7155,
      "wordpress": 7156,
      "##ugget": 7157,
      "patrick": 7158,
      "cyn": 7159,
      "cycl": 7160,
      "regard": 7161,
      "kicking": 7162,
      "factor": 7163,
      "hollywood": 7164,
      "reminder": 7165,
      "teena": 7166,
      "18th": 7167,
      "younger": 7168,
      "stoked": 7169,
      "##untu": 7170,
      "britney": 7171,
      "boxes": 7172,
      "crossing": 7173,
      "prior": 7174,
      "touched": 7175,
      "americ": 7176,
      "entry": 7177,
      "document": 7178,
      "bahaha": 7179,
      "devon": 7180,
      "mommys": 7181,
      "costume": 7182,
      "grown": 7183,
      "homes": 7184,
      "homie": 7185,
      "engage": 7186,
      "jasonbradbury": 7187,
      "kimber": 7188,
      "larry": 7189,
      "##2001": 7190,
      "##ograph": 7191,
      ":-/": 7192,
      "stressful": 7193,
      "michigan": 7194,
      "normally": 7195,
      "oliv": 7196,
      "##writer": 7197,
      "inspired": 7198,
      "pigs": 7199,
      "anticip": 7200,
      "queens": 7201,
      "accidentally": 7202,
      "jesse": 7203,
      "silver": 7204,
      "##((((": 7205,
      "journal": 7206,
      "rosie": 7207,
      "explain": 7208,
      "cowork": 7209,
      "chemistry": 7210,
      "amber_benson": 7211,
      "yelled": 7212,
      "suffering": 7213,
      "pressure": 7214,
      "considering": 7215,
      "shelby": 7216,
      "##super": 7217,
      "strip": 7218,
      "girlfriends": 7219,
      "dawnrichard": 7220,
      "settings": 7221,
      "mountains": 7222,
      "symp": 7223,
      "zombie": 7224,
      "zombies": 7225,
      "unfollowed": 7226,
      "##hilton": 7227,
      "chrome": 7228,
      "awesomeness": 7229,
      "characters": 7230,
      "muffins": 7231,
      "replacement": 7232,
      "electric": 7233,
      "brooklyn": 7234,
      "medicine": 7235,
      "linux": 7236,
      "limeice": 7237,
      "creepy": 7238,
      "cameron": 7239,
      "!?!?!": 7240,
      "pouring": 7241,
      "upgrade": 7242,
      "kwk9": 7243,
      "license": 7244,
      "##party": 7245,
      "cheesy": 7246,
      "chelsea": 7247,
      "quotes": 7248,
      "specific": 7249,
      "gallery": 7250,
      "ikea": 7251,
      "settle": 7252,
      "virtual": 7253,
      "mystery": 7254,
      "application": 7255,
      "lmfao": 7256,
      "language": 7257,
      "material": 7258,
      "tesco": 7259,
      "attempting": 7260,
      ">.<": 7261,
      "##kardashian": 7262,
      "##install": 7263,
      "exercise": 7264,
      "##connected": 7265,
      "tommorow": 7266,
      "april": 7267,
      "turtle": 7268,
      "vinegar": 7269,
      "##junkie": 7270,
      "glasgow": 7271,
      "diamond": 7272,
      "dallas": 7273,
      "etsy": 7274,
      "williams": 7275,
      "eclipse": 7276,
      "srsly": 7277,
      "toronto": 7278,
      "friggin": 7279,
      "##alltimelow": 7280,
      "convinced": 7281,
      "pregnant": 7282,
      "\"!": 7283,
      "\"?": 7284,
      "):": 7285,
      ")...": 7286,
      "-.": 7287,
      "06": 7288,
      "2m": 7289,
      "4pm": 7290,
      "8am": 7291,
      "800": 7292,
      ":\\": 7293,
      "ax": 7294,
      "aver": 7295,
      "ara": 7296,
      "aaaa": 7297,
      "bh": 7298,
      "bam": 7299,
      "bake": 7300,
      "batt": 7301,
      "billy": 7302,
      "booooo": 7303,
      "battle": 7304,
      "cure": 7305,
      "cac": 7306,
      "cord": 7307,
      "dl": 7308,
      "df": 7309,
      "ding": 7310,
      "dill": 7311,
      "dia": 7312,
      "duh": 7313,
      "ego": 7314,
      "fer": 7315,
      "fas": 7316,
      "flew": 7317,
      "gt": 7318,
      "gy": 7319,
      "gill": 7320,
      "gent": 7321,
      "gul": 7322,
      "gnight": 7323,
      "gang": 7324,
      "grew": 7325,
      "gnite": 7326,
      "gaga": 7327,
      "hp": 7328,
      "hic": 7329,
      "hated": 7330,
      "ira": 7331,
      "izz": 7332,
      "icon": 7333,
      "jar": 7334,
      "junk": 7335,
      "juss": 7336,
      "jury": 7337,
      "judge": 7338,
      "kor": 7339,
      "kan": 7340,
      "kicks": 7341,
      "kitten": 7342,
      "lr": 7343,
      "lj": 7344,
      "lun": 7345,
      "lys": 7346,
      "lance": 7347,
      "mango": 7348,
      "mental": 7349,
      "nc": 7350,
      "nes": 7351,
      "nar": 7352,
      "nxt": 7353,
      "nhi": 7354,
      "nurse": 7355,
      "oi": 7356,
      "ooooo": 7357,
      "occ": 7358,
      "pp": 7359,
      "pw": 7360,
      "pand": 7361,
      "pers": 7362,
      "pine": 7363,
      "poll": 7364,
      "pem": 7365,
      "pedic": 7366,
      "pushing": 7367,
      "rr": 7368,
      "rc": 7369,
      "rant": 7370,
      "rings": 7371,
      "ripped": 7372,
      "rules": 7373,
      "sv": 7374,
      "sack": 7375,
      "slo": 7376,
      "sang": 7377,
      "tp": 7378,
      "tiss": 7379,
      "tall": 7380,
      "uhh": 7381,
      "var": 7382,
      "vel": 7383,
      "wid": 7384,
      "wud": 7385,
      "wins": 7386,
      "wives": 7387,
      "xk": 7388,
      "yi": 7389,
      "zo": 7390,
      "##pad": 7391,
      "##pie": 7392,
      "##pop": 7393,
      "##pri": 7394,
      "##pink": 7395,
      "##power": 7396,
      "##kf": 7397,
      "##kee": 7398,
      "##kit": 7399,
      "##hw": 7400,
      "##hel": 7401,
      "##hem": 7402,
      "##hib": 7403,
      "##official": 7404,
      "##ru": 7405,
      "##rass": 7406,
      "##tn": 7407,
      "##tea": 7408,
      "##tisdale": 7409,
      "##aid": 7410,
      "##aire": 7411,
      "##ault": 7412,
      "##got": 7413,
      "##gir": 7414,
      "##gun": 7415,
      "##gory": 7416,
      "##eva": 7417,
      "##yo": 7418,
      "##yan": 7419,
      "##yles": 7420,
      "##vp": 7421,
      "##vl": 7422,
      "##vol": 7423,
      "##vation": 7424,
      "##via": 7425,
      "##iar": 7426,
      "##iers": 7427,
      "##ios": 7428,
      "##nter": 7429,
      "##s_": 7430,
      "##ses": 7431,
      "##spr": 7432,
      "##uar": 7433,
      "##mk": 7434,
      "##mes": 7435,
      "##mother": 7436,
      "##mation": 7437,
      "##mare": 7438,
      "##muse": 7439,
      "##lor": 7440,
      "##lers": 7441,
      "##coo": 7442,
      "##come": 7443,
      "##cie": 7444,
      "##cil": 7445,
      "##cies": 7446,
      "##cash": 7447,
      "##_e": 7448,
      "##_st": 7449,
      "##_xx": 7450,
      "##jk": 7451,
      "##jul": 7452,
      "##qp": 7453,
      "##bk": 7454,
      "##bing": 7455,
      "##bir": 7456,
      "##bone": 7457,
      "##bol": 7458,
      "##bach": 7459,
      "##burn": 7460,
      "##bank": 7461,
      "##dm": 7462,
      "##dles": 7463,
      "##zp": 7464,
      "##97": 7465,
      "##96": 7466,
      "##wing": 7467,
      "##wit": 7468,
      "##wid": 7469,
      "##0o": 7470,
      "##0r": 7471,
      "##xc": 7472,
      "##38": 7473,
      "##54": 7474,
      "##inx": 7475,
      "thail": 7476,
      "thai": 7477,
      "thumbs": 7478,
      "##erina": 7479,
      "##inge": 7480,
      "##orp": 7481,
      "##orting": 7482,
      "##order": 7483,
      "##anz": 7484,
      "thee": 7485,
      "##onic": 7486,
      "##aya": 7487,
      "##esign": 7488,
      "##iters": 7489,
      "##itude": 7490,
      "##itions": 7491,
      "##army": 7492,
      "##oma": 7493,
      "##stood": 7494,
      "##stick": 7495,
      "haa": 7496,
      "hawa": 7497,
      "youu": 7498,
      "##.....": 7499,
      "itouch": 7500,
      "##ealy": 7501,
      "##eash": 7502,
      "##isn": 7503,
      "##eter": 7504,
      "##icated": 7505,
      "inno": 7506,
      "##ghh": 7507,
      "##cho": 7508,
      "##chell": 7509,
      "##christ": 7510,
      "##change": 7511,
      "forums": 7512,
      "offf": 7513,
      "##rek": 7514,
      "whist": 7515,
      "stink": 7516,
      "steal": 7517,
      "meow": 7518,
      "mega": 7519,
      "##idd": 7520,
      "beck": 7521,
      "beard": 7522,
      "bears": 7523,
      "sof": 7524,
      "##lying": 7525,
      "lobster": 7526,
      "##aden": 7527,
      "##amor": 7528,
      "##amar": 7529,
      "shy": 7530,
      "shine": 7531,
      "shell": 7532,
      "shaw": 7533,
      "shave": 7534,
      "shuff": 7535,
      "shifts": 7536,
      "##uster": 7537,
      "##lder": 7538,
      "##ternal": 7539,
      "##tersex": 7540,
      "##urbed": 7541,
      "dayy": 7542,
      "##aline": 7543,
      "fry": 7544,
      "fran": 7545,
      "##oody": 7546,
      "doh": 7547,
      "dol": 7548,
      "dod": 7549,
      "withdra": 7550,
      "##opo": 7551,
      "twin": 7552,
      "twins": 7553,
      "cani": 7554,
      "chatt": 7555,
      "chase": 7556,
      "cheek": 7557,
      "chair": 7558,
      "rey": 7559,
      "refresh": 7560,
      "rebecc": 7561,
      "reinstall": 7562,
      "suzy": 7563,
      "allison": 7564,
      "realy": 7565,
      "reader": 7566,
      "##ryl": 7567,
      "##essa": 7568,
      "##ilar": 7569,
      "thisis": 7570,
      "##antom": 7571,
      "##roid": 7572,
      "alo": 7573,
      "alice": 7574,
      "plug": 7575,
      "##issa": 7576,
      "male": 7577,
      "maint": 7578,
      "maps": 7579,
      "##rig": 7580,
      "##rix": 7581,
      "##aining": 7582,
      "imo": 7583,
      "##ested": 7584,
      "##cting": 7585,
      "##ability": 7586,
      "sees": 7587,
      "ability": 7588,
      "twits": 7589,
      "##loved": 7590,
      "molly": 7591,
      "##inez": 7592,
      "spa": 7593,
      "brb": 7594,
      "brent": 7595,
      "pred": 7596,
      "defe": 7597,
      "debbie": 7598,
      "slap": 7599,
      "slower": 7600,
      "ohmy": 7601,
      "ohio": 7602,
      "funky": 7603,
      "twitterers": 7604,
      "twitterberry": 7605,
      "hopeful": 7606,
      "herself": 7607,
      "bliss": 7608,
      "tape": 7609,
      "groo": 7610,
      "gram": 7611,
      "##ousers": 7612,
      "enth": 7613,
      "sorted": 7614,
      "saddest": 7615,
      "##apr": 7616,
      "cod": 7617,
      "joh": 7618,
      "joj": 7619,
      "joint": 7620,
      "pole": 7621,
      "uses": 7622,
      "usern": 7623,
      "##empl": 7624,
      "follows": 7625,
      "##itted": 7626,
      "##ittle": 7627,
      "trent": 7628,
      "trash": 7629,
      "seats": 7630,
      "separ": 7631,
      "monitor": 7632,
      "##nyc": 7633,
      "##fever": 7634,
      "overs": 7635,
      "overall": 7636,
      "shouldnt": 7637,
      "whoever": 7638,
      "##ewell": 7639,
      "##aze": 7640,
      "bites": 7641,
      "headin": 7642,
      "lebron": 7643,
      "uns": 7644,
      "leavin": 7645,
      "##max": 7646,
      "playin": 7647,
      "adri": 7648,
      "adult": 7649,
      "##phot": 7650,
      "##phere": 7651,
      "downstairs": 7652,
      "march": 7653,
      "marry": 7654,
      "##eyes": 7655,
      "moves": 7656,
      "##belly": 7657,
      "flag": 7658,
      "flower": 7659,
      "apples": 7660,
      "##perry": 7661,
      "letters": 7662,
      "crashing": 7663,
      "littlefletcher": 7664,
      "daft": 7665,
      "rainbow": 7666,
      "written": 7667,
      "##pton": 7668,
      "##cious": 7669,
      "bugger": 7670,
      "babes": 7671,
      "smiles": 7672,
      "coolest": 7673,
      "helen": 7674,
      "trains": 7675,
      "travis": 7676,
      "##mania": 7677,
      "hund": 7678,
      "dislike": 7679,
      "helpful": 7680,
      "damnit": 7681,
      "##fred": 7682,
      "lovato": 7683,
      "warning": 7684,
      "bobby": 7685,
      "bros": 7686,
      "##iko": 7687,
      "parent": 7688,
      "perth": 7689,
      "kinds": 7690,
      "remote": 7691,
      "soundtr": 7692,
      "##zzle": 7693,
      "##cynic": 7694,
      "10am": 7695,
      "mighty": 7696,
      "##nob": 7697,
      "coup": 7698,
      "drives": 7699,
      "belie": 7700,
      "belive": 7701,
      "##itchard": 7702,
      "elizab": 7703,
      "##creen": 7704,
      "stuffed": 7705,
      "farewell": 7706,
      "resc": 7707,
      "result": 7708,
      "resched": 7709,
      "descri": 7710,
      "##hhhhh": 7711,
      "##ibility": 7712,
      "##tweet": 7713,
      "addict": 7714,
      "recital": 7715,
      "recipe": 7716,
      "sings": 7717,
      "##aaaaaa": 7718,
      "coldplay": 7719,
      "wales": 7720,
      "kills": 7721,
      "useless": 7722,
      "winning": 7723,
      "##club": 7724,
      "##meg": 7725,
      "charity": 7726,
      "assist": 7727,
      "instant": 7728,
      "acoust": 7729,
      "failing": 7730,
      "annie": 7731,
      "inde": 7732,
      "oprah": 7733,
      "##flies": 7734,
      "attract": 7735,
      "hits": 7736,
      "laught": 7737,
      "chilly": 7738,
      "chilled": 7739,
      "bars": 7740,
      "barry": 7741,
      "##a_guy": 7742,
      "midday": 7743,
      "terribly": 7744,
      "decis": 7745,
      "##glass": 7746,
      "curly": 7747,
      "curse": 7748,
      "##annab": 7749,
      "promised": 7750,
      "minds": 7751,
      "metall": 7752,
      "wears": 7753,
      "opened": 7754,
      "milksha": 7755,
      "espress": 7756,
      "invit": 7757,
      "##kkk": 7758,
      "icecream": 7759,
      "tommy": 7760,
      "##marisa": 7761,
      "presents": 7762,
      "replying": 7763,
      "##joe": 7764,
      "##3333": 7765,
      "jackson": 7766,
      "##theart": 7767,
      "honored": 7768,
      "sentence": 7769,
      "colin": 7770,
      "jelly": 7771,
      "##monster": 7772,
      "##monkey": 7773,
      "prayer": 7774,
      "buddies": 7775,
      "geoff": 7776,
      "salon": 7777,
      "infamous": 7778,
      "publ": 7779,
      "nature": 7780,
      "students": 7781,
      "cyber": 7782,
      "ryans": 7783,
      "audience": 7784,
      "digg": 7785,
      "guts": 7786,
      "heaps": 7787,
      "impal": 7788,
      "dmv": 7789,
      "factory": 7790,
      "reminded": 7791,
      "transport": 7792,
      "gigs": 7793,
      "rolling": 7794,
      "britain": 7795,
      "pulling": 7796,
      "verizon": 7797,
      "##ularly": 7798,
      "##jean": 7799,
      "experien": 7800,
      "vancou": 7801,
      "devast": 7802,
      "traveling": 7803,
      "respons": 7804,
      "portfol": 7805,
      "portugal": 7806,
      "legit": 7807,
      "legal": 7808,
      "roof": 7809,
      "##young": 7810,
      "label": 7811,
      "vids": 7812,
      "##paul": 7813,
      "engine": 7814,
      "garr": 7815,
      "purse": 7816,
      "current": 7817,
      "julie": 7818,
      "randomly": 7819,
      "votes": 7820,
      "datab": 7821,
      "connected": 7822,
      "recommended": 7823,
      "migr": 7824,
      "mixed": 7825,
      "susan": 7826,
      "holla": 7827,
      "##jonathan": 7828,
      "brandon": 7829,
      "position": 7830,
      "jumping": 7831,
      "stores": 7832,
      "deserved": 7833,
      "hayfever": 7834,
      "heroes": 7835,
      "antib": 7836,
      "manager": 7837,
      "installed": 7838,
      "##radio": 7839,
      "silent": 7840,
      "silence": 7841,
      "batman": 7842,
      "target": 7843,
      "refle": 7844,
      "refuses": 7845,
      "feedback": 7846,
      "delivered": 7847,
      "80s": 7848,
      "venue": 7849,
      "castle": 7850,
      "##_xo": 7851,
      "counter": 7852,
      "hehehehe": 7853,
      "frustrating": 7854,
      "suddenly": 7855,
      "virgin": 7856,
      "##charl": 7857,
      "attacked": 7858,
      "renew": 7859,
      "knocked": 7860,
      "galax": 7861,
      "louis": 7862,
      "yoga": 7863,
      "yogurt": 7864,
      "##egal": 7865,
      "whoops": 7866,
      "impression": 7867,
      "flickr": 7868,
      "cabin": 7869,
      "##bnation": 7870,
      "##selves": 7871,
      "##design": 7872,
      "sophie": 7873,
      "spinning": 7874,
      "sinus": 7875,
      "wrap": 7876,
      "removed": 7877,
      "accepted": 7878,
      "announce": 7879,
      "announced": 7880,
      "effects": 7881,
      "customer": 7882,
      "croch": 7883,
      "##aoke": 7884,
      "confirmed": 7885,
      "judd": 7886,
      "shirts": 7887,
      "condition": 7888,
      "selection": 7889,
      "dissap": 7890,
      "jewel": 7891,
      "items": 7892,
      "whisper": 7893,
      "negative": 7894,
      "joseph": 7895,
      "scotland": 7896,
      "perezhilton": 7897,
      "tiger": 7898,
      "lizzie": 7899,
      "welsh": 7900,
      "fifth": 7901,
      "sauce": 7902,
      "protect": 7903,
      "adventure": 7904,
      "academy": 7905,
      "improve": 7906,
      "crowd": 7907,
      "missxmarisa": 7908,
      "safari": 7909,
      "emotional": 7910,
      "survive": 7911,
      "october": 7912,
      "citiz": 7913,
      "korean": 7914,
      "prosper": 7915,
      "convince": 7916,
      "preparing": 7917,
      "technically": 7918,
      "automatic": 7919,
      "kalebnation": 7920,
      "stubborn": 7921,
      "therapy": 7922,
      "aubrey": 7923,
      "cinnamon": 7924,
      "awkward": 7925,
      "priceless": 7926,
      "sausage": 7927,
      "insomnia": 7928,
      "thailand": 7929,
      "hawaii": 7930,
      "username": 7931,
      "soundtrack": 7932,
      "vancouver": 7933,
      "portfolio": 7934,
      "!:": 7935,
      "'!": 7936,
      "''": 7937,
      "'..": 7938,
      "'...": 7939,
      "04": 7940,
      "2am": 7941,
      "3g": 7942,
      "3words": 7943,
      "47": 7944,
      "4ever": 7945,
      "5pm": 7946,
      "79": 7947,
      "7pm": 7948,
      ":[": 7949,
      "<<": 7950,
      "_super": 7951,
      "au": 7952,
      "aer": 7953,
      "apl": 7954,
      "aching": 7955,
      "ako": 7956,
      "bg": 7957,
      "bj": 7958,
      "bing": 7959,
      "bid": 7960,
      "bol": 7961,
      "bite": 7962,
      "boooo": 7963,
      "bash": 7964,
      "cm": 7965,
      "cw": 7966,
      "cath": 7967,
      "cops": 7968,
      "dk": 7969,
      "dur": 7970,
      "doom": 7971,
      "dunk": 7972,
      "dirt": 7973,
      "dazz": 7974,
      "duc": 7975,
      "ez": 7976,
      "ft": 7977,
      "fe": 7978,
      "furn": 7979,
      "fift": 7980,
      "font": 7981,
      "gw": 7982,
      "g1": 7983,
      "goooooooo": 7984,
      "gained": 7985,
      "hk": 7986,
      "h1": 7987,
      "han": 7988,
      "hve": 7989,
      "hater": 7990,
      "iz": 7991,
      "irr": 7992,
      "iced": 7993,
      "jl": 7994,
      "java": 7995,
      "kon": 7996,
      "kil": 7997,
      "kap": 7998,
      "kud": 7999,
      "kath": 8000,
      "lah": 8001,
      "lac": 8002,
      "mk": 8003,
      "mj": 8004,
      "mck": 8005,
      "mish": 8006,
      "mates": 8007,
      "nad": 8008,
      "nause": 8009,
      "nach": 8010,
      "nich": 8011,
      "names": 8012,
      "oww": 8013,
      "pg": 8014,
      "pb": 8015,
      "pd": 8016,
      "pir": 8017,
      "pff": 8018,
      "pul": 8019,
      "pets": 8020,
      "pug": 8021,
      "powers": 8022,
      "rd": 8023,
      "rer": 8024,
      "roy": 8025,
      "rag": 8026,
      "rails": 8027,
      "rarely": 8028,
      "sic": 8029,
      "sally": 8030,
      "sams": 8031,
      "sissy": 8032,
      "sittin": 8033,
      "tay": 8034,
      "tad": 8035,
      "teen": 8036,
      "tire": 8037,
      "tbh": 8038,
      "tierd": 8039,
      "ugg": 8040,
      "vint": 8041,
      "vog": 8042,
      "wu": 8043,
      "wing": 8044,
      "wot": 8045,
      "wut": 8046,
      "wre": 8047,
      "woooo": 8048,
      "wik": 8049,
      "wise": 8050,
      "xmen": 8051,
      "yeeee": 8052,
      "##pc": 8053,
      "##pir": 8054,
      "##pants": 8055,
      "##packing": 8056,
      "##kill": 8057,
      "##hand": 8058,
      "##hum": 8059,
      "##hire": 8060,
      "##ras": 8061,
      "##rics": 8062,
      "##ti": 8063,
      "##talk": 8064,
      "##aver": 8065,
      "##ael": 8066,
      "##gam": 8067,
      "##gurl": 8068,
      "##gles": 8069,
      "##goss": 8070,
      "##yard": 8071,
      "##v3": 8072,
      "##von": 8073,
      "##vas": 8074,
      "##vity": 8075,
      "##ih": 8076,
      "##iott": 8077,
      "##nar": 8078,
      "##net": 8079,
      "##nut": 8080,
      "##see": 8081,
      "##uous": 8082,
      "##uits": 8083,
      "##mell": 8084,
      "##mia": 8085,
      "##money": 8086,
      "##master": 8087,
      "##lon": 8088,
      "##lar": 8089,
      "##lis": 8090,
      "##lace": 8091,
      "##lib": 8092,
      "##lett": 8093,
      "##cee": 8094,
      "##cad": 8095,
      "##cur": 8096,
      "##cop": 8097,
      "##cour": 8098,
      "##cass": 8099,
      "##cullen": 8100,
      "##_in": 8101,
      "##_re": 8102,
      "##_and": 8103,
      "##_gr": 8104,
      "##_the": 8105,
      "##jer": 8106,
      "##jew": 8107,
      "##j106": 8108,
      "##bm": 8109,
      "##bay": 8110,
      "##bes": 8111,
      "##bid": 8112,
      "##buck": 8113,
      "##bies": 8114,
      "##belle": 8115,
      "##bears": 8116,
      "##date": 8117,
      "##fur": 8118,
      "##fun": 8119,
      "##fuck": 8120,
      "##fah": 8121,
      "##father": 8122,
      "##fact": 8123,
      "##fillion": 8124,
      "##wm": 8125,
      "##wan": 8126,
      "##wee": 8127,
      "##wed": 8128,
      "##was": 8129,
      "##wine": 8130,
      "##wag": 8131,
      "##walk": 8132,
      "##2k": 8133,
      "##2b": 8134,
      "##xter": 8135,
      "##xox": 8136,
      "##47": 8137,
      "##4life": 8138,
      "##1w": 8139,
      "##5t": 8140,
      "##50": 8141,
      "##53": 8142,
      "##64": 8143,
      "##==": 8144,
      "##iner": 8145,
      "##inee": 8146,
      "##erd": 8147,
      "##eres": 8148,
      "##eric": 8149,
      "##ergic": 8150,
      "toil": 8151,
      "##oura": 8152,
      "##ancy": 8153,
      "##atus": 8154,
      "##atson": 8155,
      "##ators": 8156,
      "##atives": 8157,
      "##atomy": 8158,
      "theellen": 8159,
      "##llen": 8160,
      "##eece": 8161,
      "##iton": 8162,
      "##itos": 8163,
      "##iture": 8164,
      "##arin": 8165,
      "##arah": 8166,
      "##ario": 8167,
      "##stor": 8168,
      "##stell": 8169,
      "##stats": 8170,
      "youth": 8171,
      "##isco": 8172,
      "##etime": 8173,
      "##icit": 8174,
      "##icia": 8175,
      "ingr": 8176,
      "inbox": 8177,
      "invent": 8178,
      "input": 8179,
      "onion": 8180,
      "##chin": 8181,
      "##chan": 8182,
      "##chen": 8183,
      "##chik": 8184,
      "forced": 8185,
      "##rem": 8186,
      "##rel": 8187,
      "##rection": 8188,
      "whom": 8189,
      "whil": 8190,
      "whip": 8191,
      "wheel": 8192,
      "##kel": 8193,
      "stere": 8194,
      "stac": 8195,
      "stung": 8196,
      "stacey": 8197,
      "strep": 8198,
      "megan": 8199,
      "##idz": 8200,
      "##iding": 8201,
      "##iden": 8202,
      "##idence": 8203,
      "beers": 8204,
      "beating": 8205,
      "becky": 8206,
      "soy": 8207,
      "loan": 8208,
      "lolo": 8209,
      "logic": 8210,
      "##ading": 8211,
      "##amin": 8212,
      "##amas": 8213,
      "##amber": 8214,
      "sham": 8215,
      "shark": 8216,
      "shipping": 8217,
      "gover": 8218,
      "lied": 8219,
      "##urdy": 8220,
      "##alcon": 8221,
      "##uno": 8222,
      "##unn": 8223,
      "##imm": 8224,
      "fruit": 8225,
      "!!)": 8226,
      "ants": 8227,
      "dope": 8228,
      "heyyy": 8229,
      "##opher": 8230,
      "canad": 8231,
      "chea": 8232,
      "chal": 8233,
      "chlo": 8234,
      "reb": 8235,
      "rez": 8236,
      "repres": 8237,
      "suz": 8238,
      "necessary": 8239,
      "upcoming": 8240,
      "comet": 8241,
      "comic": 8242,
      "common": 8243,
      "allergic": 8244,
      "##entz": 8245,
      "##hab": 8246,
      "##ilee": 8247,
      "##thon": 8248,
      "##thes": 8249,
      "novel": 8250,
      "nola": 8251,
      "##anted": 8252,
      "##roberts": 8253,
      "##ravel": 8254,
      "alm": 8255,
      "alan": 8256,
      "plays": 8257,
      "plastic": 8258,
      "plants": 8259,
      "##usive": 8260,
      "gotcha": 8261,
      "likey": 8262,
      "macc": 8263,
      "##ria": 8264,
      "##rier": 8265,
      "##rizz": 8266,
      "##inky": 8267,
      "happier": 8268,
      "lovel": 8269,
      "imax": 8270,
      "asyl": 8271,
      "##cts": 8272,
      "##abl": 8273,
      "##abear": 8274,
      "##ando": 8275,
      "##umble": 8276,
      "##umps": 8277,
      "misss": 8278,
      "missin": 8279,
      "##logger": 8280,
      "backyard": 8281,
      "##arded": 8282,
      "##nington": 8283,
      "##igner": 8284,
      "##uleta": 8285,
      "willy": 8286,
      "##allow": 8287,
      "offline": 8288,
      "newcast": 8289,
      "##inem": 8290,
      "exit": 8291,
      "exotic": 8292,
      "nightmare": 8293,
      "sponge": 8294,
      "##eedom": 8295,
      "brid": 8296,
      "brick": 8297,
      "breed": 8298,
      "breast": 8299,
      "breaks": 8300,
      "brooke": 8301,
      "##ola": 8302,
      "##oln": 8303,
      "##olar": 8304,
      "##olis": 8305,
      "##olen": 8306,
      "##oso": 8307,
      "##osis": 8308,
      "##osen": 8309,
      "homeless": 8310,
      "##mma": 8311,
      "howie_": 8312,
      "##olley": 8313,
      "dell": 8314,
      "device": 8315,
      "##morris": 8316,
      "##morgan": 8317,
      "##oynter": 8318,
      "needle": 8319,
      "guide": 8320,
      "guilt": 8321,
      "##rows": 8322,
      "everyones": 8323,
      "sac": 8324,
      "sacr": 8325,
      "lasts": 8326,
      "blu": 8327,
      "blows": 8328,
      "tail": 8329,
      "tags": 8330,
      "takin": 8331,
      "phr": 8332,
      "phill": 8333,
      "phase": 8334,
      "phoenix": 8335,
      "mornings": 8336,
      "gran": 8337,
      "grill": 8338,
      "greek": 8339,
      "granny": 8340,
      "env": 8341,
      "coc": 8342,
      "probs": 8343,
      "convo": 8344,
      "veggie": 8345,
      "poly": 8346,
      "users": 8347,
      "sleepover": 8348,
      "clay": 8349,
      "yeaa": 8350,
      "##ipedia": 8351,
      "trick": 8352,
      "trousers": 8353,
      "showers": 8354,
      "##agne": 8355,
      "##assic": 8356,
      "##nya": 8357,
      "##owns": 8358,
      "overnight": 8359,
      "sween": 8360,
      "shoulder": 8361,
      "cares": 8362,
      "##aza": 8363,
      "bits": 8364,
      "quad": 8365,
      "gona": 8366,
      "##izes": 8367,
      "##ggin": 8368,
      "##ggies": 8369,
      "unite": 8370,
      "uncl": 8371,
      "uncom": 8372,
      "universe": 8373,
      "leah": 8374,
      "league": 8375,
      "##yyjirou": 8376,
      "bedroom": 8377,
      "ads": 8378,
      "adm": 8379,
      "admin": 8380,
      "tweetup": 8381,
      "##anscott": 8382,
      "marley": 8383,
      "marvel": 8384,
      "thankfully": 8385,
      "##mobile": 8386,
      "crunch": 8387,
      "earn": 8388,
      "partic": 8389,
      "parties": 8390,
      "##boi": 8391,
      "starship": 8392,
      "damage": 8393,
      "##eeeeeee": 8394,
      "lappy": 8395,
      "laker": 8396,
      "smiley": 8397,
      "activity": 8398,
      "cooler": 8399,
      "tracy": 8400,
      "tragic": 8401,
      "travell": 8402,
      "##quid": 8403,
      "##quito": 8404,
      "##brand": 8405,
      "##mann": 8406,
      "hoe": 8407,
      "triple": 8408,
      "##ashes": 8409,
      "disco": 8410,
      "thrilled": 8411,
      "tend": 8412,
      "##wns": 8413,
      "excite": 8414,
      "##frank": 8415,
      "lyrics": 8416,
      "strate": 8417,
      "strand": 8418,
      "emerg": 8419,
      "##endo": 8420,
      "##ension": 8421,
      "listenin": 8422,
      "blokes": 8423,
      "ughhhh": 8424,
      "kinderg": 8425,
      "remix": 8426,
      "reminis": 8427,
      "##awd": 8428,
      "##itchell": 8429,
      "freezer": 8430,
      "##blond": 8431,
      "##atte": 8432,
      "accent": 8433,
      "snoring": 8434,
      "farm": 8435,
      "hungo": 8436,
      "recession": 8437,
      "##ettem": 8438,
      "prec": 8439,
      "preview": 8440,
      "default": 8441,
      "delight": 8442,
      "assum": 8443,
      "assume": 8444,
      "surf": 8445,
      "surround": 8446,
      "retro": 8447,
      "retire": 8448,
      "retarded": 8449,
      "failure": 8450,
      "luvin": 8451,
      "edin": 8452,
      "edge": 8453,
      "attics": 8454,
      "contro": 8455,
      "contrib": 8456,
      "contempl": 8457,
      "personally": 8458,
      "higher": 8459,
      "highlight": 8460,
      "cutest": 8461,
      "erm": 8462,
      "filthy": 8463,
      "barack": 8464,
      "epiph": 8465,
      "terrence": 8466,
      "4ws": 8467,
      "decent": 8468,
      "macar": 8469,
      "concentr": 8470,
      "##101": 8471,
      "##umpy": 8472,
      "seafood": 8473,
      "googl": 8474,
      "##121": 8475,
      "##anned": 8476,
      "##venge": 8477,
      "promo": 8478,
      "fallen": 8479,
      "similar": 8480,
      "meth": 8481,
      "grabb": 8482,
      "inviting": 8483,
      "confusing": 8484,
      "##marks": 8485,
      "president": 8486,
      "##ronic": 8487,
      "##gold": 8488,
      "##ampa": 8489,
      "##amped": 8490,
      "colleag": 8491,
      "melbourne": 8492,
      "micha": 8493,
      "artists": 8494,
      "##yyyyyy": 8495,
      "markho": 8496,
      "signs": 8497,
      "##burg": 8498,
      "##burgh": 8499,
      "##burger": 8500,
      "lighter": 8501,
      "coursework": 8502,
      "##bai": 8503,
      "ashamed": 8504,
      "honour": 8505,
      "harley": 8506,
      "expo": 8507,
      "forgetting": 8508,
      "##mony": 8509,
      "loaded": 8510,
      "accounts": 8511,
      "karaoke": 8512,
      "mua": 8513,
      "muah": 8514,
      "##easy": 8515,
      "angels": 8516,
      "county": 8517,
      "dyed": 8518,
      "menu": 8519,
      "nicks": 8520,
      "numb": 8521,
      "graduated": 8522,
      "iamjonathan": 8523,
      "mmmmmm": 8524,
      "raj": 8525,
      "raise": 8526,
      "gardening": 8527,
      "robpatt": 8528,
      "capital": 8529,
      "##ugging": 8530,
      "##star007": 8531,
      "answers": 8532,
      "denny": 8533,
      "digging": 8534,
      "commute": 8535,
      "standards": 8536,
      "philos": 8537,
      "reminding": 8538,
      "dealing": 8539,
      "arrival": 8540,
      "vacuum": 8541,
      "panera": 8542,
      "##worth": 8543,
      "pleasant": 8544,
      "celebrity": 8545,
      "veronica": 8546,
      "##egele": 8547,
      "##eeze": 8548,
      "##mcn": 8549,
      "##mcinty": 8550,
      "##jeans": 8551,
      "baking": 8552,
      "landed": 8553,
      "devil": 8554,
      "##azzi": 8555,
      "required": 8556,
      "ahhhhhh": 8557,
      "solid": 8558,
      "solution": 8559,
      "exhausting": 8560,
      "costs": 8561,
      "250": 8562,
      "##eeeeeeeeeeeeeeee": 8563,
      "selfish": 8564,
      "practically": 8565,
      "discount": 8566,
      "##urther": 8567,
      "data": 8568,
      "##tech": 8569,
      "##onald": 8570,
      "?????????": 8571,
      "recommendations": 8572,
      "umbre": 8573,
      "##aftersex": 8574,
      "banquet": 8575,
      "##leton": 8576,
      "torn": 8577,
      "torture": 8578,
      "format": 8579,
      "dollar": 8580,
      "dollhouse": 8581,
      "recovered": 8582,
      "neighbours": 8583,
      "returned": 8584,
      "handsome": 8585,
      "location": 8586,
      "receive": 8587,
      "spamming": 8588,
      "blew": 8589,
      "hayley": 8590,
      "emma": 8591,
      "kristen": 8592,
      "##boots": 8593,
      "havnt": 8594,
      "laurenconrad": 8595,
      "nancy": 8596,
      "ashleytisdale": 8597,
      "centre": 8598,
      "ignored": 8599,
      "butterfly": 8600,
      ",,,": 8601,
      "sunburned": 8602,
      "geeky": 8603,
      "grrrr": 8604,
      "venus": 8605,
      "offered": 8606,
      "blowing": 8607,
      "##hearts": 8608,
      "screaming": 8609,
      "screamed": 8610,
      "semi": 8611,
      "yesss": 8612,
      "unlike": 8613,
      "skinny": 8614,
      "clearly": 8615,
      "reports": 8616,
      "colorado": 8617,
      "heavenly": 8618,
      "5z3": 8619,
      "##mommy": 8620,
      "pineapp": 8621,
      "softball": 8622,
      "shaun": 8623,
      "lifes": 8624,
      "suffer": 8625,
      "cooper": 8626,
      "##michael": 8627,
      "chaos": 8628,
      "situations": 8629,
      "##________": 8630,
      "##natural_": 8631,
      "distractions": 8632,
      "mandyyjirou": 8633,
      "##hayes": 8634,
      "auntie": 8635,
      "kirstiea": 8636,
      "opera": 8637,
      "kellie": 8638,
      "browsing": 8639,
      "archuleta": 8640,
      "discovered": 8641,
      "muffin": 8642,
      "motivated": 8643,
      "tutor": 8644,
      "tiffany": 8645,
      "##runberg": 8646,
      "##ropri": 8647,
      "stephenfry": 8648,
      "discussion": 8649,
      "girly": 8650,
      "anxiety": 8651,
      "sleeep": 8652,
      "climbing": 8653,
      "advant": 8654,
      "snuggle": 8655,
      "politics": 8656,
      "nikkib": 8657,
      "cigar": 8658,
      "nathanfillion": 8659,
      "sowwy": 8660,
      "culture": 8661,
      "georgia": 8662,
      "create": 8663,
      "tiring": 8664,
      "##eautiful": 8665,
      "shadow": 8666,
      "repeated": 8667,
      "information": 8668,
      "translation": 8669,
      "srry": 8670,
      "teddy": 8671,
      "reference": 8672,
      "management": 8673,
      "sweden": 8674,
      "adopt": 8675,
      "embarrass": 8676,
      "terminator": 8677,
      "juicystar007": 8678,
      "microsoft": 8679,
      "paulo": 8680,
      "russell": 8681,
      "##drive": 8682,
      "struggling": 8683,
      "employee": 8684,
      "traditional": 8685,
      "rehearsal": 8686,
      "kasey": 8687,
      "kitties": 8688,
      "tempted": 8689,
      "ubuntu": 8690,
      "injured": 8691,
      "stunning": 8692,
      "disgusting": 8693,
      "greggrunberg": 8694,
      "eddie": 8695,
      "##cepting": 8696,
      "mozart": 8697,
      "greetings": 8698,
      "basketball": 8699,
      "dvds": 8700,
      "ireland": 8701,
      "kewl": 8702,
      "village": 8703,
      "melody": 8704,
      "shattered": 8705,
      "immediately": 8706,
      "financial": 8707,
      "crawling": 8708,
      "babygirlparis": 8709,
      "premier": 8710,
      "industry": 8711,
      "unfortunatly": 8712,
      "americans": 8713,
      "korea": 8714,
      "shuffle": 8715,
      "hundred": 8716,
      "rescue": 8717,
      "acoustic": 8718,
      "decisions": 8719,
      "espresso": 8720,
      "impala_guy": 8721,
      "devastated": 8722,
      "juddday": 8723,
      "3wordsaftersex": 8724,
      "_supernatural_": 8725,
      "furniture": 8726,
      "wikipedia": 8727,
      "theellenshow": 8728,
      "whilst": 8729,
      "newcastle": 8730,
      "howie_d": 8731,
      "emergency": 8732,
      "hungover": 8733,
      "epiphany": 8734,
      "terrencej106": 8735,
      "colleagues": 8736,
      "markhoppus": 8737,
      "iamjonathancook": 8738,
      "mandyyjirouxx": 8739,
      "kirstiealley": 8740,
      ".@": 8741,
      "2w": 8742,
      "42": 8743,
      "400": 8744,
      "5y": 8745,
      "600": 8746,
      "630": 8747,
      "88": 8748,
      "95": 8749,
      "9th": 8750,
      ":\"": 8751,
      ";;": 8752,
      "<--": 8753,
      "?,": 8754,
      "ai": 8755,
      "aus": 8756,
      "aches": 8757,
      "asth": 8758,
      "bou": 8759,
      "beet": 8760,
      "bod": 8761,
      "bond": 8762,
      "bare": 8763,
      "bail": 8764,
      "boooooooo": 8765,
      "bible": 8766,
      "bwa": 8767,
      "cp": 8768,
      "ck": 8769,
      "cn": 8770,
      "cere": 8771,
      "cum": 8772,
      "cia": 8773,
      "cork": 8774,
      "cupp": 8775,
      "dp": 8776,
      "dw": 8777,
      "dea": 8778,
      "dre": 8779,
      "dere": 8780,
      "dim": 8781,
      "dess": 8782,
      "dion": 8783,
      "dare": 8784,
      "dual": 8785,
      "ea": 8786,
      "eag": 8787,
      "eps": 8788,
      "erik": 8789,
      "fn": 8790,
      "fot": 8791,
      "fion": 8792,
      "fart": 8793,
      "fired": 8794,
      "ferr": 8795,
      "further": 8796,
      "g4": 8797,
      "gmail": 8798,
      "het": 8799,
      "hud": 8800,
      "heeee": 8801,
      "hhaha": 8802,
      "ist": 8803,
      "iow": 8804,
      "iget": 8805,
      "ikr": 8806,
      "icky": 8807,
      "iantal": 8808,
      "ji": 8809,
      "jed": 8810,
      "jaz": 8811,
      "jade": 8812,
      "ks": 8813,
      "ku": 8814,
      "km": 8815,
      "kc": 8816,
      "kle": 8817,
      "kra": 8818,
      "kool": 8819,
      "kik": 8820,
      "kyl": 8821,
      "lg": 8822,
      "lc": 8823,
      "lal": 8824,
      "lens": 8825,
      "linc": 8826,
      "lulu": 8827,
      "mx": 8828,
      "mit": 8829,
      "meee": 8830,
      "mraz": 8831,
      "nou": 8832,
      "nim": 8833,
      "nate": 8834,
      "nort": 8835,
      "nint": 8836,
      "nett": 8837,
      "naught": 8838,
      "nba": 8839,
      "og": 8840,
      "o_o": 8841,
      "por": 8842,
      "ped": 8843,
      "pow": 8844,
      "pout": 8845,
      "pel": 8846,
      "pong": 8847,
      "pud": 8848,
      "pak": 8849,
      "pats": 8850,
      "patter": 8851,
      "posh": 8852,
      "pops": 8853,
      "panda": 8854,
      "qld": 8855,
      "rt": 8856,
      "rb": 8857,
      "rf": 8858,
      "ror": 8859,
      "rome": 8860,
      "rack": 8861,
      "rah": 8862,
      "rash": 8863,
      "rise": 8864,
      "rug": 8865,
      "riot": 8866,
      "sq": 8867,
      "sed": 8868,
      "sas": 8869,
      "sess": 8870,
      "sant": 8871,
      "sandy": 8872,
      "tie": 8873,
      "tack": 8874,
      "tel": 8875,
      "tang": 8876,
      "tia": 8877,
      "tty": 8878,
      "tango": 8879,
      "tisdale": 8880,
      "tshirt": 8881,
      "u2": 8882,
      "uuu": 8883,
      "vm": 8884,
      "vit": 8885,
      "vip": 8886,
      "vene": 8887,
      "volley": 8888,
      "wes": 8889,
      "wack": 8890,
      "wip": 8891,
      "wiv": 8892,
      "weth": 8893,
      "wealth": 8894,
      "ys": 8895,
      "yan": 8896,
      "yest": 8897,
      "yey": 8898,
      "yuk": 8899,
      "yaaaay": 8900,
      "zone": 8901,
      "zack": 8902,
      "~*": 8903,
      "##pd": 8904,
      "##por": 8905,
      "##point": 8906,
      "##kur": 8907,
      "##kate": 8908,
      "##krist": 8909,
      "##kitty": 8910,
      "##hl": 8911,
      "##hd": 8912,
      "##hop": 8913,
      "##hart": 8914,
      "##hub": 8915,
      "##oke": 8916,
      "##oday": 8917,
      "##ody": 8918,
      "##rom": 8919,
      "##ram": 8920,
      "##rent": 8921,
      "##ril": 8922,
      "##rina": 8923,
      "##rica": 8924,
      "##ridge": 8925,
      "##tots": 8926,
      "##a4": 8927,
      "##ald": 8928,
      "##gad": 8929,
      "##gur": 8930,
      "##gate": 8931,
      "##gel": 8932,
      "##gets": 8933,
      "##ec": 8934,
      "##ej": 8935,
      "##eer": 8936,
      "##egr": 8937,
      "##yer": 8938,
      "##ying": 8939,
      "##ygirl": 8940,
      "##vor": 8941,
      "##var": 8942,
      "##vine": 8943,
      "##iab": 8944,
      "##iving": 8945,
      "##iqu": 8946,
      "##ieee": 8947,
      "##nis": 8948,
      "##note": 8949,
      "##sg": 8950,
      "##sie": 8951,
      "##sure": 8952,
      "##mp": 8953,
      "##mj": 8954,
      "##mee": 8955,
      "##mill": 8956,
      "##main": 8957,
      "##mate": 8958,
      "##mama": 8959,
      "##mouth": 8960,
      "##lea": 8961,
      "##lad": 8962,
      "##lal": 8963,
      "##lif": 8964,
      "##live": 8965,
      "##lord": 8966,
      "##lbs": 8967,
      "##lets": 8968,
      "##cond": 8969,
      "##cups": 8970,
      "##8s": 8971,
      "##_y": 8972,
      "##_0": 8973,
      "##_ra": 8974,
      "##_au": 8975,
      "##_co": 8976,
      "##_of": 8977,
      "##_marie": 8978,
      "##jv": 8979,
      "##jar": 8980,
      "##jordan": 8981,
      "##qo": 8982,
      "##qe": 8983,
      "##best": 8984,
      "##big": 8985,
      "##bang": 8986,
      "##bys": 8987,
      "##bath": 8988,
      "##bitch": 8989,
      "##bane": 8990,
      "##bomb": 8991,
      "##dt": 8992,
      "##dz": 8993,
      "##dar": 8994,
      "##dom": 8995,
      "##dad": 8996,
      "##dance": 8997,
      "##zo": 8998,
      "##zes": 8999,
      "##fk": 9000,
      "##fiss": 9001,
      "##foot": 9002,
      "##wd": 9003,
      "##wer": 9004,
      "##wen": 9005,
      "##wel": 9006,
      "##wall": 9007,
      "##wild": 9008,
      "##wife": 9009,
      "##2t": 9010,
      "##xi": 9011,
      "##xic": 9012,
      "##40": 9013,
      "##1p": 9014,
      "##3r": 9015,
      "##5v": 9016,
      "##61": 9017,
      "##inar": 9018,
      "##inic": 9019,
      "##inos": 9020,
      "##inity": 9021,
      "##inthe": 9022,
      "##info": 9023,
      "thi": 9024,
      "thou": 9025,
      "threat": 9026,
      "thirty": 9027,
      "thirsty": 9028,
      "##erush": 9029,
      "tooooo": 9030,
      "torr": 9031,
      "towards": 9032,
      "tootha": 9033,
      "##orth": 9034,
      "##orks": 9035,
      "##oration": 9036,
      "##anner": 9037,
      "##anley": 9038,
      "##atient": 9039,
      "the_": 9040,
      "##onna": 9041,
      "##llike": 9042,
      "##eeks": 9043,
      "##eena": 9044,
      "##eshing": 9045,
      "##ndo": 9046,
      "##ndar": 9047,
      "##ooz": 9048,
      "##omit": 9049,
      "##omet": 9050,
      "##edly": 9051,
      "##stop": 9052,
      "##stud": 9053,
      "##stage": 9054,
      "##stars": 9055,
      "##style": 9056,
      "##stewart": 9057,
      "hairst": 9058,
      "##othing": 9059,
      "##otxt": 9060,
      "##othe": 9061,
      "##owr": 9062,
      "##eaa": 9063,
      "##uto": 9064,
      "##encer": 9065,
      "andrea": 9066,
      "##icing": 9067,
      "inn": 9068,
      "inlove": 9069,
      "...?": 9070,
      "##ghan": 9071,
      "##chic": 9072,
      "##chap": 9073,
      "isaa": 9074,
      "forth": 9075,
      "forest": 9076,
      "##lev": 9077,
      "##record": 9078,
      "whn": 9079,
      "##keup": 9080,
      "stone": 9081,
      "stell": 9082,
      "steam": 9083,
      "stealth": 9084,
      "styl": 9085,
      "sticks": 9086,
      "stairs": 9087,
      "stolen": 9088,
      "meat": 9089,
      "##iddle": 9090,
      "bend": 9091,
      "beha": 9092,
      "becc": 9093,
      "sox": 9094,
      "##lyah": 9095,
      "lobby": 9096,
      "##aday": 9097,
      "##amc": 9098,
      "##amad": 9099,
      "##amos": 9100,
      "shi": 9101,
      "shiv": 9102,
      "shane": 9103,
      "shamp": 9104,
      "shape": 9105,
      "sheesh": 9106,
      "goat": 9107,
      "limo": 9108,
      "##lda": 9109,
      "##ldn": 9110,
      "##uro": 9111,
      "##iro": 9112,
      "##iring": 9113,
      "##alf": 9114,
      "##alan": 9115,
      "##almer": 9116,
      "##unshine": 9117,
      "##imental": 9118,
      "frame": 9119,
      "frog": 9120,
      "freedom": 9121,
      "analy": 9122,
      "justice": 9123,
      "dos": 9124,
      "doggy": 9125,
      "heath": 9126,
      "##opard": 9127,
      "##llywood": 9128,
      "twas": 9129,
      "chain": 9130,
      "chel": 9131,
      "chile": 9132,
      "chew": 9133,
      "chester": 9134,
      "refr": 9135,
      "recy": 9136,
      "revenge": 9137,
      "neat": 9138,
      "goodies": 9139,
      "goodby": 9140,
      "allen": 9141,
      "reaction": 9142,
      "##entation": 9143,
      "outs": 9144,
      "##ryanscott": 9145,
      "##haa": 9146,
      "..\"": 9147,
      "##ilton": 9148,
      "##thr": 9149,
      "##them": 9150,
      "noone": 9151,
      "##roke": 9152,
      "alison": 9153,
      "plate": 9154,
      "amen": 9155,
      "##usic": 9156,
      "##aston": 9157,
      "##astar": 9158,
      "magg": 9159,
      "donna": 9160,
      "donuts": 9161,
      "##rian": 9162,
      "##rific": 9163,
      "##aina": 9164,
      "asp": 9165,
      "asks": 9166,
      "##ctose": 9167,
      "##abelle": 9168,
      "knox": 9169,
      "seek": 9170,
      "awwh": 9171,
      "abit": 9172,
      "##ishing": 9173,
      "##artist": 9174,
      "##umber": 9175,
      "##eli": 9176,
      "##ardo": 9177,
      "##arde": 9178,
      "##icki": 9179,
      "##icket": 9180,
      "weed": 9181,
      "moll": 9182,
      "##igr": 9183,
      "##igg": 9184,
      "##iger": 9185,
      "##fff": 9186,
      "##ulk": 9187,
      "##ulg": 9188,
      "##ulin": 9189,
      "exited": 9190,
      "express": 9191,
      "exhib": 9192,
      "exchange": 9193,
      "external": 9194,
      "##gebra": 9195,
      "spit": 9196,
      "spra": 9197,
      "spook": 9198,
      "brief": 9199,
      "##oline": 9200,
      "##olution": 9201,
      "##opez": 9202,
      "howd": 9203,
      "##olla": 9204,
      "proof": 9205,
      "printer": 9206,
      "pritchard": 9207,
      "dez": 9208,
      "slim": 9209,
      "waaa": 9210,
      "##ello": 9211,
      "!!!...": 9212,
      "##reative": 9213,
      "##ucker": 9214,
      "##uckle": 9215,
      "##augh": 9216,
      "guinea": 9217,
      "twittered": 9218,
      "twitterville": 9219,
      "orb": 9220,
      "sao": 9221,
      "sake": 9222,
      "sail": 9223,
      "arie": 9224,
      "archie": 9225,
      "tak": 9226,
      "takers": 9227,
      "tacos": 9228,
      "wished": 9229,
      "grin": 9230,
      "greet": 9231,
      "grease": 9232,
      "##ously": 9233,
      "encou": 9234,
      "cobra": 9235,
      "conver": 9236,
      "confl": 9237,
      "concept": 9238,
      "constr": 9239,
      "drums": 9240,
      "joan": 9241,
      "joes": 9242,
      "joking": 9243,
      "poison": 9244,
      "beth": 9245,
      "woulda": 9246,
      "##emo": 9247,
      "##emic": 9248,
      "##angirl": 9249,
      "clau": 9250,
      "clint": 9251,
      "clare": 9252,
      "##ipop": 9253,
      "tramp": 9254,
      "##istr": 9255,
      "##istan": 9256,
      "##isters": 9257,
      "sequ": 9258,
      "seven": 9259,
      "section": 9260,
      "##agg": 9261,
      "##aging": 9262,
      "tonights": 9263,
      "##iac": 9264,
      "themandy": 9265,
      "##ysund": 9266,
      "overtime": 9267,
      "##pict": 9268,
      "shoulda": 9269,
      "caring": 9270,
      "tryna": 9271,
      "headphones": 9272,
      "leather": 9273,
      "legend": 9274,
      "##ggers": 9275,
      "unable": 9276,
      "##makeup": 9277,
      "##shots": 9278,
      "ada": 9279,
      "adap": 9280,
      "##ansen": 9281,
      "marie": 9282,
      "marian": 9283,
      "margin": 9284,
      "margar": 9285,
      "startrek": 9286,
      "madness": 9287,
      "##beats": 9288,
      "##ccurdy": 9289,
      "flies": 9290,
      "##rrl": 9291,
      "appeal": 9292,
      "callin": 9293,
      "somethin": 9294,
      "##aco": 9295,
      "##mod": 9296,
      "bestie": 9297,
      "girlie": 9298,
      "sucker": 9299,
      "##soci": 9300,
      "##society": 9301,
      "urself": 9302,
      "crit": 9303,
      "crimin": 9304,
      "becuz": 9305,
      "glenn": 9306,
      "nevermind": 9307,
      "daved": 9308,
      "davis": 9309,
      "sooner": 9310,
      "wrest": 9311,
      "##pretty": 9312,
      "damoh": 9313,
      "built": 9314,
      "##atherine": 9315,
      "##ftw": 9316,
      "listed": 9317,
      "lactose": 9318,
      "smith": 9319,
      "cheating": 9320,
      "mint": 9321,
      "minim": 9322,
      "ours": 9323,
      "hurray": 9324,
      "##mental": 9325,
      "actor": 9326,
      "omj": 9327,
      "##quin": 9328,
      "##brush": 9329,
      "realbill": 9330,
      "hog": 9331,
      "olds": 9332,
      "trial": 9333,
      "hugged": 9334,
      "display": 9335,
      "kiddo": 9336,
      "lovee": 9337,
      "loveeee": 9338,
      "hellotxt": 9339,
      "mush": 9340,
      "muscles": 9341,
      "prett": 9342,
      "warped": 9343,
      "string": 9344,
      "brody": 9345,
      "bush": 9346,
      "famili": 9347,
      "##ender": 9348,
      "omgosh": 9349,
      "parks": 9350,
      "perry": 9351,
      "percent": 9352,
      "endless": 9353,
      "nothings": 9354,
      "sounded": 9355,
      "##aka": 9356,
      "ski": 9357,
      "sket": 9358,
      "skool": 9359,
      "checkin": 9360,
      "10pm": 9361,
      "shock": 9362,
      "##awr": 9363,
      "chances": 9364,
      "##ierce": 9365,
      "##ierra": 9366,
      "sweety": 9367,
      "sweetest": 9368,
      "##blues": 9369,
      "stuffs": 9370,
      "##spark": 9371,
      "relay": 9372,
      "relief": 9373,
      "relative": 9374,
      "sitter": 9375,
      "theirs": 9376,
      "desire": 9377,
      "desperate": 9378,
      "mrss": 9379,
[...]
