[UNK]
[PAD]
[CLS]
[SEP]
[MASK]
!
"
#
$
%
&
'
(
)
*
+
,
-
.
/
0
1
2
3
4
5
6
7
8
9
:
;
<
=
>
?
@
[
\
]
^
_
`
a
b
c
d
e
f
g
h
i
j
k
l
m
n
o
p
q
r
s
t
u
v
w
x
y
z
{
|
}
~
¡
´
½
¿
##p
##k
##h
##o
##r
##t
##a
##g
##e
##y
##v
##i
##n
##s
##u
##m
##l
##c
##8
##_
##j
##q
##b
##d
##z
##9
##f
##w
##2
##0
##x
##4
##1
##3
##7
##5
##.
##6
##½
##!
##-
##^
##,
##"
##?
##]
##)
##\
##/
##(
##'
##~
##*
##>
##|
##<
##@
##=
##;
##:
##$
##[
###
##&
##{
##}
##+
##%
##in
th
##er
to
##ing
##ou
##or
##an
##at
the
##on
##ll
##ee
##ay
##es
##it
##nd
##oo
##ar
##om
##ed
##st
ha
you
##ot
##ow
##..
##ve
it
##ea
##is
my
##et
##ut
##en
and
##ic
in
...
on
##gh
##ch
is
for
of
##le
##as
##re
wh
##ck
##ke
st
me
##id
be
so
that
##ly
##ght
lo
##ad
##am
sh
##ome
go
have
li
##ust
##ld
##se
##ill
##ight
##ter
##ur
day
##ir
##al
##pp
##un
##ver
but
we
##ie
##ith
##ere
##im
fr
!!
an
just
##ood
do
with
at
##day
not
he
wor
##op
was
##her
##lly
tw
can
ch
##one
get
re
su
ne
up
com
good
##ce
all
rea
##ent
out
##ry
##ha
..
now
##ack
##ess
##il
this
work
##th
no
##ould
##ant
##ro
##ra
al
##ks
##ion
##tt
pl
am
##us
than
##ast
are
got
mor
like
:/
##iss
ma
##other
don
##ri
htt
http
##ink
://
##ain
happ
love
too
your
##out
im
##est
as
##ct
##ate
##ab
kn
see
today
aw
ab
##!!
tim
##ish
twit
##and
going
##art
what
##um
miss
##el
some
##ook
##ead
##lo
lol
happy
##ers
know
fee
##eep
back
want
##ong
from
##ard
##ick
wee
##na
one
##ning
mo
##ig
##ff
##ting
##ul
will
##all
time
did
feel
ever
##ice
##nt
off
##ind
new
really
##ine
there
think
about
ex
##hh
its
##ge
night
sp
##eed
##een
br
mother
any
##atch
##eet
##ol
##ope
had
they
##ite
##ally
##os
home
##mm
how
##oll
pr
de
sl
##ough
haha
##mor
##uch
##ool
ag
wa
if
##ell
!!!
oh
##reat
##oy
##uck
##au
well
##our
thanks
when
fun
##ame
need
gu
twitter
##night
ll
hope
still
##row
fa
##ound
here
watch
or
every
mom
##ving
##aa
##dy
....
much
##ear
##king
##??
more
sa
ar
her
last
bl
great
ta
wish
ph
##oooo
morning
##ies
gr
##ous
en
sor
sad
##ap
##if
co
pro
she
has
con
dr
jo
##iend
##ays
then
look
ve
been
##ide
po
bet
##ery
##ollow
would
##ub
us
##em
by
fin
##ang
sleep
cl
##hing
could
##ww
tomor
wait
yea
##ber
follow
won
##ile
##ud
why
bad
again
tomorrow
##ip
may
only
##xt
##itt
tr
##ist
se
##ation
show
thing
##ore
##ag
tonight
friend
##ive
yes
##ass
man
mon
##irl
##ny
sorry
##ia
them
##own
##fe
##ys
nice
over
af
make
##pic
sw
very
##ort
should
pe
car
right
who
##ew
better
ro
##az
##up
##00
eve
bit
ok
try
##ss
though
qu
gon
head
way
le
sc
##iz
week
##gg
yeah
##ah
gonna
##ue
##kend
##ause
##ty
does
weekend
sch
un
after
lea
##yy
##ma
##sh
bed
getting
play
ad
mothers
peop
tweet
##ph
come
##ans
say
##ble
people
long
down
mar
##ey
sun
##my
##lf
!!!!
##ts
start
mad
som
##pl
hour
mov
didn
##be
##ought
awes
twitpic
##cc
school
##ach
fl
were
##kes
next
##rr
thank
plea
##eam
app
pic
him
call
##ure
dont
somet
awesome
hey
##ac
##mo
##iday
days
watching
best
##per
##anna
##eak
hi
litt
tho
girl
let
##to
suck
tal
##so
ur
bor
cr
ear
##ace
##xx
bec
gl
hate
never
little
##ake
part
da
##ways
##ath
##thing
even
soon
rain
di
wr
##ater
##ity
year
##bo
##ich
star
##pt
##ci
##pr
##eal
dam
¿½
bu
bab
##ather
##ft
##age
##ired
##der
please
##eeee
list
working
la
##irst
alr
sm
che
his
##od
min
being
take
##ouse
.....
sure
our
##int
everyone
cant
hur
##ta
##ment
##son
always
##ious
find
##ond
stu
cra
##ner
##ute
act
cool
lot
ot
doing
having
##pe
##ating
big
sick
##joy
another
done
life
phone
bea
hel
om
where
feeling
inter
guys
tra
##ful
tired
##urn
movie
##he
##iv
##eady
yay
##qu
first
keep
##br
real
##man
##ooks
wanna
##ily
ho
##ix
because
already
other
old
tri
thought
id
enjoy
##ash
friends
hu
something
dis
hot
##ms
live
##ooo
amaz
made
##ii
thr
##ord
te
##iny
##url
##co
help
trying
house
yet
kid
comp
???
damn
##self
luck
ya
##wn
hard
song
##fore
exc
dan
##fr
looking
lov
bir
hell
guess
hours
##zy
before
ly
##ually
##ited
read
mus
##ank
??
tell
##gr
##ian
pret
war
##ire
str
##by
friday
##gs
monday
bo
bro
bus
em
fam
##end
##ik
##!!!!
##ens
##unch
listen
omg
par
tiny
into
per
went
##bs
ready
maybe
##io
wow
##les
finally
amazing
blo
end
ugh
##oom
##ne
left
##ull
same
bored
boy
kind
hear
away
finish
sucks
nothing
rem
missed
baby
fuck
sound
two
doesn
pretty
ser
##ak
forg
god
jon
someone
run
sk
##side
##ise
while
also
check
##oney
cle
looks
##ward
hair
##bab
##zz
##haha
break
those
##cy
later
things
10
##ated
face
early
put
##ince
##are
##ary
post
might
##no
sho
said
talk
glad
cou
##oth
saw
dri
##ats
bel
##able
birth
music
world
##aw
party
tinyurl
##itch
free
chan
el
##ier
birthday
must
weather
sweet
clo
##bl
##fly
##att
##ign
##cr
acc
such
stuff
sn
lost
around
##sp
summ
rel
sit
coming
give
sund
job
actually
makes
wonder
?!
din
stay
unt
##nder
poor
few
##book
##dd
##ins
##terday
yesterday
late
##ates
##ence
thats
##ton
found
##ley
waiting
far
##lc
tot
gotta
making
since
their
most
class
hun
res
##ors
##iew
until
cry
des
myself
##pping
##hhhh
phot
mean
boo
##ps
awww
##wh
summer
mr
##ib
supp
cause
excited
gone
##igh
##cfly
fav
sunday
dad
##tw
##ike
##iting
##ets
happen
family
30
mum
tea
wo
##nn
aww
##most
month
##ork
super
almost
anything
beaut
everything
add
clean
sat
##land
rec
pict
cute
##de
till
vide
##oc
##ory
##ime
mess
##fu
##ert
rock
##iful
sing
welc
lunch
##ett
stop
least
listening
food
##load
thinking
anyone
##aaaa
cold
leave
;)
pre
wal
##av
pain
##ild
##line
##ude
welcome
eat
kill
money
tre
use
stup
##ieve
def
drink
totally
win
##ox
##ris
wanted
funny
many
##body
stupid
ste
without
dream
dinner
xx
##ken
##cl
probab
www
##og
forward
okay
hurts
game
##ym
##uu
##uz
##ines
del
hang
##ect
##ves
##ott
beautiful
##hn
##way
shit
probably
ke
isn
rep
through
##rist
missing
##ffee
hahaha
buy
mine
##oot
##ams
##oss
sounds
book
soooo
turn
##ple
##ked
##me
char
plan
##erson
send
playing
believe
##vid
place
##ift
##ever
##rew
which
haven
ass
##more
ill
sur
##ave
inst
##ions
ac
ret
##ons
##ark
times
coffee
ah
##ney
##ote
lovely
##hhh
fail
finished
cam
room
ann
upd
##cial
##ache
##ail
ind
these
fm
hand
lad
op
rest
##ds
enough
kids
under
##ax
##eeting
##ase
office
followers
intern
hol
says
##ents
##ently
outside
##essed
##ember
##fl
##ina
hehe
lu
##ved
##urk
##ross
ed
att
wasn
idea
eating
less
##ness
##pped
cont
##iley
woke
hit
pa
##ayl
##vel
stuck
##ube
video
hop
person
sooo
tick
##ding
##orm
seen
didnt
anymore
hmm
##get
##girl
##ial
dou
yum
high
##fully
cut
er
lau
lil
plurk
scr
ca
ms
meet
red
set
##ted
##...
wants
taking
comput
hor
##ana
##ird
##mail
wrong
remember
forgot
came
full
##mer
##19
rev
took
tv
chill
compl
goodnight
ago
whole
fil
wed
##ep
##con
##une
heart
kinda
bar
fan
name
ty
##a_
##ng
##ount
##unk
##ither
grad
headache
--
cour
jam
##vin
proble
##fect
david
trek
ep
mid
ter
##sw
##ane
unf
loved
jen
##ug
yout
following
##phone
years
4w
bur
pass
wind
##ama
alone
dec
guy
##izz
youtube
ap
ey
own
sar
##gl
##mus
##esh
##als
dog
##ush
weeks
moms
black
busy
shopping
internet
##ance
half
mac
##aught
conc
tweets
wars
jonas
sitting
cook
lear
##ues
##bb
news
couldn
diff
crazy
facebook
##10
##ump
##ult
##ife
lots
both
cur
sea
##ont
##ete
john
blog
cal
card
goo
sou
##ale
##12
##ann
computer
xxx
##ven
seems
prom
tried
serious
fall
mind
sim
##iver
##inks
##ower
##ppy
able
spend
hopefully
##oooooooo
sec
text
hello
else
met
brother
bb
woo
##port
##oud
##ows
short
wear
##ister
open
sam
vis
##ree
##less
##fast
##orn
##its
online
used
care
hurt
bra
iphone
mil
soo
test
##gry
##ual
told
##utes
once
gets
cat
dead
dude
es
gra
sy
##of
##time
##atter
##ica
grand
true
quite
change
cuz
link
##top
##ces
##ings
##eee
inv
##urday
beach
air
bank
dj
email
##kk
##ied
##ster
##ade
##ongr
called
minutes
study
20
miley
##rs
##ling
##ones
##....
##imes
##ract
##ately
fucking
btw
ice
##app
##act
tomm
mommy
conf
talking
lucky
breakfast
saturday
bum
catch
##mar
##any
awake
pres
watched
##????
blip
broke
drive
defin
congr
either
ju
##ition
spe
wont
##mao
tour
##eek
move
shower
interest
clos
picture
lap
site
##ron
##go
##ele
##med
##car
##amp
##ures
##rible
favor
lady
holiday
12
av
lmao
##rus
##ger
##gle
##ball
##ato
heard
##ations
##pect
trip
perfect
wonderful
net
pack
pick
##13
##ared
##cher
##ried
feels
offic
girls
raining
instead
coll
past
til
##gy
##du
mel
##cept
seeing
evening
dra
med
##pm
##ics
wake
fig
mitch
##oh
##ock
##gin
##iet
##ital
##ict
reply
67
dar
jeal
##jo
##33
ther
ask
slow
months
fine
tayl
##uk
##ming
##ject
##iness
##isod
##irt
ext
##osed
starting
sometimes
jealous
11
mic
##ible
##__
##work
ton
art
##friend
episod
second
bout
jack
xd
##gn
top
anyway
##osh
relax
##where
laugh
differ
15
fast
fell
gre
pay
##oint
##gan
##leep
##ca
tom
##ees
##yyyy
mark
4th
bought
kat
sign
##bur
##era
##eaking
ones
light
exam
writing
loves
season
##ange
choc
green
join
##ortun
leaving
!!!!!
##press
concert
fix
pu
pap
uk
##ole
##air
##boy
ups
##uss
needs
wishing
prof
write
course
problem
june
nite
sigh
water
##ls
##inc
##chie
goes
##ops
reason
##the
bring
##itely
##aaa
sex
##rrrr
boring
##athan
crap
hungry
hoping
special
/~
ip
ny
nick
##ba
##che
near
ash
dear
##ages
heading
happened
definitely
hon
har
ps
##ced
##cle
##lex
##urs
asleep
##love
moving
favorite
100
200
city
eas
son
sent
##gt
##09
comment
exp
##ize
started
##!!!!!!!!
running
tickets
fing
##ned
##illy
weird
chang
chris
christ
upload
##andy
##els
bye
##ized
forget
close
supposed
complete
seriously
mitchel
chocol
col
fel
je
sel
tum
##mon
##dle
##ars
load
##arden
##ffic
pray
moment
sore
block
account
photo
unfortun
band
bud
kar
mu
##ho
means
##ention
##astic
##ction
spr
fair
sunny
flu
pics
tommcfly
ben
dang
gi
jay
##cing
##eas
ins
ang
comes
final
laur
train
count
couple
laptop
dy
ev
hum
men
nap
yep
##ren
##mit
##com
##fer
##eth
##ical
cream
reading
##cyrus
fly
ive
mis
##ker
##ense
abs
sleeping
club
##berry
download
movies
chocolate
ge
gym
meeting
nic
num
sal
vote
##ose
##60
##elle
aren
using
saying
died
broken
cleaning
pictures
gradu
cup
dd
die
due
fb
gen
gave
iam
mmm
ppl
ra
##tf
##gu
##la
##led
##lic
##eese
inf
##vers
fren
agree
sadly
ipod
cor
date
garden
lay
pub
side
##ya
##ipp
##oop
##ches
chick
songs
warm
annoy
nat
ru
##gar
##vice
##nes
##ision
mysp
stra
##ills
chat
rob
doesnt
##musso
mitchelmusso
cap
mood
sister
##min
town
##reci
##uring
word
knew
##eeps
point
##itty
##shine
eyes
episode
different
4j
bas
jess
##tr
##vd
##ugg
##_b
##for
##wood
toget
##star
##ching
stud
liked
spent
afterno
hugs
three
horrible
1st
fight
fab
mi
pat
pink
##bum
##11
answ
plans
wedding
together
bgt
cy
ger
pet
ride
##kin
##ai
##gas
##gie
##we
##key
reg
##ants
##ards
exams
emp
boys
google
unfortunately
14
cop
eff
lond
nope
ry
##iff
##ience
##lin
##ots
inside
store
worth
chines
##cell
produ
enjoying
park
photos
myspace
aud
cele
den
dig
gut
hub
kick
pol
##ky
##oice
##itar
##ider
##ters
ate
cheese
repl
comm
appreci
sky
driving
visit
interesting
afternoon
hea
nor
pea
pizz
rad
wom
##par
##ka
##tc
##yle
##not
##ising
stand
goin
web
worse
words
imp
seem
order
phil
appar
disapp
surpr
alex
ball
dm
jas
joy
mc
rub
wol
##mi
##?!
##ustr
worry
##ession
works
whats
##ucks
fact
everybody
bless
earl
holly
huge
walk
yummy
sarah
mileycyrus
present
london
cake
dun
daught
mama
pc
rather
##oun
##ised
meant
##ames
shar
##urch
album
##lov
shows
remind
chance
drinking
upset
absol
bday
cos
fans
jer
key
poss
power
tee
view
##ki
##ham
##ob
##mcfly
##cast
##enn
white
story
##ident
##ie_
blood
quest
quick
sunshine
##cover
."
deal
line
mike
##vy
##ler
##--
thro
##stand
##ille
##ries
guitar
##ears
arri
project
trans
mrs
congrats
completely
answer
18
four
gig
hy
math
ner
roll
team
vac
##tin
##gic
##ja
##77
young
shop
sub
yours
moon
exact
blue
engl
played
tech
dance
paper
bott
foot
matt
pan
pop
page
ran
sle
##nic
##ugh
##wor
##icious
sto
living
##unt
##iel
freak
##used
happens
except
brit
save
sleepy
##ips
pleas
##annah
hug
box
jonathan
figure
felt
celebr
apparently
earlier
english
40
cross
dist
fu
lone
pri
pull
ver
via
wife
wtf
xox
##knight
##ege
##va
##ially
##22
##18
touch
##ara
beat
loving
##ada
atl
tweeting
dress
apple
##cially
babe
pizza
bag
gift
ii
laz
piss
##eez
##usted
justin
doct
child
amer
starts
smile
##pecially
traffic
snl
message
steph
dreams
update
luv
especially
absolute
ahh
during
ff
fant
fire
lame
na
pot
rid
san
##ress
##ga
##88
##_s
##bile
##do
##20
##ino
##str
plus
##aste
##aster
##ular
grou
cover
dave
##ealth
law
small
hold
##ette
apart
easy
throat
slept
ahhh
cous
ent
jim
mention
ouch
squ
vers
##ric
##view
##mc
##je
##30
thx
throw
thurs
##ene
stom
stick
havent
doc
exper
##osp
looked
!!!!!!
?????
business
parents
posted
updates
film
learn
relaxing
profile
sexy
absolutely
ba
bri
bike
each
fat
land
van
##over
##ten
##band
##omb
##owers
##ison
andy
int
beer
church
##log
dev
needed
safe
##ooooo
joe
wouldn
##yyy
travel
##iiii
body
boyfriend
shoes
wondering
understand
##ointed
##lovato
lonely
2nd
2day
66
ele
flo
##oid
##tv
##tim
##yl
##lake
##21
forever
##rect
whate
beh
shame
webs
chic
##hael
alth
prop
momm
enter
cons
##azz
longer
##pressed
realized
idk
resp
crying
bbq
ddlovato
german
).
16
aut
aint
dark
mam
ooh
port
round
yo
##ko
##eh
##uh
##_l
##_d
##bar
thinks
##orge
##iter
##ican
requ
along
mail
##others
##ains
##ulous
expect
hahahaha
usually
leg
minute
......
staying
record
single
screen
fingers
19
50
ahhhh
dvd
err
gd
hates
hannah
mot
mass
non
roo
##you
##ient
##da
##ston
##etic
sol
los
##ilight
exha
spo
cost
drunk
##bert
track
event
huh
camera
chillin
college
hubby
peace
daughter
lazy
13
25
ell
grow
hom
jus
low
lab
matter
ooo
ohh
pool
vid
##pa
##kn
##ville
##nite
##cri
##23
##inn
##omm
##uts
##amb
##ured
cannot
##andom
hahah
wishes
eng
vegas
cloth
talent
##eeeeeeee
##ives
company
danny
##bye
design
##ails
hmmm
jonasbr
number
radio
jason
whatever
behind
(:
bill
burn
fo
gar
hil
hosp
kim
lar
none
pur
smo
wat
##uff
##fa
##fan
##200
##ined
##eel
##ito
##ease
##idays
shall
yourself
feet
mobile
##berlake
quiet
flight
##box
????
support
walking
##ogra
hanging
middle
officially
changed
self
version
thursday
although
fut
fish
lis
ob
pract
tues
##kers
##vo
##iq
##fro
##oul
##llll
##ester
##ste
iss
##ided
sold
shirt
worst
twilight
succ
mach
ima
proud
alright
disc
##friday
paul
jenn
windows
curr
airport
graduation
french
annoying
copy
appreciate
exactly
fantastic
jonasbrothers
!?
:-
cd
eh
etc
jul
kate
loo
random
sna
vi
vot
wit
wall
wine
##rie
##iot
##uc
##mith
bell
##urt
##ield
heat
imag
homework
taken
trou
scared
desk
messages
studying
closed
chinese
website
dh
dat
jord
kiss
rich
sell
yr
##te
##_m
##24
##14
##outh
##ona
shes
##sey
##illi
##rock
##umb
mod
death
progr
##emp
swim
swine
road
sunb
.......
keeps
stress
dougie
revision
spending
july
extra
product
gutted
group
stomach
clothes
creat
dro
gf
hat
honey
lat
mich
nik
norm
ol
ow
pie
ten
voice
wer
##eat
##nat
##under
##cer
##89
##86
##archie
##oto
memor
shout
##unny
front
note
##asty
conne
rainy
##ments
???????
service
recomm
camp
burnt
brain
official
taylor
tummy
wolver
tuesday
recommend
21
cert
case
ir
mal
mig
mix
pen
si
um
##hi
##hoo
##red
##rknight
##af
##_k
##_c
##den
##wift
##**
##erg
##ita
##uth
##icle
isnt
shot
shut
##illa
##unes
anim
gettin
sus
spot
##mmm
prob
##board
smell
exciting
ticket
wednes
decided
eye
##cakes
chicken
disappointed
jonathanrknight
future
wolverine
24
ban
cher
det
holl
jan
mcfly
sis
tan
##rd
##let
##jon
tor
##eni
incl
##cked
##idge
share
##alia
wash
worked
feelin
spell
brand
##www
##berg
bitch
headed
##gging
##phy
lets
crash
enjoyed
street
double
south
taylors
xoxo
hospital
machine
aff
dent
egg
fre
fill
hoo
mat
pos
ring
yup
##hol
##new
##back
##ze
##wr
##wa
##well
##25
##ering
##ator
##arn
##arm
##eap
##ism
##iced
insp
form
##ami
fresh
doll
recover
sum
neigh
##ific
##ssss
calling
##ensive
killing
indeed
james
##music
brothers
wearing
milk
congrat
michael
honest
public
proper
success
##wift13
wednesday
taylorswift13
neighb
!)
45
books
caught
eur
hee
hrs
jump
rach
##har
##tain
##ae
##yn
##ien
##ux
##83
##vent
itunes
incr
stor
twee
##eless
##loc
##earch
takes
legs
screw
!!!!!!!!
apps
glass
starb
##eeeee
tex
favour
videos
return
hands
review
problems
davidarchie
soul
bummed
greg
##incess
giving
angel
cousin
exhausted
##frog
17
:'
bal
cried
hm
jk
lm
mate
pig
row
ug
yall
##ye
##vis
##vious
##nin
##ule
##mber
##cat
##jor
##bers
##wind
##atic
##east
##eno
##rey
loc
door
rece
neck
somewhere
spam
bright
code
usual
##ago
##ggest
mary
moved
##aces
direct
deser
sending
miles
bummer
puppy
jeff
stopped
doctor
currently
trouble
ble
bath
fit
hay
hist
health
mer
mart
mist
sand
sense
tm
##room
##aly
##ged
##vi
##nie
##cake
##bby
##word
##26
##ony
##ites
state
##ides
lose
##ado
##ady
gosh
lie
##illion
cancell
suggest
goodbye
##rib
import
##cted
##logy
nights
waking
hero
##angel
followfriday
##0000
calls
##xxxx
interview
disney
ended
access
rocks
singing
info
dunno
question
freakin
certain
b4
bee
cas
cell
cats
emm
epic
gay
games
hook
josh
krist
peeps
yah
##head
##iest
##life
##85
##bee
##boo
##fy
##weet
##08
##ining
##ints
##itter
##arious
hav
##isd
##eted
andrew
##cha
social
ant
sugar
##cel
max
##abb
anyways
clou
tru
manag
queen
scary
flowers
earth
##ption
##eeeeee
cheer
##pend
##ground
accident
##ibly
install
failed
paid
learning
fixed
spring
lauren
ryan
experience
germany
congratul
ahaha
bk
bow
bac
ess
five
fever
gas
gorge
il
jes
mas
nan
pal
six
treat
##here
##rad
##ex
##iam
##mart
##light
##_p
##_j
tha
##ena
##icy
##icks
gold
nobody
alot
brought
##oooooo
conta
showing
sched
trail
others
thoughts
##baby
##arely
suppose
fml
lessons
contin
window
packing
tonite
ashley
expensive
loads
straight
dougiemcfly
starbucks
favourite
gorgeous
2mor
5j
austr
bc
bother
breat
cent
fol
gun
ign
king
kay
match
pm
race
sil
silly
val
##how
##vs
##use
##cut
##dr
##dney
##za
##zer
##ween
##((
thunder
topic
##oring
mex
##ades
butter
##ief
freaking
doin
dogs
##ros
awful
##anda
speak
space
brad
dem
degr
follower
.........
host
kidding
passed
blackberry
grandma
drag
##bury
gener
imagine
dentist
history
cancelled
important
contact
,,
22
aha
bat
bak
gab
hes
mouth
nd
ori
rip
sir
tar
tab
uh
wif
xo
yfrog
##rore
##eb
##i_
##ij
##lu
##_h
##27
##05
##17
##ored
##itting
##omas
##stem
##ices
storm
shoot
##ural
##alk
frank
worried
ref
allow
##acking
##ila
major
##ours
coz
between
click
mont
cheers
dancing
strong
##wards
##attle
classes
mums
teacher
killed
planning
across
retrore
eric
msn
darn
nyc
dying
north
vacation
priv
entire
brian
sunburn
congratulations
retrorewind
ber
bang
dnt
ga
gross
geek
ily
iron
jour
ken
nk
ni
nam
nah
sig
seni
wild
##ped
##ost
##ml
##mas
##lee
##bt
##16
##ination
hall
##icted
stat
shift
##alc
##ung
atm
twice
cho
##raid
amy
thanx
mag
feed
anytime
blast
blah
grrr
const
##ubb
usa
##empt
couldnt
##ational
afraid
##shi
cru
become
helping
##itchen
awwww
daddy
deliver
kelly
surg
simple
theres
market
jimmy
chicago
losing
hilarious
program
incred
80
bon
dry
jb
ng
nom
poo
ven
wk
##hy
##aur
##ging
##van
##cap
##87
##jam
##jack
##bra
##ari
onto
##chy
##reme
##lyn
chap
##haw
##ili
##thew
asking
asked
knee
##ands
##ums
somebody
background
offer
ages
twittering
everyday
momma
sale
blow
scott
##xxx
##heart
##iva
thru
bird
##cret
##deck
##aaaaaaaa
steve
buying
charl
personal
scream
jenny
##123
##ivers
invite
confused
interested
draw
nearly
finger
buddy
country
empty
pissed
normal
ugly
australia
".
2nite
90
:]
aaa
cast
east
les
lead
lang
ros
sem
session
vict
yess
##pro
##han
##good
##sk
##may
##_w
##_x
##95
##fo
##fort
##04
##ini
##ergy
toast
myloc
##iddy
likes
##ility
##roll
mall
##aine
kno
##ume
expl
anybody
however
demi
sort
##ubs
scar
unl
ador
daily
build
mins
craving
##queen
holy
skin
checked
clear
coun
delicious
report
turned
ladies
court
terrible
cooking
falling
system
article
katie
uploaded
color
tumbl
heaven
women
possible
bottle
crossed
??????
##ography
:'(
surgery
!"
),
00
3d
3rd
5z
aug
ci
cow
cough
dc
dom
dut
kitchen
lind
west
##hal
##ray
##gi
##nel
##sl
##und
##mom
##miss
##84
##fire
##01
##x3
tooth
##ese
##itive
##stack
##ico
island
often
style
sher
##imp
noticed
canada
chem
##one60
sushi
comed
##enty
##haps
nowhere
##antly
amber
##using
knows
excell
span
depress
everywhere
arm
area
argh
joke
##ggy
##gged
unless
##ship
##photo
maria
!!!!!!!!!!!!
##play
flat
##athon
dammit
bug
smart
##ival
keeping
##ashion
telling
perhaps
lately
##nnn
step
turns
hehehe
sydney
catching
avail
thereal
grey
blocked
training
##guy
##ippines
fabulous
woman
ordered
philippines
sharing
teeth
bloody
respond
practice
productive
gfalc
tumblr
##one601
gfalcone601
&&
333
aly
ace
age
bes
barely
cash
fest
hus
ja
jap
ko
lor
lem
loud
noooo
pin
tit
tatt
woot
yell
##kr
##kid
##hs
##oon
##ror
##iy
##ias
##ians
##nal
##ua
##ugs
##cess
##bell
##ders
##fit
##wich
##15
##ative
##ayy
##enter
##chick
##cks
soft
sha
lif
lives
lived
##ury
button
frustr
washing
tweeps
cheap
suff
sudd
outta
##ilt
##iles
##roy
##rol
alco
mornin
knight
awe
timberlake
press
slight
##rown
blessed
convers
##wwww
followed
##udge
trad
rofl
##sss
quiz
babys
##ived
##brary
hotel
strange
##zzzz
putting
sweetie
##uuuu
sooooo
cookies
soup
##attery
picked
figured
2009
studio
children
consider
request
latest
weren
private
excellent
sudden
alcohol
ak
aim
bf
bub
boss
coo
cud
cass
deep
est
fashion
las
mm
master
nasty
ohhh
oops
rice
ss
ul
vir
wet
wide
##hor
##house
##oa
##ove
##ring
##ez
##mic
##mag
##_g
##_n
##bro
##99
##face
##wl
##ero
theat
hah
##isa
##ically
##char
meg
begin
loss
shel
##omez
library
##imb
ank
wasnt
cha
chi
##hall
##ils
nose
##tttt
plz
places
awh
misses
##ulu
breaking
print
deb
depressed
tax
ground
##ango
sever
swear
shouldn
tweetdeck
flash
becom
bull
lakers
mini
finding
hugh
##iii
compet
stream
board
perfor
situ
messed
painting
delay
assign
attack
lesson
scratch
midnight
calif
##ornia
emails
##marie
surprise
arrived
american
apartment
memories
afford
allowed
adorable
august
60
:|
?"
bunny
du
eb
hill
lam
lake
nut
obs
rom
ren
tear
tip
tix
##pot
##oe
##tra
##gue
##val
##sup
##fox
##wise
##ware
##76
##-)
thn
##ern
toy
##ouch
##ani
##edic
##otb
##ises
##ety
stri
bey
##add
shake
shining
##irty
anna
workin
##rah
alarm
##uses
magic
donn
knock
##ished
##icked
##allen
bru
fault
org
energy
##ify
coast
drop
dread
lookin
##itten
tree
secret
cars
rose
level
##izzy
marc
flor
girlfriend
dawn
smh
crappy
teach
added
keys
holidays
attend
setting
fancy
type
macbook
learned
##oooooooooooooooo
closing
##____
laughing
lights
joined
##airs
evil
fighting
fourth
floor
##natural
includ
deserve
performan
california
000
ay
ain
ache
bio
battery
ce
der
dish
dub
esp
father
gal
gro
gear
ht
lou
lord
mir
mount
pam
poop
rac
sym
tur
taste
ut
umm
wood
wii
yog
##po
##hin
##gins
##upp
##men
##_r
##jr
##que
##ban
##bed
##bel
##books
##07
##79
third
##nding
##aron
##etch
##ida
bear
shoo
lim
##ality
##verse
notice
sux
##iling
gotten
##loy
watchin
jobs
finals
##ups
##007
##gger
##gggg
marathon
##rrr
action
##ivity
##brad
helps
mondays
series
happening
hangover
kevin
ahead
ideas
juice
slowly
extreme
##host
miser
straw
hyper
pleasure
distract
!!!!!!!
issues
##illiams
dropped
piece
##jonas
inspir
received
essay
schedule
folks
origin
available
husband
",
::
bay
base
cust
cir
dest
econ
hr
hd
jp
mand
os
oct
tg
tat
table
waste
xbox
yeh
zomb
##kat
##kut
##kins
##hay
##right
##eg
##y_
##vous
##iu
##ipping
##ipped
##n1
##mind
##cs
##cra
##js
##just
##dies
##zing
##fs
##form
##win
##32
##74
toe
tough
##ora
##ores
##lla
##eech
##ndry
##ooth
##omy
##stre
youre
##isc
##leigh
whoo
##aming
golf
##lds
wend
##iem
angry
within
heh
heather
challen
reach
##ental
##ryan
##rob
##raine
amand
##asted
impress
impressed
##lock
##ults
speed
price
depend
##ucky
twitters
everytime
arr
cla
trust
##ists
##000
flick
sucked
born
crack
crush
realize
daniel
stressed
emily
talkin
clock
given
?!?!
mostly
addicted
doubt
woohoo
##carter
iamd
frenchie
ruined
peter
commun
reminds
mommies
england
##ique
desktop
richard
sandwich
truly
managed
theatre
!..
!...
**
09
;-)
^^
az
auss
aunt
bs
bones
cab
cine
dumb
fem
gh
gah
ghost
hid
jun
kir
kirst
kitty
mile
nin
nig
oce
oper
pix
push
pants
raw
sist
vs
x2
##ping
##off
##ran
##gers
##ych
##82
##jb
##jay
##bn
##di
##down
##fg
##ford
##williams
##69
##65
##erc
##ities
##oomy
ham
##otion
##isy
##ution
##enag
##ids
shan
shann
shots
##sel
butt
heyy
chuck
regr
pls
imma
awards
abt
wanting
##ffff
speaking
bread
hows
princess
deck
fave
fake
arms
blame
grr
##ifts
drinks
badly
seattle
quote
lex
##ahl
uni
uncle
player
##onds
idiot
channel
release
##dddd
plane
pair
laundry
remembered
unfollow
decide
diffic
promise
sims
##elearn
tons
episodes
paying
christian
##eased
insane
downloaded
nicole
annoyed
based
chineselearn
presentation
entertain
connect
cherry
properly
bacon
montana
depressing
tattoo
performance
iamdiddy
bre
bound
booo
bunch
cc
feat
ic
ilove
jr
kell
lee
liter
leno
mp
meal
mik
nooo
nails
odd
pill
rh
ree
sg
vol
ye
yrs
##pet
##pen
##pol
##hil
##res
##rick
##rup
##gest
##vr
##sa
##mad
##cas
##core
##_t
##bow
##des
##zil
##fic
##war
##with
##xy
##42
##72
##inting
tony
tong
##anne
##atar
##esy
##stal
##child
soph
##ustin
##iller
##vert
fridays
heck
tweep
chr
subs
comfort
##rain
makin
##abe
mode
spin
sport
brows
##morning
arch
hasn
dressed
pod
##emy
theme
carol
que
##izing
adam
awesom
appear
gloomy
buff
buzz
launch
hurry
discover
##fresh
famous
##ensen
finishing
fuckin
talked
##blue
research
address
paint
deleted
booked
charac
planned
updating
edit
cali
cards
collect
media
##iction
seconds
selenag
muff
digital
replace
surprising
mrskut
football
##world
celebrate
celebrating
elect
motiv
obvious
honestly
cloudy
victor
comedy
spanish
conversation
several
difficult
tongue
selenagomez
mrskutcher
33
bff
ew
fool
iv
jt
jtim
ka
ki
ker
mt
mur
mtv
nl
oo
ohhhh
sin
tis
tut
tiff
ustre
wx
wra
yu
york
##run
##rop
##gra
##ius
##sm
##mark
##cou
##cott
##bish
##bour
##bug
##dra
##dog
##zen
##90
##fm
##29
thomas
##err
##orious
##ances
thes
##lll
##eness
station
states
mem
##lynn
##amps
goss
##pper
##erez
anth
twist
candy
choice
remo
alas
alive
##ushing
##issy
happiness
somehow
##loves
knowing
##icky
##ules
exist
spl
brook
britt
##eets
wave
philly
drama
points
##ista
friendly
robert
quit
##ggie
weekends
##show
appoint
diet
wrote
stars
##pres
........
amazon
posting
accord
snow
respect
##hhhhhhhh
photosh
teaching
cleaned
prefer
painful
winter
kept
accept
announ
updated
attempt
cafe
revise
grade
invol
avatar
medic
##laur
laying
student
effect
ruby
possibly
questions
nerd
nervous
britains
america
stephen
oooh
discuss
swimming
positive
screwed
texas
local
trailer
continue
senior
status
lemon
becoming
beyond
original
custom
frenchieb
literally
jtimberlake
"...
23
35
ach
ale
ari
aka
bi
bah
cro
core
cav
center
dee
dum
dirty
ec
fi
fox
gir
kr
lin
lack
links
mee
mandy
noo
oz
opp
oooo
rp
ray
ram
river
tun
txt
tears
tips
va
vet
##kd
##k9
##kar
##hr
##ht
##hrs
##ov
##ral
##ao
##aff
##gen
##yr
##ium
##ni
##some
##uj
##cd
##cent
##_o
##ji
##jen
##jones
##bon
##but
##ben
##die
##zi
##92
##fc
##fish
##wal
##wars
##xo
##44
##78
##ouston
##ano
##online
##sth
havin
infect
stock
lies
lime
limit
##usting
##ali
anx
reco
main
##aby
##ument
##loss
spark
spider
speech
anywhere
devel
slee
##ella
##ounds
army
gray
##ape
coach
clar
climb
against
##ipe
truth
adv
advice
tweetphoto
married
appro
urgh
cred
creep
parts
starving
starwars
##ciety
hurting
biggest
realised
##from
parking
##aked
##hahahaha
snugg
results
recently
walmart
camer
contest
##bbie
simon
brazil
grace
confir
closer
network
##john
##aaaay
easier
comments
uploading
spread
miami
polit
keyboard
techno
bottom
popular
fully
pulled
atleast
expected
error
spoil
##know
dannywood
burned
issue
nikk
migraine
2moro
building
counting
japan
slightly
babysitting
shooting
miserable
baseball
tgif
ocean
regret
according
!?!
(@
***
ally
aaron
bt
cig
dust
et
eww
fear
foc
gee
jere
jud
mouse
million
nh
nood
nathan
nooooo
oven
pad
pour
pages
sf
sow
search
ti
tight
wy
wicked
yer
##pes
##hen
##olog
##rw
##rea
##ges
##uv
##uit
##ued
##uct
##mat
##mel
##mins
##city
##bd
##bre
##del
##zs
##fin
##fry
##field
##wy
##45
##66
##,,
##inger
##anut
##oose
##stone
iti
##eaks
##eta
##asha
##ashing
##cky
log
##aded
shir
liver
liking
##illed
weight
##oph
cancer
chest
chips
reun
neither
upgr
comin
allerg
##happy
##rose
alter
plant
above
##!!!
known
##ardash
##ffy
##alley
spir
brings
##olf
orange
saving
blank
tag
phys
cond
drum
cloud
client
##berries
##istic
sele
sept
##pical
swe
switch
robl
##azine
quality
tweeted
tweetie
##aches
appl
sometime
cris
ears
##athy
smooth
bigger
reality
hole
otherwise
hardly
excuse
danie
hella
blogs
hearing
forgive
haircut
posts
couch
##away
partying
freezing
classic
desp
supernatural
adding
soooooo
indian
handle
attention
cutting
erin
cakes
files
##izzle
sara
visiting
##kkkk
packed
meliss
##uketic
laughed
fellow
changing
praying
rule
chatting
audio
replied
mcd
hollyoa
jerry
doctors
laws
massive
roomm
large
voting
voted
jordan
details
hollie
europe
glasses
texting
mistake
jesus
gunna
##mayer
awhile
delayed
florida
including
aussie
obviously
gossip
recogn
robluketic
hollyoaks
.!
07
28
29
27
26
55
bills
cs
cer
cable
cult
dow
diss
drew
eight
equ
fir
field
gm
goooo
hills
jj
jew
kw
lon
lic
mult
ness
nuts
option
pee
pit
rite
rude
ross
sab
sour
ts
temp
wil
wire
##pan
##part
##pool
##hip
##rich
##god
##ebb
##yd
##now
##sing
##ui
##mers
##li
##lan
##cmayer
##_carter
##jess
##jab
##bu
##bird
##blog
##dam
##dig
##02
##xs
##ered
tow
todd
##ati
##itor
haw
item
##each
##iser
##etcher
##icip
ish
whis
whore
##ckey
stage
meh
bein
socc
lock
lily
##sex
##alo
##ala
##alian
##ppin
fri
notes
chees
chels
sup
neg
goodness
workout
##rage
plenty
aswell
##ably
awsome
##ander
mission
##ollen
dece
gud
twitterland
organ
##earching
blond
greatest
grrrrr
##aps
cock
jose
user
clue
waitin
sweat
peanut
whoa
quot
scot
scri
##ggg
bedtime
besties
##acey
glorious
rains
div
babies
##ode
acting
##ashed
##ullen
server
runs
##babe
released
total
##iewahl
boot
dads
##uuu
##ossible
charger
retweet
editing
content
msg
chilling
complain
typical
cookie
johncmayer
woop
##????????
spec
meds
nick_carter
prayers
danger
humid
geor
mmmm
natal
jessic
regular
effort
skype
surprised
mikey
arrive
subway
panic
covered
square
mamas
motor
smoking
##2009
kisses
michelle
shoutout
irish
recovering
rachel
healthy
##words
suggestions
##00000000
##isdom
bothered
breathe
mexican
degrees
wifi
nkotb
incredible
chapter
mariah
besides
bubble
competition
situation
donniewahl
extremely
cinema
subscri
develop
jeremy
allergies
##ebbstack
donniewahlberg
$$
'.
//
31
300
48
4am
500
99
9am
aa
aid
biz
boom
cu
cre
cel
corn
ds
doo
dick
dud
emo
gin
gall
gives
hood
hulu
ik
ie
jac
kel
kris
len
nj
noooooooo
nurs
opt
owe
pra
path
pump
perez
rs
ron
rough
sd
sens
sett
size
tin
tas
tir
tast
tig
tem
tenn
virt
wasted
zoo
zach
##ku
##oen
##rin
##reed
##real
##tar
##ture
##aj
##gm
##gee
##great
##iea
##iod
##ns
##nor
##nam
##ners
##uel
##lam
##lie
##like
##lady
##cam
##cook
##81
##jan
##bit
##bot
##bunny
##don
##fi
##wi
##ws
##wil
##31
##71
##75
##erence
##ington
##oust
##orter
##anc
##anie
##anth
##anny
##oned
##onse
##eem
##arr
##oman
##otic
##vey
##eaut
##isha
myst
##enrie
fort
fore
force
whit
staff
beans
##ament
shad
shitty
lip
lizz
##sell
##ppers
wel
##iece
##ims
##imited
worries
twpp
chas
champ
reh
repe
suit
neph
comb
commer
goodmorning
outfit
##hah
nove
##antic
##ttt
##usion
magn
##ained
tool
asap
##uma
##lover
brilli
hadn
##mmensen
wah
funer
guest
sav
saved
arg
bla
phones
gr8
process
joey
beta
##iph
swift
swollen
roast
heads
science
admit
sunbur
##tsk
thankful
applic
letting
url
##bob
##princess
surely
##ivine
yayy
##break
hockey
idol
tele
helped
birds
##anknight
##iano
listened
paris
ending
fucked
checking
belong
##cream
accom
sneez
?!?
stayed
rocking
##aaaaa
##fletcher
contract
hopes
revising
films
burr
simp
metal
invited
avoid
##boys
psych
##clemmensen
inform
##chester
denver
kicked
polar
heavy
impossible
rubbish
##---
transl
cousins
andyclemmensen
mommas
auto
massage
solange
spoke
talented
garage
purple
jordanknight
selling
model
animal
spelling
eggs
matthew
##news
successful
neighbors
stories
tweeters
!!!!!!!!!
lmfa
bathroom
##ribly
certainly
yahoo
##isdale
clouds
golden
2morrow
mexico
degree
general
journey
named
incredibly
langu
ebay
thnx
female
appointment
cavs
infection
nephew
sunburnt
apt
austin
bast
bul
buck
brew
bump
cnt
cub
curl
dork
dizzy
eth
f1
fif
hq
hind
jake
ky
kry
kyle
lul
looo
mn
mow
mim
mud
mater
nz
oil
py
rot
rave
rush
sr
sau
tes
ted
tam
und
ummm
viv
vista
valley
ways
wisdom
yard
##py
##hod
##old
##vie
##ients
##nia
##sen
##mb
##mike
##cor
##can
##cul
##cool
##cery
##cia
##cord
##_me
##jac
##bh
##bi
##bie
##bear
##brown
##dest
##dave
##zie
##zzy
##94
##91
##food
##fel
##west
##28
##03
##06
##35
##63
##inson
tht
##erie
##an_
##lle
##nds
##eday
hal
hack
##ota
##etty
##ening
##ency
##ences
##iculous
...)
##lew
whew
stack
steak
##iders
belly
socks
##adam
ship
shiny
##urse
##urance
##una
##uns
##iment
fridge
cance
refer
comfy
##ilty
nov
ali
likely
##riff
##ateful
##abel
twitt
##los
knowled
brown
##mme
prot
agent
##ellem
##aah
bleed
taco
gree
provid
pock
usb
wonders
truck
seat
##aga
manage
nicely
swee
swed
role
headaches
score
adop
advent
suns
##becc
thankyou
letter
partner
minus
craz
hoor
hott
tells
bob
broad
embar
##iki
perform
period
blogging
driver
##awa
##bled
##black
snip
sites
##ddd
awwwww
##who
##what
mummy
beauty
rocked
previous
##ava
trending
hangin
##otten
acad
restaur
lucy
attemp
hitting
hmmmm
horror
term
termin
##sweet
unfair
burning
curious
xxxx
opening
testing
escap
grab
conference
juicy
micro
difference
##yyyyy
signed
ps3
christmas
##fficial
karen
giant
human
flying
downloading
numbers
salt
captain
##web
empire
audition
replies
impro
wolf
##ounge
jersey
transfer
pancakes
##nicole
potato
riding
##street
##iiiiiiii
response
events
smoke
jennif
loose
bella
##onalds
camping
crashed
hooked
central
signing
unlimited
dutch
alyss
festival
title
ankle
grocery
html
turning
circ
sisters
shannon
sports
anthony
roommate
soccer
november
!.
))
05
5th
6th
70
>.
aj
cad
crow
cries
dates
dedic
ee
eu
fy
fal
ftw
hw
houston
iw
js
jd
jet
kl
lan
lines
md
moo
ment
meeee
mister
pau
pity
pens
pitch
pork
rent
rus
rout
rick
rap
sass
tune
una
uber
wen
weak
woss
~~
##pal
##pos
##patt
##ket
##kies
##kardash
##hm
##ok
##ology
##rid
##read
##akes
##gb
##gon
##yp
##vt
##vee
##name
##nik
##mr
##met
##mich
##mary
##maine
##luck
##cin
##cup
##case
##jp
##bag
##dri
##dia
##zilla
##fab
##fol
##fty
##49
##inst
threw
tooo
toys
##ingo
##anch
##ata
theater
theory
##oning
##onica
##ndivine
##edge
italian
##eah
##isher
##ether
##ened
##enson
ing
##chi
##chool
##chris
whether
stal
steel
solo
loll
locked
##amer
##amed
##amore
shud
goal
liz
##iron
##ppus
##imo
fred
france
nothin
wore
cancel
choose
neil
##ential
..!
##esss
##ilo
##anta
alp
##riage
##outs
timing
##andra
##arts
missx
lolz
mos
exerc
bron
##oles
dean
demo
agreed
##oyt
funn
guilty
faith
faces
##aaay
saf
grateful
##aper
drank
##ement
clip
##iper
##istry
##agr
sway
rove
scare
united
univers
unhappy
##mac
##shirt
adore
someday
##beat
schools
appt
picnic
##moore
hiya
rained
lawn
smiling
beast
omfg
feelings
trace
strugg
boat
boston
emotion
##zzz
##hahaha
##aws
##ierd
sniff
##tones
hunting
photography
##white
30am
30pm
woken
##lando
##etti
prep
walked
dreaming
surv
doug
cait
computers
horse
##conne
jamie
david_h
jenna
windy
decision
apolog
concer
goood
syn
grandpa
tommor
touring
picking
##monday
blocks
dye
salad
mmmmm
correct
employ
##kyo
appreciated
standing
balls
sharon
jerk
viewing
##ughesy
##works
ridiculous
errands
ellen
growing
##innam
fold
##steph
snap
viol
dhughesy
connection
include
freering
ringtones
neighbor
bowl
palm
ignore
topics
constantly
cruise
marketing
charlie
drawing
tradition
mountain
utter
strawberries
destroy
octo
wendy
challenge
depends
community
hiding
podcast
surprisingly
##bourne
twisted
technology
##knowles
reunion
despite
downt
december
script
pathetic
##oenix
rehears
brilliant
solangeknowles
canceled
knowledge
snipurl
david_henrie
freeringring
->
.)
/?
08
=]
?)
apr
aye
bin
bot
bun
bbl
bomb
ct
cit
cind
db
duck
foo
fed
fur
ftsk
gg
gil
geez
gifts
hen
heal
hating
ian
jill
jak
jail
jazz
kk
kh
kas
kitt
kore
kayl
lounge
ml
mut
mill
mang
mia
mcc
mcr
naw
nail
naked
oy
od
ox
pant
pure
punch
pills
rat
rum
sight
sry
td
tink
tub
turt
tempt
ub
vine
voc
wings
yas
yipp
##pn
##park
##kay
##hu
##hun
##him
##oz
##oons
##ointing
##round
##tila
##vv
##iya
##nl
##sy
##sb
##sed
##sav
##uy
##uum
##mine
##cu
##cot
##cre
##cos
##80
##_f
##ju
##jee
##jud
##junk
##bal
##bles
##dc
##fest
##fied
##will
##100
##73
##68
thor
##anks
##anoid
##oni
##eesh
##eezy
##arian
##omo
##edia
##sty
##store
##stairs
hai
hamm
##vet
##vell
##eag
##icles
inj
##ched
forum
##rep
##rell
stun
mell
##idy
soap
society
lover
logo
shr
shau
shared
##urb
##alog
##imin
heid
held
##hern
cand
canucks
chip
china
refu
recept
supr
noes
##raz
plain
amb
morris
donnie
##rik
image
##ctor
todays
abby
##eline
backstreet
##igan
##igirl
##ffe
##ula
##uled
thinkin
nighty
spain
##oliver
whenever
twitterverse
every1
moments
blink
blind
phew
grass
##ified
pros
conv
poker
finale
tomorow
yeahh
trade
##aged
monica
makeup
swing
carl
carry
bitter
tryin
quin
##izab
leaves
##shit
##shop
advert
peoples
mars
marriage
##acy
##aced
##moon
##perate
##soft
urban
borrow
became
glas
daisy
diam
wrk
bugs
laid
sms
smack
craig
crawl
##quet
older
trips
disg
kidd
luckily
harder
##freak
##green
pretend
##ika
paramore
paranoid
ughh
ughhh
gods
skip
##bling
snack
sundays
hung
resist
##iewebbstack
##nnnn
prepar
keith
charge
charged
annivers
india
educ
control
cutie
tyler
jamie_
terry
terri
##ugal
shortly
graph
grandpar
invest
2010
definately
##medi
##carey
darren
gregg
tomfel
katy
profession
jeans
bands
karma
insurance
sales
graduate
cupcakes
corner
basically
cyrus
register
140
police
daughters
maths
subject
technic
firefox
holding
autom
hahahahaha
recording
loser
models
created
creative
drove
pieces
memory
officialtila
animals
suspect
smells
filling
souljab
martin
bowling
breath
bradiewebbstack
.............
baked
kenny
seniors
magazine
constant
delivery
duty
yellow
frustrated
cuddle
ultim
virus
beginning
assignment
obsessed
dreading
dishes
dublin
##bradbury
economy
claire
kirk
pillow
comfortable
motivation
victoria
brittany
photoshop
credit
starwarsday
noodles
liverpool
spirit
blogspot
mcdonalds
cereal
mariahcarey
dudes
nursing
commercial
funeral
burrito
simply
pocket
fyi
wossy
##ndiviney
##oytellem
shaundiviney
anniversary
grandparents
tomfelton
souljaboytellem
5k
5am
6am
7am
8th
:@
=/
aun
aqu
aaaaa
bm
bust
bry
bass
boun
bamb
cate
cart
crew
cubs
dor
dall
dies
e3
eee
ets
edd
fone
fudge
gum
glo
hide
hip
jos
jane
keen
kale
lew
lower
loop
lamb
mz
munch
nt
nu
nun
nine
national
niece
ore
pj
ping
pear
pac
punk
porn
pony
pounds
ri
ris
ric
rate
rang
rabb
sj
sized
searching
tu
vo
vent
vod
vamp
wth
wink
wats
yee
##put
##pher
##pack
##kas
##hee
##hot
##hood
##hell
##hours
##obs
##rt
##rence
##tg
##town
##gal
##gth
##geek
##vm
##iee
##nk
##nb
##mur
##mil
##mond
##mates
##made
##cow
##cers
##call
##col
##cles
##bat
##bill
##bud
##born
##dh
##dj
##dav
##98
##fon
##far
##fall
##full
##0n1
##41
##1q
##34
##36
##70
##55
##67
##inis
##inion
##inty
##inner
toes
tokyo
##anas
##onder
##itz
##itas
##oof
##ooke
##ares
##aries
##omic
##sta
##stin
##storm
##eapp
##etry
##enna
ink
##chu
##leg
##lem
##cking
##kelly
stood
stubb
bever
beats
begins
sos
##adee
##amous
shin
shak
shops
##ira
##irou
##pppp
fro
fries
fried
frost
anne
wassup
twurl
chir
reject
negle
##cep
outl
##iled
##ileen
##thy
no1
noon
##ante
##antal
amount
gots
morn
##rip
imm
imac
assh
awa
award
aband
##umbs
##ela
##elow
backup
moz
##igo
##ige
willi
willing
william
spock
##eeds
brunch
brandy
##osa
prim
waves
##aud
arent
blues
php
##ooooooo
greeting
sadness
##apore
coco
drugs
joel
jokes
wouldnt
##eme
waited
##ittin
trees
sean
##ager
manchester
monster
##ewart
rox
robb
##azing
leon
lect
scan
scene
##izon
##ggage
##phones
##anson
sayin
marks
##ples
##beck
flow
flood
flav
himself
cramps
daw
##ealand
##irsty
minor
actual
##bron
realise
lovin
lying
strang
ends
boredom
skate
drivers
musical
relation
related
hunt
##twitter
satis
singer
singapore
stops
foods
eaten
killers
useful
delete
repair
indo
indie
luggage
cale
##1974
filming
##unky
passes
password
dogbook
goose
xxxxxxx
##iverse
texted
careful
tests
##carr
package
therap
faster
pupp
##thegreat
bringing
##rrrrrrrr
##check
honor
harry
1000
2008
##!!!!!!!!!!!!!!!!
colour
budget
muse
bene
laura
humor
george
diego
ruin
robin
basket
##_benson
##paris
disappointing
quickly
pleased
fund
xoxox
bags
potter
sanct
mentioned
intro
expecting
ahhhhh
lisa
obama
##llllllll
##stein
##rocks
progress
haters
nikki
????????
penny
banana
tanning
washed
filled
heels
##harris
tweeter
reviews
hmph
bleh
tmrw
bkite
mask
contacts
wknd
##hawk
lesley
semester
courtney
##cessary
printed
grounded
assignments
##addict
bruce
limited
distracted
inspiration
impressive
entertaining
brend
feature
##rupt
tweeple
browser
carolina
character
collection
members
involved
ooooh
anxious
japanese
allyson
focus
september
sweating
recognize
wireless
##richard
tastes
tennis
accompl
sneezing
hq0n1
hooray
restaurant
downtown
reception
ultimate
.,
38
36
3am
360
4v
64
75
7th
</
=(
?!!
ack
aub
bom
bone
bby
bryan
cinnam
dv
drow
dip
dash
dull
dump
ecl
ewww
file
fuk
gem
gary
gaming
ginger
hors
ire
jc
jst
jared
kp
kg
kam
kew
lit
led
m8
mf
mw
mite
miz
nas
nash
pt
pas
pun
pil
patch
pays
pup
pier
pete
piano
rq
rou
rly
rio
russ
sink
sons
srs
tn
tx
tess
vill
vicky
wi
wand
wook
wiz
wooo
wrist
wana
xp
yucky
ze
zac
zero
zealand
##pea
##pers
##pix
##kiss
##hat
##hes
##holl
##hugh
##roo
##ream
##tastic
##gow
##gre
##gab
##gia
##ev
##yk
##vest
##ior
##nz
##nate
##sn
##say
##ucc
##uary
##md
##mcc
##lt
##len
##lim
##lest
##list
##lines
##cal
##cope
##corn
##camp
##_a_
##jour
##jirou
##bc
##bor
##biz
##bull
##bster
##dee
##dess
##93
##wolf
##woman
##210
##xa
##57
##517
##62
##inea
##inter
thumb
toss
toooo
toron
##oup
##ouise
##ories
##anic
##ature
thel
##lley
##itis
##aro
##oms
##omor
##sto
haz
##otha
itself
italy
##eting
##enz
andre
infl
..."
##asp
##rend
whee
whoop
stitch
stinks
stole
melo
member
bebo
sober
shatter
shade
##ldo
##ires
##ales
frm
frick
frig
anton
anime
##days
twi
twenty
chin
chili
chores
upon
comics
reall
##entr
##hac
##hack
..?
##thin
##thep
##thomas
##rap
##ksha
amusing
##usk
mah
##aint
tools
immedi
##ctic
awk
twitting
twitts
##arten
##umm
missy
miss_
somewhat
##ership
##onge
moi
moder
##alltim
##inda
##gend
spiders
bris
bride
bridge
##olic
##mmmm
pric
pride
prince
princ
prison
prices
dew
decl
slam
slice
wax
##ellen
function
orlando
saus
tap
##aph
coke
coding
procra
convin
converse
veget
popped
betty
##eman
finan
clients
##berts
##ipse
showed
thingy
##agn
friendster
monkey
##iao
##ysp
overcast
carr
##uper
bitches
quar
leigh
lemme
scen
afterwards
adams
mothersday
longest
mari
##eye
##aching
flip
##acity
sucky
mines
##tail
craw
##nerd
active
##ivan
thread
##ordan
teh
compared
hardest
##free
guessing
lyn
muscle
##anky
##ended
babygirl
##aki
##aker
forgotten
skills
clever
10th
shoe
shocked
musicmonday
crystal
meaning
tease
woah
addiction
##dev
##ettes
prem
pregn
##avin
killer
winner
steven
##uzzy
##otte
kev
hahahah
planet
indust
index
opinion
international
##aylor
hopeless
highly
scrubs
completed
##conrad
typing
-->
##106
##umpet
johnny
calm
texts
bbc
bb517
##marsh
pasta
melt
##iety
darling
artist
##yyyyyyyy
lightning
joining
reasons
explo
changes
unfortunat
insom
##coming
geography
cupcake
wordpress
##ugget
patrick
cyn
cycl
regard
kicking
factor
hollywood
reminder
teena
18th
younger
stoked
##untu
britney
boxes
crossing
prior
touched
americ
entry
document
bahaha
devon
mommys
costume
grown
homes
homie
engage
jasonbradbury
kimber
larry
##2001
##ograph
:-/
stressful
michigan
normally
oliv
##writer
inspired
pigs
anticip
queens
accidentally
jesse
silver
##((((
journal
rosie
explain
cowork
chemistry
amber_benson
yelled
suffering
pressure
considering
shelby
##super
strip
girlfriends
dawnrichard
settings
mountains
symp
zombie
zombies
unfollowed
##hilton
chrome
awesomeness
characters
muffins
replacement
electric
brooklyn
medicine
linux
limeice
creepy
cameron
!?!?!
pouring
upgrade
kwk9
license
##party
cheesy
chelsea
quotes
specific
gallery
ikea
settle
virtual
mystery
application
lmfao
language
material
tesco
attempting
>.<
##kardashian
##install
exercise
##connected
tommorow
april
turtle
vinegar
##junkie
glasgow
diamond
dallas
etsy
williams
eclipse
srsly
toronto
friggin
##alltimelow
convinced
pregnant
"!
"?
):
)...
-.
06
2m
4pm
8am
800
:\
ax
aver
ara
aaaa
bh
bam
bake
batt
billy
booooo
battle
cure
cac
cord
dl
df
ding
dill
dia
duh
ego
fer
fas
flew
gt
gy
gill
gent
gul
gnight
gang
grew
gnite
gaga
hp
hic
hated
ira
izz
icon
jar
junk
juss
jury
judge
kor
kan
kicks
kitten
lr
lj
lun
lys
lance
mango
mental
nc
nes
nar
nxt
nhi
nurse
oi
ooooo
occ
pp
pw
pand
pers
pine
poll
pem
pedic
pushing
rr
rc
rant
rings
ripped
rules
sv
sack
slo
sang
tp
tiss
tall
uhh
var
vel
wid
wud
wins
wives
xk
yi
zo
##pad
##pie
##pop
##pri
##pink
##power
##kf
##kee
##kit
##hw
##hel
##hem
##hib
##official
##ru
##rass
##tn
##tea
##tisdale
##aid
##aire
##ault
##got
##gir
##gun
##gory
##eva
##yo
##yan
##yles
##vp
##vl
##vol
##vation
##via
##iar
##iers
##ios
##nter
##s_
##ses
##spr
##uar
##mk
##mes
##mother
##mation
##mare
##muse
##lor
##lers
##coo
##come
##cie
##cil
##cies
##cash
##_e
##_st
##_xx
##jk
##jul
##qp
##bk
##bing
##bir
##bone
##bol
##bach
##burn
##bank
##dm
##dles
##zp
##97
##96
##wing
##wit
##wid
##0o
##0r
##xc
##38
##54
##inx
thail
thai
thumbs
##erina
##inge
##orp
##orting
##order
##anz
thee
##onic
##aya
##esign
##iters
##itude
##itions
##army
##oma
##stood
##stick
haa
hawa
youu
##.....
itouch
##ealy
##eash
##isn
##eter
##icated
inno
##ghh
##cho
##chell
##christ
##change
forums
offf
##rek
whist
stink
steal
meow
mega
##idd
beck
beard
bears
sof
##lying
lobster
##aden
##amor
##amar
shy
shine
shell
shaw
shave
shuff
shifts
##uster
##lder
##ternal
##tersex
##urbed
dayy
##aline
fry
fran
##oody
doh
dol
dod
withdra
##opo
twin
twins
cani
chatt
chase
cheek
chair
rey
refresh
rebecc
reinstall
suzy
allison
realy
reader
##ryl
##essa
##ilar
thisis
##antom
##roid
alo
alice
plug
##issa
male
maint
maps
##rig
##rix
##aining
imo
##ested
##cting
##ability
sees
ability
twits
##loved
molly
##inez
spa
brb
brent
pred
defe
debbie
slap
slower
ohmy
ohio
funky
twitterers
twitterberry
hopeful
herself
bliss
tape
groo
gram
##ousers
enth
sorted
saddest
##apr
cod
joh
joj
joint
pole
uses
usern
##empl
follows
##itted
##ittle
trent
trash
seats
separ
monitor
##nyc
##fever
overs
overall
shouldnt
whoever
##ewell
##aze
bites
headin
lebron
uns
leavin
##max
playin
adri
adult
##phot
##phere
downstairs
march
marry
##eyes
moves
##belly
flag
flower
apples
##perry
letters
crashing
littlefletcher
daft
rainbow
written
##pton
##cious
bugger
babes
smiles
coolest
helen
trains
travis
##mania
hund
dislike
helpful
damnit
##fred
lovato
warning
bobby
bros
##iko
parent
perth
kinds
remote
soundtr
##zzle
##cynic
10am
mighty
##nob
coup
drives
belie
belive
##itchard
elizab
##creen
stuffed
farewell
resc
result
resched
descri
##hhhhh
##ibility
##tweet
addict
recital
recipe
sings
##aaaaaa
coldplay
wales
kills
useless
winning
##club
##meg
charity
assist
instant
acoust
failing
annie
inde
oprah
##flies
attract
hits
laught
chilly
chilled
bars
barry
##a_guy
midday
terribly
decis
##glass
curly
curse
##annab
promised
minds
metall
wears
opened
milksha
espress
invit
##kkk
icecream
tommy
##marisa
presents
replying
##joe
##3333
jackson
##theart
honored
sentence
colin
jelly
##monster
##monkey
prayer
buddies
geoff
salon
infamous
publ
nature
students
cyber
ryans
audience
digg
guts
heaps
impal
dmv
factory
reminded
transport
gigs
rolling
britain
pulling
verizon
##ularly
##jean
experien
vancou
devast
traveling
respons
portfol
portugal
legit
legal
roof
##young
label
vids
##paul
engine
garr
purse
current
julie
randomly
votes
datab
connected
recommended
migr
mixed
susan
holla
##jonathan
brandon
position
jumping
stores
deserved
hayfever
heroes
antib
manager
installed
##radio
silent
silence
batman
target
refle
refuses
feedback
delivered
80s
venue
castle
##_xo
counter
hehehehe
frustrating
suddenly
virgin
##charl
attacked
renew
knocked
galax
louis
yoga
yogurt
##egal
whoops
impression
flickr
cabin
##bnation
##selves
##design
sophie
spinning
sinus
wrap
removed
accepted
announce
announced
effects
customer
croch
##aoke
confirmed
judd
shirts
condition
selection
dissap
jewel
items
whisper
negative
joseph
scotland
perezhilton
tiger
lizzie
welsh
fifth
sauce
protect
adventure
academy
improve
crowd
missxmarisa
safari
emotional
survive
october
citiz
korean
prosper
convince
preparing
technically
automatic
kalebnation
stubborn
therapy
aubrey
cinnamon
awkward
priceless
sausage
insomnia
thailand
hawaii
username
soundtrack
vancouver
portfolio
!:
'!
''
'..
'...
04
2am
3g
3words
47
4ever
5pm
79
7pm
:[
<<
_super
au
aer
apl
aching
ako
bg
bj
bing
bid
bol
bite
boooo
bash
cm
cw
cath
cops
dk
dur
doom
dunk
dirt
dazz
duc
ez
ft
fe
furn
fift
font
gw
g1
goooooooo
gained
hk
h1
han
hve
hater
iz
irr
iced
jl
java
kon
kil
kap
kud
kath
lah
lac
mk
mj
mck
mish
mates
nad
nause
nach
nich
names
oww
pg
pb
pd
pir
pff
pul
pets
pug
powers
rd
rer
roy
rag
rails
rarely
sic
sally
sams
sissy
sittin
tay
tad
teen
tire
tbh
tierd
ugg
vint
vog
wu
wing
wot
wut
wre
woooo
wik
wise
xmen
yeeee
##pc
##pir
##pants
##packing
##kill
##hand
##hum
##hire
##ras
##rics
##ti
##talk
##aver
##ael
##gam
##gurl
##gles
##goss
##yard
##v3
##von
##vas
##vity
##ih
##iott
##nar
##net
##nut
##see
##uous
##uits
##mell
##mia
##money
##master
##lon
##lar
##lis
##lace
##lib
##lett
##cee
##cad
##cur
##cop
##cour
##cass
##cullen
##_in
##_re
##_and
##_gr
##_the
##jer
##jew
##j106
##bm
##bay
##bes
##bid
##buck
##bies
##belle
##bears
##date
##fur
##fun
##fuck
##fah
##father
##fact
##fillion
##wm
##wan
##wee
##wed
##was
##wine
##wag
##walk
##2k
##2b
##xter
##xox
##47
##4life
##1w
##5t
##50
##53
##64
##==
##iner
##inee
##erd
##eres
##eric
##ergic
toil
##oura
##ancy
##atus
##atson
##ators
##atives
##atomy
theellen
##llen
##eece
##iton
##itos
##iture
##arin
##arah
##ario
##stor
##stell
##stats
youth
##isco
##etime
##icit
##icia
ingr
inbox
invent
input
onion
##chin
##chan
##chen
##chik
forced
##rem
##rel
##rection
whom
whil
whip
wheel
##kel
stere
stac
stung
stacey
strep
megan
##idz
##iding
##iden
##idence
beers
beating
becky
soy
loan
lolo
logic
##ading
##amin
##amas
##amber
sham
shark
shipping
gover
lied
##urdy
##alcon
##uno
##unn
##imm
fruit
!!)
ants
dope
heyyy
##opher
canad
chea
chal
chlo
reb
rez
repres
suz
necessary
upcoming
comet
comic
common
allergic
##entz
##hab
##ilee
##thon
##thes
novel
nola
##anted
##roberts
##ravel
alm
alan
plays
plastic
plants
##usive
gotcha
likey
macc
##ria
##rier
##rizz
##inky
happier
lovel
imax
asyl
##cts
##abl
##abear
##ando
##umble
##umps
misss
missin
##logger
backyard
##arded
##nington
##igner
##uleta
willy
##allow
offline
newcast
##inem
exit
exotic
nightmare
sponge
##eedom
brid
brick
breed
breast
breaks
brooke
##ola
##oln
##olar
##olis
##olen
##oso
##osis
##osen
homeless
##mma
howie_
##olley
dell
device
##morris
##morgan
##oynter
needle
guide
guilt
##rows
everyones
sac
sacr
lasts
blu
blows
tail
tags
takin
phr
phill
phase
phoenix
mornings
gran
grill
greek
granny
env
coc
probs
convo
veggie
poly
users
sleepover
clay
yeaa
##ipedia
trick
trousers
showers
##agne
##assic
##nya
##owns
overnight
sween
shoulder
cares
##aza
bits
quad
gona
##izes
##ggin
##ggies
unite
uncl
uncom
universe
leah
league
##yyjirou
bedroom
ads
adm
admin
tweetup
##anscott
marley
marvel
thankfully
##mobile
crunch
earn
partic
parties
##boi
starship
damage
##eeeeeee
lappy
laker
smiley
activity
cooler
tracy
tragic
travell
##quid
##quito
##brand
##mann
hoe
triple
##ashes
disco
thrilled
tend
##wns
excite
##frank
lyrics
strate
strand
emerg
##endo
##ension
listenin
blokes
ughhhh
kinderg
remix
reminis
##awd
##itchell
freezer
##blond
##atte
accent
snoring
farm
hungo
recession
##ettem
prec
preview
default
delight
assum
assume
surf
surround
retro
retire
retarded
failure
luvin
edin
edge
attics
contro
contrib
contempl
personally
higher
highlight
cutest
erm
filthy
barack
epiph
terrence
4ws
decent
macar
concentr
##101
##umpy
seafood
googl
##121
##anned
##venge
promo
fallen
similar
meth
grabb
inviting
confusing
##marks
president
##ronic
##gold
##ampa
##amped
colleag
melbourne
micha
artists
##yyyyyy
markho
signs
##burg
##burgh
##burger
lighter
coursework
##bai
ashamed
honour
harley
expo
forgetting
##mony
loaded
accounts
karaoke
mua
muah
##easy
angels
county
dyed
menu
nicks
numb
graduated
iamjonathan
mmmmmm
raj
raise
gardening
robpatt
capital
##ugging
##star007
answers
denny
digging
commute
standards
philos
reminding
dealing
arrival
vacuum
panera
##worth
pleasant
celebrity
veronica
##egele
##eeze
##mcn
##mcinty
##jeans
baking
landed
devil
##azzi
required
ahhhhhh
solid
solution
exhausting
costs
250
##eeeeeeeeeeeeeeee
selfish
practically
discount
##urther
data
##tech
##onald
?????????
recommendations
umbre
##aftersex
banquet
##leton
torn
torture
format
dollar
dollhouse
recovered
neighbours
returned
handsome
location
receive
spamming
blew
hayley
emma
kristen
##boots
havnt
laurenconrad
nancy
ashleytisdale
centre
ignored
butterfly
,,,
sunburned
geeky
grrrr
venus
offered
blowing
##hearts
screaming
screamed
semi
yesss
unlike
skinny
clearly
reports
colorado
heavenly
5z3
##mommy
pineapp
softball
shaun
lifes
suffer
cooper
##michael
chaos
situations
##________
##natural_
distractions
mandyyjirou
##hayes
auntie
kirstiea
opera
kellie
browsing
archuleta
discovered
muffin
motivated
tutor
tiffany
##runberg
##ropri
stephenfry
discussion
girly
anxiety
sleeep
climbing
advant
snuggle
politics
nikkib
cigar
nathanfillion
sowwy
culture
georgia
create
tiring
##eautiful
shadow
repeated
information
translation
srry
teddy
reference
management
sweden
adopt
embarrass
terminator
juicystar007
microsoft
paulo
russell
##drive
struggling
employee
traditional
rehearsal
kasey
kitties
tempted
ubuntu
injured
stunning
disgusting
greggrunberg
eddie
##cepting
mozart
greetings
basketball
dvds
ireland
kewl
village
melody
shattered
immediately
financial
crawling
babygirlparis
premier
industry
unfortunatly
americans
korea
shuffle
hundred
rescue
acoustic
decisions
espresso
impala_guy
devastated
juddday
3wordsaftersex
_supernatural_
furniture
wikipedia
theellenshow
whilst
newcastle
howie_d
emergency
hungover
epiphany
terrencej106
colleagues
markhoppus
iamjonathancook
mandyyjirouxx
kirstiealley
.@
2w
42
400
5y
600
630
88
95
9th
:"
;;
<--
?,
ai
aus
aches
asth
bou
beet
bod
bond
bare
bail
boooooooo
bible
bwa
cp
ck
cn
cere
cum
cia
cork
cupp
dp
dw
dea
dre
dere
dim
dess
dion
dare
dual
ea
eag
eps
erik
fn
fot
fion
fart
fired
ferr
further
g4
gmail
het
hud
heeee
hhaha
ist
iow
iget
ikr
icky
iantal
ji
jed
jaz
jade
ks
ku
km
kc
kle
kra
kool
kik
kyl
lg
lc
lal
lens
linc
lulu
mx
mit
meee
mraz
nou
nim
nate
nort
nint
nett
naught
nba
og
o_o
por
ped
pow
pout
pel
pong
pud
pak
pats
patter
posh
pops
panda
qld
rt
rb
rf
ror
rome
rack
rah
rash
rise
rug
riot
sq
sed
sas
sess
sant
sandy
tie
tack
tel
tang
tia
tty
tango
tisdale
tshirt
u2
uuu
vm
vit
vip
vene
volley
wes
wack
wip
wiv
weth
wealth
ys
yan
yest
yey
yuk
yaaaay
zone
zack
~*
##pd
##por
##point
##kur
##kate
##krist
##kitty
##hl
##hd
##hop
##hart
##hub
##oke
##oday
##ody
##rom
##ram
##rent
##ril
##rina
##rica
##ridge
##tots
##a4
##ald
##gad
##gur
##gate
##gel
##gets
##ec
##ej
##eer
##egr
##yer
##ying
##ygirl
##vor
##var
##vine
##iab
##iving
##iqu
##ieee
##nis
##note
##sg
##sie
##sure
##mp
##mj
##mee
##mill
##main
##mate
##mama
##mouth
##lea
##lad
##lal
##lif
##live
##lord
##lbs
##lets
##cond
##cups
##8s
##_y
##_0
##_ra
##_au
##_co
##_of
##_marie
##jv
##jar
##jordan
##qo
##qe
##best
##big
##bang
##bys
##bath
##bitch
##bane
##bomb
##dt
##dz
##dar
##dom
##dad
##dance
##zo
##zes
##fk
##fiss
##foot
##wd
##wer
##wen
##wel
##wall
##wild
##wife
##2t
##xi
##xic
##40
##1p
##3r
##5v
##61
##inar
##inic
##inos
##inity
##inthe
##info
thi
thou
threat
thirty
thirsty
##erush
tooooo
torr
towards
tootha
##orth
##orks
##oration
##anner
##anley
##atient
the_
##onna
##llike
##eeks
##eena
##eshing
##ndo
##ndar
##ooz
##omit
##omet
##edly
##stop
##stud
##stage
##stars
##style
##stewart
hairst
##othing
##otxt
##othe
##owr
##eaa
##uto
##encer
andrea
##icing
inn
inlove
...?
##ghan
##chic
##chap
isaa
forth
forest
##lev
##record
whn
##keup
stone
stell
steam
stealth
styl
sticks
stairs
stolen
meat
##iddle
bend
beha
becc
sox
##lyah
lobby
##aday
##amc
##amad
##amos
shi
shiv
shane
shamp
shape
sheesh
goat
limo
##lda
##ldn
##uro
##iro
##iring
##alf
##alan
##almer
##unshine
##imental
frame
frog
freedom
analy
justice
dos
doggy
heath
##opard
##llywood
twas
chain
chel
chile
chew
chester
refr
recy
revenge
neat
goodies
goodby
allen
reaction
##entation
outs
##ryanscott
##haa
.."
##ilton
##thr
##them
noone
##roke
alison
plate
amen
##usic
##aston
##astar
magg
donna
donuts
##rian
##rific
##aina
asp
asks
##ctose
##abelle
knox
seek
awwh
abit
##ishing
##artist
##umber
##eli
##ardo
##arde
##icki
##icket
weed
moll
##igr
##igg
##iger
##fff
##ulk
##ulg
##ulin
exited
express
exhib
exchange
external
##gebra
spit
spra
spook
brief
##oline
##olution
##opez
howd
##olla
proof
printer
pritchard
dez
slim
waaa
##ello
!!!...
##reative
##ucker
##uckle
##augh
guinea
twittered
twitterville
orb
sao
sake
sail
arie
archie
tak
takers
tacos
wished
grin
greet
grease
##ously
encou
cobra
conver
confl
concept
constr
drums
joan
joes
joking
poison
beth
woulda
##emo
##emic
##angirl
clau
clint
clare
##ipop
tramp
##istr
##istan
##isters
sequ
seven
section
##agg
##aging
tonights
##iac
themandy
##ysund
overtime
##pict
shoulda
caring
tryna
headphones
leather
legend
##ggers
unable
##makeup
##shots
ada
adap
##ansen
marie
marian
margin
margar
startrek
madness
##beats
##ccurdy
flies
##rrl
appeal
callin
somethin
##aco
##mod
bestie
girlie
sucker
##soci
##society
urself
crit
crimin
becuz
glenn
nevermind
daved
davis
sooner
wrest
##pretty
damoh
built
##atherine
##ftw
listed
lactose
smith
cheating
mint
minim
ours
hurray
##mental
actor
omj
##quin
##brush
realbill
hog
olds
trial
hugged
display
kiddo
lovee
loveeee
hellotxt
mush
muscles
prett
warped
string
brody
bush
famili
##ender
omgosh
parks
perry
percent
endless
nothings
sounded
##aka
ski
sket
skool
checkin
10pm
shock
##awr
chances
##ierce
##ierra
sweety
sweetest
##blues
stuffs
##spark
relay
relief
relative
sitter
theirs
desire
desperate
mrss
##ibu
##ibb
##ibes
supply
mumm
mumbai
superb
recent
recall
messy
rocket
premi
prejud
eatin
defo
stevie
dreambears
##cloud
okayy
##uuut
delhi
keza
bookstore
sooooooo
charles
roomies
annual
indiv
##flow
luke
eden
edward
attach
attacking
erick
caffe
horribly
##1988
##1986
compliment
complicated
filip
hearts
barcel
##a_s
---
4wk
burger
passing
passion
sarmy
blogtv
calvin
calcul
gooood
souls
##127
promote
career
milan
deadline
grandmother
showered
favorites
12th
networ
tila
melted
dragged
figuring
67hac
darry
##mingham
extend
jealousy
jacket
jackie
jackman
paycheck
tomato
signal
seasons
fixing
papers
##ussy
nicky
##bailey
##chef
ashleigh
easily
expired
chrisette
jean
selena
loading
##easing
angie
evan
naps
gemm
nicol
graduating
genius
raff
layout
##ippin
native
cape
caps
capacity
basement
studied
##111
effing
effed
audi
denial
digest
kickin
commence
heap
disappoint
blessings
pcsk
lineup
answered
rolls
subt
stopping
##ieluv
british
disturbed
fuel
dresses
stephanie
potential
rides
davey
smaller
squir
throwing
docs
##iiiii
chicks
propos
mami
require
recorded
motion
spoon
elle
elliot
elliott
matters
##cript
##uffin
##2008
fishing
jennettem
witness
wallet
imagination
roads
products
creating
latin
olive
owl
owner
notebook
recommendation
pengu
tort
spelled
affect
dolls
dollars
sumthin
##sssss
45am
jumped
soulja
balcon
piggy
brighter
blend
hayes
tmr
statement
cases
anti
maxim
ahahaha
treating
continues
straighten
ignoring
##dream
thunderstorm
dragon
generation
,,,,
22nd
bathing
tablets
##luv
clicked
berry
sigjeans
atmos
cruel
bonus
##jamin
scottr
charlies
aaaah
ciara
coughing
domest
##kidd
##bella
software
shawn
coollike
estate
ultra
##broken
ankit
##ttttt
taxi
nutty
romantic
##ifying
teachers
##oooooooooooooooooooooooooooooooo
included
biology
strawberry
inspirational
reached
sandwiches
nigga
tattoos
iloveyou
kelley
mp3
yelyah
tweeples
buffalo
buzzed
comedyqueen
kerri
##grace
thomasfiss
split
##president
photoshoot
customers
achieve
opportun
tuned
sparkly
approaching
cameras
confirmation
political
spoiled
regretting
*****
ether
##frye
alternat
blankets
drummer
selected
applied
danielle
indiana
melissa
aussiecynic
drewryanscott
gooooood
multip
##build
##damn
hawks
natalie
##0000000000000000
$$$
aiden
task
zachary
##wilson
##eauty
foreign
forecast
champion
repeat
combination
joeymcinty
polaroid
bastard
hindi
kryst
looove
python
##riffin
bleeding
sweetheart
broadband
escape
jennifalcon
alyssa
circus
)))
dedicated
false
iwonder
route
##cupcake
alpha
universal
tracey
apologies
sharonhayes
kayla
tubes
yippee
heidi
backstreetboys
quinto
education
jamie_oliver
graphic
professional
registered
aunts
category
global
lewis
pearl
rabbit
vampire
neglected
outlook
asshole
lecture
relationship
satisfied
indoors
sanctuar
introdu
accomplished
nashville
shadez
modern
brisbane
vegetarian
quarter
explode
cynth
cycling
engagement
kimberly
-.-
hiccups
pedicure
##width
coupon
elizabeth
independ
laughter
##glasses
galaxy
aubreyoday
aplusk
h1n1
kudos
nauseous
nachos
vintage
govern
unclerush
uncomfort
excitement
blokeslib
kindergarten
reminiscing
edinburgh
googled
methinks
pineapple
tutorial
##ropriate
epiphanygirl
ceremony
cuppa
iantalbot
nintendo
naughty
pattern
toothache
isaac
shampoo
refreshing
encourage
themandymoore
##ysunday
damohopo
realbillbailey
prejudice
keza34
barcelona
networking
pcsketch
jennettemccurdy
yelyahwilliams
jennifalconer
sanctuarysunday
!,
!]
',
(&
*.
*-
++
.?
.'
/-
1am
2b
2pm
2uh
32
34
3000
4wh
53
56
65
94
;(
>>
?'
__
agh
aight
aah
bd
bould
bour
bucks
busted
bicy
cj
cf
c4
ces
cus
cage
civ
crist
cba
cider
cabb
crown
dg
dood
deed
dough
dag
dms
dsl
dvr
duper
ek
ere
era
fc
fon
fias
fern
fuzzy
gp
gn
gc
gq
gb
ging
gor
gather
gurl
gps
gail
gino
gavin
hut
hous
hint
hhrs
hedge
ia
ich
ick
ivy
izzy
jee
jel
jays
jem
jav
juz
jayl
jana
jai
jinx
kt
kin
kit
kal
kent
kos
kings
khi
kiy
lh
lt
l8
leep
lick
loooo
lag
lush
lump
looooo
lacking
leeds
latte
mh
mb
mes
mun
mop
mast
mead
mash
mizz
meeeee
ns
nm
njoy
nak
nats
nina
nugg
nvr
nvm
oj
ole
oly
oha
oak
ova
owww
pon
pis
peep
pies
peek
purch
pups
pjs
rv
rit
rust
rays
rss
rik
rib
reel
ruth
rasp
sb
sank
sesh
santa
tt
tc
tid
tank
tube
tany
tara
tasty
troll
ud
ulc
vh
vast
voy
viny
viet
void
viva
ws
wks
wool
w00
witch
wango
xt
x3
yip
yooo
yaaaa
zt
zip
zune
##pb
##pat
##poo
##pies
##pace
##pose
##kp
##kc
##kb
##kad
##kim
##kra
##kia
##hk
##hill
##hong
##hard
##hig
##hope
##hew
##houston
##healy
##o3
##oor
##och
##olo
##occ
##r3
##rot
##rest
##rated
##rict
##tu
##too
##tom
##tam
##tal
##tney
##aan
##aim
##gust
##gens
##grey
##grrl
##eber
##vide
##vision
##np
##nm
##nation
##sx
##san
##set
##sher
##uf
##u2
##uer
##uing
##ught
##uzz
##mea
##mam
##mie
##moy
##mys
##mans
##mont
##mandy
##lg
##lead
##lip
##laws
##little
##cf
##cout
##card
##cure
##center
##8l
##_a
##_z
##_1
##_one
##_sh
##_man
##_tw
##_girl
##_tr
##_mcfly
##_laur
##jd
##jane
##james
##jabb
##qt
##qbee
##bet
##bry
##bil
##bass
##boom
##base
##beth
##btr
##das
##dim
##dead
##dul
##dling
##dress
##diva
##zt
##zu
##zd
##zx
##zon
##zel
##f4
##fay
##fam
##fil
##five
##wc
##wj
##wick
##watch
##wol
##wear
##wif
##wire
##2g
##010
##x_
##xj
##xie
##4h
##4u
##4d
##43
##420
##1s
##360
##7d
##5j
##59
##52
##505
##6j
thick
thous
##erv
##er_
tott
tori
tomo
tourn
tops
##ouble
##oung
##orning
##orated
##anar
##atas
##atie
##aters
thec
thesp
thecom
the_w
##once
##onym
##llc
##ayyy
##esad
##itan
##itute
##itzer
##ooms
##argh
##omer
##omed
##omen
##edith
##edown
##edaw
##stee
halo
hacked
youuu
youuuuu
youuuu
##otle
##otta
##otton
##otcom
##veland
itt
itst
itchy
itagg
##eally
##eamy
##ealf
##isis
mypict
##etnor
##encies
andr
andys
android
##ici
##icide
inc
inner
inches
##ghhh
##cht
##chas
##chuck
##chem
isp
forms
former
forbid
##lep
##lein
##leon
##leman
##asy
##asion
wha
ster
stap
mein
mend
##idel
bebe
login
logging
##ader
##adas
##adel
##adise
##adams
##amur
##amel
shw
shack
shite
shif
shipped
gov
goals
liam
liber
lift
liqu
lips
##sem
##illo
##ights
##uri
##urning
##irts
##alon
##alis
##alone
##alicious
##ppins
##unken
##veronica
##iev
##erell
##imi
##imont
fringe
!!"
anoop
anatomy
doors
dozen
notific
worn
##opes
##opus
##opia
##ophy
chil
chant
chops
chose
chai
champs
##onel
reck
remy
sue
suits
nell
nemo
combo
comcast
goodluck
##ceo
allll
alllll
##entina
##hale
workers
##thet
##thur
##thest
noe
noise
##antha
##roe
##rov
##rox
##rae
##ravis
alab
algebra
amor
amanda
##asting
morgan
maaa
maui
dong
donut
donny
##rien
##ripp
##inking
happiest
images
imjust
##este
##ests
##estar
asda
##ctive
##abi
##abs
##aboo
knw
knack
seemed
todayy
abc
twiter
##andb
##anders
##umn
##ummy
##umbling
missp
##elt
##elf
##elee
some1
##ookie
##eeping
##ongo
##naily
moan
mock
##igma
##ulation
##allday
##nts
offers
newest
newjabb
its_
nightsh
nightmar
spill
spare
spont
spree
spicy
spencer
##eedy
bran
brett
##olas
theyre
howard
devy
dexter
sla
slip
sleeee
slacking
##ells
##ucking
##aux
needa
guild
twitterb
twitterific
faire
orch
##aaah
##eared
ark
arts
heres
lasted
blur
blair
wishin
pho
phen
grim
grind
grub
grilled
greedy
ench
envy
sorting
sorta
##apa
##apat
##ifi
coat
cole
cody
prove
prolly
hasnt
conan
concr
convert
drs
drill
drunken
poke
polo
pointing
poetry
##ublic
##emin
##angs
##angle
sleepin
clone
clair
clara
clums
coulda
##wwy
yeahhh
##berto
mayhem
##xton
##itta
trop
seo
##agu
##agna
##ague
mann
manly
manual
mannnn
themake
themselves
overload
africa
sweep
sword
swallow
pend
carn
carly
careless
carpet
##ewentz
rode
rogers
robbie
quizz
lego
sci
scoo
scal
scra
##ization
##ggs
##aholic
union
unemp
unex
unique
unpacking
##maker
##sho
##shed
##shot
##sheen
##shire
playoff
tweeties
##phin
##phoenix
downside
sunsh
sunglasses
##bean
werewol
##urely
##acing
##acre
##model
bestfriend
##toad
talks
##sox
cran
cram
crust
crime
cramp
cracking
glut
glory
particip
##athe
diana
diagn
writer
yearbook
##bod
##iche
##ichelle
##cier
##cience
##prom
damm
buen
bueno
smashed
chev
##sons
actress
sickness
bea09
##heather
yayyy
##ques
##quis
##quel
##bright
##bridge
realizing
##man6
##ilyn
hobo
hoppus
hoedown
trippin
enjoyable
hotter
hot30
telly
##coffee
complex
damned
yawn
hardcore
harddrive
dane
dances
##frances
loveee
birmingham
hellen
guessed
##zyjonas
lyk
lynd
readin
mushy
##ankin
##gram
warr
warren
struct
boil
emzyjonas
##iku
parade
pero
perman
##bsessed
##bsdave
boredd
remains
serve
##aken
##akidz
jones
skl
skies
skint
cleared
hairdress
##zzi
##hahah
postp
poster
##nox
##nold
belated
##awan
chann
elvis
sweets
##bloody
snoo
snuff
##space
summers
relate
sits
sundae
poorly
foundation
hunny
resort
resume
researching
cryin
desper
desert
##hhhhhh
booth
##why
##ibi
woe
superman
superstar
messing
##fuld
rockin
colds
prevent
##avis
pains
trend
drinkin
stepped
##cliff
charming
asses
illegal
survi
accepting
retail
fails
handy
##aseer
holes
##flu
lucas
edited
edition
##girls
yumm
cuts
ernie
scree
seth
remembering
##1983
chilli
chillax
barg
##a_l
grades
teres
4wl
4w9
burgers
macquid
concern
cooker
##bbins
##108
curve
curry
curren
##alex
##aleigh
##annie
xxxxx
xxxxxx
##venue
##venient
promotion
falls
metro
method
##owski
shorts
sammy
samben
vision
visual
brave
esmee
grape
grapes
gravity
syl
linked
bankrupt
djs
##kkie
##active
confident
presence
##elect
ladybug
ava
##ballerina
perfectly
melting
dragging
medical
medium
##ockeez
670
##uko
mickey
##___
articles
payed
payday
papa
sighs
##rrrrrrr
harm
harsh
psy
100th
2000
sony
sonic
sonny
sentimental
##nedy
christina
budurl
muy
##entionally
sprink
fairy
fluffy
benjamin
##easure
dyn
dylan
dynam
##ferr
downloads
salary
raised
##licious
##yalynn
##ipper
##oopers
4jk
basic
jessie
##ugged
##force
fabric
patron
patient
cycle
petrol
petewentz
region
effin
production
audrey
auditions
cheesecake
commiss
command
appreciation
webcam
impatient
alexalltimelow
jasmine
worrying
pcd
albums
absolut
cosmic
keych
possibility
##ie_marie
arriving
arrives
projects
transform
giggles
hype
hyped
mathew
roller
rolled
vaca
vacay
moonfrye
techn
bottles
popcorn
ranch
britne
distance
prize
dresser
applec
##_skies
groups
holds
versions
##mcg
sticky
sticker
sticking
stickam
bald
bailey
fatty
vanilla
intense
integr
eleg
elev
element
##timore
##214
websites
consum
16th
author
##_louise
requiem
errr
rooting
rooms
##daisy
spoilt
tracks
peaceful
homee
labor
##eeeeeeeeeee
billion
garlic
kimkardashian
purpose
##faith
fishies
##steve
discoura
jennamad
jules
loopt
snake
vibe
walls
wallace
##iotics
troubles
##tec
..........
campus
malays
animation
suspend
probly
deter
detox
holland
january
freck
freyalynn
matty
matrix
##newetnor
recovery
sum1
michaelmag
euro
heehee
angelic
bali
baltimore
locations
necklace
spammers
fitness
mistress
mistakes
##xxxxxxxx
casey
cellphone
installing
masks
nano
nanny
5jg
guna
ignor
kayleigh
matches
valid
value
bradie
hosting
generally
ahah
gabrie
wifey
frankie
majorly
brianmcn
bangs
banging
gahh
ironing
ironic
naman
choir
jimmyfall
bonfire
dryer
##aurus
scottish
personality
90210
leslie
leading
leadership
roses
##produ
exploring
domain
##gium
##mission
depression
!!!!!!!!!!!!!!!!!!!!
!!!!!!!!!!!!!!!!!!!!!!!!!!!!
responding
3333
loren
nooooooo
##kids
lifetime
trader
##zzzzzzzz
considered
mmitchell
shelf
becomes
bullshit
nutella
romance
beyonce
bruise
dreaded
rosehw
levels
marcus
attending
pamper
pooped
symph
woods
##quez
##bradie
miserably
circle
economic
##fseth
amandap
arrange
cracked
crushed
?!?!?!
junior
ninja
operation
pushed
rawr
tonsils
icons
##casey
awesomness
appearance
discovery
ivana
kerry
murder
ohhhhh
remove
alaska
##laura
##lauren
bikes
ramen
##butter
advance
brazilian
noodle
logies
alternate
planted
physical
cloudconnected
applies
crisis
crisps
smoothie
firm
loner
##panag
##digital
locker
sweaty
complaining
##????????????????
danger_skies
humidity
efforts
motorcy
subscribe
jacob
length
nooooooooo
options
temper
##gmt
fortun
whitney
##amento
champagne
argentina
belongs
bumped
ethan
loooong
raven
vivid
##jacobs
greece
sunset
##becca
craziness
broadway
escaped
##iiiiiiiiiiiiiiii
falcon
routine
stalker
lollipop
rove1974
sniffle
prepare
concerts
concerned
utterly
footy
gilmore
vocab
heidimont
chipotle
refuse
jamie_127
.................
##daviss
leonard
stranger
calendar
puppies
benefit
horses
mwah
pierced
wizard
##pixie
##kisses
##hughes
wheels
stitches
twiiter
procrastin
lynne
regarding
coworker
sympath
average
fascin
gulpanag
pembsdave
velvet
yikes
suzyqbee
aloha
predict
debbiefletcher
enthus
separate
flags
reschedule
description
addictive
assistant
milkshake
invitation
database
antibiotics
##charlotte
crochet
automatically
bolt
fifteen
pfft
##gossip
toilet
cheaper
reboot
spongebob
sacramento
phrase
environ
unitechy
particularly
##blonde
precise
surrounded
contemplating
concentrate
robpattinson
umbrella
advantage
nikkibenz
2w5v
asthma
derek
dessert
iowa
jazzy
lincoln
sessions
volleyball
##porate
hairstyle
goodbyes
exhibition
sprained
marginatas
criminal
familiar
caffeine
filipino
chrisettefan
balcony
domestic
opportunity
joeymcintyre
independent
uncomfortable
*-*
2uhs
boulder
bicycle
nuggets
raspberry
w00t
ztnewetnor
the_wockeez
newjabbakidz
nightmares
spontane
concrete
clumsy
quizzes
unemploy
unexpect
werewolfseth
hoppusday
hairdresser
surviving
sambennington
jennamadison
suspended
michaelmagical
brianmcnugget
jimmyfallon
mmitchelldaviss
rosehwang
heidimontag
marginatasnaily
ztnewetnorb
!??
"@
'?
(?
*~
-)
.!!
/)
01
03
1m
160
2n
2night
39
3x
37
4u
44
41
4wn
5000
73
82
85
8pm
96
900
9pm
930
:*
<---
><
?...
_ch
ao
ae
ast
aust
airl
azz
aja
aaaaaaaaa
avenue
bck
bart
bead
bip
bia
beam
beeee
bens
baw
bkk
bees
boooooo
bubb
bias
cz
cin
cen
cld
cope
cau
cue
cnn
cott
cache
cds
cube
ctr
cuc
crib
cities
dt
d3
ded
dir
dah
dans
dint
dating
dooo
dandy
dubb
eg
ely
ems
eco
evid
eugh
erock
eileen
fay
fis
fought
fond
fatt
fits
feb
fetch
fiction
fusion
fierce
gk
git
gust
gim
gel
gard
gna
giv
gian
gio
gents
geee
gera
gamb
goooooo
gloss
gamer
gawd
hv
h0
hers
hips
hanson
icar
iya
iplay
jg
jy
jm
jur
jol
jub
jens
jams
jae
kd
kee
kes
ket
kand
kod
kash
kak
kav
koh
kenn
kardash
kathy
ls
lf
laa
lous
lbs
lane
lees
lars
leel
litter
luna
mg
mea
mri
msh
mii
moth
mesh
mga
miller
np
nit
nir
nks
nag
naz
nike
nipp
nai
noooooo
oll
oot
oow
oas
ott
oxt
oph
ooc
oui
pnt
pope
pound
pile
pip
pag
peak
pint
pav
pune
png
pals
peas
pimp
poynter
pwns
rn
rm
rx
rig
rul
rope
raz
rated
rare
rates
root
rental
ses
sot
sen
ske
sid
sere
sik
sets
sides
sasha
tj
tb
tent
tys
tym
tina
taught
tsk
tcot
tidy
tmobile
tampa
ui
upp
vj
von
ves
vic
vars
ww
wired
witty
wwe
wooooo
wimp
wisc
wiki
wierd
xs
xj
xdd
xvo
yt
yur
yun
yday
yuck
yays
zoe
##p3
##pee
##pit
##pain
##pond
##porter
##paper
##piper
##kh
##kt
##kg
##km
##kie
##kah
##kno
##kotb
##hv
##hon
##hit
##hur
##hate
##hey
##hooo
##hens
##hog
##hmer
##hole
##oj
##oly
##oft
##rp
##rk
##rl
##rc
##rar
##rome
##rum
##rice
##rays
##rne
##rams
##rings
##riel
##tb
##till
##tion
##tel
##tos
##ties
##take
##table
##times
##tics
##aks
##aired
##aily
##gp
##gw
##gay
##gul
##gies
##gian
##gabb
##gaming
##eld
##yj
##y2
##yx
##yed
##yst
##your
##york
##vk
##vw
##vag
##vict
##iw
##iat
##iks
##ibe
##iently
##i_b
##iots
##ija
##n_
##nan
##nom
##nib
##nuts
##ser
##sch
##sha
##says
##squ
##scott
##school
##uld
##uell
##uation
##uals
##mh
##mg
##mz
##mir
##mand
##mall
##mour
##mile
##mpic
##mah
##mazing
##muffin
##lk
##l0
##lus
##long
##lies
##lang
##lich
##leth
##lette
##laine
##cn
##c3
##cit
##cus
##coll
##cnn
##cons
##8r
##818
##808
##_v
##_an
##_id
##_al
##_day
##_th
##_el
##_mo
##_pr
##_sp
##_de
##_jo
##_boy
##_star
##_fo
##jt
##jg
##jm
##jl
##j3
##jand
##jox
##juk
##jenn
##jayy
##qa
##qn
##qf
##bz
##bf
##bw
##bx
##bin
##bad
##bus
##bound
##bak
##bike
##benn
##bloss
##baker
##buster
##brows
##dn
##dou
##dan
##dis
##duck
##dew
##doom
##dale
##zc
##zf
##zin
##zip
##z94
##zfuld
##911
##fb
##f2
##fee
##fre
##find
##follow
##font
##fits
##fair
##floy
##wp
##wv
##w9
##won
##woo
##wre
##wiss
##wart
##wau
##wide
##witty
##2s
##2c
##2d
##0u
##xh
##xr
##xe
##xl
##x4
##4j
##4b
##3d
##37
##300
##718
##5n
##58
##56
##585
##6r
##~~
##inb
##inz
##in9
##inor
##inas
##inal
##inne
##inja
thin
thts
thigh
##erin
##eron
##erve
##erry
##eros
##erous
##erealf
tok
toll
toaster
##inging
##ouz
##oro
##orld
##oria
##orne
##orary
##organ
##orange
##anor
##anco
##aty
##atb
##atal
##atine
thet
theblack
##onot
##onight
##onday
##onies
##onian
##onne
##eex
##ayay
##eson
##esome
##itate
##itals
##itivity
##oos
##oost
##ooow
##arb
##aroo
##aris
##arra
##arks
##arina
##arazzi
##omp
##oming
##omics
##eds
##edan
##eded
##edream
##stm
##sting
##stri
##state
##start
##station
##story
##stination
##stances
haun
haul
youi
yous
##oty
##oted
##otch
##owe
##owell
##vegas
ittt
##eason
##eacr
##eagle
##eallen
##is_
##ismo
##isible
##iswiss
myname
myrt
##eton
##etes
##etown
##etto
##etta
##ethe
##etravis
##utter
##ench
##enance
##enger
##icon
inrs
...!
ont
##chong
##chua
isabel
ford
foreh
ofcour
##aser
##asher
##asia
##asco
wher
whack
whos
##kell
##keys
stad
stace
stalk
stanley
meme
meghan
##idson
bev
bean
begun
beloved
sob
sod
sole
sock
soda
thati
##lywed
lold
lolll
##ads
##adu
##adays
##adryl
##adonna
##am_
##aman
##amaz
shay
shed
sheep
shhh
shuts
shades
gos
livin
##lden
##sec
##illes
##ill_boy
##ighty
##urity
##urpr
dayyyy
##irowr
##aling
##alore
##alty
##pph
##ppa
##pps
##ppie
##uny
##unna
##verly
weigh
##ieo
##iths
##imate
##imul
##imson
##imple
##imonds
frag
franc
!!...
anh
ana
analog
doggie
notting
heated
hectic
heyyyyyyyy
##oper
##hero
##hers
twebbstack
candle
chu
ches
choo
chow
chau
chore
chica
chron
chock
chains
chief
chosen
##onely
rear
reward
rechar
rebel
sul
neva
neuro
upto
##celet
alli
allah
reaching
##ented
##entone
##rys
##hai
##hach
##hair
##hagen
nowadays
##essive
##ilk
##ilver
##ilig
workshop
##there
nod
noisy
nokia
##anty
##antino
##rod
##roit
##robe
##rach
##race
##razy
##raven
alias
aloliver
##kson
plat
plot
pleeee
ama
among
amys
amster
amused
##usin
##usch
thang
##astics
mort
map
mai
maz
mahal
maggie
donation
##riot
##rial
##rigu
##rifty
lovey
imiss
##eston
asian
asada
associ
##atel
##abo
##about
##abab
##abell
##ables
knitting
awak
##ishi
##andme
##arty
##artinez
whatchu
##umar
##uments
##umdog
##umstances
misssh
missjo
##elter
##el_laur
##ooked
##loe
##logan
fees
feeding
backround
backstage
##ardi
##ickle
weee
##nap
moore
moss
mofo
mohawk
##iga
##ffin
##ffles
##ulting
##allel
evernote
offering
newsp
newbie
newborn
##inell
therefore
export
##hhe
spar
spac
spork
spelt
##eenz
brits
branch
anyhoo
anywho
##olation
hadnt
homemade
props
prada
prints
prisc
deer
depot
slut
slack
slave
sleeeeee
slumdog
hahaa
##ools
waaaaa
waaaaay
waaah
##elled
!!!..
##oyle
##auce
needing
twitterworld
twitterfon
##rowave
oral
orph
orders
everyon
....!
mucho
##earl
##kings
saga
arc
arse
arrr
artw
arsen
bloom
blades
bleach
blisters
tai
tafe
phantom
grumpy
grentone
enemy
sorcha
sadd
sadie_marie
##apers
cozy
coinc
proving
prodig
convenient
drool
drops
jodie
lookout
vegan
veggies
popping
poetic
##ubin
##ems
##anged
sleeps
cliff
clothing
waitress
followin
whyyyy
##ipt
mayer
##itto
tray
trim
treas
tricked
tricky
trisha
##istra
sep
seperate
shown
showin
##agirl
##agree
##asso
##assing
mane
manic
montr
##nys
overd
overwh
overcome
afric
##picture
swamped
pepper
carter
whose
rod
##azy
qual
quilt
quesad
wayne
leopard
scrap
scorp
weekly
##ahope
unh
uno
unpl
unint
leav
##mach
##mage
##ships
players
playlist
ado
advan
adjust
tweetstats
##phill
##phil
##phine
##phia
##ansas
##blebee
maris
marsh
marked
marina
mariam
madd
madly
madison
maddie
madrid
##plic
##place
##bec
flop
flap
flats
flashing
flippin
thanku
applying
apprent
appropriate
picks
himym
awesomely
heya
heycass
heyhey
##acious
hire
hiii
littler
##today
##todd
sucking
tales
urs
borders
crut
creek
cricket
earned
earrings
glow
glen
gloom
glued
littlemiss
dav
dale
##things
eventh
dial
divers
direction
##boards
##ichole
staring
##cio
##print
##ealer
babyy
listing
##irstin
sme
smf
smoo
smut
smashing
chef
cheery
cheated
minn
hurric
finds
##onda
crab
crabs
crafty
actors
actions
otalia
biggie
wherever
traum
traged
##quila
##bread
##breaking
##brandy
##branch
realhugh
##many
hob
hobby
trist
tripping
tripped
disk
disap
disloc
disconnected
disagree
hotness
amaze
amazin
amazed
##ordon
tehe
##coast
##cohmer
housework
kidney
compan
yao
yaay
excuses
danwar
##fran
##front
##zyg
##zy24
lynn
##grass
##grade
##group
##greece
##iance
##ianne
warn
warming
##ireland
##byn
bold
boards
brocc
emer
emil
embra
eminem
famil
##ikki
parked
parker
parody
paradise
blogger
##neck
boy_k
kindle
remeber
seren
servers
##aku
##akat
goddess
godfather
runny
runnin
skill
skim
skating
skins
hairs
##zzie
laterz
101
##nolds
dried
drizzle
below
belgium
##awh
elses
birthdays
##bler
##attack
##igned
##cru
##crumpet
snick
##spir
reli
relig
relatives
giveaway
dining
stayin
untill
##leyknight
farmer
totall
classy
classmates
reset
designer
##hhhhhhh
photogra
boob
boost
boots
boobs
##whit
##whis
supporting
dada
teasing
teased
##nnnnn
addition
recip
##deg
##ocat
rocky
rockstar
##aaaaan
##aves
painted
define
win7
##oxo
##oxy
steff
stefan
dreamt
dreamed
dreamwidth
##kenny
##clay
##claw
deli
delish
delays
keiya
booking
bookmarks
soooooooo
sooooooooo
##meh
charm
planes
placement
instr
acqu
aclock
retain
retrie
returning
##onsin
##onsense
##arker
camille
roomie
indians
handed
resting
restrict
understood
internal
hols
##flowers
lux
eddy
attitude
##nessee
##aylee
hopin
hoped
##girlie
yummm
highway
ermm
erica
laurend
lili
lilx
scram
caus
caused
causing
causes
msgs
redo
seths
horny
cameo
##1985
##1987
##1972
##1991
chillen
completing
##cont
##conn
heartless
barbs
tyr
##a_b
##a_d
##a_mil
jammin
midwest
##swx
4wt
4wc
burbank
winds
owned
##gling
##eshk
##eshow
cooked
learnt
##bbles
cursed
##ontelle
fallout
security
elsewhere
samberg
samuel
samanth
samantha
visa
##itsjess
braces
bracelet
deadlines
gracie
synd
sykes
##ofth
##ofthe
grande
invisible
djkn
20th
##apple
config
saturdays
bumblebee
##mars
presale
preschool
##??????
definition
judy
##gov
##media
ladylogan
120
123
12am
avoc
perfection
netbook
##cherry
colle
collab
melan
mediter
wakey
67swx
darth
##job
##jose
##333
microwave
##worktoad
jacked
relaxin
relaxed
relaxation
laughs
150
15th
paypal
katies
##erae
lighting
greenville
puer
puke
profess
profiles
##incinn
##aaaat
##baff
harbour
harlem
pshh
##clean
##lovegood
commentary
chriscu
chocolates
colours
##monton
spray
fairly
##eases
inspect
angus
counts
laptops
eva
evans
humans
humming
menace
##renee
##comm
##fern
misery
##kerr
absence
clubbing
geo
geoc
meetings
salvation
##602
arena
genu
infact
coraline
##ippers
strap
robot
moods
4jg
jessica
##forest
##forward
##starchild
afternoons
fighter
miiz
mikes
patio
patience
pinky
regards
registr
copies
worthless
produced
producers
celebs
denise
denied
gutter
hubs
polish
replay
replacing
committed
pizzas
##parks
standard
disappeared
alexand
alexander
sarahamur
##ounting
powerful
powerpoint
teehee
views
##obi
##obber
##----
hypn
teamcyrus
##777
exception
sleepytime
distant
disturb
fuzz
verify
verwon
##182
touching
beatwitty
atlanta
dressing
bagel
pissing
pisses
stephan
fireworks
potty
##doch
##dogg
##206
##stream
covering
coverage
apartments
squad
##ricia
##jeff
##306
thrown
throwback
throwdown
stomp
documents
experiment
brianna
vancity
intent
intell
intrigu
devices
travels
eleph
##oids
entering
entered
enterpr
consult
consolation
167
portra
portland
##_lu
1995
ahhhhhhh
roots
eventually
homies
hometown
##paige
##knits
engaged
##eeeeeeeee
##eeeeeeeeee
dannymcfly
designed
designers
burns
fost
gareth
hilzfuld
##2007
shallow
quietly
flights
practicing
##voegele
##llllll
succes
proudly
paula
julia
katevoegele
loosing
snail
##urtis
stressing
creativity
dropping
hatz94
honeymoon
oli
oliver
tennessee
voicemail
werd
irvine
migra
##afone
##_kitty
##_cool
suspic
spotlight
spotify
banks
banner
cherish
cheryl
detroit
janes
janey
brandi
streets
##wright
##writing
##writes
##arnick
inspire
formal
james_a_
michaelsheen
neighbour
!),
eurov
euruko
rachell
rachael
##harry
##ynchong
##vention
increasing
storms
!!!!!!!!!!
angela
hmv
##reyes
maryland
directory
deserves
jeffsg
merc
merch
martini
##viol
suggestion
interviews
disneyland
casa
emmie
hookah
kristin
yahyan
##heads
##chaos
##celon
##abbit
queenof
cheered
cheerlead
ahahah
gasp
mascul
treatment
##iamonds
##_jane
goldfish
schedules
scheduled
##babyv
bothering
breathing
folk
guns
kingdom
valent
thunderror
##roseallen
speaker
demand
demiswiss
...........
hosted
hostage
gaby
gabby
origins
tarmac
tablo
##ebu
##luke
##_hay
##275
refused
stronger
berlin
magical
##ubbies
programme
bonkers
##ginger
##vanessa
##jackman
charlotte
leader
seminar
victory
yessir
##0407
scares
unlucky
colorful
linda
lindsey
##halter
sheriff
##impson
comedian
therealsav
beside
festiv
kobe
lorib
lorraine
yelling
frustraded
washington
aweful
conversations
##wwwwwwww
requests
alcoholic
aiming
cassie
laser
lasagna
mastered
masterchef
masterballerina
ssd
##magazine
debit
debating
taxes
hughes
hughsb
streaming
scratched
obsession
strike
##addin
knocking
bruised
cece
grove
htm
louise
mirror
racism
sympt
woody
##banks
##gggggg
hyperopia
inspiring
originally
jpg
##kati
##craft
golfing
##ryanross
arrg
claim
communic
bsb
cinemas
ghosts
hidden
kirsty
kirsten
niggas
hamilton
##ffffffff
lexus
lexington
entertainment
connections
cherrythegreat
brekkie
icant
rhett
volume
##respond
sophia
chriss
spinach
archite
buffet
kiwi
mtn
wrapped
##bishop
thesis
appointments
involves
medication
lemonade
arian_
kriss
linz
ozzy
vacc
##jonesy
mainly
sparkle
focused
millionaire
##matthew
##melon
##zshach
##666
##ophical
upgraded
physics
daniell
danielf
27th
csi
goooood
licens
multi
sabrina
source
tsarnick
temporary
towel
hawt
lilyroseallen
##aloves
organic
blonde
cocktail
divor
dangerous
georgi
mikeyway
development
48hours
hoodie
prague
sdk
tasmania
tires
tigers
mystic
magnific
guests
argument
blahh
psychology
informed
brewing
bumping
cubicle
kyleand
lulz
mowing
novaw
##riffiths
swedish
adopted
adventures
sunscreen
performing
academic
attempts
jennifer
alyssa_mil
circumstances
cadistra
dedication
eek
pitcher
ubertwitter
##nikki
##michelle
##fabric
neilhim
##iloves
alpine
mosquito
university
prepared
sync
ridiculously
folding
neighborhood
ftskirstin
henry
mutual
yasemin
##hunter
##saved
thorough
hammer
shrimp
candid
refund
morrisons
disgusted
pretending
snacks
investig
katyperry
suspected
aunty
bambooz
fudgecrumpet
globe
josie
ponytail
risk
rabbits
vodafone
##pherd
##packet
##batty
beverly
beverleyknight
frozen
rejected
awaisn
abandoned
abandoning
primaver
robbed
flavour
strangers
relationships
honorsociety
museum
brendon
accomplish
dashboard
fukin
russian
sinking
tnx
wandering
##peace
##rooms
##mccoy
##ltd
##lestar
##cornell
thelast
thelonely
##omorrow
fricken
antonio
slammed
functioning
procrastination
##yspears
stevencohmer
teenage
documentary
olivia
coworkers
specifically
gykd
gillian
iraq
lungs
lyssie
occasion
pandora
##0o0o
##eashley
innocent
whistle
##amorous
##amarie
chattin
cheeky
refreshed
thisisryanross
maintenance
##photography
metallica
ryanseacr
experiencing
responses
garrett
announcement
dissapointed
citizens
dazzle
irrit
kilkenny
reruns
##human
##mellows
##jewel
##factory
##storms
ingrid
lolol
##immons
canadian
chalet
represent
asylum
adsense
admire
##frankie
strategic
stranded
surfing
controls
contribut
macarena
grabbed
michaels
nicksantino
discounts
cooperating
kasey79
bodies
deaf
dreary
eagles
ferret
hudgens
jedi
kikirowr
noufah
northern
pakistan
rorzshach
wiped
wethetravis
##_august
torrent
inlovewith
##chapman
stylish
recycl
##ucklehead
constru
clinton
trampoline
mushroom
individ
attached
calculator
darrylep
penguins
atmosphere
scottrmcg
nuttychris
kerri_louise
krystynchong
government
leeprov
moped
olympic
purchase
vinyl
vietnam
yoooou
##couture
##btrkisses
##wifey
tournament
##edawson
forbidden
reckon
remy_fo
##rippen
devyra
phenomen
carnival
gluten
##francesca
hellenbach
erniehalter
screening
chillaxing
bargain
currency
esmeeworld
bankruptcy
##electric
keychain
britneyspears
applecored
determin
amandapalmer
motorcycle
temperature
suzyqbee10
unexpected
gambit
icarly
iplayer
kavya
meshel_laur
ottawa
pntbtrkisses
varsity
wisconsin
xvojox
##zipan
##floyd
thighs
myrtle
inrsoul
forehead
ofcourse
stadium
amsterdam
newspaper
artwork
montreal
overwhel
advanced
apprentice
heycassadee
diversity
hurricane
realhughjackman
danwarp
boy_kill_boy
keiyaunna
aclockworktoad
sethsimonds
djknucklehead
##incinnati
chriscuomo
sarahamurdoch
beatwittyparty
eurovision
jeffsgrippen
demiswissfan
therealsavannah
hughsbeautiful
alyssa_milano
neilhimself
bamboozle
awaisnaseer
lyssiecc
ryanseacrest
scottrmcgrew
leeprovoost
remy_foster
meshel_laurie
"-
""
"..
"!!!
%)
((
($
(((
(((((
)!
)"
)..
*"
,...
.-
02
1h
1x
1hr
2l
2d
2mo
2mar
3p
3k
3oth
320
330
365
3hrs
4f
43
4gb
4got
58
52
54
68
69
61
63
6pm
7a
700
730
789
89
87
9m
:>
<-
=>
>:
?.
?@
@-)
_c
_wr
a_
ave
aro
ayy
aired
avid
achy
aileen
bp
bop
bong
batch
buch
baa
baz
bach
beak
bik
bats
besh
bots
banned
cg
cq
cay
cone
cri
cong
css
cooks
cory
cuu
cave
cuss
cya
cvs
csk
cathy
cuuu
cotton
cebu
cubbies
dx
dit
das
dal
dus
dice
daa
dile
dup
dma
dach
dated
ditch
dots
dota
ditto
eo
ej
eq
ef
eld
eup
eta
eug
eeek
egy
ecom
emmm
eeeeeee
fick
fame
fub
fare
fog
foss
fount
fade
fob
fears
fused
foto
feast
fiest
fidd
fwd
fender
gs
gad
gur
gus
gain
gate
gau
gour
gap
gia
gma
gush
geel
gator
gums
giddy
gomez
gloves
gaining
grizz
hh
hs
hou
hust
hong
hatch
hos
hcc
hats
hence
hoot
hump
htc
hints
hiring
ion
iis
iim
ilo
iame
iris
igl
iheart
ibm
jv
jn
jlo
jag
j00
jets
jpm
jorge
jester
jml
jizzle
jmb
kq
kur
kul
kour
kaz
kman
kend
kaw
kett
kels
kreme
khal
katherine
lp
lb
lid
lur
lus
lain
lum
lite
lub
lud
lore
lass
lull
layl
lng
lones
linn
lined
ljs
lacey
lashes
mv
mere
mack
mice
mour
mss
mrr
mgr
mens
mild
mbb
mower
mcar
mtf
mwa
mvp
measure
mgmt
nw
ning
nee
nur
nie
nop
nest
nand
nto
nath
npr
nigh
nav
nym
nana
niq
nites
nfg
neenz
nonsense
oc
o0
oth
oro
oxy
pf
pes
ple
pha
pab
pard
peed
pist
paz
pond
pms
pik
paw
psp
pins
pave
penn
peel
pku
porter
puma
pouts
pumps
ql
qot
rut
rol
rpl
rats
rav
riley
range
reese
rising
rene
reno
rhy
rushing
rape
rotten
raleigh
s3
sust
sill
sri
sain
sate
saa
sss
seam
sash
sian
sbs
sats
sana
sinc
sgt
sfo
sizes
sierra
t0
tet
tch
tant
tro
tmor
tame
ties
tif
titt
tup
tsh
tint
tiv
tash
tary
tied
tastic
tuff
tester
tami
troy
tasted
tanned
uu
ure
uhhh
u12
uggg
vp
vin
vou
vee
vas
vim
vest
vick
vince
vets
vital
vicious
vhs
vpn
vroo
vibes
wn
wd
wir
wong
wnt
wkend
wich
wann
wester
weap
wanda
wires
wasting
xh
xi
xl
xan
xen
x25
xml
xmas
yg
yat
yoo
yop
yoy
yaa
yew
yank
yuu
yards
yarn
yupp
yaaay
yorks
zd
zan
zee
zen
zim
zel
zem
zanna
zzz
zeb
zhay
zobi
##pu
##pin
##pil
##pig
##patch
##poll
##pier
##pets
##p19
##punk
##porn
##paste
##puff
##panda
##piece
##pearl
##kw
##k3
##kan
##koo
##kot
##kal
##kun
##kong
##kick
##kna
##kitt
##kaz
##killer
##knob
##klein
##hp
##hb
##home
##hus
##hos
##hang
##honey
##high
##hams
##hark
##hana
##hock
##hunt
##hoto
##hugs
##o7
##oou
##ois
##oves
##o18
##oko
##oze
##o92
##r2
##rry
##rack
##rion
##rand
##rine
##rud
##rise
##rary
##rett
##ruu
##rance
##reth
##rissy
##rankin
##tp
##tx
##tay
##tie
##tist
##trip
##aut
##aam
##aking
##afe
##acc
##aways
##aik
##gz
##g3
##gor
##goo
##gand
##gum
##gard
##gig
##gol
##geni
##gament
##g38
##griffin
##gagirl
##eo
##eon
##eone
##ece
##eats
##ego
##yu
##yes
##yal
##yone
##vz
##vier
##vins
##vamp
##viet
##iing
##iap
##ikes
##ieeee
##iors
##ibaby
##iantly
##iwil
##nh
##nj
##nard
##nick
##noy
##nies
##nem
##nip
##nity
##niq
##nangel
##nisha
##nurse
##nastics
##sc
##sd
##sic
##sle
##sal
##smith
##suit
##screen
##sarah
##uo
##uin
##uity
##uable
##mn
##mf
##mw
##mx
##mck
##mid
##mack
##mess
##mast
##mos
##mint
##mix
##meth
##mothers
##mumm
##mitted
##lj
##lz
##lou
##lat
##loo
##last
##lain
##lind
##lap
##lud
##lag
##laz
##lah
##lond
##lily
##lated
##lins
##lana
##loud
##lene
##lattery
##lala
##cg
##cea
##cet
##cys
##cod
##cert
##crew
##castic
##cards
##cene
##cuts
##code
##cuzzy
##creative
##curtis
##8k
##8q
##8d
##_ch
##_ly
##_19
##_10
##_uk
##_love
##_09
##_ja
##_mc
##_i_
##_stack
##_y_
##_rocks
##_thomas
##_2008
##jes
##jic
##jas
##jie
##jth
##jos
##jap
##jah
##june
##jizz
##jai
##jandra
##qh
##qs
##b4
##b6
##bou
##bis
##bas
##bast
##bri
##blo
##bey
##bond
##bian
##brew
##bows
##bkk
##billy
##bugg
##beast
##block
##betty
##din
##dat
##dust
##dur
##dab
##doll
##div
##daught
##dict
##diy
##zh
##zj
##z1
##z7
##z6
##zee
##zone
##zhe
##zale
##zomb
##zona
##z_p
##924
##fn
##fw
##f3
##fed
##fis
##fight
##fie
##fra
##flo
##four
##fag
##fash
##fail
##fka
##faces
##files
##wk
##wt
##w8
##wx
##wow
##wis
##wie
##wand
##wiz
##water
##witch
##wave
##watson
##2y
##2ia
##0y
##0n
##0l
##022
##xv
##xd
##x2
##x0
##xilla
##xsa
##xchaos
##4p
##4l
##4c
##4ever
##404
##4president
##110
##112
##1fan
##1121
##3n
##383
##7q
##5s
##5x
##51
##500
##5000
##6n
##612
##617
##-\
##\/
##/.
##>---
##<<
##@#
###@
##in_
##inate
##inated
##inib
##inator
##invey
thar
thas
thus
thab
thaa
thier
thames
thrifty
##eri
##erad
##eries
##erts
##errr
##erica
##ervation
tosh
tofu
topped
tooooooo
toxic
##ingh
##ingal
##oups
##ouxs
##ourage
##ori
##orer
##orun
##orus
##orman
##anv
##anl
##anan
##aned
##ania
##anity
##anche
##atl
##at_
##aton
##attt
##athing
##atron
##ativity
thej
thede
theda
thebeat
theerealf
##only
##onso
##onkey
##onfire
##lls
##llite
##lloy
##ayo
##ayne
##esp
##esa
##esme
##iti
##it_
##itin
##itsh
##itary
##itable
##nda
##ndd
##ndip
##oool
##arp
##aring
##arat
##aret
##arant
##arab
##around
##aria
##ariley
##ara_
##arose
##archy
##arcia
##omes
##omain
##omson
##omato
##edy
##edel
##ediva
##stow
##stic
##stant
##stra
##steen
##stract
##static
hac
hab
hail
haaa
haley
habit
haiku
##otter
##otal
##owse
##owright
##vene
##vender
##vegan
itches
itching
##eau
##eale
##eaver
##eaway
##isin
##isse
##isem
##ismail
##iselle
##isnot
##islife
mya
myy
myster
mycar
##etw
##eten
##etter
##etel
##etite
##etweet
##uture
##eny
##enee
##enis
##enka
##enzie
##encers
##enhagen
##icee
##icop
##icting
##ician
##icially
##icpro
##icinfo
ines
inse
inks
incon
inject
intr
incase
income
inlaws
...(
...*
...:
...&
ono
onwards
##ghz
##gher
##ghetti
##chw
##chels
##cheese
##charm
##chitis
isra
isac
forsure
oficially
##lell
##legend
##asi
##ases
##askar
##asnow
##ascope
##rex
##reid
##reys
wht
whitt
wheres
whaaaat
##keo
##keith
##kevin
stre
stil
stab
steady
stats
stones
stamp
static
stroll
stoned
stanky
styles
stroke
stimul
melly
megs
##ido
##idoo
##idently
##idance
##ideshow
belf
began
beij
beware
beanie
sofa
soaked
soaps
##lyy_
##lyheather
##lyamaz
lof
lolly
loft
lope
lovers
##adent
##aders
##adge
##adoll
##adena
##adiva
##amo
##am0
##amic
##amie
##amand
##amol
##ammed
##amazing
shh
shor
shat
shea
shen
shld
shaa
shoooo
shore
shizz
sheets
shizzle
shuld
shontelle
govt
lik
lilly
libby
ligament
##ldg
##ldiamonds
##sef
##sean
##illing
##illas
##illie
##illah
##illian
##ighton
##tery
##teria
##terbury
##terego
##ura
##urd
##urge
##urally
##urger
##urfer
dayna
dayyy
dayssss
##iri
##alot
##alina
##alker
##alaur
##alove
##alfon
##ppe
##pptc
##unty
##unner
##uncan
##universe
##vera
##very
##verobber
buti
##iej
##ieb
##iez
##imer
##iman
##imon
##imist
##imcfly
##iments
fris
fras
fright
frapp
fract
frazz
frugal
fruits
ans
anit
ange
anoy
antw
angle
doe
dolly
atom
atra
atomic
notch
notorious
hem
heff
heyyyyy
worm
##ople
##opract
##oplin
##ophil
washer
##herd
twat
canon
canal
canvas
canterbury
cham
chop
chand
cheet
chik
chunk
chino
chantal
rex
rein
reut
relly
rebe
rept
recr
repress
rearr
relying
suk
suv
sud
subl
sudo
suicide
neo
nem
neon
nekk
upside
upstairs
commit
comfor
goody
goodnite
##cey
alls
alll
alltime
allergy
allllllllll
alllyy_
react
##ento
##ent_l
outing
outline
outdo
outfits
##ryt
##ryn
##ryss
##ryder
##hao
##ha_
##have
##haus
##hable
##ha_august
##acket
##ilow
##ilated
##ilicious
##ilinn
##ilities
thisstarchild
workk
worker
##ths
##that
##thought
##thms
##thetic
##thorne
nof
noct
noble
nobo
nodd
noches
noises
nostal
##anti
##antan
##anton
##antley
##antjee
##roc
##roach
##roix
##roca
##roez
##raw
##raham
##rawr
##raiser
alt
als
alb
alig
alph
albe
align
alike
alither
aloud
alham
albert
alicia
aladdin
alzhe
##ionado
##tty
plee
pluck
plzz
plots
plaster
pliers
plugging
plague
amp
amo
ami
amal
amyy
ammo
##us_
thanking
##astor
goth
morrow
morphine
likewise
mae
maid
mahh
mahn
maaaa
maker
makati
doni
donate
##rio
##rily
##ink_
##ainted
happend
loveyou
##outhern
img
imov
imeem
##esto
##estr
##estial
assem
##ctions
##atech
##aba
##abou
##abeen
##abol
##abby
##abrun
##aburger
knife
knees
seed
todayyyy
aware
awoke
abhor
abiding
abusive
ableton
abrams
timmy
timeee
timeline
##ishe
##ishere
##andal
##andco
##andfriend
##andez
##andjb
##arted
##artolo
whatcha
missd
missss
##elin
##elah
##eluj
##eadmill
##lol
##lois
##erscore
knoww
feeder
feeds
##eephoto
backk
backs
backing
backse
backpack
##ongirl
##ardy
##naa
##naz
##nail
##naud
##navar
moj
moist
mosh
moby
moons
mojo
mocha
mocking
mohand
##igi
##igning
##igue
##ffie
##ffield
##ulz
##ulse
##ulum
##ulary
##ulko
##allly
##allfabric
everr
##ntm
offensive
offended
##indy
##inds
##indab
newport
##hhs
itsjust
nighter
nightly
spy
sped
spur
spine
spike
splin
spazz
spaces
sprain
speaks
spilled
##eedo
brut
brill
brun
brooks
brenn
breezy
bruno
breeze
bracket
motherfuck
##eetwood
##olk
##oli
##olee
##olito
##olences
##osil
##osite
##osmond
##mmy
howie
##ollard
prat
priced
printing
dep
dey
deff
decr
devin
demon
debby
degen
depart
slur
slush
slipped
slideshow
##moron
agg
agu
agencies
waa
wav
waz
wahhhh
waaaa
waverly
waffles
##ellie
!!!)
##reations
##oya
##aufer
wellington
##ource
funnn
funnnn
needles
guarant
orth
##aaap
##aa_x
##dys
##kingtots
sacri
sagee
arre
arty
arvo
argue
arthur
arnold
arnaud
herd
lastnight
blan
blister
blushing
greater
tao
tale
tact
tacom
phuk
phoe
grat
grant
grief
grumble
gromit
ens
enought
energ
enroll
sorts
sadden
sadface
sadknob
##apunk
##ifu
cof
coats
covers
coloss
cohen
proves
provo
sheil
sheffield
conor
conno
conrad
convention
drea
dram
jog
jod
joer
joem
joker
jogging
jodi
##iendo
thenew
lookbook
veh
vega
poet
pose
polly
poking
poppy
poppin
poppins
betta
##emily
##embry
byron
byeeeee
##anga
##angod
clap
clark
##bern
##berra
##berlin
##bernate
followsav
followmandy
badge
tomorroww
##ipment
mayo
##itts
##ittles
tres
trish
troopers
treadmill
##istle
sez
sexx
sevent
sewing
showtime
showcase
##agent
##agious
##assie
mans
mania
manners
monies
##nyt
##iah
##ia_
##iaz
themes
##ysaid
overhe
overrated
##piclyamaz
swiss
swap
swag
swings
switzer
very_cool
shoulders
peir
peppers
carri
carlo
carbs
carne
carried
carole
carmen
carbon
caramel
whoaa
##ewolf
roz
roar
rober
roger
rohan
rogue
rochell
robsessed
##upcakes
##00d
##001
okc
okie
tryed
quir
quimo
headline
headlin
wayned
ley
lean
leica
leighton
scor
scout
scale
scroll
scores
scifi
##izo
##izer
##izdel
weekday
##ggles
##ahr
##ahar
##ahua
schoool
unus
unity
unne
unbel
unmark
ungod
unreal
uncool
unloved
afterall
afterparty
leap
leak
leaked
##mae
##mai
##makes
##shad
##sheet
##shell
##shana
##shock
playdate
adel
adity
adren
adamb
adnam
tweetin
##phic
##phys
##phantom
comeback
##ansera
##ansfield
saynow
saynerd
##blevins
downs
downer
downfall
marg
marl
marly
marath
marco
mario
marines
maroon
marzipan
##eyed
sunn
suncream
##mylife
##myhell
madre
madina
madden
somatic
##plus
##placed
movin
didni
##beans
##cco
##ccall
##achi
flour
flaw
flops
flipping
flaming
fleetwood
werewolf
##kesha
thankies
apply
appart
himover
##aca
##moet
##moke
bestest
##peration
##perci
##perfect
hii
hi_
hippie
littlet
girlies
girltr
lettin
##tof
sucka
talindab
##soh
##sof
##social
urg
urge
crunk
crane
crimson
cricinfo
earning
earphones
glee
glam
glue
glitter
glands
glamorous
##akexchaos
daeone
##athom
dix
dias
diapers
writers
##ichie
starfl
##ptic
##ptian
##ptions
##ptweet
##prot
##prats
##eals
damien
damaged
¿½!
buh
bully
buggy
buuuut
buonot
##athers
##ftop
##eeeeet
lax
laut
smitten
smilinn
chez
cheat
cheering
##oda
##odor
##odos
##odont
minee
minut
hurrah
##tails
stuart
craft
acts
coolness
lotion
helmet
helicop
omgggg
omggg
trapped
##heyy
##quil
##quire
##quiao
##bree
##brook
##britt
reals
##ilynn
hobb
hokey
##ixon
oldest
trio
trib
trix
triste
trigger
ident
idiots
somethings
disab
discr
disease
dispos
livefr
##iiit
##ordin
##coz
##cole
##cock
##coach
housemates
kiddies
comps
compre
compute
compare
???,
yael
yaayy
##wnz
hardware
songzy
excl
exclam
dany
dani
danced
dancer
##fron
lovess
loveeeee
hellos
helloooo
lyric
lydia
muss
musiq
mushr
##anken
??,
??!!
##grl
##gray
##grid
##grim
##iana
##iann
warner
warmed
stret
strings
stretch
boa
bog
boi
boiling
bobbie
boiled
bollywood
busays
bushes
##iken
##iketh
parvo
parcs
peru
amazingly
##neys
##ullivan
boreddddd
boyle
serv
serial
serena
##akas
##akim
##akery
forgets
goddamn
runner
runners
clem
cleveland
hairspr
##zzard
##zzles
##cyruu
thingsmumm
102
puts
puter
##incez
##noon
shoppin
courage
drip
drivin
belt
belinda
musicians
worlds
worldwide
partyin
freeway
freeze
freebies
freezes
elain
elise
elimin
##iero
mustang
weathers
##blah
##atti
##cred
##crime
##cruz
##crush
##creek
accounting
sneak
snurl
##spin
##sport
reluct
dino
dins
dinno
##booklover
##insider
##tony
classical
hunger
resigned
photograph
boog
boohoo
##psi
awwwh
awwwwwww
##whore
mr_b
##iban
supporter
favs
faves
##twin
##twit
##twism
##tweets
teaches
wok
##nnnd
addie
cleaner
recie
##dec
##deb
##oryall
messenger
##fuly
rockn
rockets
rockeye
singers
singstar
welcoming
##aaaaaaa
coldstone
;))
premat
preocc
walks
##avar
##avage
##avidson
##ilda
##ildstar
killin
trem
treiz
trevor
deflated
winston
winners
dreamsth
xx_me
##cla
##claire
##classic
##ymaster
##uuy
##uuup
##uze
##uzik
##veshark
##wayne
republic
throughout
##ristina
soooooooooo
charms
charley
charging
charges
assure
illness
surge
surface
surfin
surreal
survey
institute
acid
acct
reth
retired
camper
camcor
cambod
indulg
handled
handbag
restoring
internship
##flip
##flash
##flife
##flower
##inaj
heheh
luff
luci
##rossi
edwin
edmonton
contain
contrary
pale
##ayloryall
hopfully
hmmp
##getic
##girl2
douche
doubles
highest
highschool
cuter
cuteness
ers
erich
lilayy
lilmarsh
liljizz
scrub
caf
caity
redu
redm
redhead
redbull
redbaff
setup
horri
horrid
horrific
##19585
revolution
##conqu
heartbroken
barn
barnes
fanclub
typed
types
typos
tynisha
##a_r
##a_gab
grader
graders
----
jamesh
jamba
##vinny
david_k
midnite
terric
##sween
##sweets
4wp
4we
4wb
4w4
4w3
burp
bury
burst
passport
windsh
decides
decorated
apar
sarcas
sarcastic
##glas
##glenn
macs
##bba
##bbb
##bbing
crazytwism
lotsa
cured
seaworld
johnh
johnson
johnmaine
johnlloy
calor
calories
cardio
goofy
##alexa
##1221
##anni
##annel
promising
promises
fallow
##ooooooooo
##oooooooooo
##ooooooooooo
textin
meter
metap
bball
wooh
woow
wooow
shorty
shortyyyy
shortstack
samm
sample
visited
visits
##rees
##reece
##itsch
brake
braid
tested
catbook
catalog
deadly
grave
graham
gravey
gracious
graverobber
syrup
##ofmany
grandad
inval
invites
djing
djsp
emailed
studyin
20s
mileycyruu
##lington
##apples
##appointed
##actor
confess
confidence
confusin
bums
prescri
tourist
movement
showering
closes
closest
laps
netball
picky
##aredpacket
offices
paste
pastor
pastors
draft
drained
mitchbenn
##ocks
##iethe
##iethes
replys
67f
67x
675
676
darian
##jo42
slowing
extended
11am
11pm
microb
tonic
jacks
jackass
jackalltimelow
topshop
anywayz
1500
fastest
fellas
fellows
greys
payment
##gan_xx
##eesha
##yyyyyyy
marky
katie_
katrin
kat_kitty
puff
puked
puffy
papi
papaya
paparazzi
##boystell
nitey
watering
waterfront
watermelon
##chief
reasonable
##thecat
##thekid
##thebest
##aaahh
sexys
nya
nearby
dearly
hari
harvey
harbor
##ursannie
##lovely
2007
2006
commenting
explos
##!!!!!!!!!!!!
weirdo
weirdest
chrisdj
chriscornell
chriscuzzy
christin
christine
christopher
byebye
cola
coliwil
felic
feline
felix
blocking
blockbuster
buddh
karl
karam
karate
##holy
##hollywood
sprout
sprite
springs
bench
benadryl
dangit
jayce
jaybranch
##easant
insight
insist
insert
insulin
insulting
laurie
countries
countdown
evry
evolution
humbug
##ethan
##etheless
flyer
misst
misse
misunder
misplaced
gymnastics
nico
nicc
nic0
nicoles
salute
##604
graduates
cups
cupboard
dda
genetic
geneva
ppls
rae
raf
raid
raises
##guitar
##lai
agrees
agreeing
corps
corrupt
corporate
correspond
sidewalk
sidekick
natty
nataly
natasha
naturally
ruining
##garia
##garcia
myspac
robkardashian
capt
4jj
4j9
4jam0
jessi
jessd
##_brown
##forums
##woods
studies
mixt
patty
patiently
pinkberry
pinkyn
pinkpop
weddings
petey
##gasmic
##weird
regent_l
copenhagen
effy
rye
ryking
produce
celeb
deny
denmark
dennis
diggin
kickass
poland
policy
cheeseburger
replaced
visitors
heav
norway
womens
##isingly
stands
web20
imperson
impact
ordering
philip
philadel
alexa
alexis
alexandra
balloon
ballerina
joyce
rubber
rubbing
sarah_
sarahbell
sarahjp
presenting
sharp
shares
##lovee
jerm
keytar
keyboards
viewers
##kiwi
##hampton
##obson
##ie_rankin
dealership
throbbing
##standing
transition
transmit
giggle
giggling
hyp
hyd
hyster
nerve
nerves
vacations
##776
youngster
submit
submitted
footage
population
##ielee
freaky
freaked
boxing
boxers
feltbeats
celebrated
40mins
distrib
prix
prizes
veronic
##vault
##224
##180
beatles
dressjunkie
##eezie
ffs
fantasy
firefly
firewire
nao
napping
nappy
potus
##888
##_soul
##doctor
##string
##strong
covergirl
daveg38
lawyer
smallville
holder
squire
squeeze
##mcgu
##305
stickers
businesses
brigw
fatbelly
landline
landlord
vanessa
##logue
safely
joejonas
boyfriends
understands
66u
667
665
election
floss
floors
floyd
##215
behalf
altho
conserv
##azzle
auth
autograph
autumn
darkness
mamma
mamac
portable
##_diva
##_domain
##barnes
mails
expectations
hahahahah
hahahahahaha
hahahahahahahaha
hahahahahah
50am
errors
massacre
nonetheless
rooftop
costa
eventful
huhuh
132
13th
homo
lowest
lowkey
labs
labell
ooops
pools
vida
##paid
##cribe
##ambers
hahahha
designs
jason_2008
billbath
foam
foggy
hilary
hilton
hospitals
kimm
kimmy
kimsher
purpl
smoker
smokey
##uffy
##2000
supported
walkinghor
lisam
lisatal
lisahope
##ouli
##lllll
copyright
:-|
julier
juliet
julius
kate383
looool
snapping
snapped
snappy
vibr
vienna
wallpaper
bells
##ielding
jordie
richie
##_mom
##_mag
##247
##143
sheselectric
##umbers
##umbles
modest
modem
deathw
swimsuit
swineflu
sunbathing
stressin
lata
michele
olives
owt
owen
memorial
shouts
?????????????
campers
officialbabyv
21st
irre
malibu
penis
sixx
sipping
siya
siouxs
##_kay
##italdiamonds
shutter
animated
susie
spotty
eyebrows
24th
bananas
janet
janice
mcflyy
mcflyharry
toriloves
##phyre
southend
frequ
matinee
matilda
##backs
##eapolis
formula
##ssssssss
michaelm
honesty
heeey
storys
!!!!!!!!!!!
returns
reviewed
soulchild
angelina
:')
balance
balmain
lmk
rowing
uggh
##yeux
receiving
brightens
directors
jeffery
jeffree
fitting
mercy
merced
meredith
sensei
tmw
##alynn
##vior
##vibe
##bbyryan
suggested
accessible
beef
caspar
casino
emmy
hooker
joshu
kristens
##booth
##fying
##weetup
andrews
andrew_
maxwell
springsteen
ahahahahahaha
bacteria
essays
ilike
mashable
treated
##radcliff
##iamunn
##martin
##martinez
trailers
5jb
australian
century
kingston
valerie
##vscap
thunderstorms
butterflies
demons
............
hosts
dentists
baton
bakery
gabe
sirius
tabby
tablet
xo_mcfly
##ebear
##i_r
##luvs
storming
frankiethes
strongly
entirely
irony
nkot
nih
sigg
##mlt
hallway
hallmark
halleluj
choke
choked
chopped
blasting
constit
cruis
cruising
##vania
##jamas
##jackson
##jackieo
chaper
agesthegreat
blowin
jennyt
##1234
##12345
drawer
aaah
casting
leads
victim
yessssss
##prod
##_war
##_west
##fold
explains
scarred
scarlett
courtesy
??????,
5z7
dominos
kitchenfire
lindse
lindsay
westlife
##slinky
##moms
##missed
toothbrush
toothpaste
islands
sherry
sherman
!!!!!!!!!!!!!
##ivalent
therealj
responded
3333333
jaiden
jaunty
koi
loretta
titanic
##iyah
##ayyam
shaking
lifest
lifting
lifts
knighty
trading
roflmao
##ssseee
babysit
babysitter
##zzzzzz
##uuuuu
##uuuuuu
requested
bubbl
bosses
cuddles
cuddling
fashioned
viral
##magn
##broke
##broad
hahha
megaredpacket
shelter
chihu
chiodos
debut
severe
bullet
scratchy
scratching
60s
duo
lamer
lambert
nuttin
renee
##superc
thnk
toyota
strikes
striped
donnies
bruises
dreadful
attended
attendance
performances
ceiling
derrick
dubai
galore
galact
mirand
pamel
pamela
pamjob
racoons
utah
ummmm
##points
##banana
##belt
limb
:::
destiny
economics
##katy
##y_fred
##minds
##iscool
wendy_fred
challenges
##robc
##robinson
amandaby
impressions
speedy
speeds
speeding
depending
arrested
claims
danielradcliff
?!?!?
aussies
jungle
kirby
oceans
operating
pixies
rawrr
##ycharm
hamster
shansel
shanedawson
princesssuperc
idiotat
##dddddd
pairs
unfollowing
featured
icam
ilovey
mikea
pillows
rhym
reemer
reeeally
volunt
##pencer
##rupted
##safe
##saayyy
##madden
##rainer
##rainbow
archety
quebec
editors
collective
electro
electra
foolish
ivory
kiw
murray
sinuses
##graham
thesims
memes
memph
removing
existent
splitting
brittan
##hhhhhhhhhhhhhhhh
discussions
arizona
bios
corey
ecstatic
fibe
foxy
meebo
meester
mandybooklover
opposed
riverside
tuner
tipsy
vaut
##karth
##yrl
##walsh
##walker
##444
liesboystell
limegreen
sparkling
sleeve
clarkson
advil
approach
credits
creeped
snuggled
##johnson
spreading
popularity
error505
!?!?
****
geeks
nhl
##ological
##really
##bdc
##wyatt
shirley
upgrades
aboveallfabric
spirits
blanket
physio
physically
condolences
sweater
switched
applaud
crispies
##kkkkkkkk
melissa_
audioboo
jerrys
roommates
gossiping
07k
29th
equal
equals
equipment
gmt
multitas
peeling
sabrin
sources
wilw
##goddess
##jessica
tower
whiskey
negativity
organizing
grrrrrrrrrrrrr
sweatshirt
scotty
retweeted
georgie
nataliet
motorbike
irish1974
subscribers
subscription
developed
developers
31st
aidan
celestial
cornell
jacqu
kelvin
krispy
praxilla
pumped
pumpkin
sensation
settled
tasks
temple
fortune
shadows
chasing
champions
combine
magnet
magnol
funerals
savag
savage
savvy
blahhh
admitting
applications
contracts
burritos
avoiding
translate
translated
languages
nephews
bulgaria
bucket
buckhollywood
cubes
curling
curled
dorky
hinder
kyois
krystal
mimi
mimis
pyroez
tammy
undeni
hacker
##lewis
references
twitties
agent_m
greegreece
providing
crazii
hottie
hottest
restaurants
lucykd
terminal
juicytots
##webster
wolfie_rankin
potatoes
circuit
70s
>.>
cadbury
crowds
iwas
mentor
mentally
sassy
unahealy
##pattz
##okitty
##reads
##michi
##cupcakes
##ishers
stalking
##iloflife
missxu
bronchitis
funnier
funniest
safety
##agrl
##agram
tracecyrus
struggle
caitlin
apologize
syncing
tommorrow
violet
violently
utterhip
destroytoday
rehearsals
bunnies
cindy
cinderell
furious
jailbreak
khansera
kittens
millions
mccoy
mcraddict
mcrsaved
oyfreak
oxford
vocal
yasmine
##eeshman
hammock
injury
stunned
suprised
suprisingly
morrissey
monicafrancesca
bittersweet
advertising
marshall
smackdown
educated
cutiemoet
terrific
investment
subjects
brittanyasnow
spiritual
commercials
aaaaaaaa
bmth
bounce
bouncy
bouncing
diesel
gummy
oreo
oreos
pinging
pacman
pacquiao
richa_august
rangers
voices
voegele
vodka
##murphy
##murray
##milife
##cowines
##dhc
##fuller
##1qz
##legate
sososo
shinning
shaky
frogs
frosted
chirping
chiropract
rejection
neglecting
##cepts
immune
assholes
awaiting
awaits
brandystri
flooding
flooded
dawg
dawson
caleb
xxxxxxxx
xxxxxxxxxxxxxxx
fundraiser
sanctuary
progressive
nikkiwoods
????????,
pennydog
lesley_m
allysonalfon
4vuuy
drowning
drowned
drowsy
dipl
pasadena
pilot
patchouli
router
tessmorris
vickyt
wookie
##holla
##reams
##journey
tossed
hazel
influ
frickin
princip
tapulous
##aphoto
carrot
scenie
meltdown
patricklang
teenager
priorit
priority
oliviamunn
anticipating
queensland
journalists
sympathy
electricity
!?!?!?
2mrw
axe
bhb
cacs
cords
dfizzy
ferry
gentleman
izzard
jareason
nesse
pollution
tissues
##prived
##help
##mesomed
##cooper
##birds
##itersblock
innoc
whistling
stinkin
shelley
withdrawl
chatted
reynolds
plugin
spaghetti
defeated
defending
groove
grooveshark
grammar
##aprincez
cod4
johannab
jojowright
overseas
believes
rescheduled
attracted
attractive
metallic
milkshakes
published
transportation
experiences
labeled
migrane
renewed
crocheted
conditioning
whisperer
protection
citizen
insomniac
4everbrandy
aerob
catholic
dunkin
ducati
ftp
lacroix
pirate
pulp
vogue
wreck
wrecked
yeeeeah
##_grl
##_the_
##xoxo
ingred
reznor
almonds
maccy
asylm
##ablack
bridal
breeding
cocabeen
clayton
sweeney
marvelous
marvelvscap
travelling
delightful
luvinmesomed
contribute
fallenstar
grabbing
philosophy
philosophical
geekysteph
5z3o
cigarette
cigarettes
repeatedly
embarrassing
hundreds
:">
;;)
beetle
bonding
bwahahahaha
dimples
fiona
klemm
kylie
lalal
mxlc
nimoy
nettles
ogberry
pouting
pudding
patsy
romeo
santi
sandy19585
tackle
teles
tiaantjee
ttyl
vitamin
vene2ia
wesley
##kristi
##guru
##dtaylor
##inicole
##studio
stellar
behave
shiit
chelsey
maggit
aspaphoto
mollie
spitphyre
spooky
orbitaldiamonds
converting
conflict
joesgagirl
claudi
clarexsa
appealing
glennbeck
davedays
wrestler
minimum
prettier
percentage
sketchy
relatively
mummies
premium
ericka
passionmd
calvinharris
raffle
disappointment
subtle
squirrel
proposal
requirements
straightener
charlieskies
ankita_gab
buzzedition
alternatives
multiple
tutorials
!,.
cesyeux
cristal
cabbage
dslr
fonts
fiascowines
gcse
houses
jaylink_
looooove
masters
meadow
rustycharm
wsop
yipee
##pooh
##tneykardash
##video
##moyles
##family
thousand
##ottawa
itstayloryall
staples
notification
nellagrl
##thestars
alabama
knackered
nightshift
slaving
sleeeeep
twitterbugs
heresmyhell
enchanted
tropical
pendulum
scooby
scalzi
##shoes
playoffs
diagnosis
buenas
boiler
permanent
postponed
##noxious
channels
desperately
linkedin
sentimentalizzy
dynasty
commission
absolutly
transformers
consumption
malaysian
freckles
mistressmia
ivanae
firmware
fortunately
ravenous
lollipop26
vocabulary
procrastinating
fascinating
predictable
environmental
robpattinson_
unemployed
(?)
bipolar
biased
ctrl
cucumber
dubbed
evidence
fiercemichi
gk2007
gardens
gerald
kardashians
lousy
nipple
pounding
sesame
serendip
xjakexchaos
##square
##81849
##jandro
##blossoms
##fairy
tokio
##seconds
francisco
nottingham
choosing
chronicles
chainsaw
sulking
##ababesss
priscilla
sleeeeeeep
orphan
arsenal
coincidence
prodigy
overdue
african
unintentionally
##machine
adjustment
marshmellows
littleradge
crutches
minneapolis
tragedy
emerge
families
snickers
totalled
photographer
additional
retriever
camilleprats
restrictions
luxury
ericajo42
scrambled
syndrome
avocado
puerto
professor
inspection
hummingbird
genuine
jessicaveronica
registration
hypnophil
fuzzball
enterprise
portraits
migraines
suspicious
james_a_michael
masculinity
loribartolo
rhettroberts
architect
arian_marie
##matthews
danielfielding
divorce
georgiaprincez
magnificent
kyleandjackieo
novawildstar
yaseminx3
thoroughly
candidate
thelastdoctor
irritated
inlovewitharmy
construction
individual
phenomenal
2moz
2maro
9mua
_writersblock
cuuuute
egyptian
ecomonday
fickl
fossiloflife
fountain
fiesta
gadget
geelong
grizzly
iamepiclyamaz
igloo
jpmizdel
kourtneykardash
kawawa
kettle
mourning
nymph
pavement
satellite
tupac
tamij
zanna85
zhayrar
zobi09
##london
##bianca
##zalez
##1fan1
thedebbyryan
thedaily
theerealfdhc
isacullen
beijing
lopez
shaaqt
anoying
repressd
sudoku
nekkid
comforting
##hausen
nobodies
albeit
alitherunner
alhamdul
mahhsaayyy
maaaaan
##andfriends
mobypicture
mohandoss
arnaudjacobs
phuket
followsavvy
sexxieluv
switzerland
very_cool_domain
headlining
waynedastar
unnecessary
unbeliev
unmarketing
ungodly
adnamay
saynerd01
werewolfembry
himoverthere
##percival
girltrumpet
starfleet
buonotomato
smilinnursannie
songzyuuup
exclamation
mushrooms
hairspray
thingsmummysaid
prematurely
preoccup
dreamsthedream
xx_megan_xx
camcorder
cambodian
indulgence
liljizzel
david_kaufer
terricook
sarcasm
johnlloydtaylor
graveyard
mileycyruuus
kat_kittykat
chrisdjmoyles
coliwilso
buddhist
misunderstood
pinkynkotb
regent_lord
philadelphia
sarahjpin
distribution
brigwyn
fatbellybella
joejonas1fan1
conservative
billbathgate
kimsherrell
walkinghorse
lisatalkingtots
lisahopecyrus
kate38381849
sheselectric_
siouxsinner
torilovesbradie
siriuslyheather
xo_mcflyandjb
frankiethesats
hallelujah
chihuahua
wendy_fred6
amandabynes
danielradcliffe
shanselman
kyoisorange
pyroezra
khanserai
mcraddictal
mcrsavedmilife
oyfreakinvey
richa_august84
chiropractor
brandystrippers
allysonalfonso
patricklanglois
cocabeenslinky
marvelvscapcom
sandy195850
clarexsaula
ankita_gaba
heresmyhello92
serendipity
xjakexchaosx
loribartolozzi
_writersblock_
iamepiclyamazin
jpmizdelicious
!(
!'
!*
!<
!~~
"/
"....
#!
$#@
')
'?!
("
(*
(>
)?
)&
)....
*!
*..
*...
*....
,.
,!
,'
,<
,@
-|
.:
.&
.!!!!
.((
0l
0x
0_o
1thing
1cr
1pm
133
130
1sweet
1gb
1zp
1tb
2h
2v
2z
2get
222
2hrs
2nyt
3n
3c
311
3bn
371
3mr
3lbs
4t
4a
49
46
4ward
4get
4vd
5t
5m
57
5ut
511
530
5yn
516
5mins
6j
6mor
612
626
72
71
77
76
8a
8d
81
:**
<(
=|
=[
?:
?!!!!
?!!!
@$
[<
^-
_a
_x
_an
_el
_sh
_ever
___
_miss
_hay
_________
_erica
ase
aur
aol
aph
ape
acr
ahn
avin
a12
aster
astr
axs
asty
aargh
bn
b_
bz
b0
bent
bion
btt
bish
bard
bos
bap
bore
bne
bins
brist
bals
bale
bows
batter
bjo
bops
bai
bham
bhi
b25
bung
baaaaaaaa
bisc
beets
busting
bingo
booooooo
bpd
bnp
bibi
bhai
bldg
bcoz
c8
c9
c0
cx
c1
c7
c5
c6
cee
cet
cch
cie
cood
cth
cna
cul
cite
coy
cag
cny
caz
cah
cmy
cpl
cater
cpt
cpe
cms
cco
cens
catt
cents
coooooooo
cease
cze
c_j
cros
cfs
cullen
cbrown
ciao
cisco
culin
cincinnati
dn
d5
dnd
dot
dome
dant
dab
dand
dul
duch
dame
dif
dive
daz
deeee
dne
dary
dats
dime
dorm
dug
dmed
ducks
dwell
doooooo
dund
dfs
dora
dustin
duuu
dns
dws
darts
dnb
dilated
dbdc
e4
ein
egh
ech
eith
ero
ect
eish
eeep
eew
eft
ebr
eog
ehhh
eds
ease
egan
euh
eeeeee
eex
e71
eerie
eternal
eeshk
efron
fj
fw
fx
fll
fic
fate
foll
fau
fey
furl
fones
fuss
fkn
fizzy
fisc
fffff
faint
fcharl
fiddle
fangirl
fussy
faux
fusch
fiance
fathom
gj
gat
gam
gry
gast
geet
gell
gown
gta
gii
gaw
gib
gert
glove
gtf
gears
gnat
gila
gini
ghal
gmorning
gibb
griffin
gcrush
hc
h8
hj
hb
hx
hin
hed
hir
hith
hiss
hick
hite
hound
hoooo
hort
hans
hanna
hpt
hired
hord
hitch
hatt
hdd
heee
hgt
hbu
hiph
hittin
ig
ij
iq
ib
ix
ike
iain
ipt
iii
ips
iams
iale
icing
iva
iko
iggy
iloves
iknow
iholl
ihate
irobc
jf
jw
j0
j3
jor
jow
jis
jad
jal
jab
jum
jeep
jig
jool
jell
jaa
joooo
jip
jass
jup
jpe
jbs
joom
jaw
jert
jude
jax
jizz
jann
jba
jeez
jgood
jensen
jaded
jacey
jlam
jadee
jager
jumps
j2t
jalan
jello
jansen
jclay
joplin
k_
kj
kx
kut
kad
kun
kth
kro
kus
kri
kink
kart
kau
kub
kang
kma
kix
kgs
kats
kier
katt
koot
kail
kane
kesh
k12
kree
korn
kof
kately
kho
kino
kmc
kuh
kurt
kona
ketch
kfc
kali
kadam
kmr
ksy
kbal
khair
kansas
lk
lv
ld
l7
lut
lust
lest
lice
lool
lup
lue
lma
lure
lath
lich
lube
lows
lames
lara
licks
loooooo
lances
lala
ledge
laced
lvl
m6
mst
mry
mro
mong
mio
msp
moot
mug
mits
mills
meeeeeeee
muth
meeeeee
mashed
moust
muna
mhm
nn
nb
nay
ngh
nack
nth
nct
nif
nud
n00
niz
ngg
ncc
nanna
npt
nii
nude
nvid
niley
napp
nations
nada
nga
nuth
nady
niam
nudge
nimb
narr
ncre
nugget
naina
ou
o2
oat
och
oir
oop
ora
ober
oso
oats
obl
ops
ovid
ooooooooo
oof
oooooo
owwww
ocd
o_0
oaks
odys
pk
pi
pn
p2
pll
pom
pse
pent
pry
pus
pause
psh
pts
pach
pace
pta
pooo
pwn
pian
patt
pett
pams
pane
pits
p33
poun
pja
pester
pints
piy
pouch
pffff
paws
ponder
p47
pussy
pimple
patel
pitts
qt
qi
qd
qood
qik
qdo
qwer
rk
rw
r2
ras
ral
rop
rlly
rab
rish
rand
rally
rive
riz
rpr
reeee
rating
riv
rii
rank
rian
rak
righ
rets
rym
rons
rache
rents
rfl
rapp
rees
renn
rican
rda
roul
r_c
rita
races
rena
rico
rjr
ripping
ricky
ruled
ronald
rlich
r6r
s2
sx
s4
snd
sly
sion
sct
sard
sirl
sia
sma
soom
sier
sins
sike
sizz
svd
slov
sided
svs
sinnam
skelly
snob
southern
tk
tld
ttt
tish
tart
tna
tul
teet
tally
tuck
tss
tiz
tts
tanna
tto
tier
tude
tits
tfer
ttf
tuh
tnite
tunes
tiest
tias
tipping
tjoe
tension
tucker
tf2
tainted
uo
uy
uj
uw
ull
uit
uff
uhhhh
ugl
ufc
udon
upppp
ustream
vr
vt
vv
vu
vc
vw
vx
vom
vie
vood
vish
vig
vul
vice
vind
vag
vive
vix
vib
vert
vmar
vinc
vai
vob
ville
vlog
vinn
varn
vado
various
vzer
vari
viper
vomit
vcenter
wp
wt
wl
w8
wb
wz
wf
w4
wan
wld
wim
wain
wab
ward
woll
wank
watt
wuz
wesh
wgn
wiff
wider
woooooo
wiser
wander
wiper
weeping
xz
xant
xol
xem
xmy
xod
xosh
x_c
xjam
xtra
xander
xspark
yk
ym
yon
yen
yus
yol
yos
yang
yag
yself
yky
yaaaaa
yooooooo
yvon
yeeeeeeeee
zs
zz
zar
zom
zur
zion
zum
zeen
zoom
zak
zane
znat
zulu
zyr
zzzz
zoids
||
##pi
##pz
##pf
##pow
##pre
##pid
##pam
##pun
##pha
##plo
##pong
##pick
##pour
##pist
##pts
##page
##pod
##pire
##pump
##pany
##pole
##pandy
##pards
##pino
##pdr
##post
##pund
##perez
##paws
##pasco
##kl
##kz
##k2
##k5
##kea
##kic
##kch
##kha
##kil
##kab
##kul
##kine
##kaa
##kyy
##kake
##kater
##kier
##katt
##k04
##kimo
##khat
##koda
##kweird
##hc
##hz
##h4
##het
##hut
##has
##hust
##hul
##hist
##hanna
##hzz
##hatt
##hley
##hild
##horn
##hatter
##hboy
##handy
##hmon
##hills
##hicks
##h72
##hansen
##oet
##oil
##oel
##ofly
##overs
##ova
##o_p
##ovan
##ojay
##rh
##rm
##r_
##rb
##rz
##rou
##rit
##rim
##reak
##rather
##rouse
##rens
##rors
##rde
##ruz
##rane
##rpm
##rera
##rants
##riter
##rhi
##rules
##rpc
##rubin
##tl
##t7
##tor
##tan
##tes
##tic
##tch
##tre
##tke
##tri
##tig
##toy
##tation
##tia
##tah
##tron
##tje
##turt
##trib
##tese
##turbed
##tothe
##turi
##tools
##a2
##aer
##aes
##aul
##ahh
##airl
##awn
##a86
##g0
##g4
##g7
##gill
##gro
##glo
##game
##gap
##gore
##gib
##gog
##g12
##gars
##garden
##g18
##gomez
##guns
##gories
##gularly
##gigg
##gibb
##ein
##ean
##eve
##ech
##eight
##eir
##eous
##ext
##exx
##ept
##eiv
##ejo
##ega
##eville
##e24
##ecut
##y9
##yf
##y4
##yit
##yall
##yaa
##yah
##yxx
##yog
##yls
##ydney
##ystem
##ycase
##yeah
##yjonesy
##vh
##vc
##vic
##vad
##vill
##vish
##vind
##voy
##vist
##vaz
##vah
##vans
##vod
##vii
##vors
##vail
##vina
##vial
##vana
##vane
##v88
##void
##v89
##vico
##i9
##iis
##iere
##iant
##iast
##iate
##iaa
##ixx
##iouse
##iens
##ibl
##iune
##iastic
##iara
##ioust
##iouz
##nr
##nee
##nit
##noo
##nas
##nad
##nant
##nish
##nig
##neet
##nup
##nner
##nett
##norm
##nals
##nows
##nla
##n25
##nmk
##nichole
##s4
##s1
##sin
##sou
##sis
##sam
##sion
##sink
##sound
##sang
##sip
##sman
##sign
##scar
##syl
##sville
##soul
##siao
##sru
##somer
##sanders
##sdeg
##u3
##u5
##uan
##uke
##uks
##uart
##uong
##uice
##uhh
##uite
##uud
##uating
##u_b
##uae
##ueless
##uvs
##uws
##uwine
##uicide
##mv
##m9
##m1
##m5
##mot
##mut
##mop
##mant
##mest
##mum
##mig
##much
##mies
##mud
##miz
##mey
##meam
##meal
##mouse
##matt
##mcr
##mcl
##mple
##miley
##mals
##mills
##mille
##muts
##million
##mitchen
##miles
##mwilliams
##motion
##maps
##meme
##mgmt
##lp
##lq
##l3
##lay
##lit
##low
##las
##link
##lab
##lish
##leen
##litt
##lass
##liz
##leal
##lman
##law
##lory
##lane
##lamb
##luc
##l83
##lago
##lchick
##lisa
##liu
##lacey
##label
##lounge
##louise
##lassic
##laugh
##liketh
##cm
##c0
##cir
##cab
##cart
##cum
##cub
##cats
##cork
##cav
##cross
##cult
##cings
##capp
##caaa
##candy
##cule
##cili
##couch
##cules
##cotic
##clos
##cjordan
##ceashley
##cincinnati
##8n
##8c
##819
##8jt
##_i
##_2
##_4
##_3
##_5
##_es
##_ve
##_en
##_am
##_ill
##_ri
##_art
##_lo
##_ass
##_up
##_ma
##_ble
##_my
##_ci
##_ash
##_by
##_chie
##_com
##_str
##_tim
##_rock
##_loc
##_16
##_haw
##_roy
##_99
##_007
##_online
##_rose
##_sex
##_babe
##_nicole
##_chris
##_steph
##_eye
##_army
##_radio
##_aston
##_renee
##_writes
##_0407
##_berra
##j0
##jat
##jch
##jal
##jim
##jest
##jlo
##jol
##jking
##jays
##jang
##jia
##jaw
##jama
##jorn
##jade
##josh
##jlove
##jmcfly
##jazz
##j89
##jades
##jx3
##jxs
##jinx
##jclay
##jwebster
##jmatthews
##qg
##ql
##qc
##q8
##qot
##q13
##qya
##qiu
##bg
##bj
##b2
##b3
##b7
##b5
##bom
##bic
##bly
##bout
##bead
##buch
##brow
##bub
##bia
##bake
##bage
##bward
##bott
##boss
##bana
##bush
##bones
##bees
##boun
##boul
##balk
##b87
##bpro
##bwy
##beach
##b34
##bunn
##buny
##db
##dw
##d2
##d1
##ded
##dot
##dow
##dere
##dood
##deep
##dge
##dope
##dub
##daw
##doc
##dude
##duz
##doh
##dvd
##diel
##daaaay
##dcook
##daze
##dunn
##danni
##zn
##z_
##z2
##zal
##zart
##zup
##zens
##zann
##zki
##zini
##zua
##z2009
##znor
##zuel
##zoned
##znews
##z_xo
##zucker
##zatb
##9r
##9c
##919
##905
##f5
##fing
##fat
##fter
##fal
##fday
##flly
##fant
##feed
##feet
##fool
##fell
##fia
##fans
##fts
##fac
##fake
##fod
##fner
##fors
##fib
##fork
##fav
##fesh
##fried
##fident
##fury
##finger
##fusion
##ftsk
##fisher
##famous
##frizz
##fidel
##future
##wo
##w1
##w7
##wat
##wad
##wang
##wend
##weeting
##wana
##wings
##wade
##week
##wren
##wills
##wears
##wealth
##wjr
##wbooks
##wered
##wisdom
##wentz
##2ts
##2u2
##2306
##2776
##0p
##0k
##0t
##0w
##0ll
##0se
##0ph
##xp
##xst
##xim
##xus
##xpl
##xpress
##4e
##4y
##4n
##4s
##48
##46
##4it
##4ge
##4me
##409
##411
##408
##474
##4jb
##4real
##4him
##4christ
##1r
##1e
##1n
##1b
##1ph
##119
##112345
##3k
##3o
##3a
##3u
##39
##3f
##3ss
##3rs
##3boy
##311
##321
##389
##317
##316
##379
##3000
##373
##7e
##7en
##719
##713
##709
##711
##720
##786
##702
##7yp
##5h
##510
##511
##521
##525
##504
##515
##578
##531
##506
##614
##625
##626
##^)
##).
##/-\
##|/-\
##;(
##inm
##inat
##inse
##inur
##inth
##inct
##inup
##inside
##inary
##inney
##inness
##infect
##inces
##inars
##in60
##inette
##instone
##inthep
##inthes
##inikki
thy
thu
thm
thq
thay
thot
tham
thud
thooo
thik
thirt
thistle
##erm
##erz
##er1
##eria
##erio
##erved
##ergirl
##erals
##erife
##erville
##erdri
##errrrrrrrr
##ernerd
##erlor
##eribb
##erismo
##erabbit
##erichie
##ergetic
tost
tove
tore
tory
toro
topl
tota
toms
tone
toooooo
torie
toasty
##ingitis
##ingpong
##ouq
##ouken
##oran
##orgh
##orite
##orrow
##orms
##orian
##orical
##orters
##orensen
##anu
##aning
##anite
##anation
##annn
##anana
##anama
##ancing
##anuts
##anza
##anbc
##anatomy
##anxi
##anavar
##atv
##atw
##at7
##atan
##atist
##atory
##atree
##atible
##atcool
##ataylor
##atq13
thek
theh
theem
thebl
thegu
thete
thehy
thegood
the_r
thewine
thepresident
thedead
thelovely
##oner
##onie
##onth
##onia
##onah
##onto
##onik
##onics
##onoun
##onhall
##onali
##onb87
##llo
##llr
##llan
##llew
##llai
##llover
##lleg
##llivan
##llthms
##eell
##eele
##eent
##eeves
##eels
##eelove
##eemcfly
##eebaby
##ee07
##ayi
##ayd
##ayz
##ayor
##ayan
##ayone
##aycat
##aybooks
##aymakeup
##esee
##esar
##esno
##itn
##itic
##itation
##itating
##itors
##itial
##itrs
##itlin
##itgrey
##ndy
##ndon
##nday
##ndid
##ndra
##nders
##ndog
##ndrix
##oove
##oole
##oosh
##oogie
##oohoo
##oowho
##area
##arter
##arth
##arig
##arey
##arrr
##arper
##arity
##arich
##arley
##arav
##arris
##arney
##arron
##aroid
##arfa
##ar01
##ar76
##areasy
##arcelon
##omon
##omiss
##omans
##omars
##omij
##omination
##omarr
##ometry
##omuzik
##eda
##ede
##eder
##edays
##eddd
##edged
##edex
##edmind
##edryl
##eddar
##edouble
##edavis
##edbalk
##sti
##sts
##stet
##stain
##sters
##stuck
##sthing
##stree
##stones
##stock
##stops
##stuh
##stuff
##sticks
##stwin
##stanley
##stroke
##stomars
haf
haiz
hagg
haft
hala
hairsty
youll
##oti
##otn
##otl
##oting
##otor
##otes
##otas
##otty
##otts
##otions
##otees
##otonight
##oterismo
##ow8
##owan
##owal
##owling
##owls
##owards
##owwww
##veil
##veno
itl
itd
itz
itx
itll
itch
##eaw
##eacher
##eague
##iso
##isu
##isee
##isch
##isies
##isation
##isure
##isley
##isde
##isme
##ischer
##islin
##israd
##isabel
##iseman
##isnyc
##ismonster
##ischen
##isstee
##iself
##isoft
##isadu
##isaloves
##isnail
mys
myse
myers
mybr
myep
myka
myfab
myinner
myuze
##etr
##et6
##etea
##etly
##eters
##etass
##etable
##et10
##etron
##etics
##etitive
##etooth
##etjirou
##etaylor
##etlor
##etumbling
##etamol
##utt
##utar
##utch
##utious
##utions
##utters
##uthers
##enk
##eng
##enad
##enks
##enia
##enne
##enorn
##engu
##enades
##enese
##engers
##encia
##ength
##enstein
##engrey
##enigma
##eninja
##enotonight
andd
andsh
anddd
anderson
##icu
##icat
##icar
##icad
##icus
##icos
##icap
##icts
##icial
##icsw
##icals
##icule
##icides
##icians
##icua
##icature
ini
in2
inet
inha
inik
inade
inapp
incom
incap
inhal
incor
inev
inability
initial
...**
onions
ontar
onstage
##ghc
##ghhhh
##ghurt
##ghost
##chou
##chad
##chal
##chun
##chang
##chew
##chord
##choc
##chase
##chale
##chapp
##champ
##chelle
##choice
##church
##chino
##chae
##chung
##chiu
##chanic
##charde
##chmid
##channel
isa
isi
iskr
isaper
fork
forens
forcast
forte
forrest
ofc
##leo
##lei
##leine
##leans
##left
##legs
##leann
##lemon
##leback
##leface
##lecule
##lendid
##asa
##asw
##asen
##asir
##asph
##asuz
##asawa
##ascript
##ashhe
##ref
##reer
##repp
##repl
##repr
##reign
##render
##report
##rels
##rella
##reli
##referr
whb
whar
whine
whaa
whooo
whii
whiny
whoot
whits
wheat
whites
whining
whoooooo
whores
whales
wheats
##keh
##kegg
##keina
##keli
##kemp
##kemea
sty
stv
sting
stll
stam
stir
stain
stead
stays
stub
stag
stint
stating
stash
stable
stings
stations
stiff
stunt
stiles
stakes
stacy
stewart
stumble
sthl
staging
stowe
meu
megh
memo
me_chie
mechanic
##idg
##idan
##idas
##idnt
##idol
##idos
##idia
##idents
##idget
##id2k
bem
bex
beards
begging
bex_
soar
soci
sopr
soco
soak
sogn
soham
soggy
socall
socal
socil
sobk
that_k
##lyse
lok
loon
loic
loong
loco
lollll
logged
lozzy
loyal
loishe
##adc
##adie
##adri
##adeep
##adong
##adder
##adio
##admin
##adetlor
##amy
##amack
##ammm
##amma
##ambr
##amont
##amanda
##amiller
##amusic
##amiche
shet
shal
shab
sheen
sheet
shub
shitt
shiz
shav
shoud
shunt
ships
shred
shae
shrop
shaked
shigg
shibu
shtoo
shiiiiiiiiiiiiiiii
shouq
shonali
##omend
##ome11
##omeli
goon
goeb
gocincinnati
have2
lion
lilc
lions
liep
libre
lionel
##usty
##ustic
##usters
##ldr
##ldi
##lding
##ldave
##sein
##seven
##sels
##semb
##second
##searted
##illero
##illavin
##ight1
##tera
##terna
##tersh
##terms
##terial
##terhor
##urr
##urm
##urf
##urer
##uren
##uric
##urab
##uros
##uries
##urner
dayss
dayzie
dayuum
##iry
##iran
##iree
##irre
##irly
##irus
##irting
##irah
##ireee
##irva
##irene
##irns
##irnangel
##alm
##alea
##alam
##alie
##alent
##alry
##alab
##alist
##always
##alii
##alrus
##alba
##alami
##al1986
##alatine
##alpha
##unb
##uning
##unis
##unus
##unct
##unning
##unity
##unrays
##vered
##verty
##verbs
butth
buttt
butte
butbut
butttt
wei
weer
weat
weve
welly
weare
weho
wegm
##iep
##iek
##iever
##ithin
##erely
##erecord
##imk
##imt
##imed
##imah
##imsh
##imbs
##imated
##imination
##imistic
##imoura
##imartinez
##iminaj
##im_chris
fray
fram
fress
frist
frak
frida
frances
frantic
fruity
fresno
!!??
ano
ane
ani
anom
anam
anal
anil
anant
anny
ankes
anto
anita
anjee
anotha
anberlin
annnnd
anisaloves
justam
justine
justwatch
just_an
##oodd
##oodog
##oodness
dop
dock
doable
docks
dosen
dojie
withstanding
ath
atx
athl
athens
nott
noting
notion
notices
notdiy
hez
heir
heine
heater
hendrix
worms
##opc
##open
##opic
##opened
wasup
wasss
wasabi
##herr
##herent
##herain
##llyeah
twt
twn
twic
twill
twink
twain
tweed
twirl
tweak
twik
twatter
twtv
tweat
twidd
twibes
canc
cancl
candies
canadam
cannib
chk
chee
chit
chad
chun
chry
chart
chol
chally
chub
chaz
chup
chiz
chey
chich
churn
chav
chi_
chota
chingo
chuy
chenna
chunky
chamber
chronic
cheeks
cholla
chomp
chorus
chachi
cheddar
##oneill
##onella
gettt
getaway
reve
rever
regg
rebl
reload
revel
rejo
rewr
rebell
reiki
reborn
releg
rehab
suf
suite
suited
suuu
suffic
supa
suites
su2c
sullivan
suareasy
suicides
nel
neb
neice
nevr
nezua
neillavin
upss
uptown
upstate
comix
commin
goodie
##cece
##ceci
allan
allig
alley
allian
allears
allright
allthat
reass
reagan
##entic
##entine
##entious
##entially
##entourage
outa
outro
outage
outlet
outttt
outbreak
##ry_
##rying
##ryor
##haz
##hake
##haess
##haaa
##hawn
##haime
##haines
##haaaa
##halex
##habi
##hazel
##hazzard
..)
nowt
nowww
##essard
##essho
##il1
##ilan
##ilking
##iliz
##ilating
##ilera
##ilasha
##iloohoo
thiss
worky
workd
worksheet
##thed
##thood
##thouse
##theman
noi
nois
noel
noice
nova
no_s
noggin
##anto
##antry
##antos
##roi
##roz
##road
##rolly
##robert
##rogue
##rosoft
##robbins
##rao
##rag
##rac
##rapt
##raising
##racha
##ragon
##ravag
alin
alis
aliss
alum
alton
alien
aloe
almond
alittle
##ksh
##ksu
##ion07
##tta
##tte
##ttn
##tteam
plce
plates
pleeeeee
plugs
plzzzz
placed
plugged
amt
ame
amf
amee
ames
amar
amad
amate
amel
amors
amym
amade
ambers
ambit
ammary
aminor
amhzz
##usha
##usuf
thanxx
##astr
##astasia
gott
gotto
gottf
morg
morrr
morethan
##isson
##issant
##issus
##issue
mak
maa
mau
maj
maine
mavin
maven
maaan
maenad
##other_1
dontt
donmc
donald
##riad
##ribe
##riosis
##riquez
https
##inkt
##inker
##inkyd
loveist
love_j
##outoo
##outch
ime
imy
impt
imog
imple
imba
improm
imreally
##esten
##esther
##estone
##estra
##estion
##estorm
##estep
##estains
asd
asus
aside
ashing
asia
ashhh
asians
asiar
asbest
aswel
askegg
assemb
##ctv
##cton
##ctiv
##ctory
##ctopus
##abad
##abal
##aback
##abra
##abud
##abass
##abare
##abob
##abulous
##abrie
##ablock
##ababe
##ababy
##abella
##abdul
knit
knuckle
knooow
knotts
seein
seeking
todayyy
todayyyyyy
awhh
awhhh
awfully
abou
abdu
abund
abusing
abbre
abuel
abbie
aberd
abeer
abuzz
abiga
abbey
abstract
abduz
abroad
tim_
timee
timmin
timetable
##ishk
twitta
twitted
##andang
##andaw
##andrew
##andcheese
##arta
##artz
##artney
whati
whatso
whatta
whataburger
##uming
##umes
##umpp
##umul
##ummers
##umedia
##umvc
missus
mississ
misspl
missco
missions
missker
miss_m
miss_k
missmary
misslaura
misskitt
missgigg
missjia
##elp
##elve
##elab
##eland
##elope
##elist
##elady
##elaine
##eluv
##eloves
someones
##ooking
##eade
##eads
##eadles
##eadams
##eaddict
##logs
##lode
##lovin
##loven
##lohan
##lolos
lolzy
happysl
##ersh
##ersen
##ersmith
##erskate
knowwww
feeee
feeeel
##eepy
backe
backed
backgr
backlog
backorder
backpacking
##ongs
##icker
##icking
##icklen
weet
weeds
weeding
##nae
##nage
##nails
##napper
oneofth
##ninger
moh
mol
mob
mozy
moles
mopping
mochi
moanas
moldo
molar
##igos
##igail
##iggy
##iguous
##igeebaby
##igabrie
##ffat
##ffed
##ffect
##ulh
##ulan
##ulay
##ulas
##ulus
##ulate
##ulge
##ulaa
##ulty
##ulian
##alla
##aller
##allis
##alloy
##allister
##allels
##allison
didger
everone
everrr
everton
everbody
everrrrr
everraven
##icean
##ice_x
##icecream
##ntigh
offense
offspr
##inden
newt
newb
newly
newish
newark
newtown
newyork
newlywed
##ineb
##inecc
##ine_j
thinker
thinkreferr
exs
exists
execut
##hharper
itss
itsucks
its_s
itsgabb
itsonly
itsmeam
##geh
##gey
##gem
##gear
##geist
##geance
nightt
nighttt
nightlife
spf
sp2
spoo
spice
spew
spect
spared
spurs
spose
spots
spears
spiced
spangle
spymaster
splendid
##eedd
##eeded
##eedge
##eedhelp
##eenth
brat
brrr
broom
brrrrr
brides
brady
brushing
bretty
broody
bratine
browse
any1
anyday
anyth
anyhow
anythin
##oler
##olve
##olous
##olizz
##olished
##olsen
##olid2k
hada
hadouken
theyve
##osw
##oser
##osund
##osbourne
##osaki
##oscop
##osaurus
##osullivan
homegirl
##mmonds
howeva
##ollo
##ollar
##ollins
prn
prs
pree
prty
prank
prote
predic
preach
pradas
prgabb
pradeep
pruning
presten
dek
dex
deanna
depe
debs
devers
deje
deangel
debt
dejam
depos
deleon
deodor
delegate
deprived
sli
sling
slay
slot
slink
slick
sloooo
slide
slater
slash
sliced
slices
slaps
slaves
slippers
sln25
slessard
##moring
##moran
##morley
##moreno
##uchan
agood
agile
agnes
agency
wag
wai
wach
waah
wakes
waik
wacom
waaaaaaaaa
wagon
waaaay
##eller
##elling
##ellis
##ellew
ohi
ohay
ohsh
ohman
ohmon
ohwell
ohsweet
ohshit
##oys
##oyal1986
##uckett
##auw
##auer
##auan
##audr
wellity
##ournight
##ourcing
funk
fung
funtime
funkey
##amei
##ame3
##ameis
needless
gue
guap
guiller
guinness
twitterr
twitterer
twitterfr
twitterena
twitterfox
twittertake
llcoo
stilll
faa
faz
fakes
fawn
faker
fakin
faffy
faerie
facil
faulko
ord
orang
orleans
momo
momz
momies
momto
momof
##vings
##aahh
##aa___
##aaallly
##dying
##dyrde
....*
##earing
##earson
##earance
##ear_me
sap
saz
saad
saves
saget
safer
sauna
sakur
sawwy
sapph
saurab
ard
arun
ariel
arrrr
arjb
arbit
arcad
arthr
artof
arlington
herb
herit
herman
herbs
hereeeeee
hercules
bling
blake
blower
blunt
blipping
blazing
blkad
blooms
greatly
tae
tac
tails
taipe
taffy
tactic
phi
phd
phx
phat
phon
phoo
phar
phob
phomor
pheasant
##oooool
##oooood
##iesgirl
##iesworld
grun
groom
grcr
grins
grump
grills
grants
greets
granted
greasy
greaa
gretel
grumbles
grenades
##oush
##ouser
eno
enem
encore
ensure
enlg
enigma
energetic
enrapt
sorrows
sorrry
sadder
##apam
##apse
##apest
##aport
##apeesh
##apolis
##ifusion
coe
coal
coboy
colog
codes
coherent
probob
provide
provision
prologue
proverbs
shezz
sheila
shepherd
shepards
hash
hasin
hassle
conqu
confu
concret
conspir
concepts
dru
drat
dres
drug
drrus
dr_j
drugged
jolly
joanna
jogs
jobl
joann
jojo
joanne
jofar
joemo
joonian
jovial
jo_loc
##iends
##aysrawr
##idean
pov
pox
pokes
poets
pokey
pointy
poems
poverty
betray
beths
bethharper
##eryl
##eryan
##eryone
##uba
##ubed
##ubbs
##ubanks
##uballow
##uberry
##ubarb
usc
usd
usag
##emt
##ema
##emu
##emat
##emon
##emot
##emip
##emod
##emoney
##emption
##emaybooks
finest
finna
finance
finaly
##angi
##anger
##anging
##angsta
sleepless
clam
clown
clich
claw
clues
claud
clunky
clancy
clowns
cliqu
clueless
climbs
##wwwww
tomoro
waitt
yeaaa
yeaah
yeahhhhh
yeaaaah
yeaaaahh
##berish
followfrankie
wonky
##ileys
##ilelaine
##ilewis
##udo
##uds
##uddy
##udger
whyyy
whyyyyy
baddd
badmic
baddest
badluck
badar76
tomorrows
##ipa
##ipz
##iphan
##iphor
##ipoynter
##ipilking
##ipidean
mayb
mayor
mayday
##xts
##ittee
##ittman
trill
trough
trina
trunk
truff
tricks
trvs
trades
trini
trashed
trumps
trinity
##isth
##isting
##iston
##istics
##isthen
seb
sew
secr
seann
seized
sections
seperation
sevinny
se7en
showsto
thingie
##agra
##again
##agreat
##agades
##agyrl
friendship
##ively
##ivella
yesy
yes2
##assy
##assi
##assin
##assan
##assed
##assman
##assness
mana
manu
manny
manics
manila
mono
mona
moni
monet
monte
monkeys
monsters
moncton
##irls
##nyeh
##ny27
##iak
##feld
##feige
##ysh
##ysl
##ysc
##ys4
##ysss
##ysix
##ysoul
##ysmith
##ysalis
overr
overdo
overkill
overlord
afro
afgan
afwife
afaik
af8jt
##pic0
##picardo
swin
swoon
swelter
shouldve
peck
pending
pebbles
pepsi
caro
cara
caram
carnt
carey
carib
carina
carls
carrie
carpen
carold
carrier
carocat
##ews
##eworm
##ewlett
##ewatson
##ewiseman
roh
roi
roc
rocc
roxx
rodney
roasted
roxy
rodri
roberto
robyn
##azj
##azines
##azdan
##azrhi
##upert
##upcake
biting
oklah
tryouts
##ssl
thoughh
qui
quee
quid
quess
query
quits
quinn
quitting
queries
quiero
quwana
header
headlines
headhard
wayland
wayyyy
wayyyyyy
waynem
leo
lend
leif
lexx
leod
leann
legged
leuke
scent
scion
scum
scath
sccr
scave
scents
scatter
scones
scoop
scandal
scrolly
##izm
##izapat
##gggh
##ggghhh
##ahman
##type
##ty24
##tycd
schol
scholar
unc
unit
unatt
unload
units
unpar
unkn
unlock
unni
unrea
unbear
unread
uncles
uncond
unholy
unpaid
unopened
afterward
afternoo
leaks
leafs
##yychell
##maw
##maize
##maids
##macd
##she
##shan
##shay
##shel
##shore
##short
##shman
##shep
##shund
##sheets
##shorter
bedd
bedding
playah
playtime
playfork
ade
addy
adem
adaw
adidas
tweety
##phins
##phreys
##ansmith
##ansunder
sayang
longg
downed
downpour
mare
marir
mariss
marking
marqu
marries
marjor
marij
marisa
marissa
marieluv
marbella
marilyn
marcelon
marebear
##eyo
sunlight
sunrise
##myt
##myra
##myers
##mywords
##mynm
##myadmin
##tsville
##tsmith
##tswift
startin
madam
maddy
madams
madberry
madres
madaya
madrig
madpier
madsdeg
##pla
##pler
##pling
##plan
##plain
##plash
##plurk
##pletes
moviet
##beh
##bex
##beha
##beque
##beanz
##cci
##ccd
##ccbon
schooling
schoolers
flea
flame
flown
flake
flute
flatt
flush
flames
flicks
flallday
flisstee
flirting
fluballow
flahman
##rrs
thankgod
pleass
##eams
appears
appology
appstore
appetite
picnik
himm
somethn
##acan
##acies
##acles
##acav
##acamp
##acaro
##acetamol
##acterial
##moder
##mohan
##mogul
##moffat
##perer
##perturbed
##annax
##eakoel
hike
hiking
hijack
hiiii
hiatus
hiiiiii
littlestar
lethar
lettu
sucksss
talaga
taltal
talisadu
##sole
##solo
##sofresh
##sodm
urls
urbana
borg
bord
borin
borat
border
crs
crud
crzy
crump
cruc
cranky
cringe
crooked
earbud
earpiece
becos
becabear
gland
glitch
glimp
glinner
littlegig
partied
partyyyy
partners
daly
daks
daxx
dawl
davest
dai_b
daisies
dairy
##athise
##athetic
##athbone
##atheex
##thington
rainin
rainforest
rainbows
diy
dii
dian
diab
dios
diary
dipping
diets
diane
dianne
dippin
dixie
dianar
wrink
wrang
wrath
yearbooks
yearrrr
##boe
##bo0
##bose
##icho
##ichards
starr
starring
starfish
##ptu
##ptune
##ptuous
##ciate
##cible
##ciano
##prat
##price
##prouse
##prince
##pratt
##pritty
##prada
##promo
##proof
##proper
##ealber
##ealice_x
damp
damon
damali
¿½.
¿½-
¿½,
buys
bugg
##fton
##derabad
lists
listning
laer
laff
laod
lava
laffy
lafay
lavender
lakoda
lailasha
laccbon
alread
smir
smily
smash
smug
smush
smosh
smiled
chevy
##odd
##odjang
minas
minne
minib
minnes
minivan
mini_r
ourselves
##inta
##intosh
hurdle
hursty
##taj
##mente
##sonline
findings
##ondd
##nerbum
lotr
lotus
lottery
##people
bigkell
bigeyed
sicky
sickly
sickkk
##joyed
##joyner
anotherjul
helena
helsink
helmuts
heltersh
omel
omgg
omnia
omnom
omlette
omarab
interact
interwe
interface
interrupt
interactive
trak
trax
trauma
travol
##fulness
##urney
##heat
##heid
##hehe
##hepherd
##ivy
##ivn
##ivor
##ivist
##ivore
yaya
yayness
##quad
##quir
##quate
##quick
##queak
##quiet
##quinn
##quality
##brd
##bray
##bras
##brother
##brite
##brough
##bride
##brkr
##breezy
##brooke
realcon
realistic
realjessica
##manilow
hoj
hoes
hogging
##ixa
##ix_
##ixie
oldies
trials
trivia
trixie
thoughtful
idp
idrather
##ashi
##ashid
huaaaa
huggles
disown
displ
discon
disgu
disaster
discret
disgra
disorder
diseases
dismissed
disinfect
hottt
hotsp
hotmail
hotels
##msg
##msmith
livejour
##iiing
##iieee
##iijess
threee
thrilling
##orders
tei
tender
tends
tequila
teeribb
##urlshana
##cox
##coat
##coke
##coaster
##cobra
##cohen
##co214
##coffin
kiddie
compass
compability
compatible
???!
???!!
damnnn
songwriter
exced
excurs
excessive
danh
dana
danb
danin
danis
dancin
dancers
danabrun
danceashley
danipoynter
##fram
##freed
##frame
##france
##fraser
lovley
hells
helll
helloo
hellolizz
##zybee
reads
musso
##ankar
??!
??"
??..
##gring
##gret
##gren
##gress
##grant
##grady
##granny
##groove
warp
warham
waraku
warcraft
strud
strict
strength
##byrne
##gsly
bose
bobo
boise
bobb
boba
boasting
boonies
broch
buses
busiest
emper
embass
emz2009
emotions
##ends
##ending
##enders
##endave
##ikk
##ikc
##ikat
##ikers
##ikak
##!!!!!
##enses
omgsh
parab
parach
parental
parallel
parallels
paracetamol
tinypic
tinytim
tinyleg
tinytwitter
perf
perky
pervs
permission
##bsumm
readyyy
##ioj
##iocre
wowza
wowzer
wowsha
wowinsider
##lesinner
amazingphil
bloss
blogged
bloggers
blogher
endang
endure
endomet
ughhhhhhhhh
##next
##neko
##necot
##ne612
##nexus
##ulley
boredddd
boyz
finishes
remir
remain
remem
rember
remaining
babyv
babycakes
babypatch
babystow
fuckt
fuckers
fuckkk
sounding
served
seriouse
##akid
##akeen
##akyle
##akami
##aknya
godd
goddam
jonconne
jonin60
runaway
sk8
skit
skoo
skot
skie
skys
skater
skank
skull
skirt
sketch
skipping
skipped
skola
skirts
skittles
checks
checkout
checkup
hairdo
##babyy
##babyyy
##zzling
breaky
breaker
breakie
##cycl
10k
104
105
faceless
##aryan
##aryann
postal
postcards
##nobody
##nobel
shopped
shoppers
shocking
shoegal
couches
coupla
dries
driven
drizzling
belmont
musiclove
musicislife
##awer
##awood
##awesome
##awalker
##awkweird
##awonth
partygur
partyends
##itchie
freee
frees
chanel
channing
elk
eli
elm
elmo
elik
elton
elje
elij
elaine
elisa
elvish
eljmcfly
elizapat
##ierchua
muster
mustaches
weathermen
sweetames
sweetpea
sweetdream
clogged
##blu
##blad
##bliss
##blink
##blets
##blessed
##bleeds
##blading
##flyhigh
##attoo
##attoos
##crat
##crack
##crunch
##cratic
##crisis
##crashhe
accidently
accadent
sucha
stuffy
stuffier
snood
snook
snatch
snif
lostalone
##spot
##spage
##spoons
##spoil
summit
summar
summery
summary
relays
relieve
relient
relapse
givemest
sundress
jobros
wondered
wonderland
wonderfull
diner
dinna
dinos
dinero
untuk
poorer
##insky
##toni
##tons
##tonline
##tonhouse
##leykerr
farro
farrah
farrell
classs
classics
hunk
hunnie
huntsville
rescu
cryed
cryptic
designing
photog
photowal
meann
meanie
bootc
booze
booboo
awwwwww
##while
##whirl
##which
##wheels
summertime
mrst
mrsp
mrsw
mr_k
mrhy
mreric
mrfloyd
##ibee
##ibles
##ibarra
suppr
supper
supporters
favrd
##tweep
##twitt
##twits
30p
30s
306
30th
30mins
30second
teaser
##nn_
##nn1e
monthly
superv
superw
supergl
everythings
addin
addicting
cleanin
cleanse
cleanup
##lands
recap
recoup
recorder
reconne
recomend
##death
##de_nicole
##ocs
##ocon
##fuzzy
##ertime
singles
lunching
lunchtime
##ett89
colder
;)..
prepped
preced
precious
preprom
preciate
waled
walker
walkin
##av1
##avies
##avirt
##av83
paints
##ildsou
killen
killzoned
moneyma
trey
trends
trellthms
defunct
defrag
drinker
winks
winwood
##risong
stupidly
stever
steps
steves
stevel
stepm
steview
ste1987
stevico
xxo
xxoo
xxmary
##kengir
##kennedy
##class
##cloth
probable
##ogirl
okayyy
##ymaine
##ymaryann
##uzman
delas
delta
hangy
##ection
##ottie
##hnin
##hnimo
shitload
keg
kekeina
isni
repo
repre
repost
repairs
repaired
buyin
bookmark
bookbag
sooooon
turnout
turnitgrey
##mez
##mex
##meir
##me1988
chars
charle
charmain
planter
sends
placements
assass
assedly
surve
aced
retreat
retake
retiring
retweeting
##onsible
##arko
ahm
ahem
ahhaha
##ney_
##ney88
lovelylu
failures
campa
camden
annnd
annam
annett
updat
##cials
indy
indu
indones
indulge
handful
handles
handling
handmade
laddie
ladymaryann
opa
rested
restur
underage
undergar
underdog
underbelly
underwear
##axa
##axe
##axis
##asean
##aseball
interns
internets
##flic
##flight
##flake
luk
luc
luig
lu_lu
edna
edits
edwards
edstet
edumedia
attic
##ness23
controll
containing
contagious
context
hitman
hitrecord
pao
pawn
paige
paisley
paigeebaby
##aylaa
##velt
##veless
hoptonhouse
soooon
tickled
##girlstell
doubled
yummmm
yummmmm
highland
cuties
eras
erie
erase
erwin
laubow
lilaz
lilmiss
lilicos
scruffy
caff
cautious
msst
msfe
msft
msnew
mscat
mswilliams
msalon
meets
meetup
redsk
redhal
redeem
redesign
redsox
red_haw
sethhs
wants2
computing
horizon
horrend
##meredith
##190
##193
##1977
##1914
##1989
##1995
##1979
##1982
##1969
##1981
##1975
chills
compliments
filmed
weds
##epryor
##conner
##confer
##constr
##confident
heartache
heartbreak
heartburn
heartbomb
heartbreaking
barb
baron
barley
barca
barbar
barrie
barcamp
barroca
barbeque
fanny
fanboy
fanfic
fannish
tye
tying
tylen
##a_c
##a_78
##ngerlor
##itherandom
grading
courthouse
jama
jamess
jamming
jamiea
jamjar
davidspr
trekker
epi
ep31
epiphor
midst
midget
middles
midsomer
midterms
terra
teraby
##swan
##sworth
unfort
jenrol
##uga
##ugent
##ugues
4wj
4wq
4wd
4wf
4w5
4wss
4wuk
4w1s
4w52
4w7yp
burg
buried
burgu
burden
burfday
passive
passwords
passengers
winding
windoze
decor
decently
decode
guyz
guybatty
apa
api
apdig
aprily
apathetic
eyed
owners
sarrah
sarfab
saraa_x
sarabare
sarawkweird
##gl3
##glam
##glupp
##glitrs
##eshad
##eship
##eshire
##eshoe
##ushal
blacks
blackjack
blackhaw
blackberries
maced
macaron
##aughter
##aughtry
jonasweb
cookout
##bbed
##104
##1028
##umping
curt
##ontur
##ontana
##ontec
##ontv88
johnathan
johnhay
johnlegend
johnrepp
blogtalk
calib
calcut
calilewis
cardiff
cardboard
goog
##129
##1210
##121986
##annam
##annette
##ann21
fallin
fallon
simons
simplic
##oooooooooooooo
textbooks
metre
metrop
bbm
woof
woops
##ports
shorten
openhack
samee
sameee
sambrad
sammich
sammoran
visible
##lesson
##orn_one
##itskristi
hurtin
braun
brawl
brabak
milwau
milosund
soothing
##ualpa
catar
catwoman
catwalk
catrion
esme
esque
esoterismo
graf
graci
syam
syedbalk
sytycd
##ofs
##of2
##ofollow
##ofzen
##ofoz
##ofjud
##ofwc
##ofdoom
##ofcode
##ofjades
##ofournight
##attered
##icaly
grandmas
grandfather
grandkids
truely
linkin
##topia
##cester
##ingsunshine
##eeez
beaches
djl
djc
djst
emailing
##kky
##iedan
##ster77
##ster25
##ade10
2011
20mins
##......
##........
iceberg
##appa
##apps
##appreci
##actions
confession
confusion
breakfastnt
breakfastnews
bumps
catcher
catches
##maree
##marked
##mariee
##marcus
##anye
##?????
blips
definit
juan
juicee
##itioner
tours
##eeko
##eeker
interests
closet
closeness
lapit
lapbook
##ronin
##ronson
##ronnie
##goz
##goes
##goby
##carl
128
12st
12yr
avi
avril
avalan
##balls
##pects
netfl
netmogul
pickle
pickles
pickings
##130
##13hd
##chergirl
officer
collide
collaps
pasty
tiles
##gyrl
##dukes
melon
melis
melvin
melanie
melanch
melkoo
evenings
drain
drake
draven
medal
medros
medbot
meditate
mediocre
figur
figures
mitchell
##ohno
##ohost
##ock22
##ockaholic
##ginuwine
##ginny27
##ietrich
##itali
replyed
67t
67g
678
673
677
6714
67h72
darl
dareal
darlin
##joey
##jobs
theree
thermom
askin
slowest
taylame3
##ukh
##uku
##ukas
##jects
extract
extension
116
11th
micar
##__d
##__marie
toni
secondary
jackets
jackfa
jackgray
topify
##oshock
##oshimartinez
differnt
15min
15mins
##ganite
##ganands
##leeper
tom_
tom_p
tompiper
markets
markmay
markman6
katcal
katarin
kat_0407
katismonster
signific
signature
##burke
##burgring
oneself
lighten
lightgood
chocos
greene
greensb
green_i_
##pression
fixd
fixin
fixrepl
pugh
puzzle
puzzles
pugsly
ukrain
##oleil
##olexa
##boyd
##boyonline
##boy808
profit
watered
waterfall
##lsaport
##thebeat
##rrrrl
specialist
nyt
nyquil
nickname
nicktion
nickleback
nickiminaj
##bae
##baillie
##chevious
nearest
ash_
ashle
ashton
harv
harney
harmon
harold
harpers
harisn
psst
##clement
1000000000000000000
2001
2003
citycynic
sonia
sentences
expat
expand
expos
expans
expense
expenses
##nedymaine
changs
chrisg
chris_
chris_d
chrisbrown
chrisjlove
chrisontv88
christa
christening
christiner
##elsea
closely
supposedly
colors
colbert
columb
felip
feliz
felicia
felitherandom
jeann
selin
selves
tumors
##monroe
##ars_army
loaders
##fficially
photovia
unfortunate
banda
bandwag
bandwidth
budapest
karla
karene
karlee
karleigh
karasw
muji
mundo
##hoon
##hova
sprint
sprung
fairness
fluids
benz
benedryl
dangggg
giants
giblah
gi_ri
jayk
jaya
jayne
jayde_nicole
jayme1988
##eashale
insanity
laurim
laura_
lauradu
lauratheex
trainer
evr
eval
evie
evicted
evlover
humm
humour
humble
hummer
humane
hummmmm
huma_r
mennard
meningitis
naptime
##rength
##comb
##combs
##commiss
##ethis
##ethomson
##icalbull
creams
flylady
miso
misfit
mismile
mischief
misconstr
mischevious
absent
absoul
absurd
geometry
nicer
niceee
nicsey
niceeeee
salty
##osefaces
##60s
##ellebelle
dd7
dieing
geno
genes
genre
gen22
iamy
iamki
iamchris
iamlittle
iamkh
iampritty
raha
raul
raider
raerae
##guh
##guide
##ledd
infested
##versial
frenz
frenzy
agreement
corning
corny
correction
corrupted
layin
layers
laydown
sidebar
##ippie
##ooping
##oopid
chickie
warmth
naty
natie
natural
natdcook
natzini
rugs
ruimoura
##garner
strauss
robor
robins
robinecc
robdyrde
capric
capture
capemaybooks
moody
##minty
##minute
##minerals
##recious
pointless
4je
4jc
4j8
4jb
4jf4
bask
basics
jesser
jessmcfly
jesssic
##true
##trich
##troopers
##ugger
##_bell
##forlife
##forbes
fights
fightin
fightstar
fabre
miiself
miffed
patrol
patients
patmaine
patricia
pinkbunny
##bumps
##11y
##115
##1172
cybers
cydia
cypher
cyrand
cystic
germs
petite
petril
##weight
##webb
##wegian
##weathers
regal
regions
empan
empathy
empathise
143
147
145
copier
ryank
##iffer
worthy
producing
producer
audacious
polite
##kybiz
##kyria
cheesey
cheesecakes
commands
skye
skyd
sky14
skyfire
visitin
visitor
nora_78
peaches
peapod
radi
radha_
womp
##parade
##parency
##notes
##notic
standby
webc
imput
impose
phils
apparent
apparantly
surprises
alexw
alexa_
balloons
joys
joyful
joyfull
joyofzen
mcast
mcfreak
mcmuffin
mcpattz
rubs
wolfram
##?!?
everybodys
earliest
sarahb
sarahf
sarahies
sarahjac
sarah68
sarahwv
presentations
##oungs
sharlynn
##lovie
upsetting
fansite
jerms
jerrick
jerwjr
jerome11
keyed
keyword
keytaj
possession
powerblog
teething
teejay
teemonster
teemwilliams
##hamilton
##obie
##obama
##obrien
##mcflyfan
##caster
##castillo
##ennant
##ie_cullen
quicker
mikebr
mikefrizz
##rieshepherd
projector
transparency
mrsnew
182
1800
foursquare
gigantic
hyderabad
nerdy
nerds
rollo
rollerskate
teams
teamtswift
vacant
##tini
##tinued
##jaff
##775
##7785
youngest
shoplif
subcons
moonlight
blueberry
blue_c
bluecat
techy
paperwork
bottling
mattress
mattlog
mattdave
mattmccoy
matt_ve
panel
##nicolee
##worlds
##worthy
##worthington
livinghandy
pleaseeee
pleaseee
pleaseeeeeeee
pleaseeeee
pleaseeeeee
celebration
celebrities
404
40min
crosses
distra
fuse
fucc
funding
fuji
funds
priest
pulls
verse
verry
verge
veritas
vermont
##1814
##1807
touchin
beaten
beatweetup
lovingly
atlas
atlant
atlantic
bagels
##eezle
justinbright
childrens
stephane
stephani
luvs
luvvv
ffaf
fanta
fantabulous
fireflies
firequin
nae
naomij
potface
potbelly
potentially
sanity
sanfran
##gae
##88b
##_sm
##_says
##_smith
##door
##dolly
##dogs
##202
##struct
grouchy
davewar
davejmatthews
##ealthy
holdin
entries
entrepr
jimm
mentioning
ouchies
squee
squish
squeaking
##mcw
##enechua
stomache
docbat
expert
?????,
baha
bacc
bahah
brigh
eachother
fatboy
fatigue
landing
vaness
##overflow
##bandit
andyc
andybradbury
intel
intake
intended
intentionally
##logist
devour
devils
deviantly
joely
joecommiss
travelin
##iiiiii
##iiiiiii
bodyshop
understanding
understandable
lonelyyyy
66y
66v
66n
669
664
6695
66l83
eleven
flock
floating
##tvf
##ylvia
##yloowho
##2112
foreverrr
whatev
chico
chicas
conscience
bbqs
1667
autism
autofollow
mamam
oohlal
porto
portsm
portugues
roundtable
yogg
yoko
yoghurt
##koz
##ehopes
##uhx
##_li
##_lia
##_law
##_lady
##_layne
##_ladie
##_dead
##_doll
##_dude
##_design
##bariy
mailing
mailed
mailbox
hahahahahahaha
records
screens
screencast
screenshots
screenshot
19th
1984
19fis
ahhhhhhhh
hannahs
moto
massages
##iento
solving
solves
solaris
spoken
costly
costco
tracking
huhu
131
25c
ellapa
ellipt
ellisnyc
grows
growl
growth
homeeee
labour
labels
labarcelon
##knows
##236
##ambu
clothcouture
dannyvan
dannymast
dannyjclay
jonasbrother
jason_man
jasonmitchen
bill_
billington
billzucker
foil
foster
garth
garbage
kimba
laras
purdy
purrr
smokes
smoked
smokin
watir
watty
watts
##uffsy
##faerie
##fan01
##2002
##2004
##easel
????,
futile
fishy
fishes
lisa_
obv
object
obnoxious
practices
##voicu
##oult
##oulet
##esterol
##stebn
##steppa
soldiers
twilightguy
twilightgossip
twilightfairy
machines
proudkiwi
alrighty
discs
paulbay
paulamack
jennloves
airports
juli
katecam
loos
loove
looong
loool
randoms
snag
snapp
snakes
snazz
snaps
viable
wallah
##ucination
##mith22
##mith88
bellion
imaginary
dhpol
dhewlett
jordans
##tekno
##_mand
##246
##illiam
##rockets
##rockchick
deaths
death_by
programs
##empire
roadtrip
sunbath
sunblock
sunbathe
productivity
groupie
groupies
laters
michellem
michellew
niko
nikz
nikon
nikster
nikhil
tenen
tenerife
werent
wernt
##naturlshana
shouting
notebooks
rainycity
???????,
???????????????
brainbone
brainstuck
tuesdays
certific
irc
ireally
irkengir
malay
malam
malta
malicious
maltese
migre
migran
mixer
mixing
sih
siber
sixt
siwhite
##hooting
##afina
##_cook
##_col
##_cullen
##_cordon
##ergame
##uthor
shotgun
shutting
shutup
animating
susans
problogger
smelling
tickettttt
wednesay
eyefic
banjo
cheri
detect
detail
detention
janine_j
mcflys
tania
tanner
torch
torta
torment
inclined
washes
spells
brando
bitchy
crashes
southpark
dental
freo
frend
frehley
hooor
hoots
matth
matalatine
posit
positivity
##holt
##holic
##newt
##backwards
##waas
##weller
##armstrong
inspite
formulas
freshyp
dollies
sumthing
sumptuous
##ification
##ssssss
##sssssss
james_
congratss
publicly
public_tim
property
successfully
europ
euripidean
eurodjang
heey
jumpstart
rachmurray
##harlem
##8320
stormy
storage
tweeet
tweeth
tweefight
##locate
screws
screwing
reviewing
gregor
angela_
angelof
angelakeen
angelibarra
##frogcat
piginthep
rowans
rowsell
ugghh
##visor
##cat224
spammed
brighton
brightly
marykay
maryjane
marypasco
directing
director
directly
directions
jeffparks
doctoral
troublebrother
blech
blender
baths
bathrooms
historical
merci
merlin
marta
marty
martha
martins
misty
mistygirl
sandwhich
tmz
tmjp
##alyn
##2610
liek
imported
##angela
##xxxxxxx
interviewed
accessories
questionable
casual
emmal
emmaroo
hooky
joshy
joshtastic
kristi
kristian
krist0ph
##855
##beef
##boosh
##boogie
##fyre
##weets
havee
andrewgold
socialmedi
antique
sugarland
maxin
maxed
trudy
trueee
managing
earth2
installation
ryan_
congratulatory
bklyn
bacardi
essential
gaskarth
ilook
ilhong
pala
palin
palms
sixth
treats
##lights
##icyu
trails
continually
continuous
ashleylovegood
5jh
5jj
bcit
bcause
centro
centigr
folio
kingmoney
kingsthing
kingivn
kaya
kayaknya
matched
valuation
valuable
valkyria
##howl
##cutiesworld
##drop
##drum
##zero
##zero3
##adesi
##iefisher
##rosie
speakin
speakers
demolished
generous
generator
importantly
batty
baka
bakers
bakwaas
gabba
gabriel
orientation
sirens
sirreign
sirhova
tarra
targets
tabs
tables
uhmazing
##ebealice_x
##ijr
##ijer
##lund
##luver
##_h_99
##2701
##058
##oredman
stormtroopers
frank_
frankly
franklin
refs
refus
reflex
majorspoil
clicking
montel
montanna
ericmille
northland
northwest
privile
privacy
brianne
brianlim
berke
bern_
bangin
bangalore
gahhh
gaiman
gailelaine
grosses
geekwears
journals
kennedy
kennedymaine
niariley
niabass
naming
namaste
namaskar
wildflowers
##mason
##leeeaa
##leeadams
halls
hallooo
hallucination
statue
statuses
choco
choices
choppers
amydew
amyatq13
magento
magazines
feedme
cruises
kelly_str
kellyolexa
jimmycarr
jimmymarsh
programmer
bonnie
bonjour
bonnar
ngay
noms
nomad
nomore
nominated
pooh
poofy
poojar
venice
venzann
vengeance
##cape
##878
##jacko
##jacker
##brain
##brave
chapel
##hawthorne
##theworld
##thewalrus
blowout
scottataylor
##heartof
##heartbreak
##aaaaaaaaaaaa
##aaaaaaaaaaaaan
steve_berra
screamin
fingernails
buddytv
buddythep
90s
aaaw
aaaand
aaaww
aaahhh
aaawww
eastenders
lesl
roshnimo
seminars
yesssss
##hani
##goodbye
##_waters
##_xox
##fortomorrow
toasting
explicit
exploration
explanation
scarf
scaring
scarlet
unleash
adoro
cravings
skinned
clearing
courtpet
systems
katiemoffat
heavens
00pm
5z6n
cowell
cowboy
cowbell
dominic
duties
lindy
lindal
lindentr
lindsays
westend
##rayne
##raymond
##giate
##giving
##slow
##slist
##undr
##undred
##missy
##ese4real
sherbert
shereemcfly
sheridan
sherrieshepherd
chemo
chemicals
chemicalbull
ambercad
armpit
arghh
arghhh
mariage
!!!!!!!!!!!!!!
!!!!!!!!!!!!!!!!
!!!!!!!!!!!!!!!
##playboy
bugles
therealginuwine
&&&
33333
agenda
besz
cashier
cashouts
jaxx
jaja
koifusion
lemons
lemsip
loudly
noooowww
pinot
pinch
pinched
titothe
titanite
tatted
tattos
##iyo
##iasm
##iaslattery
##bella_
##fitonline
##wichdab
shakes
shaft
shaanxi
frustration
cheapy
suffers
suffice
suffoc
suffolk
knightonline
pressie
trademe
strangely
considerably
aku
akomuzik
akavirt
bubba
bubbled
coool
cooool
cassette
cassidy
cassivella
estas
esther
estimate
estrella
mmot
mmwine
ricebunny
ultr
##horia
##_game
##_griffiths
##_nash
##_niger
##erobb
theaters
hahhaha
hahhahah
##charming
##charlie
megaman
begining
shelves
##imbalicious
ankurb
chaof
chiu
##halle
nosebleeds
##tttty
##tttttttt
debugging
debussy
groundhog
swearing
flashback
flashlight
bulls
bullied
miniatus
##iiiin
competitive
competitions
competiton
streams
streamline
boarding
paintings
scratches
duet
duong
duvet
dujour
ebassman
hillary
lambs
laminate
observation
romant
renay
renagades
teary
##potter
##train
##travel
##travers
##valentine
thnks
stripper
##addicted
annaeeee
donnell
donnanor
##ishedx3
roseanne
rosemary
marcos
florence
dawnofournight
typezero3
ayo
ayawan
cecili
ce_ci
derbys
dishwas
dublins
espn
fathers
htown
loung
mirrors
poopy
pooping
racing
raced
racers
racoon
racquet
symbol
turkey
uti
woodman
##poppins
##_richards
limits
limburger
##upsnob
##ggggg
##rrrl
kevinpoll
distraction
custard
ciroc
destination
jpadam
jp1983
mandar
mandarin
oscar
osbourne
osaka
octopus
tatum
tatami
zomberell
##haya
##righteous
##crazy24
##justice
##zinger
##formist
##winter
##328
toughie
whooop
wendys
##iemxx
heathershorter
challenger
challenged
challenging
##robot
##robthomas
dependent
dependencies
twittersphere
arrest
cracker
emilyyoung
doubtful
frenchiep
peterpol
communist
richardepryor
!.....
bsg
bsc
bonescrazy24
cabut
femin
females
ghetto
juno
juniors
kirstyy
ninjap
operational
pixel
rawk
sista
##ran1
##ranch
##bnb
##dium
##diaries
##651
hamburger
##selff
chucking
chuckle
##ffffff
grrh
lexia
lexiloohoo
playerstation
player112345
insanely
nicole531
basedmagazine
entertained
connecting
tattooed
bounds
featuring
jrkna
kellan
lenovo
mpix
meals
mikee
rhubarb
reecer
##peterson
##penny
##polis
##polkad
##polaroid
##hilar
##vrx
##madness
##madman6
##casper
##_team
##ficionado
##warming
##warren
##withme
##xy2
tonyhawk
tonyrobbins
##stalterego
##child59
chrissy
##abean
##abeanz
spinner
caroline
queue
awesomee
awesomeeeeee
appearing
appeared
buzzing
launched
paintball
collecting
media_mo
electrik
bffs
kaelah
kaushal
kiis
mtb
murphys
murakami
oohh
tisk
tutoring
wrapping
wraps
wrapper
yorker
##runner
##ropomor
##smack
##smile
##dragon
thesimsh
anthropomor
##lovesjb
splash
splashed
splurge
brookstuh
phillyd
robertkaz
##hhhhhhhhhh
acceptance
announcing
involving
medicated
effective
nerdatcool
nervousness
stephenhart
23rd
achur
alext
alexx
alexxx
alejandra
arikh
bioshock
bahamas
crooning
croissant
deejays
dummy
dumbo
fiat
foxandfriends
giro
krush
krissy
liner
mandypandy
noob
opposite
rpg
rayyychell
tuna
tunage
tunnel
txtin
vald
##affe
##ujx
##jenb
##jenny
##butt
##benet
##fishie
infected
stocktwits
liesx
liesgirlstell
##umenthal
sleeeep
clarifying
approve
##fromhell
snuggie
snuggles
graceful
confirm
spreadsheets
miamiadc
politico
politicians
bottoms
nikkie
nikkicsw
nikkipilking
allyycase
btches
cigs
dustbin
etniq
fearless
fearnecot
geehall
judith
mousebud
paddy
padang
poured
sowy
sowwwy
sowwie
tiime
tightly
##reaganite
##matai
##finch
##finley
##fields
##,,,,
##ophonics
reunited
altered
savings
tagalog
condom
drumstick
septum
sweats
switching
switchfoot
crispy
smoothly
despair
mcdonald
hollie__
aussiemcflyfan
recognized
07kb
28th
5500
cs4
ceramiche
cultural
downing
dissappointed
eighty
equivalent
fires
firday
firts
fields
fieldnotes
hillsong
jjj
kwod
lonq
lonley
nessa
nessie
nessie_cullen
optional
pitas
pitiful
sabby
tscc
tempting
##parts
##ydazzle
##buzz
towels
soccergame
lilyginny27
cheescake
supers
blonding
grrrrrr
grrrrrrr
cockney
josepicardo
whoaohno
quoted
scotts
scripts
division
divarina
##babe4
bootleg
contentwhore
complaints
species
jessicag
jessicac
motorways
michellezen
bubblegum
subscribed
developing
jeremycow
aaass
aahhh
aaarrr
boomstone
cuzz
cuppy
cre8
celtics
celtic
cornwall
dsi
dooope
dickiea
jacobs
kelsey
lenny
opted
optimistic
praise
praising
rsvp
ronin
ronenk
roughly
sdweathers
sensible
sensibility
settling
tinh
tasting
templ
temps
tennant
virtually
zachy
zachsang
##geezy
##janette
##janewatson
##wilfred
##757
##oticons
##amentals
lipstick
lizzerdri
chased
chasingsunshine
suitable
suitcase
combust
commerce
magners
brilliantly
wahl
savfortomorrow
processor
hockeygal
telephone
teleport
accompan
sneezed
contracted
informative
mommasalty
purplefrogcat
matthew_west
lmfaoo
lmfaoooo
generaltekno
bastards
bastetass
bulk
bulb
bulky
bulmers
brewed
brewers
cuba
cuban
curls
ethics
ethnic
fifty
hindu
krys
lulion07
luluberry
mnth
mudhut
maternal
maternity
pyjamas
rotting
rotation
ravels
testers
underscore
ummmnnn
vivzy
##hodie
##hodge
##cords
##foods
##foodie
##westbrook
##0327
##lle_
halt
halib
halbpro
##adamx3
shipwre
referring
twittascope
brownie
prototy
##aahed
greentm
provider
provides
provided
providers
providence
pockets
seatbelt
sweeet
sweeeet
swedes
crazier
hoorah
broadcast
performed
previously
hmmmmmmm
karen2306
karenalloy
humanity
empireonline
improved
wolfchild59
transfered
transferred
transferring
hookedon
dutchrud
dutchreaganite
anthony_y_
caddy
dedicating
eeks
jdpeterson
klut
klaud
lanes
lancaster
mooorning
moochergirl
misterdev
misterperturbed
pauld
rented
rapids
sassij
unavail
~~~~
##posis
##reader
##folk
##chi75
stalkers
solobass
##america
lizard
fredwilson
mosque
exercises
broncos
dean_b
deanomarr
democratic
##iperry
unitedairl
emotionally
survived
survivor
dougreport
caitie
caitling
synced
dyeing
correctly
employees
##workshop
folder
##stephens
violence
charlieboy808
destroyed
octo77
wendyand
wendywings
scriptgirl
rehearsing
ayebloody
botcon
bunged
dbgrady
fedex
gilbert
healing
healed
jillian
jillvee
jakeashley
jakarta
kasi
koreans
mutha
manga
miacarr
mccain
mccafe
mcrfash
oyster
oxox
pantone
pantry
panties
punching
ratty
turtles
temptation
vocals
yippie
yippeee
##parker
##parkles
##hungry
##hunters
##vvv
##cotland
##_fear_me
##juist
##juicy
##judd
##willow
thorney88
mellow
mellalicious
melluffsy
shrug
shrinking
##alogue
candis
candic
suprnaturlshana
ambience
ambien
ambiguous
morrison
tradehub
monica058
carlile
carlton
carlkr
quincy
quinland
##izabeth
advertise
borrowing
borrowed
smacked
craigslist
kiddin
kiddos
kiddshow
hungary
##nnnnnnn
preparation
terrified
graphics
darrenporter
darrenj0
professionals
cornerstone
technician
...............
................
claireyjonesy
claire_cordon
5km
aqui
aaaaaah
bmw
bryce
bryant
basshunter
bambi
bamboo
categories
cartoon
cartoons
dorr
doroth
dorzki
eeeeep
gumbo
janeiro
kaleidos
lamborgh
mz5t
munching
munchkin
munchkins
nunu_b
pacific
riskybiz
ricerabbit
voci
yeeeah
##puternerd
##kasplash
##hotel
##rt8
##galenorn
##nkp
##nkotb
##murf
##milk
##david
##98dave
##1qy
##70s
##555
beverage
sosolid2k
shinjuk
shaken
##ppppp
frosty
frosties
chiro
outlawonth
mornig
immigr
awarded
abandon
##igebabe
brandywand
phpmyadmin
cocoa
joelhouston
joelmadden
seanpercival
lectures
scanner
flavor
flavored
skateboard
satisfying
indoor
##unkyone
xxxxxxxxxx
puppet
colourful
beneath
fundamentals
xoxoxo
potterentourage
##harrison
lesley007
brendan
membership
anxiously
allysont
allysonrobinson
ultimatelohan
4vw9
bbyowls
bryan000
dumped
fukn
gems
garyvee
jaredmaine
kg86
litle
led2
m8zf
mizfitonline
nasal
paso
punisher
pilates
pilgrim
pupils
pierre
rqh
rqo
roux
rouge
russians
txting
villains
wookiesgirl
wizards
zeke
##gregory
##gabriel
##sayin
##ucci
##uccess
##leston
##listed
##anicole
##stokes
hazard
##enzo
andremichelle
andreanbc
inflight1
fricking
antony
twibe
reallly
realllly
##hacker
##raphael
immediate
##ummings
miss_ottawa
princeofcode
princeton
princ3ss
dewz_p
declare
slammer
slamming
waxed
tapeworm
vegetable
carrots
quarters
leighanner
scenes
scenario
mariqueen
threads
crystalchapp
killerannax
stevens
stevenbward
industrial
hopelessly
bbc1
unfortunatley
cynical
regardless
hollywoodtv
teenagers
documentation
devonstebn
homesick
larrybenet
anticipation
jesse_
silverlight
silverstone
silverstein
##((((((((
journalism
shelby_says
##supergirl
stripey
!?!?!?!?
materialistic
diamondblue
2mz
arabic
bamablock
battles
battlestar
battleground
caca
ego_ass
gentlesinner
junkie
kanoa
lancearmstrong
naruto
nhibernate
occup
ppittman
persu
persist
pembroke
pedicures
ranting
sloan
sloppy
tissue
varun
variety
widget
xkcd
zoeloves
zojuist
##girly
##vpofwc
##iarys
##cashcash
##julie
##burns
##widow
##orpio
##christopher
stealing
beckons
##adenal
shawty
shaven
franca
dolphin
dolphins
dodger
dodgy
dodging
withdrawal
withdraws
twinz
chasepino
reyes
rebeccanavar
reinstalling
reinstalled
thisisrobthomas
brento
predicted
ohmygod
funkylovin
johnd
johno
trent_re
separately
adrians
adriana
##photos
bobbyllew
coupons
believing
believers
describe
barrymanilow
##annababy
invitations
publish
publishers
responsible
portugaltheman
engineer
garretjirou
databases
migrate
positioned
antibacterial
reflect
reflection
reflective
heheheheh
renewal
galaxydazzle
yogurtland
cabinet
cabinets
##designs
dissapoint
jewelry
jewel_lia
josephadamx3
lizzieiscool
<<<
auction
cathryn
dkmatai
durin
doomed
eztv
feck
fifties
gooooooooood
goooooooood
hanster77
irresp
jlse
kaput
kathleen
lahiran
mckmama
mckenzie
nadia
nicholas
pgpm
royals
railsbridge
samsung
tayo
teens
ugggh
wuld
wingstop
woooot
##pirate
##vasquez
##mellow
##curity
##copy
##courtney
##cullenxo
##_in_love
##_and_
##_anderson
##_the_b
##beski
##buckley
##buckwild
##function
##faction
##====
##eresults
toilets
inventor
invented
invention
stereos
stereophonics
staceyvpofwc
megan_
beckybuckwild
loaner
lololol
logically
shameless
!!),
cheaptweet
chloes
chloec
representation
suziperry
comet09
novels
almighty
alancarr
lovelies
loveliness
##loggerific
bridget
sacred
bluee
bluetooth
phoenixfm
cocod
polyester
yeaahh
sweeny
administr
crunchy
particular
lappytop
smiley92
##brandt
strategy
assuming
assumes
assumptions
controversial
contemplate
highlights
barackobama
michaeld
harley_dude
numb3rs
rajasen
robpattznews
vacuumed
##eeeeeeeeeeeeeeeeeeeeeeeeeeeeeeee
##tech_up
??????????
tornado
formatting
kristenstewart
butterflykate
lifesaver
sleeepy
sleeeping
advantages
russellmoy
melodykid
melodyleal
premieres
42nd
ausaudr
bouquet
bouvier
bailed
corkyloowho
eagle
fnr
fnoo
fotos
fionakyle
farted
heeeey
heeeeey
jedwhite
jadeofjades
ksdaisy
kuya
lalala
lenses
norton
nettagyrl
ogveno
porridge
powder
popsicle
rbmartin
rfid
racket
rahulg
rugby
sqlchick
tangible
vmware
venezuel
wacky
wiping
wethedan
wealthy
~*~
##pdx
##gadget
##gelman
##iquem
##leaf
##ladii
##lalayone
##lifee
##_yours
##_of_
##qe7
##bathija
##daddy
##wilder
##inthecity
the_tech_up
##studios
##records
behaved
##amcfox
shiv379
goatzilla
##alaniz
analytics
analysis
analystalterego
dosent
heathrow
heathfox
chesterbaker
##through
##themoon
knoxville
##eliapunk
##ulkner
orbicule
sailor
arielleg
takeaway
converted
construct
poisoned
bethbabe4
claude
sequels
sevenspoons
adapted
adaptation
marianne
margarita
critics
critique
minimize
endlessly
sketches
##blueskies
mrssosbourne
mrssprouse
premiere
indivibe
erickad
calculus
darryn
tomatoes
ashleighhh
jeanette
angiemartinez
nicolerichie
daveyboyonline
proposals
witnessing
tortilla
affected
blended
,,,,,
scottrhodie
ankitbathija
##oooooooooooooooooooooooooooooooooooooooooooooooooooooooooooooooo
tattoos1985
achievement
******
etherreal
ether_radio
multiply
##building
##builders
##00000000000000000
championship
traceyhew
tracey1972
lewisking
introducing
cynthia
couponprincess
elizabethlai
googledocs
encouragement
++.
4wh4d
539
doodle
doughnuts
dagadong
fcuk
fiasco
fernanda
gathering
ginoboi
gavinholt
ickle
jelous
javascript
javierchua
jaylenotonight
janae24
jinxcat
kinanl
kentucky
kiyosaki
kiyoshimartinez
licking
looooong
lushltd
loooooong
mesmer
munich
natsnapper
natsmith88
ohaigabrie
ohaiijess
oakland
ritzybee
ribena
ruthie
sankar
tidur
tidied
trolley
ulcer
ulcers
vh1
voyager
witcha
yaaaaay
yaaaaaaay
##hardy
##aimee
##_twit
##_truong
##betts
##zt72
##faye
##films
##2gnt
##010474
thousands
tottie
tottaly
tomoz
thespencers
thespunkyone
thecompletes
thecomputernerd
youuuuuuu
andreakoel
andreashale
andysowards
incense
sterling
steroids
stapler
meinj
bebeisis
shifting
liberty
lifted
liquor
liquids
notifications
chantel
maaaan
donnyosmond
imjustcreative
imjustlalayone
twiterfon
misspelled
its_erin
its_claire
nightshade10
howardlind
##uckingham
orchestra
arkham
arkansas
blurry
phoebealice_x
grinding
grubby
enchil
pokemon
claires
##aguirre
themakelounge
themakeupsnob
swords
pendant
robbiebarnes
scooter
scrab
scraped
uniqueguitar
##shirepixie
sunshin
sunshines
cranberry
cramming
cramping
participating
diana_truong
diagnosed
buenos
chevre
##quisition
##quis26
lyndon
warranty
structure
permanently
##aken77
postpone
snooze
summersunrays
resorted
trendy
teresamerica
sylars_army
ladybug8320
sprinkler
benjamin_cook
dynamicpro
absolutley
cosmicgirlie
giggles_xo
mathewhul
mathewsanders
rollerblading
technical
integrity
elegance
elevate
elementary
discouraged
discouraging
troubleshooting
malaysia
angelicav1
ignorant
ignorance
kayleigh_stack
validation
gabrielsaport
lesliein
##producer
!!!!!!!!!!!!!!!!!!!!!!
pampering
symphony
symphnys
arrangement
ivanaf
firmly
##????????????????????????????????
jacoblovie
fortunate
vivid13
fascinated
velvetella
enthusiastic
enthusiasm
precisely
robpattinson444
boulderdiaries
spontaneously
clumsyflic
unemployment
1million
2njv
73275
airline
airlines
aaaaaaaaaamazing
beads
bawls
cincy
centers
cauz
cottage
dirk
elysion
emsy
erockett89
eileenright
fisch
gimme
givin
gooooooood
goooooood
h0ney_
jurassic
jubilee
jensara
jae878
keegan
ketauan
kohmah
kennel
kenneth
kathyireland
lsat
leeloodog
litterally
meagan
nirvana
nazi
oasis
oxtravag
opheliapunk
popeye
rx8
ruler
ruling
ropemarks
razer
uppp
vjartist
wwdc
wimpy
##kah_mcfly
##hurst
##tosing
##victoria
##iwoe
##nibblets
##_day26
##_elaine
##_moe
##_spork
##douglas
##followers
##eron2002
##ancox
theblackqueen
##ayayay
##ompson
haunting
mynameismo
ontd
loldarian
##urprises
recharge
neuroanatomy
alliworthington
##rachel
##razyangel
platea
pleeeeease
amysav83
mazda
associated
awakening
missshannababy
missjo_ladie
##alleled
evernote_eye
newborns
##inelli
##inellirva
sparking
everyoneeeee
arcade
arrrgh
blooming
bloomington
treasures
treasaint
manicure
qualifying
quesadillas
scrapbooks
scorpfromhell
unhealthy
unofficially
unplug
adobe
##phillips
glowing
littlemisshaya
eventho
eventhough
smooches
smashingpump
traumat
traumatic
hobart
tristan
disapointed
dislocating
companies
broccoli
emilmor
embrace
skillz
##awhite
religion
##whispers
##whisperer
recipes
recipient
steff_ble
instrument
instruct
acquired
retainers
##ayleeey
laurendaymakeup
lilxcutiesworld
causeee
cameo1172
##control
tyrese4real
4wc1
windsor
samanthad
bumblebeex0
bumblebeebree
collegiate
collaboration
mediterrane
geocache
4jg09
miizronnie
denise_richards
disturbance
stephaniemxx
##306275
stompthewalrus
intellig
intriguing
intrigued
elephant
garethcliff
succesful
paulaabdul
oliyoung
voicemails
brandiheyy
rachellock22
increasingly
mercury
emmielovegood
queenofkong
cheerleader
cheerleading
tabloid
tabloids
victoryhawk
sheriffs
festivities
symptoms
communication
kirsty_h_99
spinachpuff
krissysalis
linz__marie
licensing
48hoursnz
investigation
primavera
primaveron
gillianre
occasionally
##0o0o0o
garrettmaine
contributors
recycling
mopedronin
determined
determination
overwhelmed
overwhelming
eurovision2009
%),
((((((
<->
>:]
a_nobel
aileen2u2
buchaut
crikey
cuuute
cussing
dusky
dilemma
dmafia
dachshund
ejhild
euphoria
eugenechua
emmmaa___
fubumvc
fiddler
gauge
gourmet
ilost
jlojlo
jagger
j00ha
jorge924
jmlares
jmbuckingham
kurang
kazim
kman_19
lainey
lullaby
lonesome
ljsbaby
merewichdab
mcarvin
mtfbwy
nurburgring
navy
niqa86
oxymoron
pablo
pardon
pistol
pennsyl
sustain
saints
seamless
sincerely
trojan
tifa
tittch
tinted
tivo
voucher
vasilly
vimoh
vrooom
wannabe
western
weapon
xhayleeey
xennyeh
yatpund
yopu
yoyonb87
yankees
yorkshire
zimmer
zemote
##pilot
##punkmom
##husband
##hamsingal
##oouoou
##genius
##vampire
##method
##lazar
##_0981
##bastian
##z7a
##\//
##/./.
##>--->---
##inibow
##anchez
thebeatles
##ara__
habits
##isseur
##isnotmynm
mysterious
mycaricature
insects
injections
israel
##keogh
stimulate
megspptc
belfast
shatner
shontelle_layne
lillysan
##sefone
##alaura
frisbee
frasier
fractured
frugalgaming
chandler
reuters
relly1
rebekah_mcfly
reptar01
recruits
rearranging
sublime
commitments
alltimebritt
outdoors
##thoughts
nofakery
nocturn
nostalgic
albany
alphonso
albertposis
alzheimer
amyyvee
ammoxxx
img15
imovie
##estruck
missdeeeee
backseat
##navarro
mojito
moistur
brutal
brennan
pratical
deffo
decreasing
degeneres
slurp
aguilera
waaay
wavves
guarantee
orthodont
sageeb
blanquis26
tactik
tacoma
phoebo
gratitude
energized
saddened
##ifully
colossal
provoke
sheila_
connoisseur
dramatic
thenewbradie
vehicle
##angoddess
clapton
seventeen
carriers
whoaaitskristi
roar_fear_me
rochellewiseman
robsessedblog
unusual
aditya
adrenaline
adambusch
##blevins3
marathi
sunniest
flawless
flamingokitty
appartment
hi_im_chris
hippiekat
littletiara
##socialite
urgently
glamorousamanda
dixon
##protect
bullyosullivan
lautner
helicopter
hobbit
tribute
disabled
discrimination
disposable
livefreet
yaeljk
exclusive
stretching
bobbiepen
services
clemson
elainanic
eliminated
##credible
reluctantly
mr_bloggerific
recieving
rocknroll
tremend
rethink
douchebag
lilmarshmellow
redmummy
tynishakeli
jameshancox
windshield
aparently
calorie
metaphor
bball4life
shortstackband
samm_xo
invalid
prescription
##iethekid
microbes
explosion
feliciaslattery
karamat
jayce_kay
inserted
misstaken77
niccisnail
nic0pic0
nattymsmith
jessdosil
mixtape
pinkberrygirl
heavily
impersonal
sarahbellafina
transmitter
hydro
hysterical
veronicas
##mcguire
authentic
autographs
huhuhu
kimmimcfly
julierockaholic
deathwishedx3
irregularly
sixxjohn
mcflyyerr
frequent
michaelmknight
jefferycjordan
mercedez
casparterhor
valerie2776
tabbycat224
##luvsjb
nkotbsumm
cruisers
therealjordin
333333333
jaidenkhat
bubbletweet
donniescupcake
derrickj
galactica
pameladetlor
pamela010474
rawrrgasmic
icametumbling
rhymes
reemerband
volunteer
thesims3
memphis
brittaniethekid
vautrin
limegreenman
jerryshaw
multitasking
natalietran
jacqueline
kelvinlls
shadowsinstone
magnolias
savagestar
savagemike
undeniable
hottieann21
crowdsourcing
yasminegalenorn
bmthofficial
oreosandcheese
diploma
vickytcobra
influence
principled
carrotmadman6
prioritize
innocence
johannabee
aerobics
ingredients
fallenstar_
5z3oq
kylieireland
lalalal
mxlcuv
patsytravers
telescope
mollieandme
spookyjenb
claudiatan
cesyeuxble
mastersavage
meadowhall
##familyuk
hummingbird604
ficklampa
thedailyblonde
lopezwilfred
alhamdulillah
unbelievable
preoccupation
1critic
1sweetwhirl
2vko
3bnas
5ut6j
6moredays
<('
^-^
_aislin
_xotas
_elj
_hayles
acronym
asterion
axsujx
astynes
bioncaaa
bjoie
b25651
c0v89
cchiron
cmyk
censoring
coooooooool
czech
cbrown7785
culinary
deeeesearted
eogasawa
edsaint
eeeeeewwwwwwww
eeshkapeesh
fjkeogh
fwiends
furlough
fiscally
fcharlton
fuschia
gelli
gta4
gtfo
horde
hgtv
hiphop
ixigo
ipswitch
ialejandro
iggyp
iholleeee
j3nn1e
jumbo
joomla
jertronic
judez_xo
jannarden
jlamshed
jadeeisabel
j2thaess
jclayville
kunal
kubuntu
kangaroo
kmaco214
keshia
kreeoni
katelyn
kmc1121
ketchup
kadambariy
ksymmonds
kbal24
l7zt72
lmaoo
lichfield
lamesauce
m6sru
mrohboy
nifty
nptnmk
nvidia
nuthin
niamh
nimbup
ncremins
oatmeal
oracle
oberhausen
odyssey
pllleeeaa
pusher
pianist
pamslim
p33zy
pjaficionado
qdoba
qwerty
riveting
ratings
rfleeshman
roulette
rjramos
r6rfc
slovak
tldavidson
teetotal
tferthomas
ttfn
tiesto
vvbrown
voodoo
vixster25
vmarinellirva
vincent
vobes
vzerohost
wabble
wardrobe
wollemip
xodedex
x_crazyangel
xanderprod
xsparkage
ykyat
yvonne
znatrainer
zyrtec
##pickler
##hustle
##o_pax
##rouge
##turtle
##gapeach
##vodka
##uvsu
##mileyc
##boulton
##dawg
##dohate
##fternoon
##fantastic
##forsale
##ximately
##inatra
thamissus
topless
totaly
torie007
theteganands
thegoodhuman
thewinevault
thepresidentjx3
##streetteam
hafta
mybrute
myfabolous
myuze_me
##enguin
andshehopes
inhabit
inikco
inadequate
inappropriate
incorporate
...***
ontario
iskrin
isapersefone
forensic
whitsun
sthlm
stoweboyd
me_chiel
bex_1210
sogni
sohamdas
socallove
socilover
sobk13
that_kat
loisheilig
shubhamsingal
shaved
shropshirepixie
shibuya
shtoofi
goebicyu
librefm
##ternally
dayzie63
butbutbut
wegmans
fressshman
fridaay
ankeshk
anjeebaby
anisalovesu
justwatched
just_another_1
athletic
notdiyheather
heineken
wasssup
twikini
twtvite
cancled
canadamigos
cannibal
cholesterol
challyzatb
chupach
chizi
chuybe
chennai
revelation
rejoice
rewrite
relegated
neillavin300
allianz
allearsdeb
allthatglitrs
noel4president
no_surprises
##rachael
alumni
amateur
amorsote
amadeus
ambitious
ammaryasir
aminorjourney
gottfried
morrrning
mavinbkk
maenad_au
donmcallister
love_jamie
imogen
implement
impromptu
ashington
ashhh_x
asbestos
assembly
abbrevi
aberdeen
abigaildsou
abduzeedo
timminchin
whatsoever
misscokasplash
misskeribaby
misslaura317
missgiggly
lolzyluvsjb
happyslip
oneofthosefaces
moleskine
moanasaves
moldovan
didgeridoo
##ntighee
offspring
thinkreferrals
its_sb
itsgabbith
itsmeamerie
spangleglupp
bratinella
prtyprincess
protein
predicting
prgabbi
pradeepto
depeche
deversum
deangeloredman
deodorant
sln25373
waikiki
ohmonika
ohsweetnibblets
guillermop
twitterfridge
twittertakeover
llcooldave
fakerparis
faulko1
sakura
saurabh
arjbarker
arthritis
blkademic
taipei
phobia
grcrssl
greaaat
enemies
coboyf
cologne
probobly
conquered
conspiracy
dr_jared
jobless
jofarnold
bethharperwalsh
badmicrosoft
baddestnla
truffles
trvsbrkr
secrets
sevinnyne612
afwife08
carpenters
quwanaisnotmynm
headhardhat
waynemansfield
sccr18
scavengerlor
scattergood
scandalous
unparalleled
unknown
unbearable
playforkeeps
adawada
marebear521
madamsalami
madrigals
madpierrot
madsdeguzman
flahmanow
##acampbell
##modern
hijacked
littlestarred
lethargic
talisaduhhh
##sodmg
crumpin
glimpse
littlegigigirl
davestyles
dai_bach
laodicean
lafayette
lailashah
laccboner
smushed
mini_ritz
bigkelleh
bigeyedfishie
anotherjulia
helsinki
heltershelter
omarabid
travolta
realconformist
realjessicaalba
trixie360
idratherbeski
discontinued
discretion
disgraced
hotspots
livejournal
teeribbzz
danabrunetti
danceashleylove
danipoynterjudd
warhammer
embassy
tinytim2701
tinylegacies
wowshaggy
endometriosis
babypatches
babystowz
jonconnelly
jonin60seconds
shoegal007
musiclove18
partygurle
eljefe
elvishsiao
elizapatricia
##crashhearts
accadentally
givemestrength
crypticirnangel
bootcamp
summertime_grl
mr_kimbalicious
mrericpirate
mrfloydnl
30secondstomars
superglue
killzonedotcom
stevico1
xxmarypoppins
kekeinaction
campaign
indonesia
undergarments
edstetzer
edumedia09
hoptonhousebnb
laubow_
lilicosic
mscatou
mswilliamsmusic
msalonen
redskins
redhalo_pax
redesigned
red_hawt
sethhs23
horrendous
##conference
tylenol
jamjar84
davidspruell
trekkerguy
epiphora
terabyte
jenrolton
4w52z
apdiggles
aprilyim
sarfabarfa
saraa_xd
sarabareilles
blackhawks
jonaswebcast
johnreppion
calcutta
simplicity
metroplex
openhacklondon
sambradley
brabakr
milwaukee
milosundae
catwoman123
catrionat7
syedbalkhi
confessional
juiceegapeach
avrilchan
avalanche
collapses
melancholy
medbotjinx
6714p
thermometer
jackfaulkner
jackgraycnn
tom_pollard
markmayhew
markman641
kat_04071991
green_i_girl
fixreplies
nicktionary
100000000000000000000000000000000000
chris_daughtry
chrisbrownweb
chrisjlovell
bandwagon
karleemay
giblahoj
gi_ri_ja
lauraduhaime
lauratheexpat
evlover0327
huma_rashid
misconstrued
iamkiara__
iamchrisc
iamlittleboots
iamkhayyam
robineccles
robdyrdek
capricorn_one
jessmcflyxxx
jesssicababesss
pinkbunny69
cyrandorman
petrilude
sky14kemea
mcfreak_
sarahjacinta
sarah6800
sharlynnx
jerricklim
jerome117
mikefrizzi
mrsnewlywed
shoplifting
blue_cupcakes
bluecat7
mattlogelin
matt_vega
justinbrighten
firequinito
entreprene
docbaty
deviantlysweet
joecommisso
6695k
oohlalisa
portsmouth
portuguese
19fischi75
ellapaigebabe
labarceloneta
clothcouturellc
dannymasterson
dannyjclayton
jason_manford
jasonmitchener
billingtonart
paulbay1028
paulamackay
jennlovesm5
katecameron2002
dhpol7
death_by_spork
rainycitylove
ireallydohate
migranes
siwhitehouse
eyeficard
janine_j9
freshypanda
public_timeline
eurodjangocon
rachmurrayx
piginthepoke
marypascoe
mistygirlph
joshtastic1
krist0ph3r
andrewgoldstein
socialmediatv
ilhongy
centigrade
kingsthings
sirreigns
majorspoilers
ericmillegan
brianlimond
bern_morley
geekwearsprada
niabassett
amydewitt
kelly_straycat
jimmymarsh617
bonnaroo
poojarazdan
explicitly
unleashed
lindentreephoto
lindsayslifee
shereemcfly09
chemicalbullets
ambercadabra
koifusionpdx
akomuzikera
akavirtualpa
cassivellaunus
dujourmag
donnanorgren
derbyshire
dishwasher
dublins98dave
limburger2001
kevinpollak
jpadamson
zomberellamcfox
emilyyoung09
peterpolaco
jrknaught
media_molecule
thesimshub
anthropomorphic
robertkazinsky
nerdatcooltable
stephenhartley
arikhanson
mandypandy32
nikkicsws
nikkipilkington
etniqminerals
fearnecotton
mousebudden
ceramicheart
nessie_cullen10
divarina21
jeremycowart
lizzerdrix
bastetasshur
luluberry_0981
shipwrecked
prototype
karen230683
dutchrudder
anthony_y_tony
misterdevans
unavailable
solobasssteve
unitedairlines
ayebloodyright
miacarruthers
mcrfash1
melluffsyew
tradehub21
darrenj0nes
kaleidoscope
lamborghinibow
mz5thave
riskybizness23
shinjuku
outlawontheedge
brandywandlover
4vw9a
m8zfx
pilgrimfamilyuk
andreanbc13hd
dewz_pingpong
leighannereena
crystalchappell
devonstebnicki
bamablockhead
ego_assassin
zoelovesarchie
rebeccanavarro
trent_reznor
garretjiroux
hanster7705
irresponsible
chloecazrhi
kristenstewart9
russellmoyer
melodylealamb
ausaudriel
ogvenoe
rahulgoyal1986
sqlchicken
the_tech_update
ariellegore
mrssprousex
traceyhewins
kinanlw
ohaigabriella
thespencersmith
andreakoeln
its_erincharde
howardlindzon
uniqueguitarist
mathewhulbert
gabrielsaporta
symphnysldr
73275306275
elysion32
kohmahts
leeloodogblog
oxtravaganza
evernote_eyefi
smashingpumpkin
steff_blehh
mediterranean
spinachpuffs
krissysalisbury
buchautor
dmafiax
ejhildreth
merewichdabitch
pennsylvania
yatpundit
casparterhorst
nkotbsummertime
hottieann2145
_aislinntighee
_xotashhh
j2thaessica
kadambariyer
m6sru3
mrohboy32
nptnmkiii
wollemipine
xodedexo18
theteganandsara
myfabolouslife
allthatglitrs21
abigaildsouza
spanglegluppet
sevinnyne6126
xxmarypoppinsxx
!~
!=
!&
!+
!....
"]
")
";
":
"??
"!!!!
#-
#,
#"
#@
#..
#...
#).
$.
$!
$,
$%
%.
%!
%$
%#
%..
&,
&$
&#
&.....
&......
'(
'<
'!!
'!!!!
(.
(!
(^
(,
()
('
(=
(;
(.....
)(
)'
)!!
)??
*?
*)
*(
*|
*[
*#
*&
*---
*@#
+.
+!
+,
+:
,"
,(
,:
,..
,....
,--
,.....
-"
-\
-#
-...
.(
.#
.+
.????
.--
.---
.,,,,
/*
/@
/!!
/...
0k
0t
0a
0n
0s
0m
0z
0f
0ay
0om
0zy
0hhh
060
023
024
025
0guy
0eg
0gm
0xox
0ghz
0rpm
0b5
1p
1k
1t
1a
1e
1j
1b
1out
1nt
1aa
1mo
110
1of
177
1do
1123
1uj
1zs
1cor
1bi
1zu
1zx
1kg
1km
1y2
1zyg
1capp
1xts
1shan
1130
1minute
2k
2o
2t
2a
2g
2y
2x
2or
2ve
2ur
2ce
2nt
2aa
2ag
2my
2ft
2uz
2me
260
218
2do
220
2eh
2da
214
286
2hi
283
2sl
299
2k9
2yr
2field
2hours
2twitter
2cal
2dm
2stop
2dim
2xj
2kids
2j3
2ghz
2888
2s1
2people
2jobs
3h
3o
3a
3y
3s
3u
3l
3j
3or
3lo
3ind
3ys
3gg
3to
3are
3sp
3ds
3ale
3pm
3oh
3min
3lin
326
3bt
395
3mag
3ware
342
3ala
3break
3yp
3him
3md
3v3
3o3
3aaah
3squ
3qf
3w9
3stri
3o7
3minds
3asa
31807
3milk
4k
4h
4g
4e
4i
4l
4q
4x
4ve
4ut
4ha
4us
4ish
4ge
4so
4gr
4me
4more
4bb
4gn
409
460
418
420
483
4vis
416
487
4hs
4000
4hrs
4yr
445
4boys
4vt
449
4vv
4uy
4hours
4days
4eva
4qp
4rom
461
4sx
4km
4iw
4_id
4x4
4rm
4m9
4ttn
5p
5h
5o
5e
5s
5d
59
5ke
5ry
5ish
5mm
5yy
512
5of
5jo
560
5ka
577
518
520
5je
525
527
599
5hours
5yk
562
51p
5sec
5ghz
6p
6k
6r
6ool
6ft
613
624
614
689
616
687
695
6fg
6hrs
6uy
6hes
638
650
6p19
6urr
6ireee
6msg
6nkp
7p
7y
7v
7m
78
74
7ar
7day
710
777
718
7af
7ex
705
784
701
715
782
7mad
790
745
78q
8p
8m
8c
86
8mm
8ah
833
888
830
805
874
865
8hrs
8bit
8gb
880
8wee
82k
840
8j3
8qa
8w7
8short
9n
98
9_
9j
91
97
910
912
911
914
999
9000
982
965
929
9100
957
9uin
9x0
9followers
:?
:~
:<
:$
:{
:^)
;]
;\
;/
;'
<.
<:
<====
=.
=\
={
=}
=((
=-\
=====
>?
>]
>(
>=
>$
>[
>;(
?-
?*
?..
?.....
?----
?<<
?!!!!!!!!!!!!
@@
@>--->---
[-
[;
[[
\\//
].
]]
]:
][
]..
]...
^.
^$
^%
_s
_m
_f
_w
_ow
_re
_ra
_ag
_ny
_ah
_to
_pe
_tw
_fl
_gl
__s
_you
_mmm
_new
_ado
_light
__j
_dr
_sl
_mic
__g
_____
_mad
_cor
_what
_made
_call
_hand
_cass
_mam
_alex
_annie
____
_jayy
_fre
_ianne
_harry
_kot
_sarah
_esme
_idance
_tan
_yeah
_josh
_danni
_enigma
_adri
_minty
_faerie
_bella_
`.
a9
a4
a1
aon
aay
aes
aar
aot
aea
aen
aic
aas
ake
ail
aum
aig
aul
auch
aide
afe
aew
aure
aac
aeak
ahe
aik
ains
aime
auu
arist
aever
afect
aann
achie
affic
augg
a_b
aots
aider
aki
aries
a77
augh
a_s
aene
a_l
ayou
aston
a200
a_m
azer
aural
aila
aost
aubs
aund
aoe
aryan
ajay
a_t
ajab
aarr
aaaaaa
aiya
asta
ayoung
aqo
alden
aawh
a0n
aiken
a_war
aq8
a0p
aannn
aatw
aitn
aldi
ary_
aiyo
b8
b9
bx
b3
bis
bith
bim
bce
bil
bct
bate
beep
bice
bind
bally
bif
bny
bown
bfe
bort
bgg
bcc
bto
bso
bater
bpt
bpe
bii
bhaha
bcy
bfly
bcr
bates
bps
bwh
bib
bigh
bde
bmore
bark
bote
bina
bount
bunk
bsw
bbb
bann
binks
bfast
bact
bdu
bpm
bberry
beeps
bitty
bwe
biff
bmi
b_s
biiii
bothers
bient
binn
bbye
bails
bfa
boul
biot
bwr
bhar
bien
bmart
bpro
bhan
bsk
biddy
bhs
bwl
bitten
bbrad
bjs
b32
bucky
bonds
b_t
bustin
bni
bode
bwi
bws
bawa
baws
bpark
bhu
bnl
bxa
bhack
b0r
bwm
b2k
b2b
b50
bhab
bampa
bhaa
b2g
beeping
baylee
b_lu
bwt
baaaaaaa
bsween
bbba
bwad
bbrooke
bgeezy
cv
cb
c2
cing
cll
ced
cot
cis
cic
cly
cse
cun
cim
ciss
cain
cest
cuck
cking
cem
cip
cort
csh
cought
cci
cii
cian
coom
cull
coney
cno
caw
ccr
csp
cors
cps
cib
ctw
cde
cfu
cym
cple
cked
cote
cember
cug
cbb
cower
ceee
cade
cger
c33
cinc
cthe
caaa
crrrr
cages
ceas
cmin
ckin
ctc
cunt
cdo
caster
cazz
c_d
cbar
cient
cda
c25
cbee
czer
cjam
cbra
creme
caine
cbed
cjs
ceased
cerr
cushing
ckd
cfi
cuma
cbob
c63
cpal
c73
ckas
cnk
crip
cager
cmd
cfree
cdev
cpop
ciner
crizz
catherine
cierra
cuuut
cici
cripp
c2s
cstm
caaaaan
creyes
cjewel
cspin
cumbers
cmagn
crobc
coutch
cccd
d8
dq
dz
d9
d4
d7
d6
dll
dha
dink
dct
dlo
deet
dau
ddy
doooo
dap
dys
dble
dich
dbr
dord
dgr
dbs
dzz
dbl
dlc
dps
dload
daaaa
dym
duu
dmore
dush
doooooooo
deee
ddu
dics
dict
duk
dming
dees
dpress
daaa
dba
dages
dgt
dilly
dense
d60
dler
dips
dva
deez
dusted
dpressed
dbar
duff
dito
dte
deap
dicks
dili
daaaaaaaa
dkr
ducky
dfg
dahl
d44
dsth
dali
daaaay
dzs
dlan
dxs
dander
daps
dims
daaaaa
dfel
dvt
dingo
durb
dfar
d1q
dante
dusk
daph
dagn
dtn
daze
d53
dmann
dothe
d1s
dotcom
d56
dabo
dz7
d4c
dicap
dastasia
dworlds
dbackwards
dwestbrook
e1
ean
eit
een
ead
eam
eill
epp
eun
eim
elly
eil
eri
eink
eab
eum
elo
ena
eine
ehh
eeet
eally
euch
eau
efe
eaz
eyy
ema
esh
eey
elf
epl
eto
eater
eci
epr
eather
eeeee
eman
eash
eens
eats
eier
ebook
eins
eina
eved
eep
eppy
eeee
eger
eject
e__
eche
effic
ekin
easter
eje
eston
eeeeeeeee
este
e83
eboo
ebt
ejam
ewl
ecas
eov
eaj
eeem
echo
elder
emax
e2b
erection
eabear
eblond
echarlotte
ealing
epps
ehhe
eeeeeeeeee
eeeeeeeeeee
eedawson
emai
e_diva
eerrrrrrrrr
eidol
eassy
ehehe
eawalker
etonline
eternally
fk
fs
f8
fd
f9
f2
fou
fes
fow
fet
fen
fle
fid
fad
fome
fim
fop
fent
fack
fink
fain
fff
ful
fiend
fang
ffe
fiz
fma
fsh
fure
fash
fank
fian
fgs
fend
fated
fats
fier
fence
fib
fuu
fuz
fhn
fds
fug
fizz
fgl
fof
fgin
ftr
fkin
fowers
fyl
fandom
foul
femp
ferg
fcked
fyn
fij
falk
fxxx
fiy
fenter
fuuuu
f_n
fuses
fcs
fstre
ffrom
feta
faded
fxs
fims
fhm
fisher
fsb
fcu
fika
fnb
fcking
fuster
fnyc
fading
fkc
fangs
fjg
fooked
fpu
faders
fuuuuu
f0ll
fuming
fersh
foooood
fiiiin
ges
ged
gow
gis
gch
gly
gday
gth
gant
gri
gout
gong
geen
gaa
gif
gays
gag
gny
gaz
gss
giz
gcc
ganna
gxx
gpt
gpr
geal
gint
gman
gash
gooo
gby
ggs
gbs
gne
gdd
gates
gory
gav
gves
goot
gently
gina
gayl
gial
gsw
gphone
gals
gump
gale
giver
gits
gjo
gees
gba
gho
geas
gya
gai
gwe
gknight
gara
gains
ginn
gails
goul
ghi
galia
gweet
gabb
ganda
gmas
givers
gpro
gkr
gimb
gils
giii
goooooooooooooooo
gjr
ggen
gni
ggm
gilty
gaah
gaaay
gcre
gula
gtg
gazing
g_e
ganz
grig
gaze
gaaaaaa
gnar
gjer
gators
gimm
gowns
gashes
gjv
garde
gaging
gmod
g2g
gaaah
gedan
gordon
ggggggg
giselle
g00d
g3o
gleann
gtta
gandang
g11y
hg
hn
hl
hz
h2
hly
hse
hone
hha
hink
hart
hig
hice
hhh
heed
hoy
huck
hving
hollow
hive
hue
hma
hble
hooks
hooo
hank
hunch
hhhhh
hnn
hcl
hayl
horm
hana
hesh
hush
hiness
h09
hilly
h60
houn
hja
hva
hda
heel
hte
h14
hden
hrd
heeeee
hides
heeeeee
hicks
hhs
hitten
hbn
hwilliams
hano
hwy
hws
houst
hanny
henrie
hetty
hstreet
hanks
hlt
hxc
hannab
hsg
h8s
hulk
hansen
hhig
hifi
heston
htodd
honda
haylee
hfw
hishe
hulz
hcole
hulan
hannam
hooping
hhilar
io
i9
iat
ies
iit
iar
ien
ile
ight
iad
iight
iun
iver
iop
illy
iri
iand
iff
iem
iber
ixt
iia
ians
ipl
ipr
iod
iank
icy
iare
ihn
ivel
iama
iont
ikk
ila
ilic
iused
iga
iyl
i_d
iwr
iloc
iye
ivs
iza
ivan
ioe
irah
ijust
iblue
iht
ianc
ian_
istore
i41
i36
iphones
ibiz
igot
iyo
iloved
ihop
i420
icharlotte
ijm
ihunt
i0n
iaret
ihave
iyaa
ibex
iappreci
igoby
iaaaaaaaaaaaaan
ijanette
jz
jx
j4
j6
jin
jing
jent
jks
jish
jna
jmor
jber
jive
jah
jph
jans
jts
jpl
jms
jne
jare
jsp
jins
jps
jib
jfu
jym
joss
jark
jcon
jale
jits
jrs
jmar
jls
jandy
jars
jfer
jeeps
jkin
j_s
jtv
jbar
jpa
jkn
j14
jden
jwr
jarn
jarm
jado
jitter
jrad
jades
jmas
jhy
jsl
jenty
jhall
jmarie
jaron
jhay
jipped
jrob
jsm
jlynn
jcd
jfc
jaked
jmel
j45
jgm
joman
jmr
jcin
jvm
junky
jmcc
j_st
jglass
jgurl
jumble
jfk
jolla
jender
j1s
jotton
jader
jalis
jummy
jhughes
jhon
jfb
jinb
joper
jools
jmichelle
juuuuu
jwalsh
jhicks
jtype
juga
jglam
joooooooooooooo
jijr
jcharming
kv
k8
kb
k3
k6
koo
kse
kter
kain
kum
kong
kard
kall
keed
kol
kite
kaa
kear
kays
kem
kile
kia
kah
kbe
kac
kto
keal
kond
kpe
khe
kii
kwn
kfr
kank
kio
kare
kates
kib
kde
kline
kox
kmore
kase
kina
kont
kinks
kits
kual
kkk
krs
kamp
krus
kato
kdu
kjo
krrrr
kgt
kandy
kmon
kcom
ktf
kya
kai
kitar
kstr
ktv
kazz
kpa
kita
kae
kye
kmart
kdr
kween
kices
kost
klee
kung
kroll
khs
khor
kwl
kryan
kjb
krick
k_t
kht
kuj
kknow
kdel
kkkkk
kalo
kacey
keem
kisha
khod
kiki
kava
kedge
kilo
kdc
kacy
kunky
ksn
kales
kysp
kaching
kaden
kinky
katte
kbang
keeks
kooz
kaina
kfff
kreative
kaka
k_z
kboom
kchas
kvag
kfb
kouz
kabo
kables
kurtis
k0n
knda
kassie
kupcakes
kitsch
k4ge
kiso
kamei
kassi
kanye
kkoz
k_griffiths
kgeezy
ln
lq
lz
lw
l3
ling
lll
lnd
lom
lst
lve
lle
lke
lly
lter
lent
lant
lish
leet
lell
ldy
lking
lown
lcc
lach
lint
lank
loom
lise
loney
lary
latt
lates
lley
lory
lken
lcl
lark
lina
lurk
lann
loooooooo
latter
lrs
lron
lamp
lpm
lba
lmon
ltr
ltc
lmi
lenn
lino
lmc
lomb
lured
lvo
loul
lester
lunes
lwr
lhar
lboo
lena
lvs
lung
laaaaaaaa
lrol
licked
ljr
llll
lk9
lhr
lcd
lbd
linger
lanc
lvt
lidy
lcall
lante
looooooo
lager
lanky
luster
lti
lumpy
lbig
luto
liddle
llda
laina
lumber
lwc
lxj
l4d
lbutter
ldn
l0l
lelah
looooooooo
lomeli
ltte
lsolo
mq
m3
m5
ming
mke
mome
mse
mpp
mver
mie
mith
mce
mant
meep
mick
mul
mool
muck
mous
mif
mery
mub
mgg
mma
mph
mts
mpl
mta
mbr
mms
mooo
mco
mbs
mles
moom
mcy
mbl
mib
mets
mde
mett
muu
muz
mney
mase
mial
mete
moooooooo
meek
mca
mees
mops
mba
milly
m_b
mkin
mwe
mucks
m77
mstr
mooooo
miiii
m_d
mito
m_m
mdr
manda
mimp
mrah
mizzy
mpo
mfs
meech
mucky
mjb
moomy
mxy
mstal
mfm
mkd
mkar
mht
mbre
moose
mku
mgm
msell
mlew
muns
mingo
manta
mkay
mkas
mbill
mbm
mmommy
mucking
mnox
minging
mmage
mcherry
m3n
mths
mantan
mchale
mfeige
mfrance
mitali
mhawthorne
nv
nq
n2
n0
nx
n3
ned
nea
nke
nome
nal
npp
nast
nain
nab
nish
neep
nul
nind
nge
nub
nber
nip
nation
nive
nass
nia
nup
nue
nans
nmy
nts
nac
nta
nix
nord
ngs
null
nside
nzz
nare
nno
nors
nets
naaaa
nds
nfl
nsw
ngl
nica
nkk
neek
ngo
ncar
n33
ngn
nees
nuss
nical
noop
nvd
nmc
nje
nuh
n_d
n23
ninn
neeeeeeee
neel
nurt
n_k
nita
narn
nien
neeeeee
nila
nhan
nnnn
nils
noooooooooooooooo
nzing
njb
nji
naded
nsing
nims
niano
naaaaa
n28
nmr
nfty
nisher
nagr
nsty
nira
nbk
n97
n96
nested
n64
neaa
nuffin
nipt
nmars
n_y_
nfn
naba
nnaa
nixon
neesha
nuuuuu
nttn
nmaize
nugent
niiiiiii
nambu
ov
oou
oes
ond
oom
ost
ove
oome
oday
oks
ous
omm
oist
oyy
oma
omo
oto
oder
oint
ota
oik
ode
ouu
oep
osw
oster
ocell
ough
oda
ovi
opend
ooooooo
ouse
oging
ouuuu
oils
oval
oouch
o____
ocra
ovr
odes
ouv
ovie
ojee
oleg
oucc
ocamp
oamc
ouuut
ought
ould
oqs
oaer
oeir
okeh
oherr
oiiiiiii
pv
pq
p9
p0
p4
p1
p3
p6
pst
ply
ppp
pess
pate
pum
pall
peen
peet
pough
poy
poooo
pang
pww
pia
piz
pah
pans
pper
ppt
pci
pft
purl
pank
pbs
poom
poth
pors
pib
ptw
pina
pinks
pade
pmed
pamp
piet
pange
pinc
paaa
plex
purs
piff
pots
pider
pva
p27
pours
pung
plyn
pchar
padd
pque
piling
pxy
pworld
pyr
pipe
pollen
puns
pvt
pjp
piper
pierd
paged
pika
pdh
pirou
pager
pvp
piers
pidd
pmania
pimm
peasy
p1p
pests
pitta
ppicture
pffffffff
pkeith
panga
pristina
p_lo
peller
pproper
qk
qo
qa
qe
qs
qc
qq
qz
q9
qw
q7
qis
qet
qant
qreat
qip
qxx
qcy
qates
q13
qwe
qi_
qiu
qxy
qmb
q63
q100
qa4
qlad
qrand
qnh
qnj
q3u
quds
qirls
qqe7
rl
rj
rz
r1
r5
rre
rir
rpp
rie
rim
ress
ril
rro
rast
riss
rink
reen
rau
raa
ries
rif
ration
ria
rys
rmo
rpt
rage
rder
rond
rhe
rooks
rms
rooo
roney
rince
rbl
ratt
rlc
rors
rwh
rory
rcl
rcon
rane
rizz
rump
roooooooo
rica
ramp
rosh
raaa
rrrrr
randy
ripp
rants
rames
rva
r18
r20
razz
ramb
riq
rona
rwa
rific
rago
ritter
r_p
raaaaaaaa
rivers
rgood
rhin
r65
rsa
rdel
rolf
rizzle
rbu
raps
rku
rbi
rmet
rnb
rmil
ritas
rwit
raze
raaaaaa
rpaul
rstats
rettem
rippin
rjd
rwj
rookie
rinas
rrod
riah
razzle
rinse
rerecord
ramei
roush
ruddy
rupert
rathbone
rerobb
s9
s1
s7
s5
sve
sie
sce
sro
sast
siss
sook
snt
sge
smor
sear
sking
sif
sip
sxt
sitt
sans
sso
sath
sich
seal
sond
surn
sii
sited
sio
sne
sary
sence
siew
sount
sama
sals
sife
s12
sinks
saaa
senn
sears
sbar
swww
svi
sxxxx
sdr
saaaaaaaa
siddy
sfit
siii
sfs
siem
sben
sdel
szs
sizzle
sbit
siph
sency
senson
svet
svm
sbc
sxc
saaaaaa
siden
sftw
sippin
siiiii
ssssss
sookie
s_day
sealer
sroach
sssssssss
s_ma
sutar
siento
tl
t8
t4
t1
ting
tic
tks
tct
tate
tand
tine
tuch
tau
taa
tays
tide
tud
tfe
tew
tpt
tci
teal
tii
tgr
tian
tik
tbs
tare
tins
tlc
tps
tib
tams
tents
tfl
turk
tmail
tng
tsw
tizz
tush
tance
tann
tition
teek
tcar
turs
tgt
tars
tense
tvers
ttc
turch
tja
tada
tga
t_s
tino
t_d
tda
teeeeeeee
tfa
tined
tito
tuc
tita
tlet
tnew
tux
tangel
tabb
ticks
tdr
tza
t17
tini
tubs
tgi
tsss
t____
tupp
t_r
tjs
tlock
tsa
t_t
tdes
teets
tkd
tasha
tbird
txs
tluck
tbag
tarts
tcu
ttg
tfar
tantal
t_a_
tittle
t_re
tjv
tldn
tarde
tpretty
tlg
tzx
tucking
tferr
tlk
t_de
ticon
tippers
tjeff
tluke
t4p
tassie
t9r
tassi
tugger
tfollowers
uv
uc
uf
uou
uve
uch
uld
uter
uce
uup
uma
uft
ufr
udd
ucl
uds
udu
uls
utf
uya
umin
umi
uugh
uga
utv
uda
u14
ulet
ulu
u16
uuuuu
uwl
ucs
upper
ucky
ukkkk
u________
ufff
urien
uqh
ucla
uuuuuuu
ueiv
usticks
uribe
utopia
vk
vg
vn
v_
vb
vd
v2
v0
vor
vll
voo
vad
vur
vere
vry
vink
vall
vos
vrow
vous
vap
vile
vist
vah
vma
vpl
vach
vond
vio
vats
vier
vcr
vsp
vime
vines
vail
vase
vmail
vows
veee
vron
vuk
vair
vops
vgt
varden
vipp
vitty
venn
vja
v_s
v_k
vita
villa
vwr
vyn
vcha
voe
vouch
vdog
vlynn
vfc
vagr
vzzz
vhem
vorder
viters
vradio
viner
vicia
vrom
vlad
vicki
vuzz
vader
vests
vague
v_v
vfactory
vlast
vb6
vaders
vandal
viendo
vwayne
vstudio
vqiu
vfav
vlogs
vansunder
vaahed
wv
wm
w3
wis
wic
wad
wam
wun
wro
wri
wate
wers
weep
wna
wul
wally
wos
woy
wound
wdy
wking
wia
wyy
wrr
wath
wci
wint
woth
wcr
wsp
wlc
wiew
wets
wfu
wude
wade
wwork
wuss
wla
weeps
wpar
wmi
wmc
wje
woul
wnat
wyn
wides
wades
wbt
wiii
wych
wsm
wfm
wounds
wipe
wuv
wizzle
wbu
wws
wtg
wbc
warten
wuzzy
wrig
wlda
wldn
wigg
wcf
wroe
wrox
wongo
wzzzzzzzz
wjg
wbw
wstm
weaver
woooooooooo
wooooooooooo
wcm
wys4
weasel
wcharlie
wvrx
woooooooooooooooooooooooooooooooooooooooooooooooooooooooooooooooo
xa
xy
xv
xc
x_
xb
x9
x0
x1
xing
xon
xet
xam
xim
xha
xra
xab
xong
xww
xey
xac
xmo
xhe
xms
xii
xian
xles
xoc
xav
xark
xbb
x12
xcar
xcept
x33
xthe
xlex
xla
xvd
x11
xomb
xeh
x_l
x23
xogra
x24
x86
xye
xboo
x17
x_x
xbell
x15
xero
xmind
x32
xran
xzen
xkar
xht
xaj
xanth
x100
xbron
xsay
xbiz
xomor
xchrist
xcharl
xfact
x64
xchik
xmain
x1p
xthem
xaan
x7d
xrays
x_de
xfrankie
xmx
xb4
xfiles
xchad
xshe
xnicolee
xcourtney
yl
yj
yb
yd
yin
yar
yow
yve
yis
yly
yad
yir
yal
yro
yong
yna
yul
yoooo
yap
yass
yfe
yans
yach
yash
yian
yike
yoot
yult
yeee
yamp
yoh
yosh
yaaa
ygt
yars
yose
yyyy
yazz
yield
yeni
yeeeeee
ymas
yhaw
yaaaaaaaa
yuuuu
yani
yoooooooooooooooo
yeg
yano
yipe
ybd
yan_
yanks
yvet
yeye
ykit
yopo
yarin
yvw
y_sp
yinz
yin9
yhana
ykesha
yoda
yiann
y4it
yomiss
yelaine
yioj
yvasquez
zh
zr
zy
zi
zu
zj
zx
z7
zing
zit
zed
zot
zow
zad
zam
zop
zent
zil
zong
zind
zag
zah
zzy
zend
zps
zuz
zep
zorn
zade
zact
zany
zamp
zera
zgu
zoop
zoid
zda
zomm
zoul
zzer
zzzzz
zuj
zwal
zhen
zeta
zlam
zoned
zeem
zok
zoning
znl
zucc
zaro
zwriter
zaid
zanz
zaina
zbrush
zhong
zapat
zzzzzzzzz
zwart
zinz
zeros
zeds
zaam
zacc
zanti
zahar
zzzzzzz
zorian
ziggy
zappa
{:
{{
}:
}}
~.
~!
~>
~!!
##p8
##p_
##pj
##p9
##pw
##p2
##px
##p4
##p5
##pon
##pay
##pst
##ply
##pill
##pter
##pood
##pent
##pra
##pus
##past
##pest
##pct
##pand
##pook
##pna
##pting
##peed
##pope
##pell
##pap
##phing
##pag
##pys
##paz
##peak
##path
##pired
##pson
##pman
##purl
##pwn
##punch
##pull
##pak
##pside
##pated
##paw
##pence
##pde
##person
##pave
##pane
##pug
##pizz
##pals
##pete
##patter
##posed
##p09
##pcom
##pider
##pband
##powers
##pointed
##pazz
##puts
##peel
##pensive
##pye
##pillion
##peeeeee
##pubs
##pimp
##piy
##penter
##p007
##pn1
##pcs
##pjones
##pipe
##possible
##pwil
##piano
##pbi
##petti
##piya
##prep
##pdj
##p36
##poof
##poup
##pkf
##pwee
##pidz
##poynter
##piddle
##picket
##p2008
##papa
##pacing
##powell
##panty
##papers
##pimpson
##phhs
##pwnz
##pymaster
##p0t
##purr
##pantry
##pumpp
##pmacd
##pactions
##precious
##poult
##kv
##k8
##k_
##kq
##k0
##k1
##kis
##kle
##kke
##kly
##kir
##kry
##kack
##kess
##kus
##kink
##kand
##kart
##kall
##kind
##kos
##kang
##kud
##kass
##kown
##kys
##kath
##kbr
##kman
##kash
##kby
##kak
##kise
##kaw
##kates
##kib
##kris
##kuz
##kines
##khn
##kme
##kail
##kase
##kana
##kane
##kals
##k10
##k12
##keek
##kato
##koh
##kera
##kaaa
##k09
##kho
##kya
##keeps
##kai
##kie_
##kress
##komm
##kease
##kmusic
##k83
##kado
##kady
##k_p
##kicks
##kbt
##kitchen
##kili
##khal
##kayy
##k99
##ktra
##ketch
##kcs
##k74
##kora
##kfrom
##kwi
##kanny
##kuma
##kota
##kawa
##kvt
##kmet
##kzilla
##komo
##k55
##kbc
##kaline
##kiko
##k1w
##kolar
##kmama
##katherine
##k505
##kamel
##keeping
##kallday
##kowski
##krys
##khai
##kumar
##kphotography
##kjewel
##k_mc
##kryss
##kizo
##kakas
##kamiller
##knexus
##kogirl
##kontur
##kappa
##kanye
##kwidow
##kalaniz
##hg
##hq
##h2
##h0
##h5
##h6
##hea
##his
##hight
##hith
##hlly
##hra
##htt
##hout
##hna
##hting
##hine
##hite
##hoooo
##hore
##hive
##hirl
##hia
##hort
##hts
##hought
##hater
##heady
##hman
##hgr
##hats
##hign
##hors
##hett
##hines
##hof
##hongr
##himes
##h13
##hinc
##helle
##hters
##houn
##h77
##hara
##h20
##health
##h30
##hilli
##h89
##hunny
##hita
##heap
##homas
##hands
##h76
##hjs
##h32
##hwilliams
##hiller
##hemy
##hasha
##h81
##harts
##hanson
##hvl
##hjk
##hxc
##hfah
##hrem
##hqe
##hangs
##healer
##hislife
##hooooooooooo
##hllai
##hassan
##htweep
##hippie
##hoult
##hdesigns
##oi
##o0
##o6
##oat
##opp
##oha
##oess
##oard
##oang
##oore
##ofe
##oort
##ogg
##oble
##oxx
##obo
##oats
##oken
##ohn
##offee
##ofl
##opped
##oane
##o12
##oba
##o_s
##ostr
##o_d
##obert
##o24
##oberg
##ovi
##oices
##o84
##oval
##octor
##oetry
##o_of
##oinne
##o_ash
##oarig
##oadri
##obeanz
##oivist
##o236
##rv
##rj
##r0
##rx
##r4
##r7
##rat
##rgh
##rith
##rce
##rant
##rtt
##rout
##rong
##rard
##rning
##rind
##reen
##rope
##rite
##riend
##ride
##rub
##rsh
##rought
##rond
##ready
##roth
##rons
##rents
##ressed
##rted
##rana
##r19
##resh
##rump
##rits
##rition
##ramp
##rgy
##range
##rops
##rthe
##rho
##rnes
##rugg
##rstand
##ricious
##ruth
##rincess
##rnin
##rule
##ratic
##rlee
##rbt
##rubs
##rani
##rality
##rjay
##riction
##rbut
##ruel
##rcook
##rhod
##rbear
##rotten
##rjp
##rnl
##rinda
##rumpet
##r61
##r_a
##rinking
##r108
##rmg
##r0u
##ronda
##r8k
##raton
##rtty
##rcooper
##ronella
##ritchie
##rcials
##tj
##tq
##t9
##t1
##t3
##tee
##tet
##tas
##tid
##tter
##tone
##tent
##tha
##til
##tus
##test
##tate
##tand
##tart
##tall
##teed
##teen
##tol
##tour
##tays
##tem
##tang
##tass
##tort
##team
##tich
##tpr
##tage
##turn
##tash
##tms
##tii
##tors
##tde
##tote
##tina
##tune
##tmus
##tues
##tster
##tized
##tcom
##telle
##tstar
##tiff
##tler
##t77
##tips
##tosp
##tuh
##tives
##tester
##teap
##tami
##tzer
##tij
##tung
##troll
##touch
##tupp
##tiu
##tape
##t2009
##teem
##tshirt
##tigirl
##teapp
##t_e
##tando
##tension
##tiger
##thale
##tests
##toro
##tasia
##trial
##tomorrow
##total
##taburger
##tardy
##tagious
##trees
##t409
##t578
##therain
##tipz
##tizm
##t1qy
##a8
##aq
##a0
##aat
##ait
##aed
##aas
##aust
##aun
##aith
##aop
##aher
##aab
##aum
##aig
##aeed
##aally
##aell
##aii
##aoc
##a13
##austed
##a30
##a23
##afro
##axxxx
##a05
##a04
##aoe
##aani
[...]
