[UNK]
[PAD]
[CLS]
[SEP]
[MASK]
!
"
#
$
%
&
'
(
)
*
+
,
-
.
/
0
1
2
3
4
5
6
7
8
9
:
;
<
=
>
?
@
[
\
]
^
_
`
a
b
c
d
e
f
g
h
i
j
k
l
m
n
o
p
q
r
s
t
u
v
w
x
y
z
{
|
}
~
¡
´
½
¿
##e
##n
##g
##l
##o
##h
##a
##r
##t
##s
##v
##i
##p
##j
##u
##c
##y
##d
##b
##w
##m
##6
##0
##4
##5
##_
##x
##k
##f
##2
##3
##.
##?
##!
##q
##9
##*
##1
##'
##7
##8
##z
##]
##}
##=
##)
##(
##>
##-
##@
###
##$
##%
##^
##&
##"
##:
##|
##/
##\
##~
##;
##,
##½
##<
##+
##[
##{
##`
##in
th
##er
to
##ing
##ou
##or
##an
##at
the
##on
##ll
##ee
##ay
##es
##it
##nd
##oo
##ar
##om
##ed
##st
ha
you
##ot
##ow
##..
##ve
##ea
it
##is
my
##et
##ut
##en
and
##ic
in
...
##gh
on
##ch
is
for
of
##re
##le
##as
wh
##ck
st
##ke
be
##id
me
so
##ly
that
lo
##ght
##ad
##am
sh
go
##ome
li
##ust
have
##ld
##se
##ill
##ight
##ur
##ter
day
##ir
##al
##un
##pp
##ith
##ie
##ver
we
but
fr
##im
##ere
just
!!
an
with
##ood
do
not
he
##day
wor
at
##lly
was
tw
can
##her
##op
ch
get
##one
re
su
ne
good
all
up
##ce
out
##ry
com
rea
##ent
..
##ack
work
now
##th
this
##ess
##il
##ould
##ha
no
pr
##ain
##ant
al
##ks
##tt
##ion
pl
##us
am
like
than
##ast
are
##iss
got
mor
love
don
:/
too
your
happ
##ate
##ra
htt
http
://
##other
##ink
##out
##est
ma
##ct
im
##ri
kn
as
aw
today
see
##ab
##and
tim
##ish
ab
twit
!!!
going
##os
br
what
miss
##el
##art
some
##ead
##um
##ook
happy
##eep
lol
back
know
##eet
##ff
##ong
##ard
from
##na
##ick
##eel
wee
##ul
want
one
##ning
##ers
time
##ol
##ig
will
##ind
off
##nt
##all
feel
did
##ice
ever
there
##ob
really
new
##eed
about
##hh
##ge
##ine
its
any
sp
mo
think
bl
ex
mother
##ting
##atch
night
##een
how
had
##ally
##ope
sl
##uch
home
##mm
ag
they
##ool
##ough
##ite
de
##oll
haha
if
##oy
##reat
##mor
oh
##aa
##our
well
##uck
##ell
##!!
fun
##ving
##ame
##au
##night
gu
need
thanks
wa
when
cl
twitter
##dy
hope
much
gr
watch
still
fa
ll
##ound
##??
mom
##ear
or
....
every
here
##row
more
dr
great
sa
##king
ar
wish
her
sad
sor
##ap
last
##ies
##ous
##oooo
morning
##ake
##if
co
ph
##iend
has
would
en
tr
she
##ery
con
##ang
look
then
##ays
sleep
been
again
##ide
us
ve
bet
po
fin
yea
##em
##ww
##hing
by
##ollow
only
bad
##ag
could
tomor
wait
##own
friend
##ud
won
##ub
##itt
##ile
follow
tonight
may
why
tomorrow
thing
man
##ore
##ation
sorry
##xt
##ive
##ist
##ip
##ber
##irl
se
##lo
af
them
##fe
mon
##ys
very
bit
show
yes
over
##ia
right
##ny
##pic
##ass
should
sw
gon
who
##yy
##az
##up
##og
le
car
##ah
though
nice
##ort
make
qu
try
ok
tweet
head
sc
gonna
##ew
yeah
sch
##kend
eve
##00
pe
##ty
##iz
better
weekend
week
way
##ause
after
lea
getting
##ue
cr
##od
##ac
mothers
##ph
##ock
down
bed
does
sun
##ak
##sh
##ach
come
un
##ans
play
say
##ose
##lf
long
school
ad
hour
##ey
start
mar
##pl
##ug
mad
##rr
peop
twitpic
##eam
next
##ts
fl
som
thank
people
were
##my
##iday
didn
mov
app
awes
##pr
##ma
him
##per
dont
hey
best
days
somet
##cc
watching
hate
##anna
sm
##ought
##eak
##ure
girl
suck
awesome
hi
let
pic
tal
##ace
##ss
bec
##be
jo
call
litt
##xx
plea
di
##ath
##thing
gl
rain
never
##ater
bor
##ci
##to
being
##eeee
little
##ich
ear
##age
##ity
part
ur
even
year
star
wr
##ired
##ways
bab
##ather
soon
##irst
.....
##ft
alr
da
working
¿½
##eal
##der
thr
having
##so
##pt
che
take
list
act
sick
##uff
##ious
##ble
##ouse
prob
his
dam
min
##ond
hur
where
##ment
##ner
la
cool
##ther
##mo
##iv
sure
please
life
##ect
eat
our
doing
done
##br
feeling
loo
##bo
because
##ute
cra
##ii
always
##oss
everyone
lot
om
##ta
##eady
find
hel
##end
##gg
##son
inter
cant
bea
first
id
keep
##urn
tired
yay
##ful
guys
##ily
##fr
wanna
##joy
##qu
friends
already
big
hot
other
##ix
movie
##int
something
##kes
old
amaz
phone
##oke
another
##sp
hours
made
##ash
song
##ord
##wn
##he
##ms
##self
ly
yet
enjoy
trying
thought
??
???
pret
house
live
help
tri
##oc
##ull
real
##!!!!
hard
##ire
##man
##ooo
##ian
##fore
read
ready
dis
##ually
str
before
friday
per
hell
comp
bir
##usic
guess
omg
luck
te
ya
##iny
##url
lov
looking
damn
someone
pretty
kid
##ik
##zy
##unch
monday
dan
tell
##oom
away
exc
sucks
bus
ho
kind
listen
fam
ugh
went
amazing
em
wow
##ank
finally
##by
##ens
bu
##ited
par
same
maybe
war
into
nothing
rem
end
hear
job
##get
##ise
looks
##cr
sound
finish
fuck
run
!!!!
left
boy
##ox
##of
ser
##opp
check
missed
bored
baby
two
boo
tiny
sk
##ward
##are
tra
things
##ated
##les
god
##co
el
cou
10
##gr
##la
##side
sweet
said
cle
dri
jon
those
##ats
##oth
doesn
##ince
face
late
music
##ert
stuff
lost
actually
bel
also
talk
##zz
##ary
while
##able
post
later
put
##io
##cy
##itch
glad
sn
break
##ign
saw
early
acc
free
##nder
world
##ier
weather
##oney
meet
##att
such
sit
##ley
chan
din
must
birth
give
##fly
summ
might
waiting
birthday
?!
##bl
sund
around
wonder
party
##book
hun
##ton
hair
##ence
far
mean
##iew
stay
tinyurl
res
ta
unt
##ates
myself
hahaha
##aaaa
tot
super
awww
poor
##dd
few
##land
gone
##tw
##hhh
cry
their
thats
phot
##lc
coming
des
mr
##igh
since
class
##ne
until
xx
##ib
##terday
supp
happen
makes
yesterday
summer
##ps
aww
anything
family
dad
sat
rec
beaut
sunday
found
without
use
##way
##fu
##ins
stop
gotta
everything
30
rock
##ory
##nn
##ok
##cfly
##iting
making
most
##most
mum
##av
##ating
cute
lunch
wal
tho
rep
almost
##ffee
##iful
fav
dream
month
excited
pain
##ike
##ork
plan
tre
till
##sw
cause
##no
##ably
anyone
pict
##bs
def
okay
pre
vide
##ris
##ild
##ple
welc
least
add
game
tea
##line
##de
##load
dinner
##wh
##ime
coffee
del
sing
##ott
cold
ste
##ieve
food
##me
drink
leave
listening
clean
totally
##ark
##ett
inst
place
hurts
beautiful
welcome
;)
mess
kill
money
char
##upid
cam
hang
sur
win
##uu
##ets
forward
haven
wanted
ah
pa
forg
stupid
many
##uz
##ym
##ina
these
isn
##ions
hu
##ever
##rist
##ache
probably
finished
##ness
shit
through
##body
mine
under
##ney
##ail
##ams
missing
book
hol
turn
thinking
blog
##ude
www
##ons
ann
dog
times
believe
hand
rest
##hn
##vid
##ift
buy
ill
room
##aw
send
sounds
op
##orm
##ana
which
playing
ro
##ves
lovely
ass
##more
bo
hmm
ke
##ines
funny
fm
ret
##ave
##kk
##rew
wasn
##ently
##ush
##erson
##ds
eating
hug
##eci
##oot
##ote
office
ey
##net
##als
upd
kids
##fully
ed
stuck
##ents
idea
sooo
##act
##cl
took
didnt
whole
lad
##ved
##....
##haha
##ember
soooo
##girl
fail
hor
hit
lu
##urk
outside
high
red
##ici
lil
enough
##press
er
##ase
pro
dou
set
ter
followers
headache
cut
hop
att
rev
##iley
says
##ng
##ont
chill
##osed
scr
wrong
##opping
forgot
##ird
##unk
wants
grad
cont
conc
##fect
jam
##ep
##ict
anymore
exp
moms
unf
cour
less
tv
woke
##19
##ayl
##une
##hhhh
ago
##mail
comput
remember
ind
##ked
goodnight
plurk
guy
ms
##gl
##ro
##vin
##ding
##ount
kinda
--
came
rob
wed
##ues
##ors
##vel
mac
##izz
trek
full
##ipp
##ither
hehe
seen
black
##ube
busy
video
wind
yum
##ual
##mer
##ama
##phone
proble
4w
both
cur
card
person
prom
##aught
hopefully
years
name
##udy
##ance
##esh
##enn
sitting
fan
##gry
##fl
##ult
david
ac
##ale
##yp
##oud
##...
weeks
diff
internet
serious
else
sou
sar
##12
compl
##????
ap
bar
cook
##a_
told
##ann
grand
##yyyy
loved
computer
lear
own
sam
half
dec
##oooooooo
couldn
following
tweets
##ces
online
heart
##ife
bur
dead
gra
woo
##iver
##con
##inks
##ings
##its
##urday
!!!!!
hurt
goo
iphone
mid
##less
##utes
##ppy
alone
##ately
spend
sec
facebook
fil
lau
sim
##ane
inv
short
shopping
##ump
##ongr
##ister
crazy
ep
mind
sea
##10
##eee
study
rel
seems
brother
quite
##akes
john
minutes
wars
taking
pass
tick
##tube
##ows
news
talking
saturday
##orn
youtube
once
##apt
lots
tried
perfect
jonas
change
holiday
open
congr
fall
mil
soo
til
test
##ree
##atter
gets
able
called
hello
defin
ice
met
##ger
true
air
##gle
##ied
##ject
##fast
tomm
##ven
wont
lucky
text
bank
link
vis
xxx
##pm
seeing
leg
20
cal
email
##port
heard
##ried
care
interest
drive
instead
bb
btw
cuz
pack
##ele
##app
##ica
##irt
##rible
fucking
12
catch
sy
site
##eb
##ron
##13
##ato
##ster
##imes
choc
##cept
pres
conf
used
##ations
starting
girls
ca
dj
miley
##oh
##ees
##ower
leaving
picture
av
dar
##car
##med
##any
##ones
##ete
##amp
feels
mommy
raining
beach
breakfast
cat
##rs
##rus
wear
awake
broke
close
concert
dude
pick
##cher
##ade
##lax
either
fast
##mar
##eek
prof
running
months
bum
coll
lma
past
water
##ible
##_b
##erg
##osh
reply
mic
##ling
##ball
tour
##ition
##ared
relax
anyway
hungry
med
ton
##eaking
##ics
mel
offici
shower
evening
laur
##oken
fig
##air
##iet
##uk
##iness
##ital
##ures
move
trip
count
wonderful
lady
chocol
lmao
dra
ip
net
pay
##gan
##time
##work
##ming
ones
spr
blip
block
watched
art
train
favor
course
seriously
15
fine
jack
mitch
##ced
ang
##uss
##ages
##ortun
writing
##friend
couple
##aylor
11
67
##bur
##era
goes
light
##illy
ask
##arden
wishing
sunny
ju
june
##gin
##ted
##ops
ash
!!!!!!!
bring
slow
bout
nick
pap
ext
exam
sometimes
loves
happened
hoping
differ
second
4th
col
eas
##yl
tom
ups
fell
kar
sent
uk
top
town
##ange
##star
##astic
##elm
##itely
heading
dang
fly
jess
##go
##ole
##tf
##ills
bless
##rrrr
definitely
ipod
je
nic
sigh
##oint
##isod
reason
##ants
##aaa
wake
##athan
crap
100
4j
ahh
bought
har
jay
nat
ps
xd
##jo
##__
##lex
chang
near
##els
##berry
cream
started
reading
##where
episod
fix
garden
hon
ny
nite
tum
##cle
##boy
##ene
##chie
weird
##the
##ize
pics
died
boring
account
supposed
unfortun
learn
laugh
fing
fel
gre
ive
nap
##leep
##oes
##dle
##09
forget
load
dear
sore
mark
write
eyes
problem
chocolate
favorite
/~
bud
ev
gi
iam
jeal
son
sign
##che
means
##urs
chat
chick
speci
moving
sex
##love
join
##opped
tommcfly
jealous
sal
##ai
ther
##eas
##eth
##ical
chris
upload
agree
moment
download
gradu
band
city
due
esp
gave
taylor
##gt
##tr
##mon
##ense
christ
works
pray
mag
sleeping
flu
walk
gym
sel
side
##gar
##lic
##iff
##mit
ins
answ
abs
green
fair
##ized
afterno
enjoying
special
200
bas
hum
kat
num
pink
pol
##cing
comment
aren
final
movies
three
songs
meeting
season
cup
dd
lay
lapt
mood
pu
pub
pizz
wom
##ren
##uct
##60
##inc
##enny
stud
goin
##ention
using
##shine
##ondon
photo
ge
ger
##com
##yn
##wood
##33
inf
worth
comes
asleep
##andy
##eeps
##ucks
##elle
sadly
quest
##cyrus
cele
die
vote
yep
##gie
##oice
##fer
##eese
##ars
##ots
##usso
bye
park
##gether
boys
resp
hugs
interesting
afternoon
fb
mmm
pat
ra
sister
##ho
##ress
##bum
##ising
##reci
store
needs
stress
bra
eff
view
##ya
##ba
together
##uring
fren
cance
reg
broken
blood
warm
driving
pictures
unfortunately
14
1st
cor
kick
london
pet
rad
ride
wtf
##gas
##over
##par
##min
##stand
##ie_
ate
sub
plans
bro
exams
club
dress
##itty
cleaning
horrible
wedding
answer
laptop
dv
fire
gut
men
ppl
##not
##ove
mysp
shar
##ters
knew
wouldn
photos
huge
complete
google
mitchelm
mitchelmusso
cake
date
poss
tak
##gu
##ye
##ision
stand
word
shows
sunshine
appar
small
surpr
project
tickets
present
different
pizza
dm
fight
ru
##sk
##ial
inside
stra
meant
##iel
##vers
##ries
seem
except
depress
annoy
congrats
upset
bott
deal
mis
nope
pea
rather
vac
##ching
##ches
white
##ident
comm
##ession
album
##ffic
blue
quick
saying
appreci
absol
bday
bug
bgt
fab
gen
ner
nor
page
##pa
##for
##oop
young
beer
##ider
liked
##unt
##aine
brit
spent
order
phil
apple
drinking
myspace
alex
es
mi
tee
##ging
##pe
##ja
##mcfly
##ised
##rect
##ames
cheese
fact
save
##ips
doesnt
played
holly
##ecially
visit
celebr
!?
."
ahhh
ben
hub
ii
line
laz
mama
van
##nes
##gn
##ten
##vice
story
##ille
##urch
freak
justin
words
chines
amer
##ards
##olog
momm
drunk
##lov
##annah
disapp
dance
remind
especially
dig
ff
fant
hea
squ
##led
##oe
##ham
##tc
##ki
##77
##itar
whate
living
##ustr
web
worse
repl
##osp
##ears
looked
pleas
##aughter
sarah
mileycyrus
figure
episode
13
40
ball
cy
cop
cos
fans
foot
gig
rid
rub
sle
##lin
##ience
##kin
##orge
shame
plus
clos
trans
chance
understand
luv
apart
profile
apparently
mike
ohh
team
##eat
##oid
##cast
##boo
##mi
##ky
touch
##str
##icious
shoes
worry
prod
##used
whats
arri
engl
cross
earl
##ealth
##iiii
hold
traffic
##cover
english
16
2day
dun
each
jer
joy
key
lone
na
via
##oat
##view
##uc
##ugh
##yle
##bab
##wor
##ka
##23
##11
##88
##--
##ically
yours
happens
point
tech
business
travel
dreams
message
update
paper
whatever
aud
bag
ent
gift
jas
math
pot
pop
pull
ry
ran
tues
##ga
##tv
##tim
##vy
##oun
##eez
##ston
stom
child
##aster
##ract
cost
tweeting
##cial
##eeeeeeee
idk
camera
hmmm
easy
absolute
slept
den
during
hates
mc
mot
matt
ouch
pool
wol
wife
##tin
##va
##_d
##18
thx
beh
beat
sol
sold
##usted
doct
worst
everybody
smile
snl
paul
##lovato
earlier
66
four
gd
hil
lame
mu
pie
piss
power
san
##ged
##ald
##knight
##fa
##ara
##key
loving
##alk
##aste
##ular
exper
guitar
needed
longer
throat
relaxing
felt
number
lazy
absolutely
box
dark
ele
feet
mam
mob
mass
ob
pc
pan
roll
ty
ver
##sing
##you
##_s
##20
##14
thinks
havent
prop
along
##ulous
moon
cover
track
......
?????
##!!!!!!!!
jonathan
record
steph
road
ddlovato
18
cous
dist
ell
fu
hosp
norm
ooo
ten
wall
yo
##gs
##lake
##band
##mc
##inn
##ino
shop
shirt
cannot
chic
##ilight
proud
alth
ima
##umb
safe
wishes
enter
sleepy
##ssss
babe
boyfriend
fingers
german
completely
fantastic
lonely
behind
kiss
noooo
ooh
vers
##ler
##ram
shall
atl
church
mail
exact
homework
flight
dave
law
##box
parents
wondering
crying
desk
expect
yummy
curr
radio
bri
burn
cd
creat
hannah
ow
pur
roo
vid
##ls
##i_
##je
##ying
##bb
##24
##oup
##iter
##ican
forever
stor
stick
loc
##ada
shut
##illi
webs
hahah
vegas
##yyy
starts
minute
##ments
##bye
walking
huh
##ails
chillin
film
chicken
dvd
peace
tuesday
aint
cap
dh
daughter
mention
non
ye
##bar
##kn
##99
thurs
##omb
##owers
##etic
##uth
##ides
##ield
doc
requ
pract
##ains
yourself
scared
talent
direct
????
design
updates
windows
##ype
bbq
sexy
self
stomach
although
bath
eh
gar
hat
jim
jus
lat
matter
rand
round
sna
xox
##nect
##af
##uh
##wr
##_c
##ern
int
twilight
prog
##mmm
cons
##berlake
realized
screen
micha
official
24
50
:-
dat
err
jord
ring
vot
wat
##ville
##iq
##ien
##22
##30
##86
##ita
andy
iss
bell
shes
fresh
dev
eng
usually
swim
##ogra
##friday
company
emp
posted
staying
support
messages
body
fml
eye
studying
officially
##ointed
tummy
graduation
appreciate
hubby
(:
bill
fat
jenn
lab
land
nik
voice
##nic
##under
##burn
##_l
##_m
throw
##ease
##ism
##ison
##eno
note
sum
worked
##rib
brain
event
rainy
alright
disc
dougie
legs
changed
question
gutted
random
25
aff
ble
kim
lar
low
mat
wine
##gy
##red
##ric
##iot
##21
##?!
##83
##oul
##outh
##lled
##ester
##omas
insp
isnt
stopped
##ided
##amb
mach
##wwww
##azz
quiet
joe
keeps
street
danny
single
##ette
hanging
sending
revision
middle
ashley
french
hospital
version
website
2nd
ba
bike
jen
kate
lis
mich
none
port
sell
tem
um
wit
yup
##nite
##rie
##room
##sm
##jon
##yd
##da
##wind
##_r
##idge
##others
imp
##igr
exha
death
cloth
##ago
headed
others
???????
problems
brothers
colle
giving
chinese
copy
##orgeous
jason
mobile
currently
fish
gf
gorgeous
mate
sis
tm
##new
##hoo
##vious
##ior
##200
##ze
##archie
memor
##sey
##illa
##unny
##pped
front
anim
alot
##ction
##anda
spot
spam
dep
waking
##ives
host
videos
review
wednes
darn
public
product
exactly
case
etc
hom
health
ir
jk
rich
##ec
##nat
##ned
##how
##head
##cat
##den
##bit
##fan
##26
##ering
##arn
##arm
##arious
##ste
##oto
##idays
##ami
shin
share
##ured
ant
heat
gettin
succ
neigh
imag
awful
brand
##ape
usual
##berg
bitch
moved
smell
lets
##xxx
starb
##board
addict
decided
congrat
spring
angel
taken
annoying
proper
thursday
college
cher
cried
eur
emm
fill
feed
jan
jul
kay
si
tan
takes
uh
yr
##ex
##life
##ax
##iest
##cakes
##weet
##**
##89
##omm
shot
shout
gosh
##ural
goodbye
allow
import
closed
group
code
trou
swine
##aces
##eeeee
.........
disney
##ensive
sky
accident
planning
singing
james
jonasbr
airport
cancelled
wednesday
neighb
,,
19
17
45
bac
det
hm
hay
hoo
hist
mix
nut
ol
pos
rach
##here
##ient
##wa
topic
##ito
##isd
##asty
##raid
feelin
##earch
tru
##angel
afraid
##phy
##rrr
.......
mrs
favour
charl
paid
south
burnt
packing
lauren
jeff
honest
greg
doctor
hilarious
clothes
).
aut
acr
bk
ban
cert
dent
egg
hook
hrs
krist
lm
pig
sand
tur
##hi
##har
##hol
##rd
##rob
##rknight
##use
##cer
##do
tor
##owing
##ena
##iced
incr
##unes
door
wash
neck
amy
donn
bright
##ulations
spell
followfriday
manag
##0000
crash
apps
##eeeeee
##frog
ended
##arely
##swift
killing
camp
davidarchie
soul
spending
miles
freakin
disappointed
jonathanrknight
starbucks
jonasbrothers
!)
:'
bob
breat
bang
cell
fit
king
migr
nk
wer
yall
##lu
##oon
##rol
##rore
##vi
##jor
##back
##music
##08
##za
##ined
##icy
incl
gold
lie
##illion
doll
twee
recover
comf
morn
##eless
space
expl
nights
##ific
screw
sunburn
mary
earth
cheer
exciting
books
##ground
lately
access
##aaaaaaaa
retrore
double
window
avail
bummed
july
vacation
wolver
germany
machine
congratulations
important
retrorewind
bc
bow
bal
gay
gun
ign
jump
mal
mist
nom
rip
race
sir
sil
##ost
##sc
##cake
##bt
##mb
##mber
##_j
##_k
##ator
hav
##uture
##icks
##alia
rece
press
priv
##using
impress
somewhere
speak
mod
blah
degr
clou
momma
connect
calling
interview
enjoyed
tex
##wards
steve
install
return
blackberry
milk
wearing
bummer
extra
taylorswift
puppy
possible
##ology
dunno
entire
cousin
normal
chicago
exhausted
history
wolverine
taylorswift13
ak
ahhhh
epic
fre
fever
holl
honey
jour
lang
row
session
vi
vict
yah
##let
##aly
##vo
##ux
##ule
##ween
##05
##xo
##25
##85
thunder
##ites
##eap
##icle
form
##ung
freaking
sugar
mall
kno
anyways
deb
coz
scary
glass
##ggest
suppose
recomm
expensive
drag
loads
woman
info
north
recommend
5j
bon
bak
cas
cent
caught
five
flo
josh
mcfly
nah
oops
ros
ug
yell
##lee
##te
##vis
##iam
##ca
##cut
##_p
##_w
##17
##oring
##ored
##atus
##ony
##itter
itunes
##etch
##ado
##imp
doin
ref
suggest
##ilt
nobody
brad
breaking
knows
however
##ours
twittering
queen
keeping
thoughts
service
trail
clear
##itchen
##attle
awwww
classes
daddy
##deck
deliver
surg
failed
contin
indeed
grandma
##ergy
##incess
xoxo
program
dougiemcfly
success
trouble
across
certain
".
bi
b4
bes
cud
cats
future
hy
hes
il
iron
jes
mand
mart
mouth
pen
six
sense
tar
wk
##light
##ov
##off
##aur
##ros
##dr
##well
##form
##34
##((
##otb
##east
##eted
##rey
##ask
storm
social
shift
notice
heh
thanx
max
ages
sale
argh
##oooooo
between
follower
followed
##ists
scott
become
thru
mins
strong
bird
build
checked
##ibly
rocks
delicious
hands
assign
eric
terrible
ticket
draw
bottle
gener
brian
practice
empty
favourite
!"
80
deep
dying
ess
ga
ja
match
nd
nan
nam
ori
peeps
sen
sem
silly
tear
##bee
##wk
##_h
##ker
##87
##ints
##erry
##ouch
##stem
##vent
island
##cked
##lyn
log
lose
losing
sha
lif
likes
butter
tweeps
chap
nose
##aining
##antly
major
background
anybody
click
area
conta
mont
flowers
##sss
cheers
##heart
mums
killed
dogs
buying
sooooo
attack
soup
invite
confused
tonite
training
women
bloody
straight
ryan
allowed
available
contact
22
21
2mor
bub
cow
cough
hus
kitchen
leno
ng
opt
pm
pal
tab
treat
west
wild
yfrog
##rock
##jack
##upp
##wich
##word
##mart
##01
##fire
##16
##zer
##itting
##ices
often
##reme
state
##ief
atm
outta
##ili
places
asked
brought
dem
everyday
finals
##ational
##loc
swear
##orts
sched
calls
putting
hahahaha
scream
##ivers
fixed
nyc
children
imagine
surgery
age
austr
coo
cast
dom
dry
games
ily
lead
lake
lak
mer
ni
sig
tatt
ven
val
wif
xo
##good
##house
##vs
##don
##bell
##wise
##mith
##_n
##x3
##fit
##fox
toast
##atic
##edy
andrew
##asha
##ades
##pping
frank
noticed
twice
allerg
##cell
##enty
nowhere
##iling
##ility
proc
awe
##ands
somebody
##ums
anytime
energy
const
##itten
tweetdeck
cru
cred
crack
flat
##xxxx
dawn
##ived
craving
##iii
kidding
jobs
teacher
hangover
ahead
hugh
turns
kelly
ladies
lessons
msn
learning
country
sharing
apartment
crossed
techn
shining
private
),
aim
aug
bf
bat
buff
batter
dut
est
fo
fol
gear
geek
hee
jud
lor
lind
mir
main
poo
rh
rof
ut
##ua
##und
##cas
##did
##we
##mas
##mag
##69
##74
tha
##llll
hah
hall
##cha
##ids
loss
##alc
frustr
chi
##thew
##iles
##hall
##ript
asking
##ume
wanting
demi
couldnt
showing
maria
flash
smart
joke
helping
painting
court
macbook
cookies
passed
falling
system
blocked
nearly
tumbl
finger
depressing
depressed
philipp
american
experience
jimmy
michael
afford
truly
dentist
incred
00
3d
3rd
::
:|
aha
bull
barely
cub
dow
dish
dub
east
fest
gas
gab
jp
jenny
oce
ohhh
pants
tix
type
ul
##gi
##gers
##oa
##top
##ban
##bed
##mom
##miss
##04
##02
##76
##82
thomas
toy
tony
##anne
##ances
##ative
##itive
##ooth
bey
shoot
libr
##irty
worried
sudd
##tttt
timberlake
somehow
##ulu
excell
slight
##rown
dropped
sort
convers
##ango
usa
##www
##bert
quiz
married
##play
babys
mini
##queen
hotel
strange
telling
holy
deser
##nnn
delay
##uuuu
turned
personal
!!!!!!
##bury
color
buddy
laying
respond
##guy
surprise
fabulous
teeth
##baby
??????
latest
##ography
husband
tumblr
philippines
5z
:]
aaa
bay
ci
dc
fi
les
las
loud
oct
pin
pam
rom
ren
rose
tip
wood
##hal
##aff
##ray
##tle
##jay
##uation
##yr
##dog
##blo
##ware
##ml
##may
##32
##79
tooth
##anth
##ari
##cks
bear
soft
##add
sher
##ustin
##ali
button
cheap
##ental
##haps
##ained
gotten
blast
ground
fave
org
everywhere
drop
##ooooo
coast
philly
hasn
scar
crush
##ship
##ugs
appear
daily
##iva
##ival
crappy
perhaps
dancing
series
sweetie
step
doubt
attem
##????????
interested
##carter
grey
mommies
pleasure
arrived
piece
##illiams
productive
sandwich
:'(
includ
received
tattoo
august
rofl
sudden
excellent
&&
000
2nite
aly
bee
bother
boss
bunny
cab
dnt
dumb
ew
ic
jb
ko
ka
kr
ki
lam
mur
nasty
tg
vir
woot
waste
yess
##nx
##lim
##oz
##hin
##han
##ran
##res
##val
##jr
##bing
##mic
##84
##ini
##ination
third
##erc
##ered
tough
##ora
theat
##nding
##edic
youre
##uts
##ution
##enter
onto
##char
stri
stock
mex
##ady
shoo
lives
##verse
ank
wasnt
washing
##oph
cha
chem
##one60
##ils
knight
awh
brook
##ults
watchin
fault
dread
sever
que
##izzy
##photo
uncle
adv
smh
girlfriend
##ullen
mondays
daniel
tax
planned
##kkkk
attend
##ipped
fancy
cooking
##oooooooooooooooo
simple
emails
##marie
tons
article
extreme
theres
uploading
downloaded
studio
pissed
obvious
entert
request
consider
gfalc
managed
battery
##one601
gfalcone601
09
33
az
ahaha
ache
econ
hill
kell
lack
lap
lord
mm
master
ot
rac
tag
wet
wide
xbox
##ez
##nal
##ht
##aj
##rad
##sl
##vous
##jam
##uit
##cou
##wl
##mind
##mark
##fm
##ford
##ores
##ani
##oose
##oomy
##omy
##oming
##stack
myloc
begin
##ida
shel
golf
##ury
##ala
butt
anna
angry
within
heyy
candy
canada
choice
workin
amber
knock
abt
misses
##eets
##ntown
span
clock
grr
gross
arm
hero
trad
trust
##ista
shouldn
level
unless
adam
##athon
launch
finding
stream
##cret
skin
talkin
snow
chann
given
plane
setting
scratch
lesson
cards
promise
##123
##yyyyyyyy
woohoo
release
##ornia
calif
catching
picked
collect
juice
##____
laughing
uploaded
based
commun
nerd
heaven
football
distract
local
issues
memories
addicted
weren
ugly
australia
library
",
(@
**
333
60
?"
auss
aunt
bre
bills
cir
cass
cash
cav
du
der
eb
gah
hid
kirst
kitty
mus
mile
mount
os
oper
pj
pix
poop
rice
sf
tac
wii
##ns
##gra
##gins
##ror
##ij
##iu
##jen
##ders
##bel
##ws
##men
##29
##zing
##inting
##ero
havin
##isc
##ises
##ico
fore
##leigh
meg
shots
##omez
lived
##una
wend
##erez
tweep
sux
goodness
##cel
##ila
alco
pls
##rah
##rap
##rif
awards
##aby
##ished
##icked
spo
spin
fake
arr
##ifts
tree
lookin
carol
quit
uni
sucked
gloomy
born
........
action
emily
photosh
painful
prefer
added
messed
charac
handle
board
updated
##ipping
decide
midnight
sims
figured
##airs
lights
episodes
market
evil
christian
magic
2009
katie
questions
frenchie
celebrating
closer
##world
fourth
oooh
desktop
yeh
swimming
##jonas
healthy
##natural
properly
mornin
victor
floor
credit
ocean
california
alcohol
ay
ain
ach
bff
ce
cust
core
capt
fur
fash
gh
gir
gal
hr
lou
lem
mp
mult
nl
nin
ss
sym
tut
table
taste
yog
##gen
##right
##ser
##sup
##ium
##jb
##core
##ben
##bie
##born
##with
##williams
##07
##_t
##fin
##95
##zil
##-)
##ouston
##ano
##eech
##aron
ham
##otion
##utcher
##chick
style
soph
goss
##iem
anth
chr
chall
sus
suff
neither
print
bread
spir
slee
twitters
drama
arms
phys
cond
badly
seattle
##loves
sweat
##azine
lex
cars
##ahl
##izing
creep
##shi
ador
##ploy
##ugg
flor
awesom
##pres
##ends
helps
discover
perfor
compet
famous
?!?!
supernatural
mrsk
happening
mummy
deleted
booked
kevin
ideas
attention
robert
hehehe
simp
invol
cali
easier
blessed
nicole
changing
iamdid
joined
##eased
##host
stressed
effect
fighting
straw
bottom
nervous
motiv
burned
purple
england
migraine
nkotb
besides
hyper
origin
montana
downtown
iamdiddy
26
^^
cc
drew
fem
father
ik
jr
jtim
ken
muff
mik
mtv
nooo
nails
push
rude
tast
tips
tears
umm
wx
wast
yrs
zomb
##gest
##gue
##hr
##hs
##hay
##ring
##ius
##jones
##uv
##uj
##dra
##dies
##bow
##war
##44
##fc
##15
##72
##zzy
##anc
##ona
##esy
##stal
##eall
iti
##child
##lect
##asc
whoo
station
status
shan
lim
limit
##iller
##urt
cancer
workout
##essed
plant
plenty
impr
knee
bru
##icky
speed
spider
exist
##ucky
clim
saving
##ify
##ittin
##ups
tweeted
##007
marc
flick
wrote
babies
dammit
hurry
##ivity
##gggg
reality
realize
hella
finishing
fuckin
##zzzz
situation
research
results
total
##dddd
rocked
##oked
report
camer
pair
announ
rove
keys
##icial
grade
diffic
grace
packed
syd
cafe
media
nick_
natal
learned
chatting
praying
insane
student
ruined
america
reminds
discuss
inspir
temp
tmr
europe
comfort
impressed
langu
beyond
theatre
fashion
performan
mrskutcher
jtimberlake
35
90
ace
aka
bound
dee
dest
dirty
equ
foc
fox
gin
gam
ht
hob
hills
iv
jun
jap
lin
lee
lic
liter
mt
meal
opp
odd
ree
rite
raw
sg
sin
ti
tat
tiff
x2
zach
##eg
##n1
##nie
##ners
##like
##old
##rick
##rup
##rich
##ses
##some
##vv
##pen
##pol
##just
##yk
##ych
##di
##but
##bers
##bby
##win
##mins
##65
##_x
##xs
##kat
##fg
##fs
##face
##que
toe
##inger
##orious
##lla
##itor
item
##ety
##ched
whis
##lynn
##amps
lizz
##sel
##irts
##alo
##alian
##vert
fri
fridays
heather
chuck
champ
choose
regr
sushi
comin
comedy
alive
happiness
##rik
##ander
##ument
offer
spark
speaking
blank
hadn
deck
##morning
##!!!
cla
grrr
##earching
drinks
##aph
friendly
##isters
swe
swed
quote
##000
##aches
marathon
appoint
becoming
diet
starving
##onds
##brad
intern
biggest
realised
server
##laur
talked
accord
?!?
hahahahaha
desp
mostly
paint
address
teach
roast
kept
editing
horse
revise
chilling
remembered
medic
meliss
paying
brazil
peter
possibly
surprising
presentation
annoyed
miser
britains
ordered
esc
miami
##books
elect
massive
fully
##know
voting
##ique
issue
rachel
lmfa
texas
trailer
essay
schedule
lakers
allergies
awhile
channel
frenchieb
gossip
adorable
difficult
sydney
nick_carter
07
28
9am
ale
bs
ber
booo
bones
cs
cable
dust
dud
feat
field
gm
gee
goooo
gives
ghost
hd
ie
jere
ky
kir
million
nig
pump
pages
perez
rough
rap
sour
sens
ts
tin
tis
typ
vol
wisd
##hip
##rop
##real
##ians
##pet
##down
##bn
##bug
##web
##wars
##06
##ko
##kid
##fy
##90
##92
##71
##erts
##erence
tooo
##ities
##ndry
##stre
##isa
##etcher
##eness
##iculous
##ashing
staff
shann
##illed
##pper
##ieb
weight
heck
twist
china
neph
upgr
price
##anta
alarm
plz
##ushing
amand
##abe
brown
brows
##ela
knowing
##ffff
blame
##aaay
wave
clar
gray
orange
everytime
points
##udge
secret
##lock
theme
switch
tweetie
##ode
##athy
ears
urgh
stars
starwars
hurting
##ggie
idiot
amazon
##ashed
perform
birds
excuse
driver
posts
posting
stayed
##aaaaa
classic
cleaned
winter
forgive
holidays
retweet
unfair
curious
accept
files
laundry
simon
##elearn
conference
avat
avoid
flying
jessic
##john
thereal
downloading
comments
dressed
hollyoa
chineselearn
kisses
stories
bathroom
large
michelle
richard
cherry
bacon
details
positive
golden
gunna
degrees
cloudy
glasses
yellow
continue
building
##donald
process
folks
slightly
conversation
tgif
several
custom
challen
original
performance
literally
according
wisdom
nephew
hollyoaks
!...
"...
29
;-)
bah
boom
cer
cnt
duck
dork
hood
hulu
ilove
jew
kry
mee
mcr
noo
ness
nathan
oo
pit
pill
pour
path
pier
ron
ram
river
sow
search
tes
tit
tight
ummm
viv
virt
yu
york
##ev
##nter
##gb
##gre
##god
##hil
##hrs
##sen
##vr
##jess
##yb
##y_
##bon
##bour
##mat
##42
##kins
##27
##78
##err
tow
todd
##onse
##lll
##ese
##esign
##isy
##eta
stage
meh
soap
soci
shake
shock
lip
lies
liking
lime
anx
chels
remo
subs
neg
outfit
##happy
##uses
##usion
##issy
makin
awsome
britt
mission
##arts
##ardash
##ules
anywhere
spec
blow
blond
hows
guest
cloud
grow
grrrrr
faith
drum
arch
truck
user
pod
##emy
##ipe
scot
score
thankful
appl
applic
smo
smoke
smooth
laid
##break
otherwise
hardly
tele
parking
ending
haircut
recently
trending
adding
annivers
termin
content
unfollow
##izzle
sara
cookie
grab
woop
opening
spread
difference
salad
polar
respect
response
cancel
regular
firefox
celebrate
replace
replied
ruby
closing
popular
pulled
motor
stephen
voted
nikk
dannywood
animal
honestly
eggs
journey
cuddle
jesus
senior
bubble
frustrated
including
shooting
extremely
obviously
cavs
spoil
simply
miserable
jeremy
anniversary
!..
'.
//
48
austin
bast
bunch
brew
base
cine
ds
dick
ec
eight
fed
fir
ftw
js
kh
links
moo
mouse
mush
nurs
pd
ross
rush
sr
sab
tb
tenn
und
voc
wo
wicked
yer
##eh
##luk
##hl
##rin
##rid
##roy
##tra
##van
##ias
##js
##jan
##jab
##cent
##city
##cott
##cullen
##dc
##bc
##bor
##bre
##bish
##mel
##mers
##mac
##66
##64
##fish
##field
##94
##75
##81
##zi
##zen
##ington
##eem
##ayy
##arr
##oman
##sth
##each
##iser
##isha
##enag
andr
##icip
infect
##chy
steak
states
bein
socc
lock
ship
liz
##ality
wel
##iment
worries
chest
susp
neil
##ryan
commer
princess
##antic
alas
##rage
above
known
##eels
speech
mode
exerc
dece
funn
funer
##aud
twitterland
gr8
greet
groc
drove
arg
army
cock
coach
against
manage
##istic
seat
carl
headaches
weekends
cris
suns
##aker
##aked
##show
player
schools
admit
advice
besties
sometime
##cca
letting
glorious
parts
##ended
##gged
idol
##from
##fresh
##iki
hole
ughhh
embar
buzz
paris
fucked
checking
boot
skills
musical
sniff
##bled
##blue
partying
##iewahl
dads
recog
walmart
##sweet
surv
boston
##........
lucy
term
cutting
revising
control
msg
##fletcher
grandpa
meds
!!!!!!!!
slowly
seconds
fellow
karen
danger
##boys
laughed
selenag
basically
polit
police
subway
surprised
##chester
digital
ridiculous
##timel
mamas
cousins
ellen
nooooo
expected
error
jordan
##news
,,,
charlie
auto
donniewahl
##00000000
breathe
recovering
screwed
mistake
clouds
suggestions
chapter
2moro
wifi
mariah
babysitting
deserve
delayed
spanish
regret
avatar
selenagomez
donniewahlberg
$$
***
.)
23
27
31
6th
99
ally
ari
aaron
bt
bust
cu
cig
cob
cult
center
dye
eth
fear
fif
houston
jt
jake
jac
jose
jav
lul
mia
mandy
ox
oz
oven
pad
ray
rab
rick
sv
sd
size
searching
ted
tir
tun
tig
txt
uber
ustre
vs
vista
wire
yard
##ni
##nor
##ges
##gam
##lan
##oft
##ae
##run
##rain
##reed
##tell
##ture
##sy
##py
##pool
##ji
##ju
##dam
##die
##bu
##bird
##wy
##wal
##maine
##_g
##_o
##_f
##kd
##food
##fry
##fol
##73
thnx
tong
##anut
##ata
##ati
thes
##oned
##online
##itis
##oof
##stone
hal
##ota
##otic
##isf
myst
inn
forum
whore
##cky
stack
stalk
sober
socks
shad
liver
fred
france
##ims
chas
sup
suit
comb
##haw
##ttt
imma
asap
twitt
brilli
##elt
##oles
spl
sports
devel
##aah
gud
growing
sadd
sadness
truth
##anger
beta
pock
##ement
##aga
##iph
##berries
monica
whoa
scan
science
##acey
div
urban
acting
actual
##ected
hott
helped
listened
##anknight
##ensen
hearing
runs
couch
sneez
accom
freezing
##black
hunting
##ddd
30pm
dreaming
prep
##what
charge
restaur
boat
updating
edit
erin
hopes
##gling
##yyyyy
invited
testing
definately
xxxx
confir
picking
counting
network
blocks
juicy
##aaaay
ahhhhh
ps3
graduate
geor
140
kicked
subject
standing
ruin
!?!
replies
cyrus
##street
jerry
jersey
keyboard
##ounge
denver
doctors
panic
typic
##!!!!!!!!!!!!!!!!
creative
garage
jennif
##2009
neighbor
breath
comfy
degree
texting
yahoo
martin
assignments
signing
duty
utter
incredible
dishes
attempt
aussie
circ
photoshop
anthony
florida
competition
appointment
smoking
recogn
tongue
))
55
500
aid
bam
buck
curl
corn
dk
dedic
eu
f1
fool
kl
ker
kyle
mater
nur
nood
obs
pun
pound
pays
pian
rs
rp
rent
sett
sittin
tap
ugg
va
vill
vent
wen
wil
wats
##nk
##now
##gust
##gab
##hood
##ral
##roll
##round
##rose
##tar
##iod
##ped
##jd
##jac
##cd
##cool
##yc
##bunny
##wi
##mad
##mike
##kay
##ken
##31
##70
##zilla
tht
##oust
thel
##eday
##vey
##eag
italian
##ether
##ening
##icles
##chris
ish
##lew
whit
whew
beans
locked
##aded
##adam
##amed
shr
shiny
lily
##sex
##urance
##ira
##ppin
notes
nothin
chees
reun
refer
goodmorning
reach
##ential
##essa
##ilar
plug
amount
##ateful
mah
##elton
lolz
##alltimel
##obe
##obs
##gend
blo
bleed
##mme
##oyd
##ella
clue
gree
grown
saved
##ooooooo
phones
conv
usb
uses
yeahh
sept
bitter
##iac
sway
tweetphoto
heads
scare
scene
peanut
##acy
##aced
##shop
unhappy
##ugget
thankyou
appt
appro
##princess
himself
hiya
picnic
url
##soci
##uffy
minus
lawn
##ossible
##ggy
##gging
##ords
hoor
emotion
##cream
skype
##grl
belong
##zzz
snip
snug
##bling
30am
walked
teaching
##white
soooooo
hitting
provid
contest
contract
##1974
robluk
apolog
burr
metal
tommor
syn
cait
profession
laura
!!!!!!!!!!!
psych
salt
prayers
magazine
human
correct
quickly
britney
teena
mommas
heavy
rubbish
transl
mikey
##iiiiiiii
holding
##works
mcdonald
solange
pieces
massage
roomm
dhugh
talented
snap
errands
jordanknight
##ribly
events
matthew
selling
irish
##isdale
hooked
spelling
tweeters
##mbers
drawing
named
semester
2morrow
option
##words
##addict
ankle
economy
ebay
captain
lemon
spirit
tastes
wasted
language
despite
virtual
subsc
soccer
grocery
##alltimelow
robluketic
->
.!
300
4v
5th
=/
bin
bing
bass
bio
bomb
cre
cind
cakes
cries
dies
dates
dizzy
eww
fal
gil
geez
hide
jane
kp
kk
kel
kitt
kris
kwk
lon
mill
ment
mos
mang
nt
noooooooo
names
oil
ohhhh
py
pity
punch
pitch
ris
rog
sau
tc
td
tink
tub
wy
wink
wand
weak
woken
zoo
~~
##name
##gee
##gic
##li
##lam
##ointing
##hu
##away
##tg
##town
##say
##vie
##iee
##po
##pher
##pack
##pting
##jp
##jc
##jour
##jud
##ui
##ued
##cor
##cook
##cia
##cup
##dave
##bd
##bot
##bill
##bra
##bear
##wil
##west
##mr
##mich
##ket
##felton
##35
##100
##zs
##zel
thor
toss
##orter
##orting
##an_
##anny
##anoid
theater
theory
##eesh
##ooke
##arian
hack
##otha
##vet
##eah
##isher
##eng
##ened
##ency
##ences
##enrie
##icing
##icia
...)
##cho
##chi
force
forced
##asg
whether
stoked
belly
##idd
##idget
members
loser
##amous
goal
##sell
##irou
##iron
##unn
##iece
fridge
##imo
held
canucks
##hern
reh
refu
reject
recept
supr
##entr
##them
nov
nove
prot
ali
alter
alice
plants
##usk
gots
tool
##outs
imm
image
##ribe
aswell
todays
brings
missin
##uma
##arded
##oliver
##alley
blues
wah
whenever
client
grateful
faces
drank
sav
trade
waitin
##itted
##iped
select
##lover
swee
carry
quin
quar
script
leavin
##ockey
bedtime
sunbur
##shirt
unlim
adore
##ples
##tsk
someday
sms
##beck
rains
rained
daw
##moore
feelings
loose
craz
##gger
yayy
older
##spot
pretend
trips
period
danie
tells
ughh
paranoid
trace
sundays
##tones
meaning
##lando
##twitter
beauty
useless
rocking
prepar
previous
steven
killer
charger
hangin
##uuu
role
hmmmm
##hahahaha
terr
cutie
jamie_
indian
released
visiting
##carey
trains
!!!!!!!!!
colour
tomfelton
giant
sales
therap
humid
pupp
mmmmm
register
##parents
rule
bugs
##paul
younger
vancou
mommys
square
pleased
balls
arrive
##---
traveling
potato
wolf
normally
atleast
laws
ringtones
bella
blew
impossible
memory
depends
##steph
shoutout
hmph
nuts
topics
##harris
bowl
ignore
pressure
installed
queens
delivery
certainly
assignment
palm
constantly
dutch
ultim
alyss
bothered
brooklyn
dreading
tweeple
victoria
creepy
html
japan
surprisingly
lmfao
shannon
cereal
pathetic
##bourne
baseball
infection
december
mariahcarey
brilliant
develop
pocket
typical
roommate
dhughesy
kwk9
sunburnt
unlimited
vancouver
3am
7am
?)
aa
apr
apt
aye
biz
bump
cart
crow
cale
db
df
dum
dall
dump
ee
fy
gg
g1
ginger
hp
hind
hating
hockey
iw
jc
jd
jet
jod
jak
jazz
kas
keen
lugg
ml
mas
mud
munch
mister
nc
ore
oooo
pb
pand
pff
pure
pills
ri
rot
sry
sized
sisters
tune
tyl
ub
vet
ways
wud
woss
waaaa
wings
ze
zac
##nl
##nin
##gal
##great
##geek
##lie
##luck
##hm
##hor
##hours
##rass
##ream
##sa
##sed
##vd
##vm
##vee
##vest
##ios
##ients
##pan
##jee
##jirou
##uel
##call
##cmay
##yed
##bi
##bles
##bstack
##wing
##wis
##walk
##mate
##03
##45
##_me
##fo
##fon
##fest
##fab
##full
##91
##zo
##inner
##inson
thumb
toys
##orr
##anks
##oni
##onder
##onica
##itz
##itas
##itions
##ares
##oma
##sta
haw
hamm
##otes
##eaks
##icated
ing
inj
inc
fort
##asp
whoop
stun
##kelly
megan
solo
loll
##adee
shud
shak
shitty
##irre
fran
fries
fruit
##imi
##imin
heid
##days
wore
twpp
cho
chant
chips
##ento
..?
..!
##thomas
##esss
##ilk
##hael
##hawk
noon
noes
##aint
plays
amusing
likely
morris
morgan
##rip
assh
awa
##abl
##abel
##ability
##andra
timing
bron
##arty
backstreet
##ffe
##uled
##olic
willing
slam
agent
agreed
demo
##ollen
##oytell
grass
grrrr
moments
drugs
greatest
saf
coc
cod
phew
wouldnt
trees
converse
usern
##agn
##agr
thingy
showed
##azing
cares
nicely
makeup
quality
##ewl
cramps
##ocks
##shit
adm
##ugal
smiling
##irsty
##moon
surely
##freak
bigger
strug
guessing
luckily
kidd
##ika
employ
##oxy
eliz
snack
##ierd
sites
resist
awwwww
photography
stops
##nnnn
repair
singer
##otte
foods
dogbook
##awa
kev
retarded
##kkk
terry
cutest
jamie
##roid
##aughters
grandparents
samanth
decision
burning
goose
invest
johncmay
tests
##ebbstack
darling
faster
angels
harry
budget
buddies
signed
insurance
humor
cupcakes
publ
students
george
effort
viewing
corner
broad
sharon
wordpress
appreciated
disappointing
riding
transfer
jerk
##babe
audio
audition
bags
entry
sanct
obama
pancakes
recording
##ssssssss
expecting
created
stores
haters
data
##nicole
anti
neighbors
banana
donnie
crashed
camping
souljab
explain
bowling
model
hollie
viol
central
rosie
wknd
general
shaun
screaming
constant
dawnrich
technology
incredibly
festival
##blog
considering
community
distracted
hiding
wendy
carolina
characters
##present
involved
limited
tmrw
comfortable
focus
license
international
electric
##knowles
dudes
kirk
browser
starwarsday
tesco
##hilton
chelsea
##ardashian
cinema
nursing
tennis
exercise
funeral
survive
java
accompl
restaurant
village
snipurl
solangeknowles
reception
november
luggage
##oytellem
username
johncmayer
souljaboytellem
dawnrichard
!.
/?
4am
8am
=]
>.
aj
bm
bul
battle
berry
cit
crew
cupp
dur
dim
diss
fe
foo
gum
gall
gifts
hip
heal
hated
heels
iced
jj
jos
jail
junk
kam
kenny
kitten
lan
lit
led
lines
lance
lamb
mn
mk
mf
m8
mz
mow
meeee
mental
nh
nz
nun
nint
nail
naked
ping
pee
pir
penny
rr
rd
rou
rat
ric
rly
rus
rout
rum
rang
rave
rarely
tend
task
wi
wth
wra
wise
yee
##nia
##gm
##got
##gles
##lt
##lou
##look
##oi
##hy
##hun
##him
##aver
##ael
##ross
##tn
##tastic
##talk
##tila
##vt
##vine
##vation
##vity
##ieall
##pd
##pal
##pix
##uy
##uum
##uous
##ucc
##cs
##can
##cra
##yo
##dh
##dee
##dess
##bat
##bies
##bag
##bach
##bath
##will
##mes
##met
##mine
##mod
##mond
##mary
##mates
##63
##68
##_xo
##kr
##fiss
##28
##98
##1q
##80
##zp
##zie
##inst
##inea
##inion
toron
##anie
thee
##aries
##oms
##stairs
##vell
##eaut
##eapp
##isco
##enson
##iceless
##chool
stat
steel
steal
stinks
bever
bebo
begins
##iders
member
sod
##adi
shy
shaw
shops
##illian
##ights
frick
frig
fried
anime
withdra
cand
chip
rebe
represent
negle
##hah
no1
pra
##ante
alp
##ksha
plain
##ctor
##ctic
##riff
##riage
awk
##abeth
twitting
bridge
backup
knowled
##ulin
##olo
##olf
##ige
##igirl
##igner
willi
##ober
##eeds
##eedom
##iney
spock
moi
bla
nighty
slice
##mmensen
##ellen
##aund
guil
guilt
clip
organ
orlando
every1
saus
heroes
##aper
##apore
coke
convin
poker
##eme
##ager
wonders
##ubs
follows
manchester
##istry
seats
seven
separ
##log
##loved
bits
##nyc
swing
swift
swollen
leon
lect
leigh
tryin
##ewell
##izon
##izes
cro
mothersday
##phones
##aki
##aching
uns
united
##anson
longest
adop
advent
##eye
marks
marley
flav
##pro
##prom
##prod
smack
##beat
joh
joey
glasg
borrow
##cious
partner
babes
active
##ivan
eaten
##bro
crawl
omfg
##endo
##ggg
beast
##quel
lying
harder
lovin
bush
ends
##oxo
stuffed
hung
hunt
farm
resc
crystal
desper
satisf
##nold
preview
singapore
##ettes
charged
winning
##nessee
blogging
blogspot
edin
##club
##hahaha
horror
doug
attract
chilled
concentr
indust
india
robin
david_h
acad
##a_guy
grandm
graph
films
similar
##101
johnny
##attered
texted
legal
package
##medi
touring
melbourne
artist
##burgh
tomato
karma
##rrrrrrrr
jeans
honor
##clemmensen
##easy
##track
##monday
christmas
basket
cupcake
inform
infamous
mmmm
canceled
regard
kicking
bugger
##untu
britain
hollywood
americ
reminder
reminded
cyber
##kyo
maths
potter
potential
##eeeeeeeeeeeeeeee
##young
covered
tennessee
##innam
location
progress
michaelm
officialtila
:-/
andyclemmensen
bleh
portfol
impal
????????
animals
homie
##eringring
emma
filled
accidentally
hayley
autom
bkite
tweeter
silver
connection
freeringring
journal
baked
centre
successful
target
##rosoft
contacts
thomasfiss
october
renew
grounded
virus
mexican
mexico
entertaining
beginning
collection
brend
mountain
spinning
character
multip
sleeep
motivation
female
zombie
bruce
flickr
destroy
linux
items
whisper
lizzie
##selves
claire
sweating
medicine
perezhilton
typing
twisted
challenge
pillow
pouring
society
brittany
application
tbh
wireless
liverpool
noodles
reunion
convince
hooray
emotional
rehears
therapy
dallas
wossy
sanctu
cuppa
toronto
friggin
neglect
convinced
glasgow
david_henrie
portfolio
-.
06
05
08
360
400
5k
5pm
6am
:@
</
?!!
ack
ara
aqu
aaaa
auth
billy
bene
cn
cw
cad
cate
dl
dirt
dyl
daughters
eee
emo
edd
ft
fone
flew
ftsk
gem
gnite
gaga
hq
hed
hyp
ih
ian
ire
jaz
jury
kin
kor
kal
kra
kore
kath
lj
lun
lower
lounge
nar
og
oy
ooooo
pt
pas
pil
pant
patch
pac
pets
punk
porn
panda
pony
rc
rq
rate
rod
rise
sj
sink
sang
sass
tx
tid
tam
tayl
una
uhh
vamp
vicky
valley
wu
wooo
wins
wana
xp
xk
yi
yipp
yucky
##nate
##nik
##gon
##gun
##gate
##gian
##gory
##lj
##lady
##o_
##oor
##oen
##oha
##oons
##hat
##hee
##hen
##hand
##hem
##hod
##aid
##roo
##sn
##sat
##iors
##pi
##put
##pink
##patt
##coo
##cal
##cie
##coll
##corn
##camp
##dia
##bg
##big
##bull
##bank
##bster
##brown
##wm
##wee
##woman
##mur
##mum
##mia
##67
##49
##55
##57
##_a_
##xter
##kiss
##fi
##fic
##3r
##36
##97
##inter
##erd
##eres
toooo
##ature
##oning
##iters
##omor
##sty
##store
hai
hawa
youth
itself
italy
##isn
##eter
##eting
##ghh
##chu
##chan
##christ
##rep
##rell
##rend
##reck
##lem
##lection
whil
wheel
stood
stol
stub
stitch
beck
bears
mega
sob
sof
##lys
lover
sho
shell
shoe
shifts
##sem
##urity
##alan
##alking
fry
frm
frost
freedom
wassup
twurl
suz
allah
upon
outlook
##thin
##ileen
noise
prim
pros
prince
prior
priceless
##antal
##raz
##inky
immedi
##ria
##rix
asp
##osa
##osis
bran
brandy
brooke
miss_
missx
##elf
##arten
somewhat
##ership
##olt
##igan
william
##inez
spain
spoke
mock
molly
thinkin
blu
blind
blows
homeless
##mma
##olla
function
twitterberry
groo
##earl
arent
##aps
##ified
coding
enth
trent
poet
popped
tomorow
sean
afr
##ysh
##ysp
overcast
##iao
shoulder
gona
whoever
##yyjirou
lemme
carr
afterwards
leaves
##acity
univers
playin
sayin
ads
advert
mars
mari
marry
margar
marriage
flood
smiley
letter
joj
##atherine
sooner
##ealand
thread
thrilled
probs
minor
coolest
##ection
loop
craw
craig
##tail
helen
##free
##quet
##quid
helpful
realise
perth
teh
##iko
listenin
parent
warning
soundtrack
travis
gods
10th
drivers
belie
mighty
result
##tweet
recent
useful
delete
##otten
##etti
instant
surf
surround
winner
opinion
edge
educ
luke
lucas
highly
terribly
##unky
concern
##iction
##hhhhhh
computers
indie
##glass
complain
complicated
barry
burger
deadline
##iverse
##connect
goood
shortly
##106
relation
related
tommy
2010
careful
confusing
darren
##_benson
replying
##itional
melt
##iety
##burg
bringing
papers
blessings
1000
nature
changes
accounts
loaded
evry
joining
insom
2008
katy
numbers
##coming
diego
respons
patrick
raise
dealing
digg
heaps
arrival
crossing
##worth
ryans
costume
muah
roads
distur
imax
owe
purse
vids
mentioned
latin
##writer
datab
devon
engage
##ograph
kimber
tempt
##jonathan
##2001
reviews
##stein
anticip
filling
##exp
kristen
pigs
turning
turtle
washed
sunburned
silence
models
holla
delivered
mandyyjirou
##((((
lifes
butterfly
cruise
judge
courtney
cubs
dublin
lesley
##????????????????
suddenly
murder
##charl
advance
entertain
settings
kirstieall
mountains
foreign
##rific
yoga
printed
discovered
effects
strawberries
climb
cameron
rove1974
natalie
inspiration
sweden
escape
upgrade
customer
kryst
shocked
anxious
negative
replacement
commercial
embarrass
allyson
fifth
mystery
saddest
recognize
dedicated
material
obsessed
piano
burrito
mcdonalds
preparing
ultimate
fyi
nintendo
awkward
knowledge
williams
guilty
edinburgh
impala_guy
hawaii
whilst
stolen
immediately
mandyyjirouxx
kirstiealley
"?
',
)...
199
3g
36
38
4pm
64
75
7th
800
;;
<<
?,
ai
aer
aah
aching
bh
bot
bite
boooo
bby
bare
boun
bwa
ct
cath
cyn
crown
dor
dill
drow
dia
dash
dull
dare
duh
eag
ets
ecl
erik
fn
fc
fift
fudge
gang
gmail
gene
hw
iz
ira
irr
ji
jst
jog
jared
juss
kon
kud
kayl
kewl
lr
lc
lah
lac
mut
mim
mite
miz
mcc
nu
nim
nine
nach
nash
naw
nana
nhi
national
niece
occ
ped
pow
pers
poll
pork
pete
pedic
riot
sq
sant
sally
sasha
tiss
tall
tuck
tire
tape
vine
vog
vod
wook
wiz
wik
yas
yuk
zoe
zealand
##nz
##nam
##gies
##lis
##lers
##list
##lace
##lib
##o3
##oong
##oves
##hart
##aoke
##ault
##rast
##read
##ti
##spr
##vl
##vp
##via
##iar
##pn
##pes
##pea
##pad
##power
##jer
##jul
##junk
##james
##cam
##cop
##cass
##yer
##dj
##del
##bud
##biz
##bits
##wd
##wer
##wit
##wid
##mg
##md
##mz
##mcc
##muse
##0n1
##47
##_in
##_au
##_the
##xe
##xa
##xi
##xc
##kar
##kardashian
##far
##fall
##foot
##2k
##39
##,,
##iner
##inis
##inty
##inating
thi
thail
threw
##erie
##erina
toes
toil
tokyo
##ingo
##anas
##ators
theb
theellen
##onic
##eezy
##arin
##stor
##storm
##style
##othing
##eaa
##ealy
##eally
itouch
andre
android
infl
inbox
..."
##ghhh
##chell
##change
##rek
whom
stu
stell
stopping
stole
bend
beha
beats
##iding
##idence
##iddle
meat
mell
meow
##lym
##lying
lobster
##aden
##adget
##amor
##amas
##amore
shuff
shark
shade
shared
shirts
sheesh
shaund
limo
##lda
##sec
##ura
##urdy
##iro
##ales
##alog
frame
frog
!!)
anton
dod
twi
cani
chin
chili
chores
refresh
suzy
comics
common
reall
reader
##thep
##theb
thisis
##hale
pred
prison
prices
proof
##antom
alan
plastic
##usive
lovel
tools
happier
##este
##ripp
##rizz
asyl
seemed
##ando
abby
twits
twitts
brb
brent
brick
bride
brunch
breast
missy
##eline
##umber
##umbs
##fficial
##eeling
weed
##ola
willy
##inda
offline
newcast
##inem
spa
spiders
moz
moder
blink
howie_
decl
device
debb
##aac
##aaah
##ello
clients
twitterverse
##eared
##rows
sac
sorting
##apr
mornings
##akeup
coco
phill
trash
sleepin
sleepover
veget
finale
##eman
##ags
##ague
waited
friendster
##iper
##ipse
##loe
##lode
monster
monitor
bites
bitches
overall
shouldnt
##aze
legend
carn
quotes
scen
##ews
##ewart
leah
cran
crashing
##odd
##phot
##phere
##she
unc
unable
marian
##rrl
peoples
flip
flower
##perry
smok
smiles
became
joint
diam
rainbow
##eeeeeee
littlefletcher
parties
wrk
daisy
##uffin
lappy
##quin
##ashes
lyr
damnit
famil
ughhhh
parade
remix
remote
sounded
boredom
skate
skip
tracy
coup
counter
##green
stuffs
belive
##atte
sitter
chances
farewell
##iewebbstack
resched
##aaaaaa
cryin
##ibes
recipe
##avin
##avis
reports
pregn
##meg
##uzzy
handy
##awd
keza
##.....
sooooooo
failing
highlight
prov
hopeless
##icted
indo
##gled
macar
windy
promised
acoust
cooked
gravity
##conrad
security
filming
epiph
seafood
passes
password
milksha
legit
calm
calvin
bbc
##carr
##marsh
colleag
microsoft
chocolates
dragged
jackson
mitchel
##burger
sentence
##gold
jean
reasons
harley
##joe
gardening
##theart
##thegreat
unfortunat
gregg
forgetting
iamjonathan
##check
bands
geoff
stressful
brave
views
##paris
factor
factory
celebrity
vanilla
squirre
gigs
transport
##boots
##struct
produ
##iiiii
audi
pulling
##eeze
costs
solid
muse
rolls
verizon
fund
wallet
roof
require
garr
empire
nikki
notebook
randomly
inspired
##wwwwwwww
ashleyt
jenna
lisa
michigan
portugal
##smith
homes
smells
feedback
tanning
position
laurenconrad
torn
manager
bobby
bangs
dollars
ignoring
jumped
connected
yelled
bradiewebbstack
##official
##aurus
attacked
cooper
allergic
##xxxxxxxx
buffalo
fold
judd
frustrating
##mommy
deserved
econom
shelby
amber_benson
knocked
auntie
muscle
taco
tacos
galax
sophie
chrome
suffering
condition
ikea
muffin
climbing
announce
discussion
gaming
opportun
feature
goooood
##bnation
jewel
title
podcast
applied
terminator
woah
welsh
greetings
teddy
tuned
innoc
sneezing
prepare
confirmed
!?!?!
)))
nurse
blokes
september
tommorow
sauce
tubes
terrence
registered
april
tyler
ubuntu
stunning
asshole
>.<
##install
sausage
satisfied
basketball
dylan
hq0n1
korea
prosper
##connected
eclipse
vinegar
thailand
theellenshow
newcastle
howie_d
pregnant
keza34
colleagues
iamjonathancook
!:
"!
'!
'..
'...
1am
2night
42
4ever
5am
70
88
8th
94
95
:"
:[
?...
aun
apl
bj
bom
bun
bake
bod
bond
bbl
bail
bald
boooooo
cp
cus
cac
css
civ
cinnam
dot
dre
dere
dess
dip
denny
dyn
duc
e3
fot
file
fog
furn
font
ferr
fusion
gt
gim
gel
gna
giv
gary
gib
grew
het
hic
hud
hog
ist
icon
izzy
iantal
jill
jays
judy
kg
kan
kenn
kale
kicks
l8
lal
laughter
lulu
mb
mun
mug
mates
mask
mango
nj
nas
nad
nest
nort
nipp
naught
nugget
od
pg
pp
pw
pul
pem
pup
patter
peas
rt
rome
rant
roy
rox
russ
rails
ripped
rules
sed
sid
sight
sack
sons
srs
sandy
sissy
tp
tay
tack
tess
tel
tang
tank
tierd
wes
wut
wack
wrap
zone
zack
zero
##nm
##nar
##nut
##gir
##gia
##lor
##len
##live
##hw
##hes
##hot
##hill
##hard
##hib
##hinks
##a8
##ru
##ras
##rated
##rams
##tal
##sg
##sd
##sav
##iott
##ieee
##iya
##pot
##pie
##point
##jt
##jv
##j106
##uzz
##uits
##come
##cess
##cul
##col
##cour
##cash
##cript
##yan
##df
##dz
##dan
##des
##dar
##date
##dul
##bz
##bal
##bone
##bob
##bitch
##wp
##wan
##wine
##wife
##mal
##mie
##mil
##mys
##mach
##mont
##made
##61
##0o
##0r
##4d
##41
##56
##54
##53
##58
##_e
##_xx
##_sp
##xy
##kp
##kit
##kate
##kitty
##f3
##fort
##father
##fair
##fillion
##2b
##300
##360
##qe
##qp
##zu
##zon
##==
##\/
##inee
##inate
thou
threat
thirty
##erin
##erto
tooooo
tourn
towards
##inge
##order
##anz
##ancy
the_
##lle
##aya
##iton
##itation
##iture
##itude
##ndr
##arah
##stood
##stick
##stud
haa
haz
halo
youu
youuuuu
##otton
##eau
itag
##etime
##uto
##enc
##enz
##icular
onion
##cht
isaac
forth
##asher
##asco
stink
steam
styl
stacey
##kel
beating
melo
sos
##lyw
logo
logging
##ads
##amber
shir
shine
shattered
lift
dayy
##ires
##aling
##alcon
##uns
##pppp
##imental
justice
anne
dol
twins
twenty
##opo
##opia
chal
chew
chatt
chase
reb
rez
reinstall
sud
suic
allison
upcoming
comed
comet
realy
##tha
##thon
##thes
##hac
##hab
prat
pride
alm
aloha
amb
among
##aston
##astar
##issa
donna
happiest
##eston
##estar
male
##cts
imo
imac
##rier
##rian
award
sees
##abs
##abear
aband
ability
!!!...
bris
brun
bros
##arted
some1
lolol
##ffy
##icket
##ulk
##uleta
##olar
##olis
##olution
##obile
spook
sport
bliss
blowing
exotic
exchange
slower
dez
dean
dexter
##olley
##oynter
##reative
##morgan
ohio
funky
guinea
wax
waves
clap
clare
twitterers
grin
gran
gram
grub
sail
sacr
herself
sorted
##apa
coat
phase
env
trick
convo
##angirl
beth
betty
pole
finan
yeaa
##emic
##employ
##aged
##agne
section
themselves
##fever
##uper
leather
##aholic
tweetup
pepper
crit
cramp
##aka
##shot
unemploy
##anscott
adams
adult
##eyes
march
flow
flies
fluffy
bestie
somethin
smashed
sucky
##belly
jokes
##ichelle
particular
yearbook
starship
daft
actress
mint
##nerd
cooler
##iviney
##bron
looove
loosing
##fred
##inton
##ordan
lyn
hardcore
##mann
dislike
disgust
pero
percent
compared
lovee
dann
danc
excite
kinds
kinderg
famili
built
paramore
nothings
##creen
checkin
babygirl
ski
##coach
##coffee
10pm
##law
clever
cleared
musicmonday
##zzle
##cycle
meetings
##blond
hahahah
awwwwwww
##tweets
desire
##ibility
supply
recital
repeat
planet
trekk
prec
prem
##dev
coldplay
instr
kills
killers
charm
##uuup
blogtv
annie
restr
oprah
assist
assume
keith
##cloud
hits
##onte
scrubs
contrib
expired
##1986
index
curve
acqu
##121
##1234
completed
compliment
##annab
##yyyyyy
decent
burgers
grabb
gooood
invis
shorts
##umpy
##umpet
minds
relief
passing
passion
opened
icecream
texts
linked
xxxxx
12th
president
##ampa
pasta
laurie
county
##mingham
artists
jacket
jackie
angie
lightning
nicky
karaoke
##stars
##starchild
##star007
nicks
nicol
4jb
fixing
honour
##mony
##monster
magn
selena
basement
seasons
layout
geography
mmmmmm
patron
raff
effin
guts
standard
smaller
##sketch
commute
absolut
genius
british
espress
digging
pleasant
transform
apartments
touched
holds
audience
solution
mua
experien
boxes
18th
distance
elle
fuel
current
creating
owner
##jean
document
matters
votes
devast
engine
fatty
larry
baking
bahaha
umbre
jasonbrad
spamming
depend
addiction
.................
neighbours
hayfever
oliv
rachael
##roberts
soulja
include
dollar
recovered
ignored
silent
ahhhhhh
victory
dragon
bonus
##impson
programme
cudd
jesse
generation
80s
seniors
##hearts
cowork
optim
##rocks
atmos
domain
venue
cruel
technically
batman
estate
##0210
pamper
woods
cabin
kriss
virgin
##michael
strip
chaos
chemistry
girlfriends
taxi
attending
skinny
##________
opera
operation
##grace
marketing
girly
louis
symp
tutor
sweaty
awesomeness
hehehehe
strawberry
motivated
muffins
zombies
##hayes
improve
tiffany
##rupt
champion
swedish
nigga
accepted
nathanfillion
sowwy
limeice
anxiety
removed
archuleta
scotland
polaroid
stephenfry
spoiled
bastard
management
sunset
ridiculously
$$$
cigar
cobra
joseph
tiger
stalker
shadow
juicystar007
utterly
circus
pounds
settle
cheesy
reference
snuggle
professional
translation
kitties
##pherd
refuse
##ipedia
selected
quarter
jamie_oliver
kasey
ooooh
safari
struggling
accomplished
citiz
dissap
##eautiful
##eapple
rebecc
separate
rescue
concentrate
industry
grandmother
americans
-.-
ireland
korean
##oenix
crawling
surrounded
##glasses
cynth
etsy
fifteen
kudos
nachos
wikipedia
##junkie
shuffle
shaundiviney
debbie
lyrics
indoors
acoustic
ashleytisdale
juddday
blokeslib
terrencej106
dessert
furniture
iantalbot
kalebnation
pattern
srsly
itagg
jasonbradbury
!,
*.
.'
04
32
37
44
79
90210
:\
<--
__
ast
aust
aver
aub
aaaaa
aches
bone
bry
bart
bead
beet
bik
batt
bkk
bucks
busted
booooo
bryan
ck
cf
cld
cere
cum
cure
cord
crist
cache
dg
ding
doo
dood
dion
dag
dunk
dual
dyed
ez
ether
ego
ewww
fer
fon
fee
fasc
gent
gnight
gurl
gained
h1
han
hater
hint
ia
izz
jin
jar
jade
kle
kos
kap
kathy
lg
lys
lens
leeds
mh
mit
mast
mash
np
nes
nit
nate
nag
nxt
nause
nath
nich
nats
nina
niq
nvm
oi
oak
o_o
olym
pk
pout
peep
pong
pine
pau
pops
purch
powers
qld
rb
rf
reel
rul
rays
rag
rss
rib
sess
santa
tn
tu
tas
tie
teen
tty
tisdale
ud
u2
vo
vm
var
vast
vel
vene
wot
wid
wrist
weth
wango
wreck
yeeee
yooo
zo
##gp
##gw
##g3
##gel
##gig
##gens
##grrl
##l0
##lon
##lea
##lal
##lking
##lets
##lines
##hd
##hel
##hum
##hig
##hey
##hopp
##high
##hugh
##aan
##rt
##rp
##ril
##roc
##rina
##tp
##tu
##tam
##tur
##v3
##vor
##vas
##vol
##iving
##ioc
##ping
##pit
##pers
##park
##pants
##jk
##jas
##jew
##jose
##uals
##cee
##care
##cles
##case
##cups
##yh
##yx
##yard
##yles
##ygirl
##dm
##ded
##dig
##dav
##dress
##bm
##bes
##bir
##bol
##bod
##bak
##bike
##btr
##bears
##bomb
##wb
##wel
##wall
##watch
##wag
##mp
##mill
##mell
##mans
##mare
##master
##mouth
##617
##4h
##4life
##52
##_a
##_y
##_0
##_re
##_ra
##_and
##_sh
##_girl
##_sk
##xie
##kb
##kf
##kee
##kill
##kers
##kies
##kia
##krist
##f4
##fur
##fah
##fty
##fact
##214
##96
##93
##1p
##>>
thirsty
thumbs
##eric
##eries
torr
tops
tootha
##orp
##orks
##orate
##oration
##oria
##orary
##anic
##anner
##anced
##atomy
##once
##onne
##llike
##eena
##esa
##ndar
##ndred
##oos
##arys
##army
##omo
##omit
##omet
##omen
##eds
##stop
##stra
##stell
hairst
habit
hacked
##oted
##otcom
##veland
##eash
##ealf
##isis
mys
##etty
##utter
andys
##icit
ink
ingr
inlove
intr
invent
...?
##ghan
##chin
##chet
##chik
fors
forest
forums
##asi
whack
wheres
stan
stone
stac
stamp
stealth
sticks
stairs
beard
beers
beloved
##idy
##iden
##idel
soy
##lyah
lobby
##ading
##adon
##aday
##addy
##amc
##amar
##amad
sham
shopp
shave
shane
shape
gos
gov
goat
gover
##usting
##ldn
##lder
##uro
##tera
##alis
##alie
##aline
##ppus
##ieo
froz
##imm
##imum
!!...
analy
##oody
doh
dos
dope
doggy
heath
worn
twin
canal
##opher
chu
chea
chile
chose
chron
cheek
chair
chai
reck
rebel
neat
nell
goodby
##ryder
##ryanscott
react
##entz
##thr
##ths
##thel
thisstarchild
##essive
##ilee
novel
##anted
##usch
amor
amen
likey
gotcha
donny
##rab
##ested
mak
##rien
knw
knack
seek
##ishing
##oso
##osen
##osoph
breed
misss
##artist
##umble
##umps
##eeping
##ardo
##ardi
##ulg
##ula
##nington
##oline
##obb
newborn
##gele
spare
spicy
blisters
exited
nightmar
howard
##opez
slim
slack
slap
##mmmm
dew
##uckle
guide
clay
clau
clair
clothing
twittered
twitterville
hopeful
grill
faire
##ounds
orch
dropping
sao
sorta
##apan
##ously
coff
encou
trop
tricky
convert
construct
##angers
poke
poly
popp
popping
##emp
##empl
##aging
##owns
tonights
mann
manly
##istan
##irlines
selection
##logger
monkey
overhe
##nya
##picture
##asso
shoulda
sweep
##aza
leop
carrie
quad
quilt
tryna
scrap
league
crunch
crime
creek
##oda
##phill
##phel
downstairs
sunglasses
##shire
##ships
unit
uncom
universe
unexp
admin
startrek
marie
##place
madre
thankfully
werew
movin
moves
apples
##max
smith
##eaky
sucker
hire
##bec
##beats
diana
glen
glenn
nevermind
##cience
##toad
earn
particip
urs
written
chef
acts
activity
sickness
damage
##mental
ours
##brand
##broken
##bridge
loooong
crab
##ender
##sons
##fran
##frank
##frances
hot30
##spark
##heather
triple
realbill
hardest
##mania
##iann
string
strand
perman
hellen
compan
birmingham
omgosh
yaay
loveeee
lovato
##iku
hoppus
kindle
emerg
eminem
##anky
warren
reminis
endless
runny
skool
tragic
travell
##cole
##laire
sweety
sweetest
belated
postp
##cynic
##itchard
snoo
snoring
accent
##ierce
hungo
hairdress
resort
tail
superb
poorly
theirs
designer
awwh
recall
recession
foundation
rocky
rockin
##oko
mumm
wales
repe
defo
default
okayy
premi
tease
delhi
sings
steff
stevie
##ettem
charity
charming
win7
##uuut
forgotten
hundred
holes
blogs
boiling
retire
retail
##kkie
##cler
##cling
##girls
horny
luvin
higher
erm
erick
##aseer
prove
hoped
attach
chilly
scram
expo
explode
indy
##roe
-->
---
##ippin
4ws
4wk
4w9
curse
acce
souls
complaining
bars
##anned
##annie
sammy
decis
##oooooooooooo
hearts
graham
inviting
relay
##owski
methinks
##apple
syrup
presence
presents
caffe
wears
##marisa
##ballerina
relaxin
medium
melting
showered
figuring
spray
sprained
coursework
150
jackalltimelow
##ussy
##friends
ashleigh
ashamed
!!!!!!!!!!!!!!!
!!!!!!!!!!
!!!!!!!!!!!!!!!!!!!!!!!
papa
jessie
honored
loading
markhopp
signs
signal
chrisc
graduated
magical
answers
fairly
polish
moods
gemm
patio
patient
effing
##bailey
kickin
brody
dvds
menu
takin
takers
##guin
standards
projects
dmv
##ieluv
ordering
vanessa
disappeared
##oegele
ohhhhh
16th
auditions
popcorn
denial
665
hilary
expert
experiment
elev
eleph
mamma
pcsketch
veronica
propos
covering
tracks
stephan
elliott
wallp
##mcinty
chicks
safely
entered
enterpr
atlanta
davey
owl
roots
rooms
##jeans
sticker
cape
caps
capital
capacity
yelyah
practically
practicing
directions
selfish
garlic
xoxox
intense
devil
billion
label
landed
inspire
dannymcfly
witness
spotify
spammers
hosting
##arnick
##steve
antib
brandon
euro
julie
julia
.............
disneyland
hayes
mixed
nutty
banquet
piggy
turkey
torture
necklace
spelled
fitness
##luv
##viol
dolls
dollhouse
balcon
guna
jumping
mistress
impressive
installing
returned
freck
format
recommendations
clearly
continues
bikes
ironic
##dream
scottr
semi
logic
22nd
demons
coollike
castle
domin
leader
laker
frankie
procrast
loren
rhett
##unday
##casey
bullshit
jpg
beyonce
conversations
colorado
pineapple
romance
romantic
softball
software
scaring
sandwiches
tattoos
yesss
ankit
washington
advant
##oooooooooooooooooooooooooooooooo
tonsils
kellie
lacking
##jamin
trading
distractions
forecast
##rifty
photoshoot
multi
yogurt
susan
physical
physically
##president
drewryanscott
pushed
wasting
cameras
announced
sinus
zachary
##egal
##butter
comedyqueen
sparkly
##lauren
##laurie
escap
sensation
tsarnick
##ropri
performing
hoodie
towel
guests
drummer
nikkib
firm
mushroom
srry
vocab
andrea
crisis
##0000000000000000
*****
culture
tiring
combination
georgia
jennifalcon
kyleand
##society
create
false
python
##cupcake
##ength
sweetheart
quinto
puppies
pfft
injured
heidi
backstreetboys
elizabeth
samantha
investig
sharonhayes
routine
##model
frickin
alpha
##riffin
lecture
adopt
adventure
academy
multiple
sanctuarys
neglected
author
category
jazzy
yikes
yippee
##kisses
stubborn
missxmarisa
africa
insomnia
database
engagement
tempted
##charlotte
nashville
##width
toilet
shadez
mozart
diamond
families
epiphany
unfortunatly
opportunity
aplusk
cinnamon
hiccups
##cessary
melody
environ
disgusting
excitement
kindergarten
familiar
##blonde
espresso
devastated
ceremony
toothache
frozen
nightmares
encourage
unexpected
realbillbailey
hoppusday
emergency
hungover
markhoppus
##mcintyre
yelyahwilliams
jennifalconer
sanctuarysunday
)!
):
*-
.@
.,
/-
01
160
2w
2pm
47
4wh
57
68
600
6pm
630
7a
7pm
9pm
:*
;(
=(
>:
_sup
au
agh
aus
asth
bou
bid
bould
buch
bash
bale
bamb
bicy
bolt
c4
ces
cone
cel
cia
cue
cork
cds
cba
dn
dt
dp
das
deed
dough
dah
dans
dms
doom
et
ek
ere
eug
eps
fj
fau
fond
fern
fost
fetch
fidd
gn
gc
gb
gw
ging
gor
git
gul
gather
gps
goooooo
gadget
grizz
gawd
hk
hve
hen
hir
hous
heeee
hence
ig
ick
iget
icky
jur
jem
juz
jai
ks
kc
kw
kend
kik
kyl
kerry
katherine
lt
ls
lur
lees
lacey
mj
mish
mig
meee
mowing
masc
mashed
nw
nm
njoy
nba
oj
ole
oas
ott
oww
ooc
pi
pon
pha
pnt
pies
pag
pud
pile
pak
pug
puff
pond
pens
pats
pune
posh
pimp
pushing
ponder
pearl
peeling
rx
rer
ror
rust
rope
rah
rug
rash
rio
rings
ruth
rode
rasp
ses
sic
sets
sides
titt
tina
tube
tany
tasty
tango
tnx
tshirt
tampa
vit
vic
vick
vip
vint
viny
vibes
wks
woooo
witty
woe
wealth
wives
wooooo
wiki
widget
xt
xmen
yt
ys
yan
yur
yest
yip
yaaaay
zt
##eer
##egr
##np
##nan
##nick
##nob
##note
##nugget
##gor
##gay
##goss
##gurl
##low
##lus
##litt
##lah
##liz
##lord
##lated
##london
##ois
##ody
##hp
##hope
##hana
##hmer
##hole
##houston
##healy
##a4
##rl
##rc
##rar
##rom
##rot
##rant
##rest
##rum
##raine
##tx
##tom
##tot
##tre
##till
##tie
##table
##taylor
##tots
##s_
##sch
##vb
##var
##i7
##iea
##iab
##p3
##poo
##pop
##pos
##pts
##pace
##jenn
##jordan
##uf
##u2
##uer
##ught
##uary
##uya
##cow
##cil
##cus
##cout
##cord
##cings
##center
##your
##yah
##dp
##din
##dead
##diva
##bin
##bet
##bry
##bound
##bey
##bage
##boom
##base
##bane
##beth
##beautiful
##wat
##wen
##wish
##wear
##wire
##mee
##mack
##mus
##mand
##mph
##makeup
##muffin
##62
##0y
##40
##43
##5v
##_st
##_gr
##_la
##_tw
##_uk
##_tr
##_marie
##xic
##kw
##km
##kas
##kim
##kick
##kotb
##kids
##fre
##fam
##fil
##fail
##2s
##qa
##qt
##qbee
##1w
##zt
##zf
##zle
##z94
##inel
##inated
##inthe
thus
thick
thous
thts
thrifty
##erv
##eron
##erve
##erealf
tott
tori
##inging
##oura
##oups
##oung
##orun
##orth
##anan
##atth
##aters
##atically
##atives
##atural
thec
thecom
##onies
##llc
##eex
##eece
##eeks
##ayyy
##ayne
##esc
##itan
##itzer
##ndo
##nda
##ooks
##aring
##argh
##arks
##ario
##omp
##omer
##omes
##omed
##edi
##edly
##edaw
##stee
##stances
##stewart
hazel
youi
youuu
##owr
##owww
##eason
##eacher
##eague
itst
##is_
##isin
##isch
##etw
##etes
##etra
##etnor
##utz
##eni
##enad
##encer
inner
input
##chas
##chuck
##chap
##chang
##chem
##chels
former
offf
##rem
##rex
##lev
##lep
##leon
##legend
##ased
wha
wht
whin
whist
whip
ster
stere
stap
stats
stung
strep
stalking
##kell
##keys
bev
becc
bebe
becky
##iddy
mein
meme
soda
loan
login
##ader
##adas
##adise
##adams
##amy
##am_
##amin
##aming
##amic
##amur
##ament
##amento
sheep
shipped
lied
ligam
##uster
##illing
##urse
##urning
##tersex
##alf
##alon
##alone
##unshine
##ppie
##veronica
weigh
franc
fringe
##imon
##imont
!!"
ana
ants
notting
heater
hectic
ath
##hero
##oper
##opus
chow
chir
chel
chica
##onely
rey
reward
subl
suits
sulking
nemo
goodies
goodluck
allen
alllll
##ceo
##ryl
combo
comcast
reached
##acket
workshop
##there
##iled
##ilis
##ilig
##ilton
##ilicious
##haa
##hai
noone
nola
prize
princ
printer
pritchard
alt
alab
alike
plat
plee
plot
##usin
amo
amp
amys
likewise
donuts
##rae
##rak
##razy
##rawr
##inking
##outhern
##ests
mai
maker
maggie
imiss
images
imjust
##rig
##rive
##rial
knox
knees
knitting
asks
asian
associ
awak
todayy
##abi
##aboo
##abelle
##andal
abc
twiter
##oser
brut
brid
brett
breaks
##el_
##umm
##umar
##umbling
backpack
backyard
##ongo
##arde
##ulation
##igo
offering
offered
##nts
##allow
##obal
##oboi
spong
spree
spoon
blur
blown
bloom
bleach
exhib
nightsh
nightmare
##eeney
howd
slo
slip
slush
slipp
defe
devy
##oyo
##oyle
ohmy
guild
needing
clut
clums
claud
twitterworld
twitterfon
mucho
grat
greek
grease
grilled
granny
orbit
drill
drool
sake
ark
arse
arie
arsen
wishin
lasts
lasted
##ousers
##ifi
##ifey
##ifying
cody
coinc
phr
phen
phoenix
woulda
envy
tramp
trousers
confl
concept
users
vegan
pose
poison
pointing
yeahhh
##emon
##wwy
##agna
##agical
##ublic
##itta
manual
mannnn
##xton
##berra
##bernate
themandy
showers
overnight
overcome
##iah
##assing
##assic
lewis
lebron
caring
careless
headin
headphones
scoo
scores
##ewh
weekly
cram
##acre
downside
bedroom
sunn
sunsh
##aken
##shana
##shots
unite
unlike
##ansen
adri
adapt
marvel
madness
flop
fluff
appeal
appropri
heycass
##ccurdy
smf
smashing
##urely
girlie
letters
talks
becuz
##becca
joes
joel
joking
joelm
callin
littl
diagn
glut
gloss
global
##cio
##cials
littlemiss
##iche
urself
staring
writer
daved
##ealer
##pton
##ption
chez
cheating
listed
probly
damm
damoh
mines
##onda
hurray
eatin
##bright
##brush
omj
omar
idi
##ilyn
##ques
##quito
hotter
olds
##okey
##spir
##ordon
##wns
##hepherd
lyk
enjoyable
trist
tripping
trippin
hardd
##iana
disk
disco
display
strate
struct
stranger
perry
dane
##ankin
##ension
bueno
parks
warped
##crest
serve
boost
booth
booze
skint
sketch
##cohmer
elvis
10am
##laws
sweets
drives
below
belgian
##zzie
poster
##itchell
sneak
snuff
accid
freezer
##attack
birthdays
hunny
stayin
reset
superman
superstar
awwwh
photogra
desert
mrss
mr_b
classy
supporting
##fuld
rocket
rockstar
##avid
dreambears
##bsdave
prejud
##who
##whit
cleaner
placement
messy
camille
bookstore
hols
blogger
handed
illegal
roomies
##awr
##aws
##anae
asses
assum
returning
hugged
eden
edition
##active
##clay
soooooooo
horses
highway
ermm
erock
terri
cuts
attics
revolution
chillax
scroll
grades
contempl
jamba
##ictions
##1988
##1983
##1982
##1972
##hhhhhhh
remembering
indiv
##roez
robpatt
macquid
yummm
4wl
curry
personally
promo
promotion
##eshk
##flu
##flies
##flowers
acct
##aleigh
sarcas
##127
barack
barcel
owners
sample
samberg
##ooooooooo
burbank
grape
wooh
##conn
midday
inval
##108
relig
falls
milan
tila
metall
metro
##venient
vision
visual
bball
sykes
syndr
##ronic
caused
darry
##media
##cherry
##marks
profess
##_boy
micro
mickey
relaxed
relaxation
medical
ladybug
payday
sprink
blocking
articles
favorites
15th
jackman
67hac
lighter
extend
colin
easily
sentimental
##rrrrrrr
jelly
##aaaat
100th
4jc
4jk
harris
native
psy
laughs
naps
budurl
eva
sonic
sonny
salon
salary
salvation
##easing
##eases
downloads
graduating
##monkey
christine
christina
prayer
sidewalk
sidekick
fairy
numb
pinky
commentary
laptops
studied
geoc
##ynes
##333
celebs
##ferr
parker
patience
raf
##isingly
effed
region
petrol
##standing
dresser
dresses
answered
dvr
fireworks
standby
##rieshepherd
depression
misunder
vaca
vacuum
commiss
command
commence
albums
appreciation
fabric
##paige
britne
alexand
alexalltimelow
teehee
cheesecake
lineup
freaky
reminding
digest
ffs
heap
##777
cycle
cycling
cosmic
giggles
rides
##oids
##stream
produc
arrives
167
##2306
##----
motion
paulo
paula
pissing
powerpoint
##faith
eleg
mami
roller
rolling
elliot
wallace
##mcg
##mcnugget
##sssss
nooooooo
versions
flights
storms
sticky
sticking
locations
hahahha
peaceful
docs
required
hatz94
snake
##wright
##ernatural
intell
intro
integr
errr
jennamad
jennettem
labor
voicemail
thrown
throwing
sum1
sumthin
discount
blend
kimkardashian
matty
##ricia
##215
inspection
##ambers
##azzi
##azzle
streets
portland
temper
exhausting
?????????
fishing
##newetnor
##2008
depot
depos
hosted
hostage
products
irvine
addictive
cheryl
kayla
kayleigh
troubles
..........
...........
neighbour
45am
deter
hmv
olive
charlies
charlotte
honesty
:')
breathing
##luvs
recovery
exploring
##ification
balance
ignor
malays
mistakes
impression
speakers
entirely
##leton
debating
recommended
recommendation
5jg
bakery
casa
casey
refused
reflect
suggestion
biology
beside
ironing
##askar
maxim
scottish
handsome
generally
brianmcnugget
essays
nano
nanny
nancy
naman
semin
logies
lifetime
majorly
attacking
straighten
coughing
tablets
treated
##jackieo
statement
screamed
australian
sigjeans
venice
valid
valent
wifey
##bella
hughes
buffet
lorraine
linda
##magazine
:::
festiv
gasp
responding
5z3
ciara
leslie
sherrieshepherd
crushed
appearance
attempting
attempts
included
icons
kiy
##resp
strike
severe
considered
ahahaha
kelley
masterballerina
tags
traditional
communic
heavenly
3333
brekkie
hidden
pjs
pooped
tweeples
spinach
achieve
ceiling
mp3
ninja
symph
chriss
suffer
spirits
physics
?!?!?!
whoops
bruised
marcus
inspirational
tempting
temporary
focused
junior
rawr
champagne
##bradie
melissa
brazilian
csi
gooooood
pumped
source
upgrades
##johnson
iloveyou
pierced
##goddess
remove
specific
blonde
archite
smoothie
terminal
unfollowed
motorcycle
48hours
brewing
mushy
vocal
##melon
locker
suspect
funniest
argument
buzzed
karen2306
dangerous
danger_sk
politics
political
ethan
jacob
rabbit
rabbits
tires
ubertwitter
##runberg
##damn
##build
##frye
confirm
neighborhood
aussiecynic
bamboo
kerri
thelonely
whitney
bleeding
greece
bittersweet
approaching
apologies
tommorrow
!!!!!!!!!!!!
psychology
teenage
##iiiiiiiiiiiiiiii
cindy
pyroez
risk
wandering
##michelle
##unnies
refund
alternat
dawson
stevencohmer
jamie_127
indiana
potatoes
alyssa
crowd
calendar
hindi
iwonder
waaaaay
hawks
heidimont
choir
awaisn
slammed
employee
snacks
published
broadway
electricity
dimples
footy
gallery
router
##pixie
beverley
praise
leonard
crochet
flavor
joeymcintyre
graphic
regarding
michaelmagical
automatically
renewed
rehearsal
eddie
hedge
lungs
ogberry
vampire
##rooms
stitches
primaver
enthus
poetry
universal
education
relationships
disturbed
entertainment
krystyn
eagles
pedicure
sql
wizard
##_august
suzyqbee
modern
vegetarian
carnival
##photography
reschedule
milkshake
greggrunberg
galaxy
aunts
derek
ferret
gimme
lalal
northern
naughty
nuggets
pembsdave
##fairy
tournament
sacramento
financial
lynne
babygirlparis
precise
premier
assistant
grabbed
invisible
linkedin
umbrella
cuddling
debbiefletcher
h1n1
nauseous
olympic
purchase
sessions
##hughes
##btrkisses
reckon
goodbyes
uncomfort
##francesca
hellenbach
reminiscing
repeated
attached
scrambled
accepting
decisions
caffeine
enterprise
balcony
escaped
kyleandjackieo
epiphanygirl
*-*
_supernatural
boulder
bicycle
pntbtrkisses
raspberry
ztnewetnor
##gossip
##chapman
francisco
arsenal
themandymoore
heycassadee
damohopo
prejudice
sarcasm
barcelona
syndrome
jennamadison
jennettemccurdy
karen230683
danger_skies
pyroezra
heidimontag
awaisnaseer
_supernatural_
ztnewetnorb
!]
!~
!??
"@
'?
(?
(((
,...
-)
.?
.!!
/)
1m
2n
2b
2x
2am
2uh
34
3x
39
3000
3hrs
3words
4i
4f
43
4gb
54
58
63
700
87
8pm
96
900
<-
?'
@-)
ae
ax
ave
aight
aven
aaaaaaaaa
aileen
airlines
bg
bd
bck
baa
bour
bia
bog
beam
bens
besh
bees
bible
bjo
bots
bern
bunnies
cj
cm
cz
cope
cau
cage
cnn
cents
cube
cuss
ctr
cuc
crib
cities
cathy
celt
cotton
dw
dea
dal
dma
ditch
ducks
dsl
eg
ea
era
eft
ems
evid
eugh
echo
fired
fare
fatt
fuk
fiction
fiddle
fuzzy
fangirl
fierce
gp
gq
gust
gill
gur
gain
gard
geel
gian
gina
gail
gents
gaining
gums
gomez
gillian
gavin
hv
h8
hive
hhaha
hips
hittin
hhrs
hanson
iq
iow
iris
icar
iya
ivy
iheart
jl
jy
jee
jum
jag
jub
jens
jams
jpm
kt
kit
kool
kaz
kak
kman
kav
kaw
kings
kobe
kilk
lb
len
leep
lick
loooo
lup
luff
lush
linc
lars
lara
litter
luna
latte
length
md
mw
mx
mes
mea
mere
mop
mri
mead
msh
msp
moth
mild
mizz
mesh
meeeee
masha
miller
mraz
nn
ns
ning
nir
naz
nak
nett
nai
nvr
nhl
oc
oll
pf
p2
pes
pard
pope
pip
peak
pint
pms
patt
pav
peek
pouts
porr
poynter
qd
rn
rl
rw
r6
rit
ras
rig
raz
rik
rare
rated
root
rene
rental
raleigh
sb
sx
sot
ske
sist
sian
sik
sana
sesh
southern
tl
tt
tj
tent
tys
tia
tah
taught
tsk
tarm
tends
ui
uu
upp
ulc
ustream
vh
vt
vw
von
vee
ves
vim
voy
vix
viet
vars
void
vien
volley
wl
wd
ww
wing
wld
wnt
wool
wkend
w00
wired
wiv
witch
wanda
wisc
wierd
xs
xi
x3
xvo
yv
yun
yuck
yew
yey
yaaay
zar
zen
zip
zune
##ej
##ego
##eva
##nuts
##gur
##gain
##gib
##grey
##lr
##lad
##lead
##lum
##long
##leen
##lif
##lud
##lily
##lbs
##lett
##leth
##laine
##lala
##lucky
##lounge
##oday
##occ
##oeb
##ova
##hv
##hc
##hk
##has
##hack
##hus
##hong
##hell
##hub
##hire
##honey
##aut
##aily
##rit
##rine
##rud
##rod
##rors
##riel
##ridge
##rtle
##tb
##tain
##take
##tah
##tney
##times
##sic
##sal
##says
##suit
##vn
##vind
##ih
##i9
##iks
##iers
##ially
##iap
##ials
##ija
##iantly
##pc
##pee
##pre
##pri
##pies
##punk
##panda
##post
##party
##piper
##porate
##jl
##jm
##jq
##jin
##jes
##jar
##jand
##jox
##june
##jama
##jane
##juk
##uo
##uq
##uin
##uing
##uld
##ully
##uell
##uity
##ukes
##uations
##ucing
##cur
##card
##cox
##cats
##cert
##crib
##cored
##cords
##yst
##yam
##yal
##york
##ypicture
##db
##dom
##dope
##dub
##div
##doom
##dance
##bw
##bx
##bk
##bou
##bid
##bus
##bri
##bang
##bond
##bai
##belle
##buster
##wv
##wc
##w1
##woo
##wow
##wre
##wart
##water
##wild
##mh
##mk
##mam
##main
##mour
##mile
##mix
##mandy
##mazing
##0n
##010
##4p
##4b
##48
##420
##50
##59
##500
##505
##585
##517
##_v
##_2
##_z
##_al
##_th
##_mor
##_em
##_be
##_mo
##_of
##_jo
##xh
##xv
##k3
##kad
##kra
##kah
##kenn
##fb
##fk
##fat
##fay
##fun
##find
##fuck
##follow
##fits
##files
##2t
##2d
##3d
##383
##qo
##qv
##900
##718
##818
##808
##zh
##zj
##zc
##zm
##z6
##z2
##zens
##zfuld
##inal
##inne
##info
thn
thier
thigh
thai
##erge
##ergirl
tove
##ouz
##ouble
##ouise
##orer
##orld
##orning
##orated
##organ
##orange
##anes
##anar
##anch
##annn
##anche
##atas
##attt
##atine
##ataylor
thesp
the_w
theerealf
##onday
##onym
##lli
##ayay
##esome
##esth
##eshing
##itate
##itos
##itute
##itated
##itable
##oost
##oool
##aro
##arb
##aris
##aren
##around
##arris
##arina
##arazzi
##ede
##eder
##edan
##eded
##edith
##edel
##ediva
##sting
##stant
##start
##station
##stock
##story
##static
##stryder
haun
haul
haley
haiku
##oting
##otch
##otta
##otions
##owright
##eaway
##eacrest
itt
itchy
##ismo
##isley
##ischer
##iseman
myy
mypic
myster
myname
myrtle
##etau
##etto
##ethe
##utt
##uther
##enk
##ench
##enna
##enger
##icon
##icar
##icole
inability
...!
...*
##chong
##cheese
##chua
##chitis
isp
ford
forms
ofcour
##reh
##leg
##leo
##lein
##asy
##asion
##asia
whn
whos
whaaaat
##cking
stace
steady
bean
belf
##idz
mend
megs
meghan
sox
sock
sofa
loic
lold
lope
logged
##adel
##adden
##amer
##aman
##amel
##amaz
shh
shw
shat
shed
shack
shhh
shite
shoooo
shown
shah
shades
sheets
shipping
goals
liber
liqu
lips
limb
libby
##ldo
##lden
##illo
##illah
##ill_boy
##ighton
##uri
##urally
##terego
dayyyy
##almer
##alicious
##uno
##iez
fras
fright
##iman
##imate
##erell
anoop
anotha
doe
doors
doggie
heff
heating
heyyyyyyyy
worm
atom
##llywood
twas
canad
##opu
##opes
ches
chop
chain
cheet
chau
chore
chlo
champs
##onel
rever
refr
recy
neva
neuro
alli
allll
upstairs
##cey
outs
outdo
outfits
##entone
##entation
.."
worker
workers
##that
##thest
##ilo
##iloves
##hair
##hazel
##ha_august
noe
nod
nois
nodd
nokia
prix
prism
prints
printing
##aina
##aints
##ainted
##antino
aloud
alham
alien
alison
aloliver
##ionado
plate
pleeee
##usher
amster
amanda
thang
gota
morph
love_
loveyou
dong
donate
donation
##atel
##raw
##rach
##raph
##ravel
maz
maid
macc
maps
##ctose
img
knife
assem
##aba
##about
##abell
##ablo
##andar
timoth
##ishi
abit
!!!..
brill
bridget
whatta
whatchu
missk
missjo
##eln
##eling
##elee
##elter
##eliz
##elaine
##arting
##artinez
##umn
##umi
##umed
##umstances
##ookie
backs
backse
backround
knoww
##ffles
##ongs
##ardy
##nap
##naily
##ickle
weeds
##ulf
##ulate
##ulting
##oln
##oli
##olas
##iger
##igning
offices
offended
##allday
##allel
evernote
therefore
##obil
newest
newport
##hhe
##hhhhh
any1
anyhoo
spit
spar
spine
spac
spont
splin
spelt
spencer
mohawk
blair
exter
express
howie
hadnt
slum
slave
sleeeeee
##uchess
##ools
deh
dey
dell
debit
deangel
##oys
##aaw
##ucker
##uckley
##ells
##elled
guard
needa
needle
needles
waz
clone
clog
cliff
clinton
twitterific
grim
grind
greed
grove
grumpy
grentone
orth
....!
everyon
everyones
##rowave
drs
drug
drops
drums
sagee
arc
ard
arrr
archie
arvo
arnold
sadden
##apat
##apse
##apers
lastnight
##ifically
cof
cole
cozy
php
phob
phantom
hass
ens
ench
enemy
trim
trisha
conan
concr
confu
convenient
##anged
veggie
finna
##emin
badd
##agu
tomoro
##itto
##itts
##ittles
##ittyp
mayb
mayer
whyyyy
mane
##istr
##ipop
##ipment
##berlin
seo
sep
seper
sequ
##loid
montr
overs
overload
overtime
##assy
##assie
swings
whose
leighton
carried
##ahope
qual
quizz
tweeties
headlin
scal
scout
##ewitt
schoool
peg
pend
##izdel
wayne
crust
crimin
cricket
##odos
##odont
##aco
##acc
##phil
##ockeez
downs
sunbath
##akat
##shock
##shirts
unh
unpl
unkn
unique
uncler
unlucky
playoff
playlist
ada
adamb
marsh
marina
marines
marked
margin
##placed
##ugging
madd
madina
madrid
maddie
flown
floss
flats
flush
flashing
floyd
##myh
appr
applying
##prot
##pretty
himym
heyhey
bestfriend
sme
smoo
smut
awesomely
hiii
hiatus
hippie
lettu
tales
joan
littler
dial
dios
divers
dianne
##things
gloom
borders
##cier
##ichole
urge
eventh
babyy
##ftw
dav
dale
davis
actor
actions
actors
minn
minimum
hurric
hurrah
wherever
lax
laff
lactose
##moz
##ects
##ective
##brandy
##branch
looool
loopt
##boi
craft
crabs
##iiit
omel
##endent
##ggin
##ggies
bea09
keepin
yayyy
##fron
##front
biggie
hotdog
##inted
somethings
amazin
amazed
##space
##ashley
songzy
lynd
lynn
lydia
???,
prett
trial
tripped
##ocat
##ireland
##iance
readin
disap
discr
stretch
strangers
perf
helll
comps
compare
complex
guessed
telly
yao
yawn
loveee
kidney
##zy24
##zyjonas
danab
excurs
excuses
hoe
amazingly
emb
emil
embra
emzyjonas
##enses
buh
buen
paradise
warn
warrant
remains
##cras
##crush
sounding
boyz
boy_k
seren
boots
boohoo
skl
skim
skies
skins
skating
skyp
skyl
traged
trapped
godfather
##coz
eli
elses
10k
101
##group
jones
##incez
belt
##zzi
puter
snick
meets
diner
giveaway
summers
##bler
##bloss
##blues
farmer
resign
resume
researching
tafe
untill
##aaaaaaa
awwwwww
##lands
##landers
photob
classmates
##neck
##ibi
##ibles
##ibaby
recip
rockeye
##nnnnn
##oku
##oker
##aves
dreamed
dreamwidth
pains
planes
trend
define
deflated
prevent
precious
teased
##deg
##why
##whel
singers
drinkin
placements
charles
charley
charging
##uze
##ymon
##ymaster
##onsin
annual
handbag
resting
restoring
boi
bold
boil
retain
retro
eyed
eyeb
edward
edits
##cliff
##hahah
fails
failure
horrid
horribly
highs
redo
##icially
##icians
lili
lilx
ers
ernie
prolly
proving
douch
seth
setup
teres
terra
##nger
chilli
chillen
scree
graders
concerts
##ependent
##190
##1985
##hhhhhhhh
independent
##rov
robs
robot
robbie
macs
##ipper
winds
yumm
4wt
4w8
curly
cursed
promising
##aughtry
##eshow
##flow
##flip
##flash
##floyd
aclock
##alex
barb
cooker
##a_s
##anni
learnt
samben
##oooooooooo
heartbroken
gracie
googled
midget
laurend
invitation
studyin
relate
relative
johnmaine
perfectly
perfection
fallen
definition
visa
xxxxxx
xxxxxxx
lego
20th
calor
emailed
career
bb517
12am
##ebob
##ebear
preschool
config
causing
djing
darth
catbook
##mars
profiles
paste
pastor
watering
watermelon
##_brown
microwave
##balls
melan
melted
laurad
##iethes
##uko
countries
countdown
ladylo
draft
networ
payed
paypal
paycheck
##worktoad
angus
11am
67x
##erae
lighting
colours
dangit
flyer
jessica
jessmcfly
##gov
nicer
nicest
sighs
reasonable
##aaaan
wakey
4jg
4jj
harm
jayk
natural
naturally
##___
felix
felicia
markb
evan
evans
iamchris
sony
##chef
##lovegood
jealousy
salute
##etheless
graduates
##monton
afternoons
2000
humble
humming
katies
arena
pizzas
womp
##renee
##uction
##incinn
studies
infact
celeb
dieing
raised
raises
##recious
braces
viewers
##yalynn
regards
##parks
##ie_marie
submit
clubbing
gutter
sharp
##guitar
surprises
fighter
strap
##ielee
exception
bottles
dealership
misst
misplaced
peac
vacc
vacay
committed
##force
##forward
##oopers
philip
philosoph
applecored
esme
esmee
miiz
mikes
##ginger
cheeseburger
celebration
celebrated
benjamin
vancity
##tenance
freaked
drunken
webcam
sarahamur
404
closes
closet
closest
understands
teamcyrus
touching
##strong
worrying
arriving
keych
##111
techno
travels
jasmine
##timore
costa
##eeeeeeeeee
##eeeeeeeeeee
denmark
##182
hilzfuld
muy
powerful
boxing
darkness
element
mobypicture
pcd
panera
rolled
verify
##206
moonfrye
coverage
recorded
stephanie
distant
fuzz
walls
entering
sleepytime
noooooo
shallow
burns
creativity
rooting
##jeff
##bbles
##247
storage
stickam
shuts
websites
huhuh
nonetheless
##999
requiem
directly
directory
designs
gareth
snail
##afone
##aftersex
##writing
##_cool
intel
intended
michaels
swimsuit
labs
labels
eventful
discoura
250
kimmy
matild
matrix
matinee
##iotics
##ambu
##wwwww
bailey
kate383
##daily
##daisy
##_rocks
jason_
tmw
tmobile
animation
spotlight
homies
##heads
imagin
brandi
angela
angelic
eurov
janet
##weetup
james_
james_a_
nutella
oliver
posit
##angel74
banks
hooker
##harry
##robb
##doch
toriloves
increased
campus
!),
banging
cellphone
fitting
nkangel74
explan
cheered
cheerlead
baltimore
malib
sirius
##scott
##_kay
havnt
receive
speaker
steve_
ahhhhhhh
freyalynn
honeymoon
vibe
vibr
##letter
thunderror
thunderstorm
debby
bonjour
cases
casual
joshtastic
roses
uggh
yelling
##tech
##iamonds
##oredman
refuses
bradie
hyster
irony
##ovan
##ovie
##roseall
##reyes
##reyoday
arghhh
stronger
drawer
gahh
matches
origins
##ouchy
shawn
lifest
nosebl
clicked
bubbl
options
treats
##jackson
##martinez
demand
scheduled
domest
dryer
leads
leading
leadership
merc
merlin
nih
venus
##bella_
frankiethes
cruising
credits
cracking
cracked
aiming
bathing
lindse
lindsey
mirand
mirror
mainly
maintenance
##magn
##llllll
##llllllll
hallmark
chiodos
jimmyfall
ahah
cubicle
gabby
oceans
ultra
##gium
##giapr
##mission
toyota
##ttttt
babysit
personality
5z7
aaah
aaaah
laser
lasagna
octo
pinched
rosehw
##affe
##block
icant
kaush
lambert
striped
##ophil
dreadful
advanced
entertained
ahahah
mmitchell
mastered
masterchef
otalia
racism
##radio
golfing
knocking
tradition
levels
launched
scratched
aussies
kirsty
muscles
sfo
##belie
forehead
##celon
spoilt
arrange
corey
further
ninj
ssd
sympt
sophia
conditions
lexus
lexington
awesomness
discovery
involves
effective
##444
statuses
##urtis
planted
##gggggg
announcing
languages
equal
equipment
gamer
hobo
hobby
linz
reeeally
whiskey
##aloves
champions
sparkle
blankets
claim
##aphoto
appointments
##laura
teachers
medication
07k
berlin
geeks
ghosts
tinchy
##kidd
amandab
browsing
##ffffffff
switched
##aaaaaay
therealsav
customers
nephews
29th
dorky
mcraddict
piercings
toddler
lipstick
specifically
cloudconnected
applies
applications
motorbike
##boro
##666
##sthem
suspected
neilhim
alaska
funerals
cocktail
crisps
admitting
sniffle
lucykd
,,,,,
regretting
31st
arian_
oxy
tigers
thesis
stalkers
split
monicafrancesca
divor
hottie
prepared
georgie
georgiapr
jennifer
utterhip
circumstances
aiden
curled
pounding
rsvp
rented
##jacobs
thelast
shrimp
lilyroseall
belongs
providing
apologize
sync
teenager
teenagers
mikeyway
subscrib
subscript
subscribe
falcon
loner
millions
mentor
pitcher
rogers
tcot
##lamation
##journey
##wilson
thorough
rejected
suprisingly
novaw
protect
alternate
craziness
daniell
danielf
queensland
japanese
development
bumped
cartoon
caleb
dfizzy
jodie
zelda
##reams
##fabric
hammer
injury
lollipop
morrisons
##ablack
bronchitis
agent_m
admitted
broadband
accomplish
josie
pinging
pirate
richa_august
russell
route
##ltd
##dhc
beverly
adventures
##product
desperate
desperately
##nolds
attractive
honorsociety
information
whisperer
rehearsals
sanctuary
benefit
hypn
ihate
pilot
sinking
##cooper
##murphy
##omorrow
##alanche
frosty
priority
aspaphoto
branch
functioning
##yspears
adsense
jojowright
concerned
relationship
katyperry
ryanseacrest
kimberly
anticipating
;;)
dashboard
iraq
tucking
vodafone
##peace
##mccoy
stuart
##seconds
twiiter
refreshed
predict
asylm
asylum
coupon
coupons
macarena
calvinharris
squirrel
produced
museum
requirements
garrett
economic
innocent
:">
bodies
dreary
givin
hudgens
##cription
##0o0o
##studio
##encies
##lywed
reboot
suicide
comedian
prateek
amongst
brisbane
spooky
unemployed
particularly
instrument
restrictions
contribute
acquired
nicksantino
magnific
transformers
documentary
coworker
atmosphere
sympathy
cigarettes
kasey79
citizens
average
aubreyoday
fonts
masters
velvet
wethetra
yoooou
##human
##iocre
##jewel
##digital
##daviss
##factory
torrent
hairstyle
##eashley
inlovewith
##adonna
govern
##immons
dosent
cheaper
chronicles
knackered
tropical
poppins
##phillips
glennbeck
stranded
travelling
postponed
hairdresser
wallpaper
antibiotics
nuttychris
##violet
freckles
scottrmcg
rhettroberts
advantage
nikkibenz
firmware
2w5v
asthma
grizzly
ottawa
rusty
vintage
vinyl
yipee
##couture
##edawson
ligament
nottingham
sublime
alabama
##andalous
##el_laurie
spongebob
exhibition
devyra
clumsy
arkham
coincidence
phrase
phenomen
trampoline
appropriate
joelmadden
gluten
idiots
photographer
robpattinson
invalid
darrylep
professor
misunderstood
britneyspears
intellig
temperature
determin
##respond
architect
beverleyknight
krystynchong
suzyqbee10
uncomfortable
2uhs
3wordsaftersex
avenue
evidence
geelong
iowa
icarly
jpmizdel
kilkenny
lincoln
meshel_laurie
porridge
tarmac
varsity
w00t
wisconsin
xvojox
##81849
thighs
##atasnaily
the_wockeez
theerealfdhc
##esthetic
mypict
mysterious
ofcourse
lopez
refreshing
alhamdul
amsterdam
spontane
deangeloredman
concrete
montreal
quizzes
headlining
unknown
unclerush
marginatasnaily
diversity
hurricane
songzyuuup
boy_kill_boy
aclockworktoad
sambennington
networking
jessmcflyxxx
##incinnati
sarahamurdoch
kate38381849
eurovision
torilovesbradie
joshtastic1
frankiethesats
jimmyfallon
rosehwang
mmitchelldaviss
tinchystryder
therealsavannah
mcraddictal
neilhimself
georgiaprincez
lilyroseallen
richa_august84
wethetravis
scottrmcgrew
jpmizdelicious
!<
!.....
"-
""
"....
$.
%)
''
($
(&
(((((
)?
*"
*~
.-
.&
02
1x
110
1pm
1hr
2m
2k
2z
2moz
3k
320
365
4u
49
41
4wn
4get
4got
56
53
530
6p
69
61
8d
85
82
81
830
9m
9th
:>
=>
>>
><
?.
?@
_c
_wr
ayy
aph
aired
azz
avid
aots
astr
arik
axe
auction
bop
bish
bol
batch
bore
baz
bose
brist
baaaaaaaa
bisc
booooooo
bcoz
cg
cb
c0
cay
cen
cth
cri
cong
cens
catt
cave
cops
cya
csk
cider
cze
cords
cuuu
ciao
dy
dx
d3
dit
dome
dil
dand
dul
dice
daz
dup
dak
dint
dooo
dating
dorm
dandy
dora
dns
darts
dota
duper
ditto
ej
eq
egh
eld
eter
eup
eta
ehhh
eeee
ecom
eileen
fw
fay
fad
fion
fame
fought
fits
feb
fade
foto
fiest
fuuuu
fusch
gs
gis
gus
geet
gour
gau
gays
gpr
gma
gio
gush
goooooooo
geee
gino
gator
gyk
giddy
hn
hh
hb
hos
hong
hers
hatch
hort
hcc
hired
hord
hats
hann
hump
htc
hype
hyd
hulk
ion
ich
iha
iain
iame
ibm
jn
jw
jor
jets
jude
jayl
jml
jizzle
jalan
jello
jedi
kd
km
kes
kur
kand
kul
kub
kah
kod
kans
kett
kits
koh
khal
kfc
kardash
kardashian
lv
lk
lid
lus
leel
lool
laa
lag
lore
lint
lbs
lenn
lane
lump
latter
lena
lined
lala
ljs
lashes
mack
mul
mice
mour
mrr
mss
mii
moss
mens
mio
mosh
mbb
mwa
mcca
mgm
nou
nee
nie
nop
nth
nif
nii
nav
nike
nym
niley
napt
napp
nita
nites
nudge
nambu
ov
oow
oth
oof
obl
ovi
ophel
por
pel
pear
pang
paz
pause
psp
pins
pals
png
penn
pja
puffy
puma
pablo
rv
rj
rm
rlly
rol
rally
rpl
ruff
riv
rats
rates
rav
rents
riley
rapp
range
reese
rising
rye
reno
rape
rushing
ritas
sas
sill
sere
sate
sri
sook
saa
sash
sank
sier
sins
sams
sgt
sinc
sista
sipping
sizes
t0
tet
tad
tame
tif
tuff
tash
tary
tits
tied
tyn
tuc
tara
tester
tuna
tanned
tshirts
uhhh
vp
vj
vu
vin
vou
vas
vie
vood
vets
vital
vhs
vroo
vpn
voegele
wn
wt
ws
wv
wir
weet
wating
wann
waaa
wester
waaaaaaaa
wimp
waaay
wiped
waaah
weeping
xl
xh
xj
xmy
xspark
ym
yoo
yays
yank
yarn
yupp
yooooooo
yorks
yoko
zim
zel
zem
zanna
zzz
zhay
zzzz
~*
##eo
##e4
##e1
##eone
##eff
##eous
##ext
##eber
##eats
##e87
##nee
##nom
##noy
##nem
##nation
##nip
##nity
##nox
##nib
##nows
##nurse
##goo
##gly
##gth
##gum
##gag
##gup
##gusted
##griffin
##lg
##lw
##lk
##l2
##l3
##lay
##lain
##lind
##lap
##lies
##lang
##lip
##laz
##lana
##loud
##oj
##oou
##okes
##oster
##oze
##ojay
##oeln
##hb
##hon
##hur
##hos
##holl
##hang
##hist
##hog
##hatt
##hark
##hoto
##hanson
##holla
##ao
##aic
##aam
##aks
##aking
##aired
##aways
##aire
##averse
##aula
##rk
##r2
##r3
##rim
##rry
##rack
##rays
##rise
##rary
##rett
##rfc
##rissy
##really
##rankin
##t5
##tor
##tan
##tay
##tri
##tos
##tel
##ties
##tles
##trip
##s4
##sin
##see
##set
##sie
##sher
##sub
##squ
##sville
##sarah
##screen
##sbeautiful
##vill
##vish
##vard
##vide
##vag
##vans
##vik
##vier
##vins
##vina
##vict
##viet
##vices
##voegele
##iw
##i3
##iaa
##ibe
##i_b
##iwil
##pb
##p8
##pat
##pow
##pir
##pil
##part
##pick
##pose
##page
##pire
##pier
##penny
##paste
##pund
##porter
##pearl
##precious
##jj
##j_
##j3
##jun
##jie
##jim
##jth
##jos
##job
##jag
##jizz
##jandra
##uke
##uil
##uine
##u_b
##uced
##uomo
##cn
##cp
##cb
##cm
##c3
##c1
##cit
##crow
##cub
##cnn
##cons
##cont
##castic
##creative
##curtis
##yu
##y4
##y9
##y7
##yth
##yout
##ylove
##d1
##dat
##dood
##doll
##duck
##doc
##dles
##dale
##diam
##design
##b4
##b5
##b2
##bay
##bic
##bas
##bly
##bast
##buck
##bys
##bla
##bkk
##brew
##benn
##bows
##bones
##bism
##bugs
##baker
##bysh
##wo
##wj
##wx
##w9
##w8
##wie
##wiss
##wand
##wick
##wiz
##witch
##wered
##washer
##wentz
##wifey
##wittyp
##mj
##m5
##mx
##m7
##mea
##mck
##mid
##mast
##mos
##moy
##mah
##mak
##mend
##mint
##money
##mals
##mills
##miles
##maker
##mitted
##6n
##6j
##612
##614
##626
##0l
##46
##4f
##4ever
##414
##408
##4president
##5s
##5th
##5sh
##5000
##_4
##_an
##_day
##_art
##_br
##_man
##_cr
##_12
##_10
##_star
##_09
##_love
##_com
##_mcfly
##_mc
##_i_
##_stack
##_fc
##_grl
##_thomas
##xd
##x0
##x4
##x2
##xst
##xox
##ku
##kc
##kie
##kil
##kaz
##katt
##kno
##kitten
##klein
##fw
##f2
##fing
##fst
##fie
##fra
##feed
##four
##fag
##fash
##fav
##fork
##fka
##faces
##fold
##2v
##2c
##2ia
##210
##277
##224
##38
##3000
##qn
##ql
##qs
##qc
##q13
##9v
##9i
##1fan
##1121
##733
##8r
##8k
##8q
##z_
##zx
##z1
##zin
##zee
##zes
##zip
##zona
##z_xo
##>---
##@#
###@
##/-
##;(
##<<
##in9
##inz
##inor
##inas
##inos
##inity
##inib
##inness
##inces
##inja
##invey
##inthes
thin
thas
thaa
thera
thnk
##erad
##eros
##erous
##errr
##ervation
tok
toll
toward
tomar
topped
tooooooo
##ingal
##inggirl
##ouxs
##orah
##orman
##orne
##ania
##ansh
##aty
##atb
##atm
##at_
##atan
##atum
##atible
##atient
##ativity
##atq13
theo
theh
thej
thef
theblack
thedaily
##onot
##onight
##onian
##onfire
##lls
##llir
##llite
##lloyd
##eeyed
##ayd
##esp
##esad
##esful
##iti
##itus
##itary
##itals
##itations
##nds
##ndd
##nday
##ndip
##ooz
##ooow
##ooper
##oosing
##arat
##aroo
##area
##aret
##arry
##arra
##aria
##arey
##arrr
##arley
##ara_
##arling
##arcia
##omon
##omain
##ompt
##omson
##omato
##edge
##stm
##stow
##stic
##state
##steen
##sthing
##stage
##stopp
##stats
hail
yous
youuuu
##otle
##otter
##othe
##otype
##owen
##vement
##vender
##vene
##vegan
##vegas
##eaz
##eaver
##eagle
itv
itll
itch
##isk
##isay
##isse
##isey
##ismy
##islife
##isstee
##iswiss
mya
myth
myers
mycar
myinner
##eton
##eten
##etter
##etite
##etown
##etta
##etching
##etches
##etweet
##etooth
##uted
##utie
##utions
##enha
##enia
##enorn
##enka
##enzo
##enstein
##enews
##icu
##icer
##icity
##icester
ines
init
inse
inher
inik
incon
inrs
incom
inches
inlaws
...(
...:
...**
##ghz
##gher
##ghee
ono
onions
onwards
##chad
##chew
##chelle
##chino
##charm
##chloe
##chambers
isac
isabel
forbid
oficially
##reid
##reys
##records
##lez
##lell
##leman
##ases
##asper
##asnow
wher
whine
whitt
whiny
whits
whipped
wheels
##cknight
sta
stv
stre
stad
stays
stash
stones
stiff
stoned
styles
stanky
##keith
##kevin
bex
##ido
##idoo
##idol
##idual
##idance
##ideshow
mela
mechan
memph
soz
sole
soak
soggy
##lyheather
##lyamaz
thati
los
loong
loft
lovers
lolll
loyal
##adent
##adong
##adge
##adoll
##adays
##adia
##am0
##amal
##amos
##ammy
##ambr
##amazing
sht
shld
shal
shab
shif
shav
shont
shizz
shamp
shopped
shred
sherry
shizzle
shaked
shuld
goeb
lion
liam
livin
liquid
##semb
##illie
##ighty
##ightful
##urr
##urb
##urve
##urge
##urfer
##urred
##terbury
dayzie
##iri
##irene
##irowr
##alu
##alin
##alad
##alam
##alore
##alph
##alfon
##al1986
##uny
##uning
##unning
##unner
##universe
##ppa
##ppers
##iths
##iex
##very
##verty
wei
weare
buti
fris
frown
frak
frapp
frazz
frances
frugal
fruits
fruity
##imk
##imer
##imee
##imsh
##imcfly
##imple
##iments
##imonds
justwatch
!!??
ano
anh
ans
anit
anam
ange
anger
angle
analog
anatomy
anberlin
##oodness
dop
dock
dose
dozen
nott
notorious
heir
heine
heated
wasabi
twn
twt
twat
twig
tweed
twib
twebbstack
canon
candle
candid
canvas
canberra
canterbury
##herd
##herlands
##opr
##ople
##oplin
chk
chor
chad
chil
chub
chach
chich
choke
chik
chopp
chats
chops
chino
chester
choked
chloe
cheeks
choosing
gett
rex
rein
remy
rept
regg
recr
repress
rearr
relying
suuu
suites
nem
neon
nekk
necessary
goody
goodnite
alle
alll
alley
allergy
allright
upside
outline
##ryn
##ryor
##ryss
comic
reaching
reaction
##entice
##enthe
##entina
##ent_l
##acker
workk
nowadays
##thy
##this
##thet
##thought
##thouse
##thorne
##essss
##esssss
##ilow
##ilver
##ila_
##ilinn
##hav
##hach
##haus
##haaa
##hawn
##habit
nos
noi
noct
noble
nostal
prime
props
prada
priest
priced
prisc
preach
prizes
prague
##anti
##anton
##anther
##antos
##antley
alb
align
alither
aloe
albert
alias
alicia
##ksh
pluck
plots
plaster
amyy
amused
thanking
##astr
##asting
##astor
##astics
morr
mort
moring
doni
dontt
happend
##rael
##raven
##raham
##estn
##estr
##estones
mae
map
mau
mahh
maaa
magg
mahn
mahal
maui
maaan
maenad
maaaaan
ims
knuckle
asada
assemb
awhh
aware
todayyy
seed
seein
seeking
##abou
##aban
##abid
##abab
##abeen
##abass
##ables
##abbit
##abdul
##ande
##andh
##anders
##andco
##andez
##andfriends
timmy
timeee
timeline
##ishy
##ishere
abd
abusive
abrams
abbey
##osie
##osil
##osion
##osmond
broooo
brenn
brits
brief
brushing
breezy
breeze
bronte
brooks
bracket
missd
misssh
missss
##elp
##elope
##elock
##eluj
##artment
someones
##eadmill
##umul
##uments
##umption
##ooked
##eepy
##eephoto
backk
##ffin
##ffield
##ongirl
##nally
##naud
##navar
##naught
weee
weeding
##ulse
##ulus
##ulum
##ulary
##ulbert
##ulko
##erscore
##ols
##oler
##oloo
##olve
##olick
##olation
##olove
##olfs
##olences
##iga
##igi
##igma
##igeb
willem
##indy
##indab
offense
offically
officia
offspr
##ntm
##aller
##alloy
##allfabric
##ice_x
everbody
##obi
##obot
##obra
##obson
##obert
##obbing
newark
newbie
##eedo
##eeded
##hhs
##gear
##gebra
its_
itson
itsucks
its_c
sp2
spay
sped
spill
spice
spect
spike
spork
spoken
spears
spazz
spilled
spymaster
mog
moj
moan
moll
mold
moore
moons
mozilla
mofo
mohand
blan
blister
blower
blerg
blunt
blades
blushing
exit
##atches
nighter
nightlife
slot
slut
sleeee
slipped
slideshow
agile
aggr
deer
dele
decr
demon
devers
degen
##ollo
##olling
##ollard
##olleeee
hahaa
##oya
##oyf
##oyal1986
##reations
##moron
##morris
ohm
ohwell
##aa_x
wellington
##ucking
##uckett
funnn
##augh
guinness
needless
wakes
waffles
clark
clara
clipping
twitterer
twitterena
twittertake
##dyn
grid
groom
grief
greets
gromit
grumble
groups
facial
##earing
oro
orph
orders
....*
drea
dram
greatly
sap
saga
##kings
arty
arts
arto
artw
argue
arthr
arnaud
wished
heres
saddo
sadie_marie
sorcha
##apoint
##iesgirl
cox
coats
covers
phoe
phoeb
hasnt
hasht
enought
energ
tray
tres
tricked
trumps
troopers
treadmill
shez
sheffield
##eryl
conor
conse
conver
conqu
convent
##angs
##angle
##angod
lookout
thenew
usd
veh
vega
betta
polly
poking
poem
poets
poppy
poetic
poppin
poverty
finn
finest
yeahhhh
##emily
byron
byeeeee
badge
baddd
##agent
##again
##agious
##agree
##agram
coulda
waitress
##uba
##ubb
##ubin
##ubed
##ileys
mayhem
manic
manny
manners
##xtra
##ively
##istra
##ipt
##ipino
sev
sez
sexx
sega
sewing
sequel
##loj
##lost
##loven
afwife
themake
mona
monies
##ysc
##ysalis
very_cool
biting
showin
showtime
showcase
overrated
overwhel
##ia_
##piclyamaz
swiss
swell
swap
switzer
swallow
sweeney
whoaa
##upcakes
##ogg
##ogs
##ogy
##ogers
ley
leica
leicester
cara
cary
carly
carter
carnt
carbs
carmen
carpet
carrier
##ahar
##ahman
##ahua
quir
queries
oklah
tweetstats
sci
scra
scum
scale
scoop
scorp
scrab
scifi
scandalous
##ewentz
schol
pei
pep
peer
pebbles
##tycd
##iza
##izer
wayned
afterall
leav
leap
leaked
##odg
##acr
##acing
##acan
##acrow
##acies
##acious
##phin
##phys
##phia
##phantom
downer
suncream
##akery
##shay
##shad
##sheen
##shell
##shoes
##achrist
unif
unity
unint
unne
unreal
ungod
uncool
unpack
unloved
unbelie
players
playdate
sayang
adity
adren
adjust
adobe
adnam
mare
marl
marly
marking
marath
marco
mariam
marij
marebear
##pler
##plurk
##ugger
madly
madden
##rrry
##eamy
##tsmith
flicks
flags
flippin
flisstee
thankies
apply
##print
##prats
##pratt
##pritty
##proxy
##mae
himover
##perfect
heya
heyits
smilinn
##eakoeln
girlies
sucking
sucksss
hii
hi_
hiking
hibernate
lettin
picks
taltal
talindab
##bean
##beans
joer
joem
jojo
joker
joanne
callback
diy
dias
diving
diane
##athe
##athom
glee
glow
glitch
glory
glimp
globe
borin
border
##cient
##today
##toast
##iches
##ichie
##ichfield
earphones
partners
urb
starfl
wrest
writers
##irstin
alread
daeone
##ealice_x
throbbing
##sox
##sof
##soft
##ptweet
chev
cheery
cheated
cheering
listing
sicker
##blebee
##blevins
damaged
minee
laut
lava
coolness
##moet
##moke
##brain
##bread
##britt
##brock
looong
looming
##boe
##boards
crafty
##iiing
lotr
lotion
omgggg
##tails
finds
helmet
##ending
ident
yaya
##ilynn
##fras
##quit
##quire
##quiet
##quinn
##ixon
##intr
oldest
##oke_
##spin
##speci
##ashi
##ashar
##wnz
##heyy
##hehe
??!
??,
??!!
housemates
trix
trixie
##ullivan
reals
realizing
##man6
##manus
##iano
##ianne
reads
disab
disease
disloc
disconnected
disorder
dispos
disgusted
disagree
strings
peru
permit
hellos
helloooo
compos
compens
compatible
omgits
yael
##urlshana
loveeeee
damned
kiddo
kiddies
##ikk
##ikak
##zyg
danh
dani
dances
danced
dancer
danwar
exclamation
busays
kindness
amazingphil
emz
emerge
buu
bully
buuuut
buonot
parvo
parcs
warner
warming
warcra
remaining
remeber
##cru
##cred
##cross
##crumpet
runner
runners
runnin
##ofc
##of2
##ofly
##ofth
##ofthe
serial
servers
serena
services
##oppy
boredd
boreddddd
boob
booty
boobs
bootle
skill
skater
skull
skirt
skyd
skirts
traum
travol
thingsmum
godd
goddess
##coast
##coaster
elm
elton
elaine
elij
elimin
courage
105
102
##gree
##gray
##grim
##grant
##grass
##grade
##lav
##lawr
clem
cleveland
dried
drivin
drizzle
musicians
##ertime
belgium
##zzard
##zzles
postal
puts
freeway
freeze
freebies
freezes
worlds
meetup
sits
situations
dino
dins
dinno
##blood
##blah
##blessed
##bloody
sundae
wondered
wonderland
##booklover
hunger
##toni
##tony
##tonhouse
hairs
meanie
tao
tai
taur
tact
##aaaaan
totall
fewer
cryst
photograph
designing
classical
##never
##nelly
##neil
##neys
xxm
xx_me
##iban
supper
supporter
##psi
dada
recon
beautif
##fuly
##fuzzy
##insider
30mins
rockn
rockets
##oryall
##oka
##okee
##okid
##okitty
mumbai
##avage
##avirt
##avvy
##av83
walks
republic
favs
treiz
trevor
##swilliams
##noon
premat
##ildstar
addic
additional
teasing
teaser
##dec
##deb
##death
##whore
delic
delish
delays
singstar
##ottie
colds
stev
stef
steps
stepped
##meh
cleanup
##arker
institute
messing
messenger
killin
charle
charms
camper
campa
camcor
hangout
surve
surge
survi
surfin
surreal
survey
winston
winners
##uuy
##etsch
ahem
pale
paisley
##uzik
shitttt
throughout
understood
bookmark
bookmarks
##onsense
annas
handles
handled
rested
##awg
##awan
##anais
roz
roar
rohan
rochell
##veshark
boa
boards
retrie
huggles
eddy
edited
edwards
edwin
edmonton
##girlie
##girl18
lux
luci
redhead
redesign
redbull
lilaz
liljizz
erich
proves
dougre
doubled
seths
terrific
hoptonhouse
attitude
##ontin
##ontana
scrub
grader
contro
context
contrary
jamies
jammin
##epryor
export
expenses
courthouse
##1914
##1987
##19585
##aylee
##ayloryall
indulg
msgs
msnew
##roach
robbed
blacks
##ualpa
4wj
4wd
4w5
4w1
4w7
cured
curren
curses
cardio
promote
promises
promoting
fanboy
fanclub
##flower
acid
##alez
##ypants
##ypandy
internetz
sarmy
sarcastic
##1221
completing
##??????
bargain
##a_l
##a_gab
##a_mil
##annon
grande
grandad
grandkids
owns
sami
samee
samuel
heartless
heartbreak
burst
deadly
deadlines
grac
graf
grave
grabe
gracious
grapes
woof
goofy
midter
midwest
filthy
filipino
shorten
shortyyyy
shortcake
shortstack
ep31
seaworld
reli
reluct
relapse
johnlloyd
saturdays
fallow
fallout
tested
##rees
meter
method
metaverse
##jects
##vens
visited
visible
xxxxxxxxxxx
legally
20s
20mins
calcul
careers
interests
##apples
123
syl
sytycd
confident
confidence
confusin
caf
caus
caity
djs
djsp
djkn
##eesha
dareal
darian
##amped
##ampbell
closely
picky
pickle
##marine
bumblebee
collab
colleague
pasty
pastors
watered
waterfront
replys
micah
microb
##lington
tourist
anywayz
mediter
mediocre
toni
tonic
showering
laural
laura_
##ietran
##ukh
counts
dragging
netbook
netfl
netherlands
##gan_xx
sprain
sprout
blockbuster
trained
1500
15min
jacked
mitchbenn
##cedes
11pm
67h
676
670
678
slowing
slowest
paparazzi
extended
example
cola
coloss
columb
coliwil
##ylvia
fellas
fellows
karl
karin
karam
topshop
jessi
jesssic
##gofficial
jeje
nic0
nicsey
nicoles
##aaahh
wakeup
4j9
4jf4
4jam0
harbour
harbor
harvey
harlem
jayc
jaykp
jaybranch
natty
natasha
psn
pshh
##joey
nearby
nya
##boystell
weirdo
##thecat
##thekid
accounting
napa
dearly
markets
buddh
iamk
iampritty
signific
##ursannie
##easant
##easure
##ethan
chris_
chrisette
agrees
##tras
##train
christopher
mags
magnet
##licious
##iffer
insert
insulin
insulting
greens
specialist
2006
2007
basic
humour
humans
hummer
katie_
katrin
pinkberry
pinkyn
pinkbunny
pinkpop
polo
poland
cups
cupboard
dda
puke
puked
puerto
##604
##602
geo
##comb
infested
worthy
worthless
##fern
patty
patrol
patricia
raj
raid
stressin
stressing
efforts
registr
regent_l
143
corps
corona
corrupt
coraline
corporate
correspond
kickass
petey
petril
petewentz
radi
##gasmic
##ie_cullen
##ie_rankin
subtle
submitted
brocc
dressjunkie
weddings
answering
firefly
firequin
firewire
menace
##notes
myspac
sharlynn
possibility
takn
##guins
##yeux
stands
apparent
smallville
presenting
presentations
strabism
depresses
upsetting
deals
misery
vacations
blueberry
bugging
buggy
genuine
nerve
nerves
##forest
youngest
alexa
alexis
alexander
mixt
visitin
bench
hubs
##ological
##lovee
disappoint
fantasy
heav
squad
squire
squeeze
##hamilton
##tcobra
##kiwi
##775
replay
replacing
pleaseee
132
131
13th
40mins
balloon
copenha
gigantic
giggling
transition
transmit
understanding
teams
##booty
crosses
##iiiiii
holder
jerm
nao
nappy
##ucer
##888
technic
businesses
paperwork
bagel
entries
mathewh
potus
population
ranch
##eezie
childhood
##eeeeeeeee
denise
denied
mcd
mattress
mattcut
ouchies
pools
##vault
##_diva
##_domain
behalf
beatweetup
beatwittyp
669
667
pissy
pisses
##aldo
##aldiamonds
##ularly
feltbeats
election
pantera
verge
veronic
##143
covergirl
tracking
?????,
##!!!!!!!!!!!!
records
distrib
ellapa
fucc
ooops
tengo
##bandit
proudly
altho
##umbles
boyfriends
##ramos
atlantic
lawyer
purpose
storys
stormy
stickers
locate
shutup
##illiam
dhewl
##barnes
##ields
##ielding
documents
direction
????,
designed
baths
jimm
lata
snag
snapp
snakes
snappy
snapping
xoxoxo
##writes
##_cullen
##_cordon
intrus
consult
conserv
consolation
:-|
errors
jordie
ringing
##305
bells
freshman
supported
bill_
billbath
jennloves
labour
nikon
nikhil
##_lu
##_louise
##_mag
##_music
eventually
blech
lowkey
##ouli
machines
joejonas
katevoegele
lisam
lisahope
michell
michele
portra
portable
temple
##smack
##smart
##smile
##ydney
##_rock
imperson
copyright
fishies
##newlywed
##2000
##2002
memorial
animated
spotty
hosts
homo
hometown
richie
##naturlshana
##bites
##armstrong
shinning
imagination
springsteen
angelina
cheri
cherish
emmie
feeding
janes
janis
january
jules
sih
sixt
siya
siouxs
##890
............
bacc
bacter
detox
oli
olives
mrsnewlywed
jeffery
jeffree
jeffsg
autograph
dentists
hookah
kristin
kristens
##holm
##robe
##robthomas
##dolly
##doctor
tort
increasing
amyatq13
brighter
brighton
brightens
kingdom
kingsthing
migrane
nkot
werd
##luke
##luver
##icyu
goldfish
explorer
explosion
maryland
accessible
##aaaaaaaaaaaaaaaa
bali
balmain
silk
##scap
##script
##_jane
##_kitty
receiving
privacy
impressions
modem
interviews
ako
aku
akavirt
ahhhhhhhh
frequ
holland
##alyn
##alynn
thunderstor
##eapolis
formal
debut
debate
bonfire
bonnie
caspar
float
mcflyharry
##_war
reflection
queenof
trailers
bios
biased
mandypandy
penis
penguin
penguins
##drum
storming
scottataylor
jaim
jaja
namaste
logical
shaking
lifting
lifts
chaper
##ssseee
21st
cowboy
kitchenfire
lenovo
tabby
treating
westend
westlife
demiswiss
schedules
hahahahah
agenda
casting
merch
mercy
meredith
niabass
value
##goodbye
andrew_
aweful
cracker
cravings
hughsbeautiful
technical
esther
folk
geeky
heeey
lindsay
miranda
rhym
utah
hahha
halleluj
##chaos
chihu
flashback
smartie
courtesy
jimmymarsh
bullet
dishwasher
dubai
gaby
gabrie
ultras
##banks
##missy
tonyrobb
##playboy
babysitter
##uuuuuu
colorful
responded
5z4
fiasco
loudly
pamela
pamjob
woody
##jayy
##dogs
##blogger
##mlt
toothbrush
toothpaste
sheriff
phillyd
scares
appeared
##ivalent
includes
tattooed
icam
koi
kait
kiwi
lamer
murray
yessir
##ran1
theaters
strikes
stockholm
chemical
knighty
dreaded
queue
##kkkkkkkk
attended
attendance
requests
laps
racing
racoons
##slist
##slinky
##minds
##market
##marketing
shelf
shelves
trader
streaming
scratching
##yyyyyyyyyyyyyyyy
collecting
distracting
33333
cassie
duo
derrick
kirsten
pixies
poopy
##ijer
##jenkin
##belt
##iscool
wendys
##abyte
arrg
preferred
victori
acho
achy
bffs
furry
furious
galore
louise
##superc
##benz
hamster
susie
suspic
sleeve
physio
condolences
sweatshirt
creeped
##uggles
awesomee
?!?!?
simpsons
involving
hyperopia
originally
femin
fathers
ikr
tasted
tipsy
ummmm
##hayyam
##jonesy
##ujx
##ascope
shanedawson
imprompt
speeds
speedy
speeding
##zzzzz
##dddddd
natalietran
discussions
inspiring
destiny
equals
equivalent
foxy
ginoboi
hobbit
ivory
ivanae
licens
mtn
oppos
reemer
sinuses
##vvv
##polis
##policar
##diaries
##xsaula
##kati
##quez
sparkling
blanket
sweater
sweats
hahahahahah
hahahahahaha
melissapan
lmfaoo
gossiping
bsg
cs4
featured
fields
fieldnotes
kyois
millionaire
pumpkin
rapids
typos
volunt
##bnb
##iebear
upgraded
amandap
brownie
brownies
clarify
switchfoot
retweeted
avoiding
jessicas
jessicac
michellezen
richardepryor
processing
challenged
meester
nessie_cullen
poured
piercing
ramen
vivid
vivian
##evitable
##gregory
##matthew
##esigns
shocking
liesboystell
removing
negativity
grrrrrrrrrrrrr
faithful
scotty
telecom
unfollowing
spreading
bastards
brewed
cinemas
ecstatic
eighty
fedex
pdx
sabby
sabrin
sabrina
undeni
vocals
##vanessa
##fields
##949
andreakoeln
shipment
suspended
##ryanross
commerce
commercials
princesssuperc
aboveallfabric
argentina
carlos
sunscreen
buzzing
survived
controls
politicians
****
27th
arizona
jacquel
lulz
mandybooklover
oxford
rabies
sdk
tuner
##rainer
##rainbow
##juice
##wyatt
##walsh
##oticons
mystic
chasing
combine
twitties
splitting
hottest
restaurants
editors
juicytots
subjects
ruining
circuit
recognition
bucket
curling
cornell
dedication
settling
uggg
ugggh
vaut
venture
wilw
##jacin
##kaye
referring
plugin
plugging
yeahhhhh
snuggled
contracts
syncing
!!!!!!!!!!!!!
translate
spiritual
4vuuy
cinderell
gilmore
kelvin
kittens
mentally
mosquito
nooooooooo
rogue
tdl
##sayin
##poet
##packet
##cupcakes
##michi
##1001
##zshach
thorney
tossed
##ishers
##choly
rejection
suprised
suprnaturlshana
immune
immobil
savage
quinland
crazii
pretending
tracey
previously
cutiemoet
humidity
wolfie_rankin
alyssa_mil
developers
aaarrr
bumping
dummy
iwas
jodi
munching
oreo
oreos
pandam
pandora
pfff
##galenorn
##saayyy
##fuller
fortun
chantell
assholes
awaiting
cocabeen
cod4
admire
##irstyxo
##freakinvey
struggle
kevind
publish
##ssssssssssssssss
violently
bmth
gummy
healing
jailbreak
junkie
lancearmstrong
rangers
raven
wrapped
wrapping
##louise
##pdx
##batty
##minegalenorn
##eauty
statue
fricken
withdraw
withdrawl
candis
chipotle
##riffiths
##ulinity
blahh
organizing
adopted
##promise
##producer
johnd
johannab
##broad
attracted
industrial
academic
grandmothers
tomatoes
informed
regardless
????????,
automatic
journalists
renewal
brendon
multiply
destroytoday
whispering
claire_cordon
brittanyasnow
aravind
cadistra
ftp
ftskirstin
iholleeee
kathleen
naruto
oyfreakinvey
paso
patchouli
pacman
ponytail
rodney
tidy
unahealy
vickytcobra
wuld
xkirstyxo
##nikki
##cornell
##ficionado
##itersblock
priorit
mocking
blueeyed
bluetooth
groove
grooveshark
african
carrot
university
marshall
margaritas
flooding
flooded
craigslist
believed
surfing
evry1
evryone
responses
disturb
lifesaver
##????????????????????????????????
embarrassing
embarrassed
allysonalfon
<<<
bhb
bounce
bouncy
bwahahahaha
catholic
drowned
drowsy
eagle
fudgecrumpet
genev
irritated
kaylee
mutual
mccoy
nimoy
occasion
pollution
pedicures
tissue
wookie
yasemin
yasminegalenorn
##hartley
##_the_
##_the_b
stellar
behave
behaved
framework
frogs
antonio
##thebest
thisisrobthomas
thisisryanross
lovelies
##rippen
##rippers
phillip
cranberry
smoker
rescheduled
milkshakes
bbc1
squirrels
transportation
homesick
cooperating
folding
economics
announcement
!?!?!?
))))
4everbrandy
bonding
cacs
civic
dynasty
ducati
foggy
gelato
gibbs
kennel
nipple
pulp
romeo
sandy19585
tackle
wesley
##saved
##mysaid
##\/\/
##lle_
##studios
stinkin
stylish
shirley
chalet
chattin
chatted
reznor
sudoku
suicides
almonds
abandoned
abandoning
clarexsaula
yeaahh
peppermint
unemployment
percentage
dancers
passionmd
magnol
raffle
absolutly
experiences
experiencing
coworkers
krissysalis
sympath
tutorial
dissapointed
!,.
beetle
cristal
doodle
dagadong
feeeel
fascinating
jinx
jareason
klemm
kaput
niqht
pku
tasmania
vene2ia
##roca
##turtle
##joseph
##mellows
##kristi
ingred
ingrid
introd
forsure
stanley
shoppin
breeding
##ulgoyal1986
slacking
##ucklehead
claude
claudi
construction
pokemon
##loggerific
leopard
##phelps
werewolf
werewolfs
participating
##frankie
permanent
permanently
companies
resorted
premiere
hundreds
ericka
chriscuzzy
chriscuomo
elephant
proposal
mistressmia
##dreamer
dominic
procrastination
procrastinating
ankita_gab
vocabulary
environmental
encouragement
4wh4d
>:]
bambi
cesyeux
fiddler
henry
hiring
houses
kwod
kendra
kikirowr
masculinity
oasis
pakistan
reread
rorzshach
rahulgoyal1986
rugby
ruthie
sesame
tittch
##little
##trev
##watson
##family
thousand
##ompson
itstayloryall
whining
whistle
staples
chirping
amysav83
awakening
brutal
bridal
nightshift
slippers
clutches
claudia
orbitaldiamonds
conflict
scooby
unitechy
appealing
diagnosis
harddrive
sketchy
mr_bloggerific
##avidson
camilleprats
chillaxing
contemplate
individual
religion
metallic
sentimentalizzy
commission
producers
paulaabdul
discounts
charlieskies
##luvsjb
malaysia
seminar
straightener
communication
buzzedition
confirmation
bamboozle
kerri_louise
primavera
precisely
boulderdiaries
(?)
bjoie
ctrl
cucumber
celtic
dslr
efteling
fiercemichi
gardens
kavya
kawawa
leeprov
mwah
moped
mashable
pardon
qdob
r6rfc
sxsw
vietnam
vienna
volleyball
yvonne
##jesus
##jandro
##kennedy
##faye
thnks
##anchez
##ottawa
belfast
shatner
canadian
morphine
backseat
slumdog
sleeeeeeep
greedy
orthodont
sageeb
saddened
phobia
confuse
seperate
pendulum
criminal
playoffs
marshmellows
apprentice
lettuce
littleradge
minneapolis
prettier
perfume
excursion
warranty
tragedy
snickers
##blossoms
eyebrows
highschool
screening
robsessed
robbiebarnes
fallenstar
ladylogan
jessicaveronica
iamchrisc
philosophy
esme_cullen
esmeeworld
keychain
huhuhu
matilda
jason_2008
imaginary
james_a_michael
explanation
malibu
siriuslyheather
domestic
kaushal
amandabynes
arian_marie
divorce
thelastdoctor
subscription
thoroughly
novawildstar
danielfielding
hypnophil
prateekgup
magnificent
inlovewitharmy
government
phenomenal
intelligent
alhamdulillah
9mua
_writersblock
czech
cuuuute
ecomonday
fiesta
fuschia
gykd
iamepiclyamaz
judez_xo
kettle
kardashians
mccafe
nifty
nymph
naptime
pjaficionado
serendip
satellite
tucson
voodoo
xsparkage
zanna85
zhayrar
##noxious
##video
##pilot
##pickler
##pundit
##diamond
##1fan1
##zipan
tomarrow
inikco
inrsoul
isacullen
forbidden
stadium
memphis
shaved
shontelle
shampoo
goebicyu
justwatched
heineken
repressd
nekkid
##hausen
alitherunner
mahhsaayyy
maenad_au
assembly
##ababesss
broooooke_
##igebabe
offspring
its_claire
mohandoss
aggressive
deversum
twittertakeover
artof
artwork
arnaudjacobs
phoebealice_x
conquered
convention
sexxieluv
afwife08
very_cool_domain
switzerland
waynedastar
unnecessary
ungodly
unpacking
unbeliev
adnamay
mariju
himoverthere
smilinnursannie
glimpse
starfleet
##special
trixie360
disposable
compensate
danwarp
buonotomato
warcraft
thingsmummysaid
##lawrence
xx_megan_xx
prematurely
campaign
camcorder
surviving
retriever
redesigned
liljizzel
dougreport
sethsimonds
hoptonhousebnb
indulgence
johnlloydtaylor
djknucklehead
coliwilso
jesssicababesss
jaykpurdy
buddhist
pinkynkotb
pinkbunny69
registration
regent_lord
petrilude
firequinito
sharlynnx
strabismus
copenhagen
mathewhulbert
mattcutts
beatwittyparty
distribution
ellapaigebabe
dhewlett
conservative
billbathgate
jennlovesm5
joejonas1fan1
lisahopecyrus
siouxsinner
jeffsgrippen
kingsthings
akavirtualpa
thunderstorms
mandypandy32
demiswissfan
niabassett
hallelujah
chihuahua
jimmymarsh617
tonyrobbins
impromptu
kyoisorange
nessie_cullen10
alyssa_milano
cocabeenslinky
allysonalfonso
occasionally
sandy195850
krissysalisbury
werewolfseth
ankita_gaba
leeprovoost
prateekgupta
_writersblock_
iamepiclyamazin
serendipity
!*
!'
!(
!....
"/
"!!!
#!
$#@
%.
')
(*
(=
((
(>
("
)&
)"
)....
*!
*...
++
,.
,!
,..
-|
.!!!!
0x
03
0_o
1s
1c
113
1gb
1sweet
2l
2d
2mar
2gether
220
214
222
2hrs
2mr
3n
3o
3oth
3pm
3oh
311
330
3x3
371
3md
4n
4g
4t
4d
4ward
4days
5y
5d
52
5yy
5000
539
6mor
612
626
6fg
72
77
730
789
8a
89
91
98
930
:$
:^
;'
<(
<---
=|
=\
?:
?..
[<
^-
_a
_st
_sh
_ever
___
__s
_miss
_hand
_________
_bella_
ao
aq
aon
aar
aas
aol
aik
a12
aann
aster
aja
aston
a_n
axs
aaaaaa
aargh
alden
bp
bw
b0
bent
btt
bion
bong
bard
bind
bif
bip
bach
beak
beeee
bii
boc
bof
bats
bates
bigh
bib
bins
bsw
bark
baw
benn
boooooooo
bapt
bberry
bai
bpe
bham
balk
bien
bhi
bsc
b25
bung
bitten
beets
bpd
bwm
banned
bnp
bhai
cv
c6
c5
cx
c1
c7
c8
cin
cee
cch
cly
cood
cest
cul
cite
caa
cem
cag
cny
cpl
cmy
cater
cpt
cian
cco
cory
cott
cact
cors
ceb
cpe
cease
cec
c_j
cvs
cisco
culin
cbrown
catherine
c2s
cincinnati
d4
dq
d7
dz
ded
dir
dus
dab
dind
daa
dap
dif
dile
dac
dug
deeee
dated
dne
dps
dime
dpress
denn
dmed
dips
dazz
dito
dwell
doooooo
dund
dustin
dws
dfs
daaay
dzs
dusk
dorr
dagn
dazzle
duchess
eo
e4
ef
ely
ect
eish
ena
ehh
eew
ema
eeeee
ebook
eds
ease
eep
eeek
egan
easter
egs
emmm
eex
eeeeee
eeeeeee
ebt
e71
etown
etn
elys
eeshk
efron
fs
fp
fx
fll
fut
fic
fas
fate
fart
fick
fob
faa
fub
fey
foss
furl
fence
faaaa
fount
fees
fones
fuss
ftr
fears
fgs
fkn
feast
fizzy
fisc
firts
fffff
faint
fwd
farted
fender
fussy
fisch
fcking
fiance
fathom
gy
gry
gri
gap
gif
gown
gia
gash
gently
gtf
glove
gho
gears
gnat
gila
gloves
gmorning
gaah
gtg
gtalk
gender
griffin
gcrush
hj
hc
h0
hx
h2
hut
hust
hith
hha
hiss
hick
hul
hite
hound
hoooo
hanna
hpt
huff
hull
hank
hitch
hatt
hdd
hoot
heee
hilly
hgt
hte
hints
hbu
hiph
hokey
ij
iy
iit
iight
iim
iph
ipr
ipt
iii
ips
iams
igl
iale
iva
iloves
ijust
iknow
igot
iphones
jg
jv
jm
j0
j2
j3
jow
jis
jad
jab
jeep
jol
jig
jool
jaa
jip
jass
jup
j00
jans
jace
joss
joom
jert
jark
jaw
jana
jizz
jann
jba
jpe
jorge
jeez
jarn
jmb
jgood
jensen
jaded
jadee
jillian
jager
jansen
janae
jclay
joplin
jenthe
jloj
jwalsh
kj
k_
kx
kq
kut
kse
kun
kent
kth
kil
kus
kink
kol
kall
kour
kau
kang
kix
kash
kof
kats
kary
kier
kbs
kde
kail
kkk
koot
kont
kesh
k12
kane
kamp
kandy
kgs
kmc
kuh
kern
khi
kung
ketch
kreme
kali
kurt
kmr
kadi
kaden
kuya
ketau
khair
lh
ld
lf
l7
lust
lain
lest
lice
lite
lous
lud
lass
lue
lure
lath
lond
lull
lina
layl
lube
laught
loooooooo
lows
lones
lamp
lrs
lenny
lames
linn
licks
lung
lances
looooo
lanc
lcd
laced
lsat
lumber
lichfield
mg
mv
m6
m0
m3
mq
mst
mck
mong
mol
mery
mms
mgr
mney
menn
mcar
meek
muss
mtf
miff
musso
mba
maine
mcast
mga
meeeeeeee
muth
meeeeee
manta
moust
mhm
mimi
mvp
mswilliams
nb
nx
nq
nay
ned
ngh
nks
nct
nab
nand
neen
nud
n00
niz
nanna
ngg
nets
nvid
niiii
nuth
narn
niam
noooooooooooooooo
nfg
nbc
narr
naina
nonsense
ou
o0
oin
oot
oher
oha
ora
oink
omm
ober
oph
oma
ops
ovid
ooooooooo
ova
owww
ozzy
ocd
oui
o_0
oatm
pn
p9
pll
pom
pse
pry
pent
peel
peed
pach
pace
pci
pta
pwn
pooo
pik
pett
pams
pitty
poun
pours
pints
pouch
pyr
pugs
pups
pffff
porter
p47
pumps
pussy
pwns
pusher
patel
pitts
qn
qo
qs
qi
qc
qq
qot
qlj
qwer
rut
rack
ril
rast
rish
rif
rud
rive
rak
rpr
reeee
rii
roc
rian
rank
rbl
righ
rets
rym
rina
rache
rro
rees
rican
rita
ramb
razz
races
rowing
rena
rgood
rico
ripping
ricky
ranger
roxy
rotten
racket
ralph
s3
snd
sly
sion
sct
sard
smor
sirl
sia
sans
seam
sss
seal
sond
sats
sike
sizz
sama
svs
siem
sjd
skelly
sights
sinnam
saints
t4
t_
tch
tld
tant
ttt
tish
tna
tmor
tau
ties
tup
tew
tiz
tts
tcc
tss
tto
tik
tier
tym
turk
tng
tizz
tipp
tastic
ttf
tfer
tye
tfa
tita
tami
tiest
tunes
ticks
tasha
tiii
tjoe
tainted
tinted
tf2
uo
uj
uc
uy
ux
ull
ure
uff
uuu
uhhhh
ugl
u12
upper
upppp
uuuup
vr
vc
vb
v2
vom
vad
vest
vish
vul
vig
vice
vag
vlo
vcr
vince
vert
varden
vai
vinc
ville
vicious
vald
varn
vado
vzer
viva
vfc
vlog
velf
vague
vomit
vcenter
vmarine
wm
w8
wz
wan
wre
wab
wos
weep
ward
wig
wip
wich
wank
watt
wlc
wuz
woh
wiet
wiff
wider
wgn
wides
woooooo
wwe
woa
wuv
wander
waaaaa
wiser
wbu
waaaay
wtg
wires
xc
xz
xan
xol
xles
xdd
xosh
xenny
x33
xmas
xml
xjam
xander
xtra
x64
yg
yk
yat
yon
yar
yal
yday
yack
yus
yol
yaa
yang
yak
yach
yash
yaaaa
yuu
yaaa
yards
yky
yiann
yopu
yaaaaaay
yeeeeeeeee
zs
zu
zy
zd
zz
zan
zee
zom
zam
zion
zeen
zak
zend
zoom
zane
znat
zzzzz
zoids
zobi
||
##e5
##ek
##ef
##eon
##eve
##ech
##eld
##ece
##ept
##eiv
##eons
##ejo
##ega
##eville
##ehouse
##efin
##emma
##eilig
##nr
##nj
##n7
##nit
##noo
##nad
##nant
##nab
##neet
##nge
##nys
##nup
##nike
##nett
##nals
##nangel
##n25
##nht
##niac
##nichole
##nastics
##gd
##g6
##gx
##g7
##gad
##gand
##gard
##gol
##gnt
##game
##gang
##gore
##glo
##gys
##gah
##gity
##gment
##gary
##gable
##gift
##g12
##gade
##g18
##gado
##gadget
##gularly
##lv
##l1
##lat
##loo
##lom
##las
##link
##lish
##lag
##lass
##leal
##lunch
##lins
##latter
##lene
##luc
##lowers
##l83
##lago
##liest
##lisa
##lacey
##lords
##label
##lusive
##luther
##oar
##oet
##ogh
##oil
##oard
##oak
##oash
##oved
##ojan
##h6
##h0
##h5
##h2
##h8
##hz
##het
##home
##hir
##hlly
##hop
##hra
##hine
##hirl
##hass
##hanna
##hooo
##hzz
##hams
##hipp
##hatter
##hills
##handy
##hicks
##hode
##a5
##a2
##a9
##aer
##ait
##aul
##aally
##awn
##aik
##a86
##aque
##aesthetic
##rg
##rw
##rm
##r0
##rx
##rat
##rea
##rone
##rtt
##rion
##rand
##rish
##rice
##rite
##reak
##rather
##ready
##rash
##rens
##rox
##rence
##ruu
##rana
##rings
##rpm
##rants
##reall
##rules
##rubin
##rhode
##tl
##t1
##t7
##tee
##tea
##try
##tion
##toy
##tys
##tia
##tiz
##team
##torn
##tron
##tics
##tops
##touch
##tese
##tshirt
##tiger
##sv
##si
##sx
##s1
##sou
##sly
##sam
##sur
##sha
##sink
##sound
##sies
##sang
##sip
##syl
##soul
##shaw
##siao
##sru
##simpson
##somer
##sdeg
##vh
##vc
##von
##vic
##vant
##voy
##vaz
##vah
##vod
##vond
##vii
##vise
##vana
##vves
##vors
##vane
##vamp
##voice
##v88
##v89
##vfc
##vscap
##iin
##iing
##iat
##iay
##iit
##iies
##iation
##ibo
##iqu
##iooo
##iens
##iently
##iune
##iuk
##iastic
##iho
##pw
##p_
##pf
##pin
##pon
##pse
##pand
##pna
##pig
##poll
##pour
##phing
##pist
##pod
##puff
##poss
##pio
##pde
##person
##pump
##porn
##pany
##pages
##pards
##pdr
##pthew
##perez
##parts
##piece
##posis
##prak
##paws
##pelled
##pective
##patches
##j0
##j8
##jat
##jic
##jal
##jest
##jol
##jking
##jang
##jays
##jia
##jah
##jak
##joc
##jaw
##jana
##jorn
##josh
##jared
##jole
##jlove
##jmcfly
##jx3
##jxs
##jobs
##jclay
##joker
##jchambers
##uw
##u4
##u3
##uet
##uic
##uce
##uha
##uks
##uart
##uong
##uul
##uice
##uite
##uah
##uable
##uio
##ucy
##uppy
##ueless
##uvs
##uws
##cg
##cre
##cad
##cir
##cos
##cart
##cob
##catch
##cope
##cies
##cock
##cond
##coke
##cited
##cav
##cork
##csw
##cets
##crew
##count
##cale
##candy
##cunt
##cards
##c23
##caf
##cape
##cule
##couch
##cbon
##cules
##cribe
##cripp
##claw
##conte
##claire
##cjordan
##cincinnati
##cindy
##y2
##y8
##yz
##yes
##yit
##yone
##yall
##yous
##yog
##yxx
##yaaa
##yaaaaaa
##yheather
##dt
##du
##dx
##d2
##dou
##det
##dad
##dur
##dere
##dab
##dge
##dem
##diz
##due
##deal
##dire
##dated
##dict
##daughter
##dunn
##daze
##dotcom
##daddy
##daughtry
##danni
##dosil
##dawg
##bf
##bad
##bith
##bout
##bart
##bead
##buch
##bau
##brow
##bub
##bitt
##bup
##bah
##bue
##beam
##bbo
##bik
##bward
##bzz
##bott
##bons
##bush
##bees
##billy
##bugg
##beach
##bolt
##bolling
##wu
##w6
##w0
##w2
##w7
##was
##wks
##wra
##wau
##woooo
##wang
##wide
##wii
##wend
##wash
##wave
##wings
##wade
##week
##wyn
##weeps
##wears
##wilight
##wished
##wbooks
##wolf
##whale
##mt
##mv
##m6
##m0
##m4
##mf
##m9
##m1
##mot
##mir
##mun
##mop
##mth
##mess
##mant
##mother
##mest
##mick
##mies
##mud
##mey
##meam
##math
##mouse
##mash
##mitch
##mple
##mama
##makes
##muss
##mcle
##meth
##mille
##mothers
##milla
##million
##mitchen
##mango
##muts
##mwilliams
##motion
##milk
##m_xo
##meme
##maps
##mobile
##minton
##mw1
##mimcfly
##6u
##6c
##6f
##6lf
##622
##634
##0t
##0p
##0ll
##0se
##0ph
##018
##4l
##4o
##4v
##4j
##4u
##4y
##4nt
##409
##411
##401
##474
##404
##4jb
##4christ
##4peace
##5r
##5j
##521
##576
##515
##506
##531
##_i
##_5
##_1
##_ve
##_en
##_ly
##_ad
##_am
##_ill
##_one
##_lo
##_my
##_ma
##_ble
##_ii
##_he
##_by
##_19
##_ja
##_lovato
##_99
##_16
##_good
##_queen
##_007
##_y_
##_78
##_blue
##_timel
##_online
##_haw
##_chris
##_sex
##_addict
##_beck
##_steph
##_kelly
##_nicole
##_eye
##_joe
##_58
##_aston
##_mania
##_cole
##_agu
##_renee
##_writes
##_playboy
##xr
##xp
##x1
##xon
##xper
##xico
##xander
##xoxo
##xchaos
##k5
##k2
##k1
##kz
##koo
##kic
##kch
##kur
##kal
##kab
##kong
##kul
##kaa
##kake
##kang
##kyy
##kater
##kane
##k13
##kram
##khal
##killer
##kardash
##kumar
##knaught
##kiebear
##k949
##fn
##f5
##fee
##fle
##fal
##flly
##fone
##feet
##fig
##fell
##five
##flo
##fia
##fod
##fac
##fans
##fts
##fto
##fner
##font
##fesh
##fried
##fident
##fiq
##future
##finger
##fias
##fisher
##famous
##ftsk
##frizz
##fakery
##2o
##2u2
##3o
##3h
##3a
##3x
##3k
##3f
##37
##313
##3boy
##323
##311
##321
##317
##373
##qk
##qot
##qiu
##919
##909
##977
##924
##1e
##1r
##1s
##1d
##1b
##1ph
##119
##112
##110
##7e
##7x
##7q
##7en
##713
##711
##720
##8s
##819
##810
##804
##8jt
##zg
##zv
##zb
##zw
##zor
##zone
##zha
##zers
##zac
##zhe
##zann
##zki
##zi_
##zomb
##z_p
##znor
##zoned
##zucker
##zielee
##zatb
##zalez
##).
##()
##$%
##:@
##::
##|/-
##~~
##in_
##inat
##inen
##inse
##inct
##ineen
##inac
##inach
##inther
##inney
##inlove
##inette
##inator
##instone
##invest
##inthep
##ineste
##inhard
##inicole
thm
thq
thar
thot
tham
thur
thie
thud
thak
thooo
thik
thng
thorn
thirt
##eri
##erp
##erun
##erth
##erick
##eria
##erty
##erget
##erof
##erio
##erib
##erals
##erved
##erife
##er26
##erxo
##ernerd
##erabbit
##erichie
tod
tost
tore
tory
tosh
topl
tomo
tota
tofu
toaster
torie
toasty
topping
toooooo
toxic
to_the_
##ingh
##ingr
##ingt
##ingle
##ingitis
##oug
##oux
##ouk
##ouq
##ourage
##oro
##ori
##orb
##oric
##orgh
##orch
##orig
##ories
##orsh
##ority
##orms
##orib
##orcher
##orical
##orters
##orensen
##oreline
##orfollow
##anh
##anv
##anor
##anat
##aned
##anal
##anage
##ancing
##anborn
##anese
##anbc
##anxi
##anatomy
##anlw
##at7
##atin
##atoo
##atie
##atown
##atson
##atory
##aturday
##atcool
##atalking
##atrix
thet
thek
theen
theun
theem
thebl
thede
thecl
the_b
thegu
thesk
thehar
thegood
thehy
thewine
theapple
thepresident
thedead
##onn
##onee
##onie
##onics
##onoun
##onhall
##onimo
##onlys
##llan
##llen
##llth
##llai
##lleg
##llivan
##eeves
##eemcfly
##ayo
##ayr
##ayi
##ayer
##ayor
##ayone
##ayons
##aybooks
##ayhem
##aymakeup
##eson
##esar
##esis
##esch
##esast
##itn
##itu
##itd
##itin
##itur
##itsh
##itss
##itating
##itors
##itrs
##itivity
##itgrey
##ndid
##ndra
##nders
##ndog
##ndrix
##oove
##ooop
##oosh
##ooms
##oogie
##oohoo
##arp
##aran
##arre
##arter
##arie
##arth
##arant
##arich
##arav
##arney
##ariley
##arro
##arron
##arged
##ar01
##ar76
##arizing
##archy
##areasy
##arlow
##arshana
##arcelon
##omi
##omse
##omiss
##omile
##omore
##omans
##oma_
##omination
##omarr
##omuzik
##edt
##edon
##eden
##edays
##edward
##edym
##edgar
##edged
##edmind
##edisco
##edavis
##eddar
##edryl
##edrine
##edouble
##sti
##stet
##stab
##stuck
##stown
##stav
##stupid
##steb
##stones
##stract
##stuh
##sticks
##status
##stwin
##stokes
##strippers
haf
haaa
haft
hagg
hala
hasta
hauled
habits
habbo
younge
##otn
##oty
##otz
##owe
##owan
##owee
##owens
##owines
##owling
##owards
##owls
##owwww
##veil
##veno
##eav
##eage
##eaustin
itl
itz
ittt
##iso
##isu
##isat
##isee
##iset
##isad
##isem
##isation
##isure
##isme
##ismail
##iseee
##islin
##isette
##isoft
##isement
##isiac
##isabel
##isnyc
##iself
##isaloves
myse
mybr
myfab
myuze
##et6
##etan
##etea
##etly
##etel
##etub
##etass
##etary
##etron
##etics
##etaylor
##etitive
##etjirou
##etria
##etumbling
##uting
##utar
##utious
##utton
##utista
##enu
##enks
##enade
##enades
##engers
##encia
andd
anddd
anderson
andyp
andcasey
##icad
##icus
##icall
##icals
##ications
##icua
##icature
##icinfo
ino
ina
ini
inks
inother
inning
inhal
inhabit
inevitable
...&
##ghirl
##ghai
##ghost
##ghurt
ons
ontar
##chs
##chou
##chat
##chic
##cham
##chun
##chum
##chio
##chale
##chapp
##champ
##church
##chien
##chiu
##chords
##cholar
##chosen
##charde
##chacc
##chrissy
##chmid
##cheryl
isa
isi
isis
isle
isha
isla
isaper
israel
fork
forens
forcing
ofc
##rel
##ref
##repl
##repr
##reign
##relex
##reja
##reino
##remins
##record
##referr
##regularly
##lei
##leyy
##leans
##leback
##leface
##lequin
##lemonkey
##lecule
##lendid
##asa
##asw
##asan
##asir
##asap
##asav
##asuz
##asaurus
##asylvia
##aslatter
whb
whee
whar
whii
whale
wheat
whaaaaaaaa
whites
whoooooo
whiles
whores
whales
##ckp
sti
stp
sty
stq
stee
stam
stir
stim
stain
stead
stag
stint
stable
stating
stunt
stacy
stewart
stumble
staging
stinging
stooop
##kegg
##keogh
bem
began
beards
beware
becca
begun
##idi
##idan
##idas
##idnt
##idia
##idian
##idred
##id2k
meld
melly
memo
memes
sopr
soco
sogn
sobb
soaked
socall
socal
##lyy_
thatd
thatlass
lop
lof
loon
loish
lollll
lozzy
##adc
##ador
##adie
##adeep
##adele
##admin
##adena
##adryl
##amu
##amm
##amen
##amack
##amess
##amand
##amol
##ammm
##amia
##amma
##amcfly
##ammed
##amanda
##amiller
##amuffin
##amichelle
##amiche
shm
shay
shea
shet
shen
shant
shri
shish
sheet
shard
sheen
shaa
shub
shore
shaz
shiz
shure
sheeee
shib
shana
shayl
shoud
shakes
shunt
shrop
shiiiiiiiiiiiiiiii
shields
shouq
gog
goats
gobl
govt
goonies
gocincinnati
##omend
liv
lik
lill
lilly
lilc
liep
libre
livest
lilem
lionel
##usters
have2
##ldr
##lding
##ldon
##ldave
##sein
##seven
##sels
##seileen
##searted
##sefone
##illes
##illas
##illia
##illhere
##illero
##illavin
##ight1
##urv
##uru
##urd
##urf
##urer
##uric
##urab
##uros
##ureen
##urrr
##urvv
##tern
##tery
##tersh
##terhor
dayna
dayyy
dayuum
##iry
##iring
##iran
##irly
##irting
##irap
##irah
##ireee
##alou
##alen
##alry
##alent
##alab
##alol
##alang
##alist
##alah
##alty
##always
##alii
##align
##alina
##alrus
##alien
##alami
##alaur
##alfy
##alatine
##unb
##unz
##unus
##unct
##unna
##unty
##unity
##pple
##pptc
##ppnews
##itha
##ithin
##iep
##iek
##iebr
##ieved
##iejen
##ieireland
##vering
##vered
##verly
##verick
##verts
##verbs
weat
weve
weir
welly
weiss
weary
weho
wegm
butth
buttt
butts
butte
butbut
butttt
fro
fray
fres
freel
frag
frined
frida
frantic
fragr
##imb
##imed
##imist
##imson
##imated
##imina
##imately
##imera
##imination
##imples
##imartinez
##im_chris
##imetria
##erely
justam
justlike
!!?
ani
anch
anal
anant
anny
anto
ankes
antw
anita
anjee
anonym
ancient
anisaloves
withstanding
##oodle
doon
dove
dover
dolly
docks
dosen
dojie
noting
notch
notion
noteb
notific
notices
notdi
noticing
notification
heyyy
heyyyyy
hemp
hendrix
wordy
worsh
worship
atx
atra
athl
##llyanna
##llyeah
washer
twa
twis
twill
twink
twirl
twatter
tweaking
tweat
twtv
twidd
twibes
twhirl
cane
canc
canadam
##hers
##opc
##oping
##open
##opic
##oplan
##opened
chee
chit
cham
chun
chand
chart
chol
chally
chaz
chup
chock
chey
chirst
chord
chav
chapp
chical
chucks
chitty
chi_
chains
chief
charts
chota
cholla
chunky
chingo
chiro
chamber
chosen
chomp
cheddar
gettt
##oneyy
rend
rear
reve
rele
relly
rebl
reload
rejo
rewr
rebell
rechar
reborn
reggie
reiki
rehab
releg
sue
suv
suk
suf
suss
suited
su2c
sullivan
suareasy
nel
ney
neb
neice
nevr
neillavin
allo
alls
allan
allig
allian
allears
allthat
allllllllll
alllyy_
upss
upto
upstate
##ceci
##celet
outa
outage
outlet
outbreak
outstanding
outdated
##rys
##ry_
##rying
##rykah
##rythis
comms
comming
commit
commin
comfor
compromise
reaaa
reass
##entl
##ented
##entic
##entious
##entially
..)
..!!
##ackers
workload
workaholic
workplace
nowt
nowww
##thur
##thood
##theed
##thats
thiss
##essh
##essica
##il1
##ilking
##ilah
##ilms
##ilof
##ilating
##ilza
##ilasha
##ilogy
##iloohoo
##haz
##hake
##happ
##haaaa
##halex
##hausted
##haze
##havl
##hauns
##hazzard
noel
noah
noches
nova
noida
noisy
nobod
noggin
nofakery
prn
prs
prd
pree
prow
prie
prest
prty
prank
prote
propped
prosp
pricy
pricing
pradas
princes
pruning
pradeep
##aines
##ainthe
##ainanic
##antas
##antjee
alo
als
alis
aliss
alri
alum
alig
alph
alma
albe
alton
alki
aladd
algebra
alzhe
##ksu
##ks_
##ttn
##tta
##tteam
##ion32
##ion07
plc
plis
plce
plzz
plates
plato
pleeeeee
placed
plague
##usa
##us_
##usman
##usuf
##us626
ama
amt
amj
amf
amee
ames
amate
amel
ammo
amors
amyd
ambit
ambers
ammary
ambig
amymon
aminor
amhzz
thanxx
##astasia
##issant
##issus
goto
goth
gottf
morrow
morgen
mortg
morethan
lovey
loveist
lovemed
lovelove
donot
donut
donald
don_j
##atech
##rag
##rac
##rapt
##racy
##rabb
##rabut
##raiser
##ragon
https
##inkt
##ink_
##inker
##inkyd
##estion
##estra
##estri
##estorm
##estep
##estains
maa
maj
maan
macr
macy
mavin
maze
makati
maureen
maverick
##cton
##ctiv
##ctions
##ctric
imt
imper
imple
imho
imba
imeem
imovie
imreally
##rio
##riv
##riot
##riad
##riley
##rived
##rigan
##rigue
knit
knooow
asc
asd
asb
aside
ashing
ashhh
asfa
asda
asians
asiar
aswel
askegg
awee
awoke
awfully
todayyyyyy
seeeeeeee
##abee
##aback
##abil
##abob
##abare
##abees
##abec
##ababy
##ababe
##ablock
##abuzz
##andb
##andom
##andang
##andme
##andaw
##andrew
##andjb
##andcheese
timee
timha
timmin
##ishk
##ishan
##isham
##ishiki
aber
abou
abro
abuse
abusing
abbie
abbre
abhor
aberd
abiding
abuzz
abiga
aboard
twitted
!!!)
!!!????
##osw
##osund
##osbourne
##osaki
##osaurus
##osullivan
brat
brum
brrr
broom
broth
brok
brush
brrrrr
brides
brento
broody
bratine
brran1
whatt
whati
missus
mississ
misspl
missco
miss_r
miss_k
missmary
missgig
misslaura
miss604
misspelled
##eli
##el5
##elin
##elve
##elis
##elist
##elgi
##eloves
##arta
##artz
##arture
##artney
##artolo
##eade
##eadams
##uming
##umes
##ummy
##umns
##ooker
happyyyy
lola
lols
lolzy
backe
backing
backed
backgr
backstage
knowww
##fff
##nae
##naa
##naz
##nage
##napper
##icki
##icking
##icklen
##eeler
##eelove
##eelady
##ulh
##uls
##ulas
##ulge
##ulaa
##ulty
##ulian
oneofth
##ninger
##ersmith
##erskate
##olk
##olous
##olfe
##olito
##olsen
##olid2k
##igee
##igos
##igations
##igital
##iggy
##igy7
wills
willie
##inds
##indra
offers
offend
offensive
officer
##ntigh
##alli
##allon
##allis
##allen
##allly
##allels
didger
##icean
##icecream
everone
everrr
everton
evermore
everrrr
##obo
##obc
##oby
##obar
##obly
##obie
##obel
##obear
##obber
##obass
##obics
##obsc
##oberry
##oberts
##obrien
newb
newly
newsp
newjab
##eedd
##eedwards
##geist
##inecc
##ine_j
itss
its_s
itsjust
itsgab
itschrist
itsmeam
anyday
anyth
anyhow
anythin
anywho
spy
spf
spoo
spur
spart
spite
spew
spose
spank
spins
spons
spots
spiel
spaces
speach
sporting
splendid
moh
moist
mozy
mojo
mopping
mochi
moanas
mogw
thinkgeek
thinkreferr
bling
blat
blake
bloss
blade
blipping
blvd
blkad
blooms
exa
exs
exx
exoc
exec
exists
motheri
nightly
##eens
##eenth
howl
howdy
howeva
hada
##allynn
sla
slay
slick
slide
slater
sliver
slots
slides
sliced
slov
slices
slugg
slaps
slaves
slouchy
sloppy
sln25
##uchan
homemade
##mmy
##mmeeee
agg
agnes
agency
agencies
aguil
theyre
theyotes
##oolery
##itequ
dex
dek
deff
deanna
devin
deann
depe
deploy
deleon
deplurk
##ollar
##ollie
##reation
##moring
##moran
##moreno
ohay
ohmon
ohsweet
ohshit
##aaas
##aaap
##aaale
##ourt
##oured
##ourke
##ource
##ourcing
welll
wellity
##ellow
##elleb
funy
funk
funkey
##vings
##ameis
##aux
##auce
##auder
##aufer
gue
guap
guides
guiller
guarant
needy
thankss
wag
waik
wacom
wahl
wahahaha
wavves
waverly
whens
clam
clown
clint
clips
clunky
clancy
clowns
clueless
twitterr
twitterfr
twitterfox
twitterbugs
##dys
##dying
##dybaby
grou
grea
grun
grans
greeee
grcr
grann
grump
grants
grasp
greasy
greaa
granted
grouchy
grumbles
gretel
grenades
watcha
watches
stilll
fag
fakes
fakin
faker
facil
faulko
lljess
llcoo
momo
momot
##earson
##earance
##ear_me
oral
orang
orbic
orleans
orillia
everythin
##rowe
dru
drat
dres
drain
drob
drup
drron
drrus
dr_j
drained
dr_cr
greater
saz
sapp
saget
sauna
sawwy
saurab
arre
arun
arnt
ariel
arbit
arrrr
arjb
arlington
herd
herb
herit
herrr
herman
hereeeeee
hercules
sadder
sorts
sorrows
sorrry
sorrrry
##api
##apd
##apam
##aperson
##apants
##apres
##apses
##apeesh
##apova
##ieser
##iesworld
##iescupcake
##ooooow
##oooool
##akexchaos
##ifil
##ifier
##ificial
##ifusion
##ifths
coord
coated
cohen
phi
phd
phx
phat
phon
phar
phomor
pheasant
##iendo
##iends
hash
hasin
enlight
encore
enroll
energet
enrapt
tran
trill
trough
troll
trud
trunk
trudy
treas
tricks
trvs
trades
trashed
trolley
trinity
trpilot
trojan
trilogy
shepherd
sheila_
shepards
##eryone
conno
conrad
concret
conorp
conspir
conchords
##anging
##angil
lookbook
##aysrawr
##aysantos
sleeps
sleepless
usage
veggies
betting
betray
beths
pov
poia
pokes
pochacc
finland
finance
yeaaa
yeaaah
yeaaaah
yeaaaahh
##ema
##emt
##emot
##emoney
##emark
##embry
##emcknight
##emaybooks
byeeee
byeee
badmic
baddie
badluck
badminton
badar76
##agreat
##agod
##agraph
waitt
friendship
friendorfollow
##udo
##udude
##udger
wonky
##ubbs
##uberry
##ubanks
##uballow
##ubarb
##ittee
##ittys
##ittman
##ilewis
##ilelaine
followin
followmandy
followfrankie
mayn
mayo
mayor
mayday
mayne
whyyy
whyarey
tomorrows
tomorroww
mana
manu
manics
maniac
manhatt
##xts
##ivella
##isth
##isti
##iston
##isted
##ipz
##iperry
##ipoynter
##ipilking
##berger
##irls
seb
sew
seiz
seating
seann
seuss
seized
sevent
seanther
segment
se7en
##lois
##lovin
##loding
##loids
afc
afgan
af8jt
afrykah
themes
##feige
mono
monet
monte
monroe
moncton
##ysl
##ys4
##yson
##ysoul
##yshow
##ysweet
##ysghirl
bitching
showr
yesh
yesy
overr
overst
overdo
overdid
overdue
##iak
##ia09
##ny27
##pics
##pic0
##picardo
##asss
##assin
##assman
shouldve
shoulders
swin
sween
sword
swears
swarm
swoon
swelter
swamped
whover
##yyo
##azy
##azdan
##upation
##upert
##upwk
##update
##ogic
##ogirl
##ogne
leo
lev
lew
lean
lend
leod
leann
legged
leuke
leprak
lefto
caro
carp
carey
carne
carina
cara_
carole
carold
carpen
carbon
caramel
carocat
##ahr
##ahw
##ahan
##ahel
##ahead
thoughh
quee
quess
quinn
quitting
quimo
quoted
quesad
tryed
oka
oki
okie
tweety
tweetin
tweeten
header
headhard
headlines
scone
scent
sccr
scave
scents
scones
##ewang
##ewins
##eworm
##ewiseman
schuh
##00d
##001
##008
peck
peir
peole
peppers
pepsi
##tyn
##type
##ization
weekday
wayn
wayy
wayyyy
wayyyyyy
afterward
afternoo
leak
leaks
leash
leaky
leafs
crs
cron
crut
cros
crzy
crunk
crane
crump
croon
cringe
cricinfo
crimson
##odi
##odor
##odom
##oded
##odope
##odile
##odjang
##odicean
##acle
##acles
##acav
##acular
##acaro
##acampbell
##phn
##phic
##philly
##phoenix
##phreys
##ockaholic
downed
downfall
downpour
beds
bedd
sunrise
##aku
##akin
##akas
##akid
##akim
##akiss
##akeen
##akami
##aknya
##shed
##short
##shep
##sheets
##shorter
##achs
##acher
##achan
comeback
unre
union
unus
unans
unatt
unload
unpar
unpa
unlock
unbreak
unread
unmarketing
unopened
##ansch
##ansie
##ansera
##ansmith
##ansfield
playah
playtime
playfork
saynerd
##osefaces
longg
longboard
schooling
schoolers
ade
addy
adap
adaw
adele
adium
adela
adlounge
adidas
##eyo
##eyed
##eyachrist
startup
marg
marir
marth
mariss
marqu
mario
maryp
mariel
marries
mari_
maroon
maritz
marissa
marilyn
marbella
marcelon
marzipan
mareyachrist
##plan
##plet
##plain
##plus
##plays
##plash
##pletes
##uga
##ugee
##uggs
madam
madame
maddy
maddd
madams
madison
madres
maddies
madpier
madsdeg
##rrs
##rrgasmic
twitpics
##eamanda
##tsville
flea
flour
flap
flake
flag
flute
flatt
flaw
flesh
flops
flames
flipping
fletcher
flaming
flallday
flahman
flamen
flirting
fluballow
somatic
thankgod
##myt
##myd
##myers
##myster
##mylife
##myheart
##mybell
##mywords
##myadmin
didni
apper
appears
appstore
appetite
appartment
##preet
##prouse
##prash
##prince
##prada
##mao
##maw
##mage
##maize
himm
##perci
##pertur
heynad
bestest
dayss
dayssss
somethn
##cco
##ccc
smily
smash
smush
smitten
smoked
smiled
##urement
girltr
sucka
suckssss
awesomeann
hihi
hijack
hiiii
hihat
hiiiiii
picnik
talaga
##ssl
##sson
becabear
becomes
##bex
##beque
joann
jofar
joonian
calll
callum
littlet
##xxfiles
pleaz
dian
diab
diary
dipping
dippin
dixie
dianar
##athetic
##athbone
##athediva
##thington
glas
glam
gland
glue
glowing
glitter
glands
glued
glinner
rainin
rainstorm
rainbows
rainforest
borg
bord
##cied
##ciate
##ciation
##ciano
##toa
##toach
##eeeeet
littlelee
littlegig
littlebir
earning
earned
earbud
earrings
partyyyy
partied
partyyyyy
urg
yearrrr
yearbooks
stare
starr
starry
wrink
wrang
wretch
babb
##athers
soonish
##ftk
##fton
##ftop
##ftme
daly
daks
daxx
dawl
davest
dawwwwwwww
dai_b
dairy
¿½!
##eality
##ealanth
thro
thrilling
##soh
##sole
##soap
##social
##sofresh
##ptic
##ptons
##ptune
##ptuous
cheat
chevy
lists
listning
activ
sicky
##uffed
##uffsy
probable
problogger
probobly
damp
damon
damien
damali
dampen
mina
minut
minic
minas
minim
minty
minne
minivan
##ondd
hursty
##mente
##nerbum
##ner_t
lafl
laffy
lavender
lailasha
laodicean
coolio
##moa
##mox
##mohan
##movie
##ivn
##ivor
##ivon
##ivore
##ivist
##ecting
ourselves
##brd
##bray
##brother
##brink
##brook
##brite
##bride
##broke
##breaking
##brooke
##brkr
##bruary
loool
##bo0
##iieee
##ossini
lotus
omw
omgg
##taj
findings
helsink
helmuts
heltersh
##endave
##endran
##ggs
##gggh
##ggers
##ggghhh
interup
interact
interns
interrup
interface
interweb
interrupt
interactive
ideal
idkk
idkkkk
idrather
##urney
tiredd
##frid
##fram
##freed
##frame
##freeze
##joyed
##qui
##quick
##quette
##quiao
bigtoach
hottt
hotsp
hotness
hotmail
hotels
hotpants
##ixa
##ixie
amazes
anotherjul
##spam
##sport
##spoons
##spoil
##ash4
##orders
##heb
##msmith
lyric
thoughtful
??)
??..
??!!!
???!
???!!
housework
househo
livefr
livejour
trio
trib
tries
trials
triste
trigger
trivia
##oco
##ocs
##ocon
##ocuppy
##ullet
realcon
realistic
hardware
##irects
##manilow
##ianca
readyyy
disgu
discret
disgra
dismal
diseases
stroll
strained
strength
stretching
perky
perpet
perrin
permission
hells
helloo
hellocuppy
compass
compute
compability
compreh
omgoodness
tei
tehe
techie
teerib
yaayy
lovess
damnnn
kiddie
##ikat
##ikers
##ikah
##iketh
##ikki
##ikaysantos
dana
dany
danis
danica
danipoynter
tellin
excessive
exclusive
buses
hoj
hoes
kindred
emper
embed
emotions
emoticons
wowinsider
##byr
##bypickler
buys
paras
parach
parked
parental
parody
parallel
parallels
warri
warmed
warham
warpd
warehouse
remin
remir
remain
remem
rember
remark
endearing
jobless
jobros
##crn
##crime
##cruz
##creek
##cratic
##crisis
##cracker
finishes
fuckt
fucks
fucker
fuckers
runaway
boystown
##oximately
##ofg
##ofen
##ofman
##ofoz
##ofzen
##ofjud
##ofuel
##ofdoom
##ofboe
checks
babycakes
babystow
babypatches
bootc
booboo
tinypic
tinytwitter
tinyleg
sk8
skit
skoo
skank
skits
skipped
skipping
skittles
sketches
trax
trak
traitor
travest
##lesinner
godaw
goddamn
##coat
##cost
##coffin
elk
elig
elmo
elisa
elisha
elvish
eljmcfly
elainanic
cougar
couches
106
104
108
10mins
1045
##grn
##gro
##gring
##gret
##grid
##grub
##granger
##granny
##greece
##groove
##la02
##lai7
sweet_
sweetav
sweetpea
sweetdreamer
sweetemma
drip
drizz
driven
joncon
jonoh
##othy
faceofboe
musicislife
##ertor
stuffy
stuffier
lostalone
lostmyheart
belinda
belmont
##aryan
##aryann
posters
##cyruu
##itchie
snatch
snif
snurl
snark
snoop
snjen
breakie
##ignal
accadent
accumul
freee
freesat
##ndering
worldwide
##ierra
##ierced
##ierhen
##ierchua
##ierockaholic
weathermen
##atti
##attoos
sucha
chanel
dinn
dining
dinos
dinna
dinero
muster
mustang
mustaches
givemest
summar
summery
summertime
birthdayy
?!"
##blink
##blak
##blank
##blets
##blanc
##blading
##blorib
sundress
wonderfull
partyin
partyends
hunk
hunnie
huntsville
##tons
##tonline
hairdo
hairspr
farro
farrah
farmers
farrell
resem
resident
restera
reserve
resolve
tae
tails
taipe
tactic
taffy
untuk
untweeps
totes
superw
supergl
superpower
supervise
##twin
##twit
##tweep
##twice
##twist
##twits
##twism
##twitta
cryed
photow
photog
photof
##lcuv
description
describe
mroh
mrden
mrjay
mrjr
mrfloyd
mrjim
mrtrev
classics
classmate
##neath
##neko
xxs
xxlauren
xxhazel
##ibs
##ibee
##ibarra
##ibartolo
suppr
supporters
satan
recap
recieve
recomend
##insky
everythings
30s
30p
306
30sec
rockdam
##oryx
##nnnd
##nninja
##nn1e
##oki
##avy
##av1
##avan
##avies
lunchtime
repo
repost
repairs
reporting
repaired
repierced
faves
favrd
dreamt
monthly
painted
##ikey
planter
trey
tremend
trellth
##swx
##swan
##sweets
##sworth
##sweeney
##swifey
defense
defunct
defrag
okayyy
preced
prepped
preprom
preocc
preciate
##rising
##ildsou
welcoming
welcomed
adds
addition
gameboy
teaches
##def
##deleon
##deppnews
##while
##whirl
##whites
delt
deli
delas
delta
delightful
##otted
colder
stever
steves
steview
stefan
ste1987
fooddes
##mez
##meow
##melly
##me1988
drinker
cleanin
##ett89
instantly
;))
killen
killzoned
charave
cambridge
surface
winks
winwood
forwarded
ahn
ahm
pao
paw
paed
pawn
paws
paige
pavement
forgiving
stupidly
stupidity
##uzman
##uzeedo
##ymay
##ympna
##ymaryann
##inai
##ina_
isni
huaaaa
##rista
##nessa
##ness23
shitter
shitload
undergar
underwood
underdog
underbelly
underwear
underneath
bookbag
hola
holmes
turnon
turnout
turnitgrey
bloggers
blogtalk
##onsible
annad
annett
ann_agu
annamess
annainthe
handful
handling
handmade
restart
restless
##hnimo
buyer
illness
roomie
##awer
##awesome
sends
opens
##ormous
##anaf
roh
roi
roxx
rochester
rocio
##vescent
assure
assault
assedly
boise
boonies
boasting
hmmp
kebab
keiya
reth
##aven
##kky
##dsourcing
##network
updat
edc
edna
edumed
edstet
soooon
##acts
##actor
##actyl
##actress
##cled
##class
##cloth
##clark
##clusive
ladyp
laddie
ladymaryann
##ved_2
##......
soooooooooo
sooooooooo
##girln
##girl2
##girlstell
##girl1972
horrend
horrific
horrors
hitman
luh
luk
luis
luig
lu_lu
highest
highland
highness
redd
redba
redsk
redhal
rediculous
redeem
redsox
red_haw
redirects
##icient
lilith
lilmiss
lilayy
lilmarsh
##pression
erie
erase
erica
erwin
erased
proven
prohib
proverbs
sethhs
terms
terric
terror
terabyte
cuter
cuties
cuteness
hopfully
attic
##ontdf
##ontv88
screa
grading
contain
contagious
jamesh
jamieb
jamaic
jammies
expat
expos
expans
momsrising
unfort
tvtot
##1908
##1969
##1979
##1990
##1981
##1991
indies
indians
indulge
guyz
guybatty
msfe
msft
mscat
msalon
##gl3
##glas
##glenn
##glitrs
##roi
##roix
##roeder
##vinny
----
cameo
robc
robor
robins
robina
robyn
robkardashian
robinecc
weds
##velt
##veless
macaron
macadam
macmus
trekking
##itherandom
heheh
blackjack
blackhaw
blackberries
winding
windsh
windoze
yums
yummmm
problemo
4wc
4wb
4w4
4wf
4wq
4wpp
4wox
4w67
4w52
4wp8
4we5
curt
curried
cursing
cardiff
cardboard
##eshad
##eship
##eshire
##eshoe
##ennel
##ennett
fanny
fanfic
##flat
##flic
##flight
##flake
##floss
##flakes
##flutter
##flitur
davids
davidald
david_k
davidspr
acute
acmc
##alevina
##ypanda
elsewhere
souff
saran
saraa_x
sarabare
##125
##129
##121986
completes
compliments
apa
api
apollo
apathetic
barn
barks
barley
barbs
barnes
barbar
barrie
barns
barcamp
barbec
barroca
barbeque
cookout
##a_d
##a_b
##a_rash
grandfather
computermuse
owned
sambrad
sammich
samlum
samm_xo
sammoran
decently
decides
decaf
decode
deciding
decorated
##ooooooooooo
##oooooooooooooo
##ooooooooooooo
##cester
heartburn
heartbomb
heartedly
buried
graci
gravey
woow
wooot
wooow
woops
##conner
##conqu
##confident
##ingsunshine
##itsjess
##itskristi
hurtin
googling
midst
midway
midnite
midsomer
spendin
filter
filos
filmed
laubow
laurelex
invites
invitations
shortie
shortcut
crazytwism
epmorgan
mindddd
mindy9
relays
relieve
relient
relatives
releases
johnson
johnathan
johnlegend
passive
passport
passwords
passengers
ticking
##owsinstone
newsletter
lotsa
jonasweb
openhack
milest
milky
military
milosund
soothing
tiles
##reece
##reetteam
##reeftme
definit
iceberg
metre
metaph
##geronimo
truely
airing
airpl
airsoft
##venge
textin
textmate
bankrupt
visits
visial
2011
calib
calilewis
emailing
##appa
##apps
##apping
##appointed
##icaly
##icaquinn
120
12hr
12seconds
catchy
catches
syam
##ebag
##ebelle
##eb_d
##ronin
##ron76
##ronnie
##134
##1309
##1302
##13hd
##ster77
##ster25
choco
presale
prescript
confess
confession
confusion
cao
caly
caff
causes
cautious
djl
djd
djst
djgig
djalfy
mileycyruu
##ohno
##ohost
##ohbill
##owering
ava
avoc
avril
avalanche
darl
darlin
##carl
##anye
mommy414
breakfastnews
catar
catwalk
catwoman
pickles
pickings
##chergirl
##ade10
##laxis
fastest
##maree
##mariee
##marcus
##eeker
profit
profound
bumps
collide
collapses
lmaoo
##_bell
##_buckley
##ergame
##erguy
##oshed
##oshock
##oshimartinez
replyed
micar
toured
##aredpacket
medal
medros
medbot
meditate
tonigh
melon
melvin
melkoo
evenings
lauraa
laurie_
figur
figures
##iethe
##ietrich
##uku
##ukreja
##italiana
movement
movements
ladylove
chocolat
drawn
netball
payment
payroll
oneself
sprite
springs
sprung
artfire
artificial
jacks
jackass
jackets
jackfa
jackgray
mitchell
116
11th
67i
675
67f
673
67q
677
6714
67yk
67tp
67swx
##burst
##burgring
lighten
lighters
askin
juan
##ginny27
ashton
ashsimpson
bringin
slowed
nicked
nickname
nicktion
nickchien
nickleback
nickimina
paps
papaya
extens
extrem
extension
colors
colbert
columns
cologne
##yloo
tom_p
tompiper
fella
karate
karens
karla
karene
karlee
karleigh
karasw
sentences
ukrain
dangggg
jesser
jessdosil
##goz
##goes
##olexa
##rrrrl
nico
nicc
niceee
niceeeee
1000000000000000000
4ja
4j8
4jaz
4ja8
harsh
harney
harmon
harold
harrass
harpers
harvard
jaya
jayce
jayme1988
naty
natie
natash
natali
natdc
psst
##jo42
##__marie
##lexie
changs
nearing
nearest
fixd
fixrepl
nybabe
tumor
tumors
##clean
##clement
##boy32
##boyonline
##boy808
##enechua
weirdest
##thearts
##thebeat
supposedly
unfortunate
felip
feliz
felici
felted
felicity
felitherandom
naplan
##leeper
marky
evo
evicted
evolution
giants
giblah
iamki
iamoph
sonia
sonics
signature
##chevious
##cheuer
chickie
specially
sexys
sexual
##lovely
salty
##aial
theree
thermom
thereall
therealy
##easley
##eashale
##ethis
##ethird
##ethomson
chrisg
chrisp
chrisdj
chriscornell
chrisjlove
chrisontv88
agreeing
agreement
bandit
bandwag
bandwidth
espn
##gteacher
##true
##monke
##monroe
##monkeys
christa
christening
christiner
magners
magento
fluid
fluids
walkin
walker
gymnastics
sideways
sidebar
##gars
##garner
##garland
##garcia
##iffy
insight
insur
insult
inshall
absent
absoul
absurd
greenville
green_i_
2001
bases
basics
humm
humbug
hummmmm
huma_rash
katcal
kat_kitty
polite
policy
commenting
ddub
dd_lovato
layin
laydown
moody
puzzle
puzzles
puertor
womens
##rength
##60s
studios
##entionally
geomet
gerb
gerard
germs
gericaquinn
##comm
##comedy
##woods
infin
##elle23
byebye
patmaine
patiently
raider
rajas
raerae
##hoon
##holy
##hova
##hollywood
##bumps
braz
brake
brawl
bracel
brabak
bracelet
viewed
##bae
##baum
##baillie
##bautista
regal
regime
warmth
14th
corning
petty
##overflow
##parad
##parade
##parency
##minerals
##ie_ali
subt
subcons
dressing
firewall
guten
meningitis
ppls
##notaperson
shares
sharapova
possession
possessed
takeaway
##guer
##guing
##yeong
##isioning
wordchar
apparantly
projected
projectcloud
dmc
dmb
fights
fightin
fightstar
##ski
##sky
strauss
##versial
bottling
bottled
miso
mischie
mismile
mischevious
peaches
peapod
blue_c
bluecat
quicker
buggers
fabre
genre
genetic
gen22
nero
nerdy
nerds
norway
##pax
##forth
##forlife
##forums
##forbes
##ooping
##oopid
youngster
philos
philadel
alexi
alexandra
esse
esque
esmeg
miiself
teething
teemonster
teemwilliams
##people
##jaff
##mcflyfan
cheesey
cheesecakes
celebrities
ben_st
benedryl
benadryl
lazing
vaness
freakgoddess
justinbright
##ologically
mommie
fanta
squee
squeak
squeaking
squeaky
squishy
##ledd
##ki_kay
##7785
livingroom
livinghandy
webc
web20
replaced
pleaseeee
pleaseeeee
sarah_
sarahk
sarahies
sarahbell
sarahjp
sarah68
sarahjacin
130
balling
ballerina
cybers
cydia
cystic
cyrand
copies
cosplay
footage
giggle
ridding
ridden
rubs
rubbing
closure
closeness
transparency
understandable
luvvv
mike_w
mikefrizz
##caster
##castell
##castillo
##booth
##boosh
##boogie
##boogi
##kyria
##kybiz
touchin
touches
##string
##stroke
whatsup
crossfit
##ealthy
holdin
1600
1667
16urvv
dunn
eachother
jerms
joyce
joyful
joyfull
joyofzen
keyed
keytar
keylah
keytaj
naww
##uca
##babies
##babyy
##babyyy
##worthington
##237
##11y
##115
##88b
pointless
travelin
paperback
audacious
bagels
entrepr
jasper
mathews
potty
potface
potbelly
potentially
ryank
##gae
##tvf
##ounce
##eezle
stomache
stompthew
costly
costco
##eeeeeeeeeeee
deny
mcmuffin
mcmedia
motto
mattmccoy
matt_ve
ouchie
wolfram
##tini
##tinat
##_dead
##_div
##_dude
##_dream
##187
beaten
beatles
solve
solving
solves
solved
solaris
solobass
soldiers
everybodys
paulm
paulamack
66n
664
6695
66l83
hilton
muji
mundo
sanity
sanfran
sanjana
##alderon
##faire
##keyism
lovingly
##alko
experimental
boxers
darklord
eleven
mamap
mamac
massages
massacre
obv
object
obnoxious
panel
panhand
rollo
rollerskate
tyra
tyres
veritas
vermont
verdict
##_sl
##_sm
##_says
##_soul
##_smith
##_sims
##_saurus
##202
##1469
proposed
##!!!!!!!!!!
roadtrip
1864
ellie
ellipt
ellisnyc
funding
hospitals
ooohhh
tenen
tenerife
wallah
yoghurt
##mcgu
##mcmanus
##inned
##innip
shopaholic
shirtless
proudkiwi
##umbers
safeway
##ssssss
##sssssss
lonelyyyy
noooowww
oohlal
atlas
atlant
mails
mailed
davewar
daveg3
lawl
lawrence
expectations
brigh
brianna
hannahs
owt
owen
purdy
rooftop
##bbbb
##246
foreverrr
locals
shutting
walkinghor
peacelove
tuesdays
capcom
capemaybooks
dharshana
dhympna
mentioning
yezzz
##knits
##9999
docbat
directv
designers
designia
bbqs
garth
garbage
laters
roundtable
snaps
##afar
##afed
##uhx
##_crazy
intent
intake
twilightguy
twilightfairy
twilightgossip
programs
consist
consists
conscience
consumption
screens
screenshot
michaeld
24th
24hrs
50am
jordans
watir
waters
watts
watson
##iqht
##iqminerals
##ienne
##867
andy_sims
bellion
bellag
freshypanda
devot
devices
devils
deviantly
engaged
engulf
eyefic
billington
billzucker
billohbill
fatbelly
jennic
labarcelon
landon
landline
landsc
landlord
niko
nikz
nikster
##nicol
##burns
##_li
##_lia
##_lady
##_liden
##_layne
##_ladie
##_mom
throwback
##ismusic
##isonfire
sumone
sumthing
sumtime
sumptuous
brainbone
brainstuck
rainycity
discs
discontin
questionable
affili
affected
affects
blender
blehhh
kimp
kimba
kimsher
kimmimcfly
lowest
matalatine
##gyrl
##?!?
##8320
##oulet
##oulton
##esterol
inspite
##wwwwn
quietly
joely
joek949
dannymast
dannyjclay
ashleylovegood
ashleygofficial
baha
bahah
jenrol
katecam
lisatalking
michel
portsm
##sml
##smum
##small
##smooth
##ydia
##ydrated
##ydazzle
##_rad
##_roy
##_rose
##_rc23
##_reality
imput
impatient
##igrade
deaths
deathwished
death_by
clothcouture
???????,
???????????????
?????????????
???????????????????????????????????????
jasonmitchen
fishes
matey
tmz
##newt
##hooting
##2004
##seyx
##andaj
spammer
spammed
deprived
departure
reviewing
reviewed
wednesay
publicly
public_timel
production
homee
healthcare
irc
irgx
irregularly
jkphn
jkreeftme
richmond
##howl
##cat224
##fanpire
##265
##269
##2610
##steppa
##stevens
shinjuk
succesful
brando
bitchy
bitchnotaperson
##xxxy
springtime
angelistic
angelakeen
angelibarra
property
europ
euruko
eurodjang
emmar
emmal
emma_
feeds
feedme
janice
janell
janey
janitor
janine_j
julian
julied
juliet
julius
julierockaholic
kayo
kayench
kayaknya
siam
tania
tanner
uhm
uhmazing
##axo
##axa
shotgun
shouts
shouting
imported
groupies
swineflu
skyfire
accidente
19th
1986
1984
170
179
45pm
bacardi
detail
detro
detention
hoots
historical
mixing
nuttin
nutreal
rachell
##angela
##rrrl
mrsdaughtry
favourites
charleston
southend
southland
jefftra
jeffparks
doctoral
autism
autumn
acronym
bklyn
bk_ii
banking
banner
banjo
certific
denton
dental
hooky
kristi
kristina
krist0ph
lmk
piginthep
turtles
##harsh
##holt
##holic
##robyn
##usel
torch
torment
torta
amyxst
donnell
donniescupcake
brighten
brightly
campers
soulchild
!).
boba
bobbie
bangin
bangalore
kingston
kingivn
migrate
migrating
migranes
werent
wernt
##lund
##vibe
liek
tweeet
tweeth
mornig
explains
exploration
screwing
marykay
maryjane
earth2
cheerful
##aaaaaaaaaaaa
##aaaaaaaaaaa
importantly
bcit
bcause
bowwow
balancing
guns
jumpstart
malicious
malaria
maltese
misty
noms
nomore
nominated
sirreign
sirhova
##scribe
##_jim
##_jones
##_kid
##_kim
havn
pressie
speakeasy
connecting
connections
installation
returns
akte
akomuzik
freo
frend
journals
rowans
rowsell
victim
yahyan
##alypse
##voicu
##058
thundering
formula
formulas
##ungberg
sugarland
mallory
debra
debussy
debugging
northland
northwest
5jn
5jj
5jb
boner
bonnar
bonkers
baka
bakers
centro
centigrade
joshc
joshy
mcflys
mcflyy
mcflyinggirl
oopsie
rosieee
rosalie
roshnimo
ugghh
##leeeaa
##leeadams
##tekno
##visor
##iamunn
##cutiesworld
##_pea
##_wx
##_west
##_waters
##_web_d
##etcho
refs
refusing
suggested
brady
trails
clearing
surgury
continually
continuous
indeedy
programmer
programming
troublebrother
biking
bioshock
ilike
ilhong
mander
mandarin
mandacrow
marta
marty
martins
martini
penelope
sixth
tarot
tarra
tararizing
wkjth
##lights
##drop
##formist
##reynolds
##askins
heheee
maxin
maxed
agesthegreat
arghh
scottiejen
strongly
assigned
ericlud
ericbolling
ericmille
drawning
generous
generator
brianlim
deeper
deeply
essential
gahhh
gaiman
gailelaine
jaiden
jae87
jaisey
jaunty
matching
matched
naming
namaskar
orientation
seng
teary
tearing
##beexx
##_hay
##_h_99
##8705
islands
shae
shaving
shaft
shaanxi
buttercup
chapters
majorspoil
clicking
montel
montanna
##heartof
bubba
cowbell
cowboys
palace
tabs
tables
tablet
tabloid
tabloids
treatment
wildlife
wildflowers
##uppp
##uppet
##wichdab
##martin
##zero3
##iefisher
demands
swearing
screamin
cooks
coool
cooool
castiel
lakoda
mercedes
sigg
tatted
venzann
values
valuation
valerie
valkyria
xo_mcfly
##mith88
##mith22
##_nkotb
##fitonline
toasting
toasted
andrews
andrewgold
##adesi
frankly
aweomse
cruises
crackers
hangovers
kellyolexa
technique
aimeelady
baton
batty
buffer
buffett
foam
foil
foster
foxxfiles
folio
geekwears
heey
heehee
judith
loretta
loribartolo
lindy
lindal
lindentr
mirrors
maint
pooh
poole
poofy
poojar
rhin
rhix
rhyth
rhubarb
uti
##uae
##undred
##weight
##wegian
##weathers
##mason
##maggie
hahhaha
halls
hallooo
hallway
halluc
##chae
frustraded
chiu
chioma_
##halle
flashlight
paintings
courtpet
systems
michaelsheen
bullied
cuba
cuban
cubes
cubbies
downing
downt
dubbed
dublins
gabe
gabba
gabriel
jp1983
typezero3
##giving
##banana
##moms
##missed
##0407
##8212
tonyhawk
##tttty
##tttttttt
##ttttttt
##player
miniatus
strangely
deserves
##babyv
??????.
??????,
husbands
5z6n
aaaand
aaahhh
aaahhhh
baybee
fiat
fiasc
lesl
octopus
pamel
pamluther
romant
romina
renee
renay
roseanne
rosemary
rosellyanna
woodstock
##halter
##rayne
##raymond
##yrl
##yright
##dogg
##blogs
##329
##328
##792
##addles
sherri
sherman
sherbert
shereemcfly
sheridan
cheapy
blasting
scarf
scarlett
appearing
appearances
doubtful
pleasurep
roflmao
&&&
alyandaj
bothering
bosses
cabut
cabbage
icurve
koifusion
krush
kricket
krogers
kiis
lament
lambs
murphy
murphys
murakami
viral
yessss
yessssss
##ranch
##bingo
toughie
toughest
##charming
##charlie
stocks
stocktwits
shooter
##ophonics
chaof
chemo
chemicals
brookstuh
brookeamanda
dreadfully
quebec
que_day
advil
danielrad
taxes
##kkkkk
##kkkkkkk
requested
considerably
azt
hillary
kelli
kellz
kellan
lapbook
racers
racoon
racists
racquet
tagalog
##ajames
##slow
##marked
begining
shelter
annapolis
heyya
candypants
grosses
trademe
adamjackson
streams
streamline
snowgirl1972
channels
scratches
##123x
collective
basedmagazine
communist
nerdprom
nerdatcool
distraction
60s
aussie_ali
circle
circa
cassette
cassidy
cassivella
cashier
cashouts
caviar
dujour
duvet
derby
derbysh
ebassman
kirstyy
musiq
oscar
osaka
operating
operational
pixel
pixels
pooping
ricebunny
tacoma
##jenner
##2904
##zinger
##ico1
meg_la
megaman
megaredpacket
wendy_
##celeste
##raphael
##rified
arrest
arrays
arranged
caroljs
emilyyoung
handlewith
boarding
christianity
frenchiep
##worlds
ayt
achur
ceo
cece
custard
caption
captive
capture
ghetto
giro
giraffe
galact
galiiit
loung
lemons
lemsip
mpre
mpix
multitas
nliuk
symbol
yogg
##gen8705
##righteous
##service
##supergirl
##benet
##benjamin
##withme
##_tx
##_team
##finch
##finette
##anovel
hamburger
hamilton
hamptons
sophomore
##iemxx
anthem
anthrop
chrissy
susans
suffers
sleeeep
twittersphere
##lovespr
##lovesyou
##lovesjb
lexy
lexia
lexiloohoo
awesomeeeeee
discovering
competitive
kevinpoll
robertp
robertkaz
nicole531
nervousness
burneded
drews
females
jrknaught
kennet
kenzielee
mikedel
mikki_kay
pushplay
tasting
wxl
##dragon
##warming
##warren
##ancox
##stalterego
##child59
whooop
whooops
shanghai
limburger
planting
improv
improper
bruise
bruises
savings
##zzzza
##zzzzzzzz
rockedbypickler
camerontdf
pairs
media_mo
natalidel
discussed
performances
35mins
90s
bounds
deena
deejays
destination
dirtydiz
foxandfriends
ginjag
htown
hobart
hillsong
ivanaf
juno
jungle
opposed
rawk
rawrrgasmic
tatami
zachsang
##rich_wx
##pencer
##penguin
##police
##polkad
##polaco
##justice
##butt
##bbyryan
##winter
##651
##_xox
##face2
lizzi
heathershorter
##umenthal
claims
##aphone
swedes
internets
internship
hahahahahahaha
hahahahahahahahaha
despair
roasted
medicated
melissa_
melissa8
peterpolaco
miserably
miamiadc
electrik
lmfaoooo
07x
28th
alext
alexx
alexxx
alejandra
bsb
bonescra
csi_
dustb
dustbin
featuring
gmt
geehall
ie6
ie8
kyra
kirash4
niggas
roughly
raped
sources
sensible
sensibility
tinab
tisk
types
typed
volume
##peterson
##webb
##fyre
##iebud
amandalaur
##abeanz
##ffffff
clarks
clarifying
##lockwood
switching
retweets
simonusher
jessicag
##johnston
michelleblanc
cherrythegreat
processor
challenges
bahamas
boomstone
boomkatt
ceramiche
iloveyout
krys
krystal
meebo
mcrmuffin
mcrsaved
noob
nessa
nathanblevins
oohh
pitas
pitiful
pillows
pierre
ronin
ronald
ronenk
riverside
sowy
sowwwy
sowwie
tesla
testers
titanic
titothe
tightly
ummmnnn
vivi
vivzy
vivienne
##evil
##evol
##greer
##greco
##jessica
##matai
towels
soaps
soapylove
sociology
liesgirlstell
limegreen
outfitters
brittney
blowin
blonding
growl
grrrrrr
grrrrrrr
drummers
drumstick
scotts
applaud
smokes
smokey
smoothies
smoothness
teleport
telemarket
contentwhore
spreadsheets
popularity
stephenhartley
nikkic
nikkipilking
bubblegum
jeremycow
48am
bastos
bastetass
brewers
dsi
dsds
fires
jsie
khansera
mooorning
moochergirl
mousebud
mushrooms
nurses
pdf
pd1001
tennant
underscore
wicked12
yermilla
##ridley
##tracy
##vania
##iasm
##janette
##cullen13
##cullenxo
##bishop
##melody
##macy
##757
##eemah
andreashale
soccergame
shipwre
lizridley
##rageous
exercising
exercises
funnier
##audrey
greeting
groceries
cockat
cockney
cocktails
seatbelt
crispy
crispies
playerstation
embarass
embarassing
sniffles
medscholar
karenalloy
politico
error505
,,,,
charlieboy808
allyyc
aaronob
btches
busting
cuzz
coboyf
cultural
dyeing
ethics
ethnic
fearless
fifty
jacobs
josepicardo
javierchua
lulion07
luluberry
ozdj
sdweathers
txtin
##gamo
##gaming
##runetti
##juist
##buzz
##_game
##_foster
##_fear_me
##foods
##foodie
##folk
thesimsh
##oofi
halt
halib
shaddybaby
shadowsinstone
fredwilson
chased
chasingsunshine
supers
suitable
combust
twittascope
brilliantly
splash
splurge
##aahed
pockets
monica058
whoaohno
scanner
divine
divarina
urbanfly
sneeze
sneezes
sneezed
!?!?
jerryshaw
jerseyz
typically
jenniferd
martinhavl
signings
aussiemcflyfan
anthony_y_
aidan
aidadoll
bamablock
buckhollywood
curls
cornwall
dkmash
dkmatai
foolish
klaud
klutz
maternal
maternity
nurofen
nurburgring
noodle
observation
punisher
pianist
rscheuer
rpg
settled
taped
tapulous
tapeworm
villains
##nkotb
##gabriel
##jdavis
##jaca
##madman6
##70s
##oustillhere
thelma
shrug
shrinking
lilyginny27
cheeses
cheescake
references
plugged
amounts
maheshk
mahirap
blogher
greentm
greegreece
approach
approved
hoorah
emotionally
snuggie
##whitehead
provider
provides
provided
providence
contracted
synced
caitie
caitling
caitlin
professionals
!!!!!!!!!!!!!!
correctly
correction
translated
irish1974
hookedon
optional
##words_c
##addicted
lemonade
4vw9
bingo
bingofuel
cre8
gilbert
gilamuffin
kpatth
krispy
lonley
mosque
mosquit
manga
mangoes
noooooooooooo
riskybiz
roger
~~;(
~~~~
##geezy
##points
##judd
##corner
##brave
##bear7
##wilfred
##westbrook
##eeshman
hacker
##engrey
membership
rejects
##theman
##themoon
protection
prototype
aliens
aliwise
immense
savfort
tradehub
selective
sweeet
quincy
quarant
quarters
scriptgirl
adoreiii
dawg
crazier
tracecyrus
traceyh
preparation
stevens
stevenbward
hmmmmmmm
colouring
colourful
puppet
mmmmmmmmm
##paula
wolfchild59
##stephens
##harrison
dutchrud
ultimatum
decemberists
developing
aahh
ayeblood
crowdsourcing
dumped
eek
hindu
hinder
hockeygal
jcubed
jdpeterson
jakeashley
jakarta
kasi
mlb
mason
masks
munchkins
misterpertur
ncremins
oregon
rotting
rotation
waaaah
zeke
##ninja
##horia
##safe
##panag
##walker
##zo7
##orrent
hawt
hammock
income
incase
incense
fortune
stunned
megan_
shaky
shaken
franca
franner_t
choices
morrison
morrissey
awaits
##ffeur
willingly
slammer
slamming
democratic
safety
cocod
codemon
##agrl
##agrant
##agreen
admir
kiddin
kiddshow
employer
employees
elizab
elizapat
resistant
##nnnnnnn
##awaii
samanthad
publishers
cornerstone
broadcast
transfered
transferred
##babe4
hollie__
violet
violent
violence
generaltekno
wendyand
wendywings
chelsea_playboy
>.>
bulky
bulmers
battleground
durin
durian
dimple
feck
february
gumbo
healed
josette
kamy
lancaster
ledge
lamborgh
mnth
m8zf
mz5th
mentality
nunu_b
pirat
pennydog
rrod
roux
ratty
ricerabbit
ravels
wrapper
yeeeah
##hunter
##hungry
##hunters
##rossi
##ucci
##uccess
##uccino
##deeone
##bathija
##willow
##mesis
##modern
##98dave
stealing
sodas
sodahead
shawin
shawty
shawtys
withdraws
withdrawal
candic
representation
praising
prawns
alpine
organic
organiser
sausages
followsavvy
sevens
seventh
sevenspoons
separately
leighanner
croissant
flavored
##project
##promo
smacked
smackdown
##brody
bushes
hungary
crystalmar
crystalchapp
concentrating
graphics
johnnydeppnews
##rrrrrrrrr
informative
hollywoodtv
##eeeeeeeeeeeeeeeeeeeeeeeeeeeeeeee
##youngs
progressive
michaelmknight
emma300
silverstone
brendan
sleeepy
sleeeping
destroys
destroytwitter
lizzieiscool
lizzie123x
neglecting
aqui
authentic
beneath
caddy
cadbury
categor
gems
hypnot
ihop
jaztwitta
kinanlw
kaloka
kraut
kraken
ogveno
oyster
pasadena
pilates
pilgrim
pantone
pantry
panties
pacific
pacquiao
rqo
sassy
sassij
tidur
tidied
tammy
##guns
##o_pax
##hodie
##hodge
##puternerd
##pattz
##collect
##bullets
##weekend
##555
##omorphic
##styles
##eteria
##christine
##christopher
sobk13
shells
frosties
suziperry
allahpundit
princeofc
brandywand
brandystrippers
miss_ottawa
missxu
groovy
trent_re
carrots
advertise
advertising
advertisement
mariqueen
margarita
margaretcho
smiley92
travisgarland
believing
believes
educated
##unkyone
##hhhhhhhhh
complaints
barrymanilow
darrenj0
meltdown
insomniac
responsible
patricklang
##worthy
pursebuzz
databases
devonsteb
kimberley
temptation
kristenstewart
##((((((((
butterflykate
lesley_m
lesley007
murdered
anxiously
allysont
materialistic
awkwardtown
williamsburg
1995
bbyowls
bouncing
bwahah
cathjenkin
dorzki
drowning
erikar
erikveland
fnr
fnoo
fcuk
gangster
geneva
genehig
irresp
jiay
jogs
jogging
jaredmaine
konghee
lrpw
lahiran
lacrim
laccbon
lacroix
mimis
mizfitonline
mccain
nimbup
nhibernate
occup
occured
pedd
pedro
powder
persu
persist
perspective
santi
santos
tissues
tucker
vogue
vodka
wookiesgirl
yukiho
##listed
##reads
##jersey
##copy
##copic
##widow
##_in_love
toilets
andremichelle
andreanbc
influ
inflight1
meatballs
mellalicious
melluffsy
##amorous
##alogue
!!),
dodger
dodging
dodgy
twibe
chinatown
reallly
realllly
predicted
alancarr
loveliness
declare
declined
##ello92
sacrif
cocoa
vegetable
scenes
scenie
scenario
##photos
uncond
marianne
smokin
rainbowanne
lappytop
familia
skateboard
tracymacy
##avis1914
highlights
provide
provoke
hopelessly
macarons
epiphora
legitimate
jeanette
harley_dude
unfortunatley
produce
audiopr
fundraiser
garrulous
garretjirou
nikkiwoods
portugaltheman
positioned
tornado
cooperate
shelby_says
galaxydazzle
conditioning
opportunities
goooooddd
jewelry
jewel_lia
innocence
dylanxtra
42nd
70s
9412
aunty
bailed
caca
civilis
dynamic
fotos
gibb
hudson
hogging
izzyj_
jillvee
judyrey
kg86
kanoa
kennedy
kennedym
mbp
munir
munich
nasa
nascar
nadine
norton
nippysweet
pgpm
ppittman
royals
russian
railsbridge
tayla
tacky
tessmorris
teles
telstra
tangible
##girly
##hardy
##talks
##potter
##courtney
##milife
##machine
##machina
##_spn
##_spork
##f3f3
##qe7
##zuela
##====
threaten
threatened
##erincharde
tourney
hazard
youuuuuu
youuuuuuu
##ascoe
sosolid2k
lifted
dolphin
reinstalled
sudafed
comet09
##thaessica
almighty
ambience
ambien
##estarred
bruno
##ulkner
dean_b
deanomarr
funkylovin
waxed
clapton
grinning
grammar
grubby
sailor
sacred
bethbabe4
critic
critical
critique
cramping
##fred6
dannysghirl
dancin
danceashley
skiing
trekky
trekkerguy
instruct
##annababy
grabbing
xxxxxxxx
angiemartinez
nicolerichie
rafferty
absolutley
##jeanine
larrybenet
depending
dependent
.........................
olivia
oliviamunn
victoryhawk
cuddles
optimistic
pampering
virginity
stripey
tutorials
hehehehehe
championship
cigarette
citizen
dissapoint
rebecca_
cynthia
cynthiay
astynes
austria
aaaaaah
beads
bikini
battles
bkkrak
cordova
dunkin
ezrabut
etherreal
ferris
fascinated
gentleman
gentlesinner
hanster77
izzard
kathyireland
lyssie
lenses
mashup
nesse
nichol
natsnapper
natsmith88
niqa86
oakland
pouting
pauld
popsicle
rbmartin
rfid
ruler
ruling
rssanborn
ribena
teeny
ttyl
voci
voices
vmware
variety
venezuela
wethedan
yeeeeah
zoeloves
zojuist
##gelman
##leaf
##lalayone
##help
##helpm
##rt3r
##rpc
##beski
##birth
##bakidz
##wb0
##mellow
##_yours
##_anderson
##killz
##>>>
##anicole
andysowards
invented
inventory
stampflitur
##amarie
goatzilla
analytics
analystalterego
heathrow
heathfox
cheaptweet
nellagrl
##through
##thelab
donnyosmond
makikaysantos
breedimetria
##obbins
newborns
howardlind
claires
orchid
orchestra
##apanama
polyester
overheard
overheating
leopold
scraped
scrapbooks
##shirepixie
diana_tr
##brandt
companion
endlessly
postpone
snooze
hairdressers
superbad
mummies
premium
steff_ble
retirement
ashleighhh
!!!!!!!!!!!!!!!!
!!!!!!!!!!!!!!!!!!!
!!!!!!!!!!!!!!!!!!!!!!!!!!!!!!!!!!!!!!!
brodyjenner
hilaryjp
elevate
elevator
elephants
proposals
stephanierhen
stephaniemxx
wallpapers
daveyboyonline
...............
................
formatting
##dreams
scottrhodie
dominos
tattoos1985
ankitbathija
advantages
##oooooooooooooooooooooooooooooooooooooooooooooooooooooooooooooooo
tradinggoddess
yogurtland
firmly
##00000000000000000
******
investigate
investigation
investigated
adoption
yikes77
melodyleal
environment
bouvier
buchaut
dnb
doughnuts
dahling
doomed
eugenia
eugenechua
fjkeogh
faux
fondue
fernanda
fiddling
gcse
gorilla
gulpanag
gathering
gooooooood
goooooood
heeeey
igob
jurassic
ksdaisy
kylieireland
lurgy
migre
phaoloo
puddyn
puffs
patsy
pondering
rx8
rx2904
reruns
vitamin
wealthy
##nicki
##tothe
##pooh
##poole
##dpf
##betts
##musik
##_twit
##kasplash
##films
##zt72
##inthecity
thousands
thriftymommy
##eron2002
tottie
tottaly
##atthedisco
thecompletes
thecomputernerd
##escobar
##is_here
##ischen
##chelsea
sterling
steroids
stereophonics
stapler
bebeisis
meinj
athens
athlet
##heroine
chowder
chelsey
reyes
reynolds
platform
pleeease
makerfaire
imjustcreative
imjustlalayone
knoxville
association
associated
twiterfon
brutus626
##ummings
blurry
bloomington
nightshade10
defend
defending
##oyoly
ohmyj
gratitude
arielleg
poisoned
scooter
cramming
sunniest
sunshines
##aken77
adrians
adriana
adapted
adaptation
marvelous
marvelvscap
smfh
smashingpump
joesgag
littlere
littlestarred
diagnosed
davedays
chezery
omarabid
##spiral
strategy
strategic
structure
accidently
accidents
mrssosbourne
mrssprouse
assuming
assumes
erockett89
chillaxin
contemplating
indivibe
woohoooo
bball4life
ladybug8320
sprinkling
geocache
geocaching
rafealanth
vacuumed
cosmicgirlie
giggles_xo
producer
##------
elegance
rollerblading
hatz94music
integrity
voicemails
deposited
deposits
kayleigh_stack
troubleshooting
ignorant
ignorance
malaysian
reflective
seminars
validation
:::::
festivals
festivities
kiyosaki
kiyoshimartinez
ninjafanpire
symphony
symphnys
?!?!?!?!
48hoursnz
##builder
##building
alternative
alternatives
primaveron
enthusiastic
enthusiasm
ferretprincess
lalalal
lalaland
##hughes_
repeatedly
!~~
1million
2nlc
4fzo7
<->
aaaaaaaaaamazing
aileenwilliams
aileen2u2
baaad
bernad
bern_mor
cussing
deaf
dmafia
emsy
gillianre
gavinholt
jumbo
jagger
jubilee
jensara
kazim
kmancob
kman_19
licking
lushltd
litterally
mdur
mxlcuv
mesmer
meagan
merewichdab
nirvana
nazi
nettles
pesky
popeye
pmsl
pattinson
rlich
rasberries
razer
sianhughes_
tyson
tiaantjee
uppp
ulcer
ulcers
vh1
vwll
vespa
voyager
vixster25
wwdc
yaaayyy
##guru
##lifesast
##husband
##tneykardash
##iapunk
##punkmom
##jinx
##cribed
##yorker26
##boucher
##brianna
##010474
##_moe
##_of_
##function
##zenski
tove_liden
thespunkyone
##ayayay
##arenee
haunting
mynameismo
megspptc
loldarian
shahr
liberty
liquor
liquids
frasier
atomic
cheskiebear
cheetos
chaubella_
chauffeur
chloes
neuroanatomy
alliworthington
outdoor
outdoors
##thestars
nodding
pleeeeease
##rachel
##raveler
mazda
img15
timothy
missjo_ladie
##umiere
##alleled
evernote_eye
##hhearts
splinter
external
dehydrated
clogging
grinding
everyoneeeee
drugged
arrrgh
phpmyadmin
hassle
enchil
enchanted
baddestn
scalzi
sunbathe
unhook
unhealthy
unplug
uniqueguitar
adambusch
madinafire
##myhello92
smelly
hippiekat
eventho
eventhough
omelette
keepinupwk
lyndon
disapointed
discrimination
danabrunetti
embrace
buenas
buenos
##crashhearts
skyping
skylit
resigned
photobook
recipes
recipient
boiler
retainers
##cliffe
lilxcutiesworld
erniehalter
douchebag
##ngerlor
barbara
googledocs
laurendaymakeup
relatively
xxxxxxxxxx
calorie
preschooler
##marshall
melancholy
lauraduha
4jg09
feliciaodg
hummingbird
misstaken77
vaccines
miizronnie
fuzzball
garethcliff
discouraging
discouraged
brandiheyy
angelicav1
positron76
cheerleader
cheerleading
steve_berra
debbylovespr
hysterical
lifestyle
nosebleed
nosebleeds
bubbletweet
mercury
mirandabuzz
##magnus
octo77
kirsty_h_99
arrangement
symptoms
sophiaf3f3
linz__marie
07k6
oxymoron
oxygen8705
georgielockwood
jenniferlai7
subscribed
subscribers
lollipop26
predictable
garrettmaine
##0o0o0o
mastersavage
clumsyflic
robpattinson_
robpattinson444
invalid_reality
determined
determination
architecture
geelong_fc
lopezwilfred
spontaneously
eurovision2009
%),
((((((
320gb
arikhanson
bishop
bristol
c0v89
centers
crikey
censoring
dilated
dandineen
dazed
dakota
eternally
euphoria
eileenright
fwiends
fiona
fuuuuu
giselle23
gourmet
gauge
gooooooooood
hnprash
horde
ihave
jaylink_
jmlares
kurang
kubuntu
kansas
kohmah
lennon
ljsbaby
mulch
mgmt
noufah
neeed
obligations
opheliapunk
pennsyl
rjramos
roland
sookyeong
sashimi
sincerely
tifa
tynisha
vjartist
vasilly
vrooom
wvbr
wannabe
xhaylee
xjakexchaos
xmylifesast
yankees
zimmer
zemote
##e4real
##nibblets
##lazar
##oouoou
##holland
##history
##tosing
##victoria
##iwoe
##control
##bastian
##blair
##moyles
##_1210
##_0981
##fingers
##2776
##>--->---
##@#$%
##inibow
##inthesky
theraj
tokio
thefifths
thedailyblonde
##llirva
##ara__
##isseur
mycaricature
initial
insects
inherent
...***
whitsun
bex_1210
mechanic
shtoofi
dayzie63
##unningham
frisbee
frappuccino
frugalgaming
twiggas
candidate
chorus
chubby
chachi
choppers
chesterbaker
remy_foster
reptar01
reggae
recruits
rearranging
nemone
allegra
##thoughts
nocturn
nostalgic
priscilla
albertposis
amyyvee
donttrythis
##estruck
abduzeedo
brennan
bronte_saurus
missdeeeee
missshannababy
##navarro
officiald
its_erincharde
itsonly
spayed
spectacular
mollie
moldovan
sleeeeep
delegate
decreasing
degeneres
dramatic
arthritis
heresmyhello92
phoebe
hashtag
energized
consequ
##angoddess
vehicles
poems
manicure
themakelounge
overwhelmed
swelling
whoaaitskristi
oklahoma
scrabble
uniform
unintentionally
aditya
adrenaline
adjustment
marathi
marebear521
##proxy2
hi_im_chris
taltalush
urbana
lautner
##fraser
disabled
dislocating
composition
yaeljk
emz2009
bullyosullivan
##credible
bootleg
skillz
skydiver
traumat
travolta
eliminated
clemson
tauren
tactik
totalled
crystaaale
reconnect
rocknroll
addicting
stevico1
roar_fear_me
rochellewiseman
lilazng
controversial
msnewyorker26
4w7yp
currency
midterms
shortstackband
reluctantly
xxxxxxxxxxxxxxxxxxx
calculus
cafeteria
causeee
darealtinat
bumblebeex0
collaboration
microbes
netflix
67h72
colossal
columbus
karamat
nic0pic0
jaycees
nattymsmith
iamkhayyam
significantly
chrisettefan
inserted
greensboro
pinkberrygirl
correspondent
broccoli
mixtape
heavily
transmitter
technician
veronicas
purposely
intrusive
nikhilb
portraits
impersonal
emmielovegood
bacteria
oliyoung
jefferycjordan
jeffreecunt
autographs
increasingly
nkotblorib
frequent
casparterhor
jaimemcknight
tabbycat224
westendactress
geekysteph
rhymes
smartie999
ultrasound
pamela010474
sheriffs
icametumbling
chemicalbullets
suspicious
licensing
reemerband
volunteer
amandapalmer
jessicasimpson
##matthews
faithfulchosen
undeniable
jacquelineste
vautrin
kelvinlls
thorney88
immobiliser
savagemike
tracey1972
oreosandcheese
pandamayhem
fortunately
chantelleaustin
kevindavis1914
bmthofficial
ravenous
johannabee
aravindkumar
prioritize
carrotmadman6
disturbance
yaseminx3
magnolias
ingredients
introducing
claudiatan
werewolfembry
dominicalevina
cesyeuxble
##familyuk
mopedronin
qdoba
backseatgoodbye
orthodontist
robsessedblog
fallenstar_
esme_cullen26
fuschiafoot
shontelle_layne
unbelievable
marijuana
1sweetwhirl
2maro
2mrw
6moredays
6fgxd
:^)
<('
^-^
_aislin
_handz_
_bella_cullen13
aonir
asterion
a_nobel
axsujx
aldenpolicar
bipolar
bpekk
b25651
cchiron
cemetary
cmyk
cianan
cebu
culinary
cbrown7785
dindin
dilemma
deeeesearted
dennis
duchessamy
edsaint
eastern
egsa
eeeeeewwwwwwww
etniqminerals
elysion32
eeshkapeesh
fickl
fossilof
faaaaar
fountain
fiscally
gtfo
hgtv
hiphop
ipswitch
igloo
ialejandro
ijustine
j2thaessica
j3nn1e
joomla
jertronic
jannarden
jadeeisabel
janae24
jclayville
jentheginger
jlojlo
kunal
kalliet
kourtneykardash
kangaroo
kkkrista
keshia
kmc1121
kernel
ketchup
ketauan
l7zt72
lainey
lrsng
lamesauce
loooooong
lumberjack
m6sru
meryreino
mneylon
mennard
miffed
moustache
mswilliamsmusic
neenz
nvidia
nuthin
niamh
oracle
oberhausen
omaha
oatmeal
pllleeeaa
pamslim
pugsly
qljyb
qwerty
riveting
rblpn
rina_spn
rgoodchild
smores
sondra
siempre
tldavidson
taufiq
tupac
tccrt3r
tizzik
ttfn
tferthomas
tamij
tiesto
vardenrhode
vincent
vzerohost
velf79
vmarinellirva
wrecked
wabble
wardrobe
wiping
wieters
xlesseyx
xennyeh
xanderprod
yacht
yashved_2
ykyat
znatrainer
zobi09
##hamsingal
##vodka
##vondoom
##possa
##uicide
##mcleod
##xpert
##kramer
##fiasco
##|/-\
##inatra
thamissus
thakkar
topless
totaly
torie007
to_the_moon
##original
theengteacher
thedebbyryan
theguigirl
thegoodhuman
thewinevault
thepresidentjx3
hafta
mybrute
myfabolous
myuze_me
inotherwords_c
inhaler
ontario
##chumfm
isapersefone
forensic
##aslattery
stimulate
sogni
socallove
loisheilig
shaaqt
shubhamsingal
sheeeeit
shibuya
shanajaca
shropshirepixie
librefm
lilemoboi
wegmans
butbutbut
fridaay
justlikeanovel
ankeshk
anjeebaby
anonymous
anisalovesu
notifications
notdiyheather
athletic
twtvite
canadamigos
cholesterol
challyzatb
chupach
chicalit
rejoice
rewrite
relegated
neillavin300
allianz
allearsdeb
allthatglitrs
comforting
##thatsme
noel4president
presten
prtyprincess
protein
pradeepto
alumni
albeit
aladdin
amateur
ammoxxx
amorsote
amydewitt
ambitious
ammaryasir
ambiguous
amymonzon
aminorjourney
gottfried
mortgage
lovemedown
lovelovelove
mavinbkk
implement
ashington
ashhh_x
asfaq
timminchin
abroad
abbrevi
aberdeen
abigaildsou
bratinella
misscokasplash
missgiggly
misslaura317
##elgiuq
lolzyluvsjb
oneofthosefaces
##ntighee
didgeridoo
newspaper
newjabbakidz
its_sb
itsgabbith
itschristablack
itsmeamerie
sponsor
spielburg
moistur
moanasaves
mogwai
thinkreferrals
blkademic
exocetau
slovak
sluggish
sln25373
aguilera
theyotesdiva
ohmonika
ohsweetnibblets
guillermop
waikiki
twitterfridge
grcrssl
greaaat
fakerparis
faulko1
lljessicall
llcooldave
orbicule
drupal
drronvondoom
dr_jared
dr_crane
saurabh
arjbarker
energetic
trvsbrkr
connoisseur
conspiracy
pochaccoyoly
badmicrosoft
whyareyoustillhere
manhattan
seventeen
seantherobot
leprakhauns
leftover
carpenters
quesadillas
headhardhat
sccr18
scavengerlor
crumpin
crooning
unanswered
unparalleled
unpaid
unbreakable
playforkeeps
saynerd01
adawada
adelaide
marypascoe
mari_possa
maritzasylvia
mareyachristina
madamsalami
madpierrot
madsdeguzman
flahmanow
##percival
heynadine
smushed
girltrumpet
awesomeann7
hijacked
hihat7
jofarnold
littlegigigirl
wretched
davestyles
dawwwwwwwwwwwwn
dai_bach
activities
lailashah
helsinki
heltershelter
interrupting
idratherbeski
hotspots
hotpants79
anotherjulia
household
livejournal
realconformist
discretion
disgraced
perpetual
hellocuppycake
teeribbzz
danipoynterjudd
embedded
warhammer
warpdesign
remarkably
babystowz
bootcamp
tinylegacies
travesty
godawful
elvishsiao
1045chumfm
sweetavalanche
sweetemmaxxx
drizzling
jonconnelly
accadentally
accumulating
givemestrength
summertime_grl
hairspray
resteraunt
taipei
superglue
mrohboy32
mrdeniro
mrjaydeeone
mrjrgregory
mrfloydnl
xxlaurenbeexx
xxhazelxx
rockdamullet
trellthms
preoccupation
fooddesigner
killzonedotcom
charavel
undergarments
ann_aguirre
annamessias
annainthehouse
keiyaunna
edumedia09
edstetzer
ladypn
horrendous
redbaff
redskins
redhalo_pax
red_hawt
lilmarshmellow
ericajo42
sethhs23
terricook
jameshancox
jamaicapanama
tvtotal
mscatou
msalonen
robineccles
macadamia
macmuso
blackhawks
4w52z
davidaldrich_wx
david_kaufer
davidspruell
acmcwhale
saraa_xd
sarabareilles
barnsley
computermuseum
sambradley
samluminate
graveyard
laubow_
laurelexmachina
mindy979
jonaswebcast
openhacklondon
milosundae
bankruptcy
prescriptions
confessional
djgigidred
mileycyruuus
avrilchan
mommy41402
catwoman123
medbotjinx
ladylove88
artfirejohn
jackfaulkner
jackgraycnn
6714p
67tp9
ashsimpsonwentz
nicktionary
nickiminaj
tom_pollard
karleemay
100000000000000000000000000000000000
natdcook
fixreplies
giblahoj
iamkiara__
thermometer
thereallilza
therealyungberg
chrisdjmoyles
chrisjlovell
bandwagon
green_i_girl
huma_rashid
kat_kittykat
geometry
rajasen
bracelets
brabakr
wordcharmer
blue_cupcakes
bluecat7
philadelphia
ben_stiller
justinbrighten
sarahjpin
sarah6800
sarahjacinta
cyrandorman
mikefrizzi
keylahtia
entreprene
mathewsanders
stompthewalrus
matt_vega
solobasssteve
paulamackay
6695k
sanjana_58
darklord1
tyrese4real
1864ml
oohlalisa
daveg38
walkinghorse
docbaty
deviantlysweet
engulfed
eyeficard
billingtonart
fatbellybella
labarceloneta
landscape
rainycitylove
discontinued
kimsherrell
dannymasterson
dannyjclayton
jenrolton
katecameron2002
lisatalkingtots
portsmouth
##_rc234
deathwishedx3
death_by_spork
clothcouturellc
jasonmitchener
public_timeline
irgxana
jkreeftmeijer
shinjuku
eurodjangocon
janine_j9
kayenchante
jefftracey
krist0ph3r
piginthepoke
amyxstftk
bowwow614
sirreigns
akomuzikera
bonnaroo
rosieeejones
ilhongy
wkjthd
ericludzenski
ericmillegan
brianlimond
jae878
majorspoilers
valerie2776
xo_mcflyandjb
andrewgoldstein
geekwearsprada
loribartolozzi
lindentreephoto
poojarazdan
dublins98dave
fiascowines
shereemcfly09
koifusionpdx
kricket_rc234
que_day26
danielradcliffe
candypants2
nerdatcooltable
cassivellaunus
dujourmag
derbyshire
meg_la_mania
wendy_fred6
emilyyoung09
handlewithcare
multitasking
nliukin
anthropomorphic
kevinpollak
robertkazinsky
kenzielee_
mikedelgado
mikki_kayla02
limburger2001
media_molecule
natalidelconte
dirtydizco
ginjagin
melissa808
bonescrazy24
ceramicheart
mcrsavedmilife
telemarketers
nikkipilkington
jeremycowart
bastetasshur
khanserai
mousebudden
shipwrecked
medscholar08
allyycase
luluberry_0981
thesimshub
shaddybabybitch
divarina21
jenniferdodd
martinhavlat
anthony_y_tony
bamablockhead
dkmashino
maheshkukreja
4vw9a
kpatthethird
mosquitoes
riskybizness23
savfortomorrow
tradehub21
traceyhewins
dutchrudder
ayebloodyright
jcubed1
misterperturbed
franner_tastic
codemonkeyism
elizapatricia
lamborghinibow
m8zfx
mz5thave
leighannereena
crystalchappell
categories
ogvenoe
pilgrimfamilyuk
princeofcode
brandywandlover
trent_reznor
darrenj0nes
patricklanglois
devonstebnicki
kristenstewart9
genehiga
irresponsible
lrpw1302
laccboner
yukihoang
andreanbc13hd
melluffsyew
audioprincess
garretjiroux
civilisation
izzyj_is_here
kennedymaine
nippysweety
danceashleylove
cynthiay29
bkkrakora
ezrabutler
hanster7705
lyssiecc
zoelovesarchie
stampfliturci
howardlindzon
diana_truong
steff_blehh
stephanierhenee
melodylealamb
buchautor
puddynface2
ariellegore
marvelvscapcom
smashingpumpkin
joesgagirl
mrssprousex
rafealanthem
symphnysldr
bern_morley
dmafiax
kmancobhc
merewichdabitch
evernote_eyefi
baddestnla
uniqueguitarist
keepinupwkris
lauraduhaime
giselle2323
hnprashanth
kohmahts
pennsylvania
xhayleeey
xjakexchaosx
xmylifesastoryx
thefifthsister
jeffreecuntstar
casparterhorst
jacquelinesteps
_aislinntighee
fossiloflife
m6sru3
taufiqz
yashved_2890
myfabolouslife
allthatglitrs21
abigaildsouza
!=
!+
!--
"]
")
";
"..
"??
"!!!!
#-
#@
#,
#..
#...
#).
$!
$%
$,
%!
%$
&!
&*
&@
&#
&$
&.....
&......
'<
'!!
'!!!!
(.
(!
()
(;
(,
(..
)'
)(
)!!
)??
*?
*)
*(
*#
*$
*&
*|
*,
*..
*!!
*....
*---
*@#$%
+.
+!
+&
+:
+,
,?
,'
,(
,@
,:
,<
,....
,--
,.....
-"
-\
-[
-...
.]
.(
.^
.:
.+
.????
.--
.((
.---
.!!!!!!!!!!!!
/*
/!!
/\/\/
0n
0l
0a
0t
0k
0f
0z
0ay
0om
0zy
0hhh
060
023
024
025
0eg
0gm
0wv
0l2
0oze
0b5
0ghz
0rpm
1e
1t
1p
1b
1z
1out
1aa
1thing
1mo
1cr
1of
133
177
1do
1123
1cor
1zs
1bi
1zp
1zu
1km
1tb
1vn
1fav
1zyg
1jared
1y2
1dire
1xts
2o
2h
2a
2v
2y
2or
2ur
2ce
2ind
2nt
2aa
2ag
2ny
2ft
2get
2sw
2me
2uz
2go
260
2for
218
299
230
286
221
2da
2hi
2do
234
2yr
2ser
2field
2twitter
2hours
2list
2mz
2dm
2stop
2hp
2u2
2kids
2215
2ghz
2888
2s1
2jobs
2toa
2flutter
2134
2people
3l
3h
3r
3s
3p
3or
3lo
3ys
3to
3gg
3sp
3are
3ds
3ale
3yp
3min
318
326
3bt
3mb
3mag
3ware
3ala
395
342
3break
364
3mr
3hours
3him
3yo
3easy
3o3
3aaah
3v3
3lbs
3squ
3pb
3minds
3a5
3milk
3asa
4e
4a
4b
46
4k
4ut
4ce
4ha
4us
4ish
4ge
4ph
4me
4more
4uk
409
460
411
418
420
4bb
434
487
4yr
4000
4real
4ev
4hrs
4boys
4hours
445
461
4qp
4km
4eva
4xv
4x4
4rm
4sx
4m9
4x1
4ttn
4grn
5e
5o
5h
5s
5p
5m
5f
59
51
5ke
5ry
5ish
5mm
5of
512
5jo
560
5yn
518
520
5je
599
525
516
5yk
5mins
590
527
5hours
5days
5sec
51p
562
5tb
5900
5t5
5m7
5ghz
5wb0
6j
65
6k
6ool
6jo
660
688
614
624
683
689
617
616
695
6gb
6nk
645
697
639
6hes
656
658
650
6500
6urr
6wks
6ireee
7p
76
74
73
71
78
7ar
7ag
710
760
777
718
7af
7ex
701
7bell
782
784
715
745
7vik
7mth
8p
8c
8m
86
8k
8q
8mm
888
821
808
805
874
865
8hrs
870
8101
8mz
82k
840
8qa
8900
8j3
8w7
8ahw
8short
9h
9r
9j
9_
92
97
9ft
9yn
911
999
9yd
916
9yr
929
965
9000
981
970
9100
957
9uin
9follow
9x0
98212
:?
:#
:<
:{
:**
;/
;\
<:
<====
=.
=}
=[
={
=((
=====
>?
>]
>=
>$
>[
>;(
>()
>>>>
?*
?-
?!!!!
?!!!
?.....
?<<
?!!!!!!!!!!!!
@@
@$
@>--->---
[-
[;
[[
[{
\\/
].
]]
]:
][
]..
]...
^.
^%
_s
_p
_w
_m
_x
_k
_f
_er
_ow
_en
_ch
_ad
_ra
_ag
_ny
_ah
_to
_la
_tw
_gl
_fl
_con
_mar
_pe
_you
_mmm
__l
__j
_ado
_light
_dr
_mic
_oph
_sl
_____
_jan
_mad
_call
_isn
_jul
_cass
_chell
_made
_care
_annie
_fre
_alex
____
_harry
_tan
_sarah
_ansh
_enzo
_chloe
_idance
_jayy
_kati
_try
_josh
_danni
_anh
_ref
_sml
_chelsea
`.
``
a2
a9
aat
aay
aes
aot
ake
ald
ase
aur
aand
aum
aul
aig
aob
auch
ady
aking
aap
aag
airl
aac
aeak
aure
ahe
aime
auu
aever
arist
avin
aoh
a_b
aene
achie
aries
affic
aoe
aki
augh
a_s
a_l
aami
aural
aost
azer
aund
aids
ajay
aero
aila
aryan
ajd
asex
ajc
aubs
ayoung
aghh
astor
aghhh
apicture
a0n
a48
aannn
aesthetic
a4f
aiza
a_war
a0p
aitn
ary_
aewang
aoki
a_web_d
bn
b_
bx
b3
b8
bz
bis
bld
bith
bim
bere
bce
bil
bha
bain
bate
bos
beep
bice
bally
bown
bfe
bny
bort
bph
bpr
bcc
bater
bto
bpt
bgg
bian
burl
bert
bcy
bfly
bne
bps
bbs
bde
bwh
bmore
bote
bals
bact
bhaha
bunk
bann
binks
bakes
bows
bfast
bmar
bops
biff
benny
b33
beeps
bitty
bsk
bgn
bolog
bmi
biiii
btv
b_s
binn
bbye
bails
bwr
b_l
biot
boul
bient
bx3
bwe
b32
bustin
bnx
bhan
bwl
bws
bero
b_t
bhr
bhs
bucky
bonds
bhl
bjs
bni
biph
bwi
bjc
bnl
bawa
bxa
batte
b0r
b2b
bhab
bampa
beeping
beaky
boooooooooooo
b0y
bzt
bilig
bbrush
baws
booooooooo
baaaaaaa
boooooooooo
b9v
bnever
baylee
bbrooke
bgeezy
c2
cq
c9
cing
cll
cet
cic
cse
cun
cim
cain
ciss
cead
cna
coy
cking
cip
caz
cah
cort
csh
cug
ccc
cci
cii
cms
cull
coom
ccr
cward
coney
cib
cps
cfu
cple
cde
cuu
cush
cote
cember
cici
cked
cyp
coooooooo
ceee
cger
cees
cade
cages
cera
ceas
cmon
cinc
c33
cmin
ciel
cunt
caine
ckin
ctv
caster
c_d
cbb
cbar
cazz
cient
c25
cbee
czer
creme
cgi
cbed
c76
cullen
cjam
ceased
cushing
cjs
c64
ceem
ckd
c73
cement
caga
cnk
cbd
cbra
cbear
crip
c63
cager
caching
cfi
cfree
cmz
cxi
ciner
crizz
celine
cgold
cjt
cmal
cmont
cdev
cimm
cuuut
cinel
creyes
cjewel
cqc
cstm
cspin
caaaaan
cujx
coty
cakin
cierra
cowering
cumbers
cmagnus
cunningham
d6
d2
d9
d8
dll
dnd
dic
dha
dink
deet
dff
duch
dame
dau
ddy
doooo
dive
dlo
dach
duff
dble
dbr
dord
dats
dzz
dary
dbl
daaaa
dbs
dde
dload
duu
dym
dmore
dush
dict
deee
deek
dics
duk
dages
dilly
daaa
dense
d60
dwood
dots
dya
dunt
dstr
deez
dusted
dler
dilli
daaaaaaaa
dicks
deap
dotb
dili
drown
dali
dahl
ducky
dxs
dfg
dander
daph
dluk
dsth
doof
dims
daaaay
dnk
dchi
d1q
dante
dpi
daps
diction
dyer
dingo
daze
d300
d4h
deder
dhair
dwhel
daughtry
dgree
dspecial
dantas
dastasia
dyson
dcastell
dsml
d792
dworlds
dwestbrook
e0
e1
ein
ean
eit
eck
ead
eam
eill
eun
eim
elly
eink
eab
eos
eum
eeep
eeet
eine
eally
euch
eau
efe
eyy
eph
esh
elf
eey
epr
eater
eci
eather
ebr
eash
eman
eens
eco
eave
eved
eesh
eppy
eject
eany
e__
ecle
eche
einc
esk
ekin
euc
eston
eeeeeeeee
eje
euth
euh
ewr
e_l
egy
e83
este
eov
ewk
ecas
eaj
e44
eeem
ejc
ekkk
eoi
eager
eerie
e2b
echt
ealing
eabear
eblond
elder
emax
echarlotte
ehhe
eassy
eeeeeeeeeee
ewwwww
eedawson
eidol
ehehe
e_diva
echs
eitha
eallen
eisted
etonline
eavy
eboogi
fd
fk
f2
f9
f8
fou
fow
fis
fet
fen
fle
fid
fome
fim
fent
fack
fain
fink
fand
fos
fff
ful
foll
foooo
fiend
fang
fist
ffe
fiz
fsh
fug
fma
fure
feeee
fend
fian
fof
fats
fier
fok
fuu
fhn
fds
foh
ferg
fyn
fiel
foe
fkin
fused
falk
fowers
foul
fxxx
fists
ferry
fcked
f_n
fenter
fxs
fstre
feta
fuses
ffrom
faded
fhm
fika
fkkk
fnyc
ferd
fetti
fcharl
fading
fischer
faints
farting
fulf
fuze
fopr
fooked
fangs
f0ll
fuming
fennel
gv
g4
g5
gk
g2
gat
ges
ged
gow
gle
gly
gad
gday
gth
gha
gant
gate
gout
gong
geen
gaa
gag
gny
gaz
giz
gcc
ganna
gss
gxx
geal
gpt
gii
gta
gint
gord
gman
gooo
gby
gert
gable
gne
gav
gsw
gbs
gves
gals
gayl
genn
gale
giver
gump
geb
gees
gerg
gera
gjo
gai
geas
genny
gya
gba
gpa
gips
gknight
gara
ggs
ginn
gails
gains
goul
gamb
ganda
ghi
galia
gimp
givers
giii
gwe
gmas
ghal
gjr
gils
gala
ggen
gaaay
gparents
gimi
gazing
gsn
gjer
gators
gaaah
gaze
gashes
gnar
gjv
gwp
g_e
ganz
gaston
gaging
goooooooooooo
gyah
gordon
gooooooooo
gaskar
gjq
g4p
gedan
ggggggg
gastr
g3o
gtta
gandang
g00d
g11y
hg
hs
hz
hin
hou
hre
hse
hone
hink
hart
heep
heel
hig
hice
heed
hhh
hoy
hup
hue
hose
hma
hble
hoke
hooo
hign
horm
hana
hcl
hayl
hhhhh
hesh
hiness
h09
h60
henny
hpe
hja
hky
houn
hva
h14
hides
hda
hden
heeeee
hhi
hrd
heeeeee
hicks
hitten
hws
hwilliams
hano
hhs
hbn
hhil
hwy
hstreet
hbd
hanny
henrie
huuu
hanks
hlt
hlj
hxc
hsg
hlyw
heston
hhig
hcole
hoooooooooooo
hifi
hansen
honda
hl2
hsub
hfw
hansie
hooping
h269
ib
i_
ix
i3
iat
ies
iar
iis
ien
ile
ike
ight
iad
iun
iver
illy
iop
iri
iand
iff
iig
idy
iem
ixt
iber
iia
iod
ians
ipl
icc
igg
iank
icy
ibs
ikk
iont
iama
iyl
ilic
icing
iren
iye
ioe
iga
i_d
ils
ilife
ilu
iza
i_w
iloc
ivs
iiii
iht
irah
ianc
iweb
iblue
ian_
iyo
iloved
ibeat
ibg
i36
ibiz
i41
icharlotte
ibane
ijm
i0n
i420
i900
isthem
i733
iaret
ilost
iloven
ibex
iplayer
ijanette
j6
jx
jot
jth
jel
jmor
jell
joooo
jive
jber
jia
jah
jpl
jts
jsp
jms
jare
jton
jland
jne
jib
jps
jbs
jfl
jale
jcon
jits
jrs
jmar
jair
juk
jene
jyn
jandy
jeeps
jfer
jars
jho
jpa
junt
jkin
jboo
jtv
j14
jls
jwr
jester
jsm
jarm
jape
jax
jrob
jades
jenty
jmas
jhall
juuuu
jjr
jipped
jsl
jaron
jhay
jlynn
jmel
joman
jaker
jcd
jmike
jlam
jjud
jmr
jockey
jvm
jfab
jgm
jhy
jwill
jlj
jolla
jglass
jwd
jmcc
jwp
jotton
jmorgan
jg3
jl0
jumps
jender
jgurl
jvb
j_st
jader
joper
jiah
jaws
jmichelle
jhughes
jfb
jeln
jools
jkeith
jhicks
j4o
j1s
jzw
jalen
jishan
jtype
juga
joooooooooooooo
jlovely
jcharming
jgreco
jyoungs
kv
kb
k6
k3
k1
k8
kee
koo
kve
ket
kie
kha
kain
kab
kart
kum
kong
kard
kite
kear
kem
kww
kag
kile
kia
kass
kac
kbe
kto
kather
keal
kond
ksp
kwn
khe
kian
kurl
kare
katt
kates
kina
kase
kro
kual
kmer
kinks
kately
korn
kree
kato
krs
kair
krrrr
kjo
kels
kai
kcom
kho
kya
kba
kye
kpa
kpe
kitar
kstr
ktv
kaf
kazz
kost
kween
klee
kdr
kmart
kices
krown
kadd
khan
kkkkk
kht
kwl
kjb
k_t
kutcher
khs
kuj
kona
kittin
kalo
kknow
kela
kdc
kmac
keem
kisha
keels
ksy
k_g
kadam
kacy
kaki
kaching
ksn
ksat
kwee
kinky
kysp
kunky
kews
katte
kbal
kreative
kaka
komen
koda
kvb
kdp
kboom
knda
kchas
kiana
kbang
k0n
kfb
kouz
kilo
karting
kassie
kurtis
kvag
kuil
kooz
kedge
kables
kupcakes
khayyam
kiso
kfff
kanye
kgeezy
kawaii
ln
lp
lw
l0
lx
l2
lq
lz
ling
lll
lom
lve
lut
lke
lly
lome
lter
lent
ltt
lish
lel
lum
leet
luch
lough
ldy
lking
lown
lub
lug
lcc
lbr
lank
latt
lates
lory
lark
lurk
lng
lann
lpm
lron
ltr
lmon
lwood
lba
ltc
lboo
lmi
lmc
lino
lram
lomb
lwr
lester
lago
lured
laces
lunes
lrol
laaaaaaaa
loooooo
lvs
ljr
licked
lhr
linger
llll
lken
looooooo
lidd
lvt
lante
lager
lpi
lbig
lti
liddle
llda
l4d
luto
lumpy
lusting
lanky
loooooooooooo
lbutter
lutz
lchang
luster
lpost
ldb
lwc
lfat
luther
laina
lassie
lnger
l0l
lubb
lachrist
lmoa
lumiere
m5
m_
ming
mle
mke
mome
mse
mith
mie
mver
mce
mry
mant
mook
meep
mick
mool
muck
mif
mub
mph
mpl
mma
mute
mgg
mfr
mull
mooo
mco
mcy
mbl
mhhh
mib
mps
mbs
mde
mme
mett
muu
mets
muz
moot
mnet
mcl
murk
mase
moooooooo
mits
mees
mower
m_b
milly
mops
mills
mucks
mising
mial
m77
mkin
mstr
m_d
mains
m_l
m_m
mito
mimp
mdr
merry
mwe
mhall
mlim
mizzy
moooooooooooooooo
mfm
moose
moomy
muna
mrah
mjb
meech
mhs
mstal
mucky
mfs
mkd
mhaw
moles
manger
mkay
mlew
mbill
msell
mingo
mgir
mjv
mdf
mxy
molar
mdm
mesa
mths
mardi
mgor
minging
mrex
mrae
mcherry
mardy
mucking
muzik
measure
m1d
mchale
moneyy
mfeige
mlexie
nv
n0
n2
n9
nea
nke
nome
nal
npp
nack
nil
nri
nook
neep
neel
nul
nind
nge
naa
nau
nub
nation
nive
nip
nber
nia
nass
nup
nue
nac
nsh
nans
nug
nts
npr
ncc
neeee
npt
nmo
nta
nix
nord
null
nare
nside
nzz
nio
naaaa
nigh
nno
nuu
nude
nds
nors
nees
ncar
nics
nuss
nyl
noop
ngn
n23
nga
neeeeeeee
n_d
nsing
ngs
ninn
nje
niter
nada
nien
neeeeee
n_k
nhan
nils
noose
nzing
njb
n95
naaaaa
n64
nji
nisf
nims
njd
naded
nira
nmr
nisher
nvd
nagr
n28
nadi
n97
nsty
nmg
neaa
nuffin
nsmith
nrier
numpy
naskar
nbk
naba
n9v
nipt
nixon
niano
neesha
nfn
n3h
nttn
nishiki
nnaa
nmyster
nmaize
nibs
neemah
nmarshall
o2
o3
oes
ond
oom
ost
ove
oic
och
oome
oir
oday
oop
oks
ous
oxt
oist
olo
oyy
oey
oto
oder
oso
omo
oii
oint
ola
oats
ozz
otw
ode
ouu
orist
oep
oster
oging
oiiii
ough
owwww
oda
ophy
ouse
o_p
odr
ooooooo
oouch
ocell
oiii
oooooo
oval
oils
ouv
ovr
ovie
ojc
ojee
ovation
oucc
ocra
odee
ocamp
owwwwwwww
ojt
otha
oamc
ouuut
ought
oowww
ould
oaks
oqs
oxtra
oaer
odys
pv
p4
px
p3
pq
p1
pis
ple
ply
ppp
pess
pus
pate
pum
peet
pind
pob
peen
pough
poy
pell
poooo
pww
pist
pia
pew
piz
psh
pans
ppr
pper
pss
pft
ppt
pbr
pman
purl
poom
pank
poth
ptw
pib
pbs
pple
pues
pors
pyp
pcon
pinks
pits
pmed
pamp
pade
piet
paaa
purs
piff
pinc
p33
pots
pider
pva
pester
pung
pask
plyn
piling
pns
peech
pius
pasc
pque
pipe
pbc
pelt
pilar
pooooooo
pidd
pirou
pabl
pollen
pika
pvt
pager
peasy
pvp
peste
pxy
p1p
pimm
ppicture
peaky
pests
pitta
pffffffff
pisay
plez
pkeith
pimple
p6lf
p_lo
potted
pinned
pfinette
qe
ql
qa
qr
qx
qk
q3
q9
q7
qz
qis
qet
qreat
qip
qxx
qik
qcy
qates
qsw
qcl
q13
qi_
qmb
qrock
qwe
qiu
qfs
q100
q63
qa4
qlr
qlw
qantas
qirls
qqe7
r5
r_
rk
r2
rz
rck
rir
rim
rere
ress
riss
rink
reen
rame
rau
rdy
ries
rous
rake
ration
rys
ria
rny
riz
rue
rder
rond
rhe
rms
rince
roney
ratt
rlc
rory
rating
rwh
rail
rons
rayl
rors
ripp
renn
rfl
roooooooo
rcon
rane
rump
rows
rapt
rica
ramp
rosh
rrrrr
rants
raaa
rai
randy
rames
r18
r20
roup
r_c
roul
rural
rwa
rific
rsc
r_p
ritter
rugs
rsl
r65
rizzle
rgam
rbu
rjd
rpaul
rbi
ruled
rmet
rolf
rwit
raze
raaaaaa
rwan
rmil
rettem
rippin
riah
razzle
ropes
rookie
raaw
rinas
rukh
r4nt
rinse
roping
rupert
rathbone
riqht
raaaaaaaaaaa
s0
s4
s5
s2
s9
s1
s7
sst
sve
sust
sse
sie
sce
sain
sast
siss
sge
sear
sking
sif
sitt
sxt
sip
sys
sma
sath
sich
sso
surn
sited
sary
sio
sence
sift
sals
sount
sipp
senn
s12
sife
sinks
sane
saaa
sears
s20
sbar
sided
ssm
svi
saaaaaaaa
s05
sdr
sfit
sxxxx
swww
saaaaa
szs
svet
saint
sssssssss
sxc
saaaaaa
siiiii
sxy
sippin
sutz
sealer
ssssss
s48
sftw
s_day
sroach
sbenz
sutar
sinai
tk
t1
t8
ting
tks
tate
tct
tand
tart
teet
tally
tuch
tdy
tays
tide
tud
tile
tfe
tiday
tanna
tci
teal
tso
tii
tint
tian
tare
tgr
tib
tps
tins
tsw
tbs
tams
tude
tush
tents
tudy
tfl
tees
tcar
teek
tuss
turs
tgt
tense
tars
tvers
tja
turch
ttc
tyle
tga
t_d
tbb
tada
tides
tazz
tnite
tda
t_r
tnew
tito
tangel
tswift
tza
tined
tlet
t17
tsss
tupp
tini
tipped
teets
t____
tipping
t_t
txs
tknow
t71
tlock
tiki
tkd
tanger
tessa
tnl
tluck
tadi
tattered
t_a_
tantal
tfar
tshe
tiiiii
tjv
tlking
t_re
tchet
taddy
tldn
tarde
tension
tferr
t4p
tk3
ticon
tassie
tpretty
tjeff
tzx
tugger
tiiiiii
tluke
taaas
tivon
teeeeeeeeeeee
uv
uw
u5
uq
uz
uou
uve
uch
uld
uter
uce
utt
uug
uma
uft
ubook
udd
uds
utf
umin
umi
uugh
u14
uls
uda
ulu
udon
uuuuu
uwl
ugggg
ubc
ucky
uribe
uuuu
ucs
u________
uwb
urien
ucler
ulein
uuuuuuu
ueiv
ufig
usticks
ukkkkk
vg
vv
vd
v0
v_
vx
vk
v1
vor
vat
vll
voo
ved
vur
vere
vil
vink
vos
vind
vall
vob
vous
vitt
vive
virl
vah
viz
vans
vma
vond
vsp
vian
vats
vib
vav
vime
vail
vines
vmail
vows
vron
vair
vuk
vera
vops
vgt
vyn
vja
vips
voe
valk
v_s
vwr
vita
various
v_k
vouch
vcha
vdog
vari
vser
vlynn
vrik
voyd
vicia
vuel
voor
vhem
viters
viner
viper
vorder
vrom
vader
vests
vandal
vlad
vradio
vstudio
vfactory
vfav
vyz
vqiu
viendo
vachan
vmyster
vikki
vinnip
vaahed
vagrant
wc
wb
wf
w3
wve
wis
wad
wun
wim
wate
wri
wong
wna
weel
wul
wally
woll
woy
waa
wdy
wound
wking
wang
wyy
wrr
wath
wint
wsp
wcr
wla
woth
wiew
wfu
wok
wets
wude
wizz
wesh
w12
wade
wwork
wuss
warden
wyl
wyn
weeps
wpar
wmi
wmc
wje
wuh
wern
wita
woul
wsm
wyd
wbt
weap
wilt
wov
wades
wiii
wfm
wws
wzzzz
wold
wyk
wych
wyb
wizzle
wbc
wlan
waah
wwis
warten
wlda
wiper
watte
wuzzy
wamar
wldn
wounds
wrig
wongo
wbw
wannn
waaw
woooooooooo
waaaaaay
wcm
wstm
weaver
wogs
wamu
wys4
wcharlie
woooooooooooooooooooooooooooooooooooooooooooooooooooooooooooooooo
xa
xu
x0
x1
x7
xer
xing
xon
xom
xst
xet
xen
xam
xir
xim
xant
xra
xab
xong
xul
xem
xww
xac
xbe
xmo
xii
xhe
xms
xoc
xian
xbl
xav
xark
xams
xana
x12
xcept
xcar
xthe
xoes
xye
xoe
x23
x11
xbb
x24
xomb
x86
xogra
x_l
xux
x25
x17
x34
xanth
xnx
xran
xht
xmind
x29
xyb
xeh
xzen
xsay
x100
xthem
xvd
xomor
xcharl
xbiz
xshe
xbron
xaan
xfact
x1p
xchik
xfiles
xrays
xvik
xb4
xbla
xmx
x9i
xchad
xanther
x_beck
xhausted
xoded
xmelly
x9999
x_crazy
xnicol
xchristine
xcourtney
yn
yl
yh
yp
yj
yd
yb
yw
yly
yir
yere
yop
yos
yong
yna
yul
yoy
yag
yfe
yass
yose
ykes
yoke
yself
yike
yina
yoot
yro
yult
yeee
yoh
yamp
yosh
ygt
yars
yyyy
yield
yeeeee
yhere
yeeeeee
yaaaaaaaa
ysc
yung
yiii
ymas
yuuuu
yoooooooooooooooo
yyyyyyyyy
yano
yuj
yaph
y92
yaaaaa
yvr
yipe
ybc
yata
yhaw
yjp
ybd
yan_
yvet
yanks
yeye
yarin
y_sp
yopo
yestar
yuuup
ygp
yoda
yhana
yeni
yoyo
yelaine
yaaw
yin9
yomiss
yansie
yuca
yelgiuq
zh
za
zx
z3
zq
z7
zin
zer
zing
zit
zed
zic
zad
zur
zop
zent
zil
zum
zong
zul
zind
zah
zzy
zaaaa
zps
zav
zuz
zact
zep
zipp
zorn
zeb
zade
zera
zgu
zoid
zoul
zyd
zda
zomm
zupp
zzer
zulu
zoz
zuj
zyk
zeta
zeem
zwal
zlam
zucc
zo_
zhen
zaid
zoning
zwriter
zsg
zdf
zhigh
zeds
zbrush
zhong
zwart
zapat
zaam
zinz
zeros
zanti
zahar
zotz
ziggy
zappa
{:
}]
}:
~.
~!
~>
~/
~!!
##ei
##eq
##e9
##ein
##eing
##eor
##ean
##eit
##eck
##eight
##eir
##eil
##eish
##eers
##eia
##exx
##eath
##eater
##eich
##eity
##eather
##ebr
##ebo
##ezz
##epress
##e19
##evel
##egle
##eced
##euring
##eering
##e89
##eux
##event
##eua
##e04
##eval
##eggie
##eerr
##echo
##e2001
##eo3
##e4d
##echt
##efron
##eople
##ekaye
##ecost
##econqu
##eoverflow
##nu
##nb
##n6
##n0
##n5
##n2
##nnd
##nea
##nis
##nen
##nly
##nse
##nack
##nil
##nout
##nand
##nos
##nead
##nook
##nard
##nice
##need
##nour
##nitt
##nny
##nath
##nso
##nend
##nash
##nated
##noth
##nio
##nier
##nating
##nark
##nets
##nizz
##nits
##neee
##nato
##namp
##nthe
##nja
##nolog
##ni_
##nville
##n86
##nwa
##nasty
##nunes
##noring
##nitter
##nvs
##n02
##n76
##nora
##nchick
##njones
##nuj
##nizzle
##nobs
##nilk
##nocks
##nika
##nfree
##njul
##n010
##nfk
##nqv
##nwilson
##nw8
##n_br
##nayd
##nidance
##nandez
##nfuzzy
##n_ma
##nayr
##noodle
##niqht
##g4
##g_
##gf
##g2
##g9
##g1
##git
##gill
##gter
##gone
##gil
##gould
##gus
##gri
##gart
##gul
##gge
##gite
##gaa
##gap
##gog
##gans
##gmy
##gure
##gage
##gull
##gman
##gzy
##gby
##goth
##gio
##giew
##gates
##gating
##gwh
##gott
##gym
##gina
##gail
##gush
##gird
##gmail
##gale
##gann
##geee
##gorn
##gosh
##garden
##gtf
##grrrr
##glove
##gots
##games
##gosp
##gston
##g_s
##guth
##giq
##g86
##gami
##g85
##gdon
##gades
##gums
##giii
##giles
##grown
##gomez
##gifts
##gpen
##glynn
##gabe
##gaga
##g1974
##g03
##gfest
##griff
##golf
##garten
##gaden
##gads
##gangirl
##gkf
##gutter
##gidy
##gmental
##gomer
##garde
##gokey
##gfk
##gz2
##gobi
##gokee
##griffiths
##goby
##lp
##l_
##lx
##lq
##lnd
##lot
##lust
##lun
##lop
##lry
##lil
##ltt
##lion
##last
##liss
##late
##lest
##lab
##lol
##lig
##lob
##lope
##lite
##lour
##lau
##lays
##lide
##lue
##lac
##lug
##liv
##lbr
##lii
##loss
##lix
##lint
##lash
##lman
##lian
##lare
##lio
##ligh
##lory
##lime
##lark
##lina
##lude
##lift
##lush
##loot
##links
##lane
##lapt
##liness
##lilly
##laaa
##lots
##lho
##l88
##lunder
##l_m
##lease
##leno
##lomas
##lamb
##lette
##lape
##laces
##lvi
##lator
##lief
##lili
##litten
##lulu
##liu
##luna
##l90
##lvr
##lizzle
##loma
##ladee
##lika
##lwill
##ladi
##l55
##lchu
##liko
##liddle
##lola
##linda
##latte
##licted
##lpppp
##leston
##lestar
##labs
##lpark
##loos
##lopez
##laza
##lutz
##loper
##loser
##lassic
##lhb
##lhon
##laugh
##lacan
##lichfield
##lianne
##lnike
##l401
##larged
##lstatus
##liketh
##loshed
##lnnnnnnn
##o0
##o4
##oq
##och
##oly
##olly
##oess
##ohh
##oving
##oang
##oore
##ofe
##oort
##oans
##oxx
##ofr
##ohe
##oise
##oare
##offee
##ohn
##o12
##oane
##o_b
##ostar
##ojo
##oelle
##o77
##o23
##o18
##o24
##ovi
##o_k
##ojack
##o84
##ocel
##oaker
##o35
##octor
##o214
##oinne
##ollywood
##o414
##oapples
##oivist
##hq
##hit
##hea
##his
##hust
##hess
##hate
##hout
##hna
##hob
##hting
##hdy
##hound
##hoooo
##hays
##hia
##hew
##hty
##hue
##hose
##hts
##hought
##hater
##heady
##hend
##hof
##hgr
##hign
##hates
##hild
##hime
##hett
##hines
##hors
##hongr
##horn
##h13
##himes
##hamp
##hinc
##helle
##hunt
##hpe
##h77
##health
##htv
##houn
##h20
##hler
##howers
##hield
##h30
##hita
##houl
##homas
##hsey
##hunny
##h89
##hasha
##hands
##hua
##h76
##hyr
##h32
##hugs
##hlim
##hoph
##hwilliams
##hiller
##hemy
##hjs
##hcullen
##h81
##h03
##helf
##hvl
##hiro
##hqe
##hjk
##hfah
##hansen
##haskar
##hewitt
##h4f
##hmae
##hllai
##heeler
##hindra
##htweep
##hooooooooooo
##haskins
##hgarten
##a0
##aq
##aat
##aes
##aed
##aea
##aen
##aas
##aust
##aill
##aun
##aith
##aus
##aum
##aell
##axx
##afr
##aqu
##aoc
##awh
[...]
