[PAD]
[UNK]
[CLS]
[SEP]
[MASK]
!
"
#
$
%
&
'
(
)
*
+
,
-
.
/
0
1
2
3
4
5
6
7
8
9
:
;
<
=
>
?
@
[
\
]
^
_
`
a
b
c
d
e
f
g
h
i
j
k
l
m
n
o
p
q
r
s
t
u
v
w
x
y
z
{
|
}
~
¡
´
½
¿
##i
##c
##k
##r
##o
##l
##a
##z
##e
##m
##t
##h
##s
##n
##d
##u
##b
##j
##y
##f
##8
##3
##1
##0
##9
##5
##g
##v
##p
##x
##w
##4
##q
##6
##7
##2
##´
##in
th
##er
to
##ing
##ou
##or
##an
##at
the
##on
##ll
##ee
##ay
##es
##it
##nd
##oo
##ar
##om
##ed
##st
ha
you
##ot
##ow
##ve
##ea
it
##is
my
##et
##ut
##en
and
##ic
in
##gh
on
##ch
is
for
of
##re
##le
##as
wh
##ck
st
##ke
be
##id
me
so
##ly
lo
that
##ght
##ad
##am
sh
go
##ome
li
##ust
have
##ld
##se
##ill
##ight
##ur
##ter
day
##ir
##al
##un
##pp
##ith
##ie
we
##ver
but
fr
##im
##ere
just
an
with
##ood
do
not
he
wor
##day
at
##lly
tw
was
can
##her
##op
ch
get
##one
re
su
ne
good
all
up
##ce
out
##ry
com
rea
##ent
##ack
work
now
this
##ess
##th
##il
##ould
##ha
no
pr
##ain
##ant
al
##ks
##tt
##ion
pl
##us
am
like
than
##ast
are
mor
##iss
got
love
don
too
your
happ
##ate
htt
##ra
http
ma
##other
##ink
##out
##est
im
##ct
##ri
as
kn
aw
today
see
##ab
##and
tim
##ish
ab
twit
going
br
##os
miss
what
##el
some
##art
##ead
##um
##ook
happy
##eep
lol
back
know
##eet
##ff
##ong
##ard
from
##na
##ick
##eel
wee
##ul
want
one
##ning
##ers
time
##ig
##ol
will
##ind
off
##nt
##all
feel
did
##ice
ever
there
mo
really
new
##eed
about
##hh
##ine
##ge
its
sp
bl
any
##ob
ex
think
mother
##ting
##atch
night
##een
how
had
##ally
sl
##ope
##uch
ag
home
##mm
they
##ool
##ough
##ite
de
##oll
haha
if
##reat
##oy
##mor
oh
##aa
well
##our
##uck
##ell
fun
##ving
##ame
gu
##night
##au
need
thanks
wa
when
cl
twitter
##dy
gr
hope
much
watch
still
fa
ll
##ound
mom
or
##ear
here
every
dr
more
ar
great
sa
##row
##king
wish
her
sad
sor
##ap
last
##ous
##ies
##oooo
co
morning
##ake
ph
##if
##iend
tr
has
en
would
she
con
##ery
look
##ang
then
##ays
sleep
been
again
##ide
us
ve
po
bet
fin
yea
##ww
by
##hing
##ollow
##em
##own
only
bad
could
tomor
wait
friend
##ud
won
##ag
##ub
##itt
##ile
follow
may
tonight
man
why
tomorrow
thing
##ore
##ation
sorry
##xt
##ive
##ist
##ip
##irl
se
##ber
af
them
##og
##fe
mon
##ys
very
bit
show
yes
over
right
##pic
##ia
##ny
##ass
car
sw
should
gon
##yy
who
##az
le
##lo
##ah
though
nice
qu
##ort
make
##up
try
ok
tweet
head
sc
gonna
##ew
yeah
pe
sch
##kend
eve
##iz
##ty
better
##00
weekend
week
way
##ause
after
lea
getting
cr
##ue
##ac
mothers
##od
##ock
##ph
down
sun
bed
does
##ak
##ach
un
come
##ans
play
mar
ad
say
##ose
##lf
##sh
long
school
hour
##ug
mad
start
##pl
peop
##rr
twitpic
##ey
##ts
##eam
next
fl
som
thank
people
were
##iday
didn
mov
##my
app
awes
##per
him
##ma
dont
##pr
sm
hey
best
girl
days
somet
##cc
watching
hate
##anna
##ought
jo
##ure
##eak
##ss
suck
awesome
hi
let
tal
bec
pic
##ace
call
di
litt
##be
plea
gl
rain
##ath
##thing
never
##ater
bor
##xx
##ci
##to
being
##eeee
little
ear
star
wr
ur
##age
##ity
##ich
part
even
year
bab
##ired
da
##ways
##ather
soon
##irst
alr
##ft
working
##der
thr
having
##pt
##eal
che
##so
take
list
act
sick
la
##uff
##ious
##ouse
##ble
prob
his
dam
min
##ond
hur
where
cool
##ment
##ner
##ther
life
sure
please
##mo
eat
##ect
our
doing
done
##iv
feeling
cra
loo
because
##bo
##ute
lot
always
everyone
##ii
##oss
om
##br
bea
find
id
##ta
hel
##eady
##end
##son
inter
cant
first
keep
##urn
tired
yay
##ful
guys
wanna
##ily
friends
already
big
hot
##joy
##gg
##qu
other
##fr
##ix
movie
##int
something
##kes
old
amaz
phone
another
##oke
made
ly
song
hours
##ord
##ash
##ms
##wn
##self
yet
thought
enjoy
trying
##he
##sp
real
live
pret
house
help
tri
##oc
##ull
hard
##ire
##ooo
##ian
##fore
read
ready
dis
##man
##ually
str
before
per
friday
hell
comp
te
bir
luck
ya
lov
##usic
guess
##iny
omg
##url
kid
looking
damn
someone
pretty
dan
##zy
##unch
monday
em
ho
tell
##ik
kind
##oom
away
exc
sucks
bus
fam
listen
ugh
went
amazing
wow
##by
##ank
finally
bu
par
##ens
war
##ited
same
maybe
into
nothing
rem
end
boy
hear
job
##bl
##ise
looks
sound
##get
finish
fuck
run
left
sk
ser
##cr
##ox
check
##opp
missed
bored
baby
boo
two
tiny
##of
tra
##ward
things
el
##are
##ated
10
god
cou
sweet
jon
##side
rec
music
said
cle
dri
those
##ats
##oth
face
doesn
##ince
bel
late
##ert
stuff
lost
actually
also
talk
##zz
while
##able
post
later
put
##io
##gr
##itch
glad
sn
##ary
world
break
##ign
saw
early
acc
free
##nder
##ier
weather
##oney
meet
##cy
such
sit
##att
##ley
chan
din
must
birth
give
##les
##fly
summ
might
rel
around
waiting
birthday
sund
wonder
party
hun
##book
super
hair
##ence
mean
far
##iew
stay
tinyurl
res
ta
unt
##ton
##ates
myself
hahaha
##aaaa
tot
awww
poor
xx
##dd
few
##land
des
gone
##aw
##hhh
phot
cry
their
thats
##lc
coming
mr
##igh
rock
since
##co
class
##tw
##nn
until
##terday
supp
happen
makes
yesterday
summer
##ps
aww
anything
family
dad
sat
beaut
sunday
found
without
use
##fu
##ins
stop
gotta
everything
30
##ib
##ne
##ory
##cfly
##iting
making
most
##most
mum
wal
##ok
##av
##ating
rep
dream
cute
lunch
tho
almost
##ffee
##iful
pain
fav
month
excited
##ike
plan
##ork
tre
till
cause
##sw
##bs
##ably
anyone
def
add
game
pre
ste
okay
pict
vide
##ild
##ple
welc
least
tea
##ris
##line
##no
##load
dinner
del
coffee
sing
##ime
cold
kill
##ott
##ieve
food
##ett
drink
leave
listening
clean
totally
##de
##way
##ark
inst
place
hurts
beautiful
welcome
mess
char
ah
money
sur
##wh
forward
##upid
cam
hang
win
##uu
##ym
##ets
haven
wanted
isn
forg
many
pa
##uz
these
stupid
##ions
hu
##rist
blog
##ache
finished
##ax
##ever
shit
through
probably
##body
hand
mine
under
ann
##ail
##ness
##ney
##ams
missing
book
hol
turn
##ina
dog
thinking
##ude
ill
www
##ons
times
believe
rest
##hn
##vid
##ift
buy
sounds
room
send
ke
op
##cl
##orm
which
ass
playing
bo
ro
##me
lovely
##more
ey
hmm
ret
##ds
##ves
##ines
##ana
funny
fm
##kk
##ave
##rew
wasn
##ently
##ush
##erson
eating
ed
hug
lad
##eci
##oot
##ote
upd
office
##net
##als
kids
##fully
lu
stuck
##ents
idea
sooo
##act
##ng
took
didnt
whole
##ved
##haha
er
soooo
##ayl
guy
fail
##ember
hor
hit
lil
##urk
outside
high
red
##ici
enough
##press
ter
##ase
pro
dou
set
says
att
rev
followers
headache
cut
hop
##iley
##osed
wants
cont
scr
wrong
forgot
jam
tv
##ird
##unk
chill
exp
grad
conc
##fect
##opping
##ont
##ict
anymore
moms
unf
cour
less
woke
##girl
##une
##hhhh
ago
##mail
comput
remember
ind
rob
##ked
##ep
goodnight
plurk
kinda
ms
##ro
##ding
##ount
came
wed
##ues
##ors
##vel
mac
##izz
trek
full
##ipp
##gl
##vin
##esh
##ither
hehe
seen
black
##ube
busy
video
wind
yum
##mer
##ual
##19
##phone
proble
4w
both
cur
card
fan
lau
name
person
ang
prom
hopefully
years
sar
##udy
##ance
##enn
sitting
sou
##ama
##ult
david
ac
##yp
##fl
##oud
weeks
diff
internet
serious
else
ap
bar
cook
##ale
compl
told
online
grand
##yyyy
tweets
loved
computer
dead
lear
own
sam
sim
half
heart
dec
##oooooooo
couldn
following
gra
##ces
hung
bur
woo
##iver
##inks
##ings
##urday
##ife
hurt
crazy
goo
iphone
mid
##less
##ows
##utes
inv
short
alone
##ately
spend
##aught
sec
john
facebook
12
fil
mind
##ann
##its
shopping
##ppy
##ump
##ongr
##ister
ep
mil
sea
tick
##con
##ane
##eee
study
seems
brother
news
quite
##akes
minutes
wars
taking
pass
##over
##tube
talking
perfect
jonas
saturday
##ger
##orn
youtube
once
##apt
lots
tried
change
holiday
open
congr
fall
soo
til
test
##yl
##12
##atter
gets
able
called
hello
defin
ice
met
##10
##ees
true
air
cal
##ied
##ject
##fast
tomm
##ven
##ica
wont
text
lucky
bb
bank
link
vis
xxx
##pm
seeing
care
leg
20
email
heard
##ried
interest
drive
instead
btw
catch
cuz
pack
##ele
##port
##irt
##rible
conf
fucking
miley
site
##app
##13
##gle
##ato
##ster
##imes
choc
##cept
pres
used
##ations
starting
girls
av
ca
cat
dj
##ree
##oh
##ower
leaving
beach
picture
dar
dude
sy
##ron
##eb
##med
##ete
##amp
awake
feels
mommy
raining
breakfast
mic
pick
##rs
##rus
wear
broke
close
concert
##any
##ones
##cher
mel
laur
bum
coll
either
fast
##eek
##ade
prof
running
months
lma
past
water
##ible
##erg
##osh
reply
##ling
##air
##ball
ton
tour
##ition
##ared
anyway
art
relax
hungry
med
##eaking
##ics
offici
shower
evening
##oken
dra
fig
##iet
##iness
##ital
##ures
move
train
trip
count
wonderful
chocol
lmao
ip
ju
mitch
net
pay
##time
ones
light
spr
blip
block
watched
favor
course
seriously
11
15
fine
jack
uk
##ced
##ming
##work
##uss
ash
##ages
##ortun
writing
##friend
couple
##aylor
67
nick
##bur
tom
##ars
goes
ask
##arden
wishing
sunny
june
##ted
##gin
##gan
##illy
##ops
bring
slow
loves
lady
bout
col
eas
pap
ext
exam
sometimes
happened
hoping
differ
second
4th
jay
nic
##uk
##era
ups
##elm
dang
fell
je
kar
sent
top
town
##ange
##astic
##itely
heading
fly
har
jess
xd
##oes
##ole
##tf
##yc
##ills
bless
##aaa
##rrrr
definitely
ipod
sigh
##oint
##isod
reason
wake
##athan
crap
100
4j
ahh
ben
bought
nat
ps
##ai
##lex
chang
near
##ants
##els
##berry
cream
started
reading
##where
episod
fix
gre
garden
hon
nite
tum
##boy
weird
sex
##ize
pics
died
boring
account
supposed
eyes
unfortun
laugh
learn
fing
fel
gi
nap
##leep
##dle
##chie
forget
load
chick
chris
sore
mark
write
problem
chocolate
favorite
bud
ive
iam
jeal
son
sal
sign
##che
means
##urs
chat
mag
moving
speci
join
##opped
tommcfly
jealous
200
band
city
ev
ther
##eth
##ical
christ
upload
dear
moment
download
walk
gradu
cup
due
esp
gave
kat
lay
taylor
##car
##lic
##09
##gt
##eas
##ense
comm
works
pray
green
sleeping
flu
gym
pink
sel
side
##iff
ins
answ
abs
fair
##love
##ized
afterno
songs
enjoying
special
bas
hum
num
pu
pol
##cing
##ya
comment
agree
aren
final
movies
three
meeting
season
dd
ge
ger
lapt
mood
pub
pizz
wom
##oice
##tr
##uct
##60
##inc
##star
stud
goin
##ention
using
##shine
##ondon
photo
gen
jen
##mit
##yn
##33
##go
##gar
##wood
inf
worth
comes
##the
asleep
##ucks
##elle
sadly
quest
##cyrus
cele
die
mmm
ra
vote
yep
##ren
##eese
##usso
##eeps
bye
park
boys
##gether
resp
hugs
interesting
afternoon
fb
pat
pet
rad
sister
##ress
##bum
##jo
##fer
##gie
##ots
##ising
store
##andy
blood
needs
stress
bra
eff
view
##com
##mar
together
##reci
##uring
fren
cance
reg
bro
broken
warm
driving
unfortunately
14
1st
cor
fire
gut
kick
london
poss
ride
wtf
##ho
##ye
##gas
##stand
##iel
ate
sub
plans
exams
club
dress
##itty
pictures
cleaning
horrible
wedding
answer
laptop
cake
dv
men
ppl
##ove
##not
mysp
shar
##ters
##ries
knew
wouldn
sunshine
photos
surpr
huge
complete
google
mitchelm
mitchelmusso
date
pea
ru
tak
##min
##mon
##ba
##par
##ision
stand
word
blue
shows
appar
small
project
tickets
present
different
pizza
dm
es
fight
##ial
inside
white
stra
meant
##vers
seem
except
depress
annoy
congrats
upset
bug
bott
deal
mis
nor
nope
rather
vac
young
##ching
##ches
##ident
##ession
album
##ffic
quick
apple
appreci
absol
alex
bday
bgt
fab
ner
page
##oop
beer
##ider
liked
##unt
##aine
brit
spent
order
phil
saying
drinking
myspace
den
ii
mi
tee
##ki
##for
##ging
##va
##ised
##rect
##ames
words
cheese
dev
fact
save
##ips
doesnt
played
holly
##ecially
sarah
visit
celebr
ahhh
dig
hub
line
laz
mama
van
##ky
##kin
##ten
##ja
##gn
##pe
##ene
story
##ille
##urch
web
freak
justin
chines
amer
##ards
##olog
momm
drunk
##annah
disapp
dance
remind
mileycyrus
especially
daught
ff
fant
hea
joy
mc
rub
squ
team
##oe
##la
##lin
##led
##tc
##nes
##77
##itar
whate
living
##ustr
worse
repl
##osp
##ears
looked
pleas
mrs
figure
episode
13
16
40
ball
cop
cos
fans
foot
gig
ohh
rid
sle
##ience
##ka
##ham
##yle
##pa
##orge
shame
plus
yours
clos
trans
##lov
earl
tech
chance
understand
luv
apart
profile
apparently
mike
##cle
##oid
##mi
##mcfly
touch
##ston
##icious
shoes
worry
prod
##used
##aster
whats
arri
engl
cross
##ealth
##iiii
hold
travel
traffic
update
english
2day
dun
each
jer
jas
key
lone
na
ry
ran
via
##oat
##eat
##ugh
##boo
##bab
##88
##23
##str
##ically
happens
point
business
dreams
message
easy
paper
whatever
aud
bag
ent
gift
math
pot
pop
pull
tues
##uc
##11
##ga
##gu
##view
##oun
##eez
##ara
stom
child
##ract
cost
tweeting
##cial
##eeeeeeee
idk
steph
camera
hmmm
absolute
slept
during
gd
hates
mu
mot
matt
ouch
pool
wol
wife
##tin
##tim
##wor
thx
beh
beat
sol
sold
##usted
doct
worst
moon
smile
snl
paul
earlier
66
cy
four
hil
lame
mam
pie
piss
power
san
##cast
##knight
##ald
##fa
##18
##ged
##key
loving
##aste
##ular
exper
guitar
needed
everybody
longer
throat
law
relaxing
felt
number
absolutely
18
19
box
dist
dark
ell
ele
feet
mass
ob
pc
pan
roll
ty
ver
yo
##tv
##sing
##you
##14
##vice
##20
thinks
havent
##alk
prop
along
##ulous
cover
track
babe
jonathan
record
road
ddlov
lazy
ddlovato
cous
fu
hosp
kiss
norm
ooo
ten
wall
##lake
##band
##ino
shop
shirt
cannot
chic
##ilight
proud
alth
safe
wishes
enter
sleepy
##ssss
dave
boyfriend
fingers
german
radio
completely
fantastic
lonely
behind
burn
noooo
ow
ooh
pur
vers
wat
##ls
##nat
##vy
##ita
bell
loc
shut
shall
atl
church
mail
exact
homework
##yyy
flight
##box
parents
wondering
desk
design
crying
expect
yummy
curr
micha
bri
cd
creat
hannah
jim
roo
vid
xox
##ram
##ler
##ying
##24
##oup
##iter
##omb
##ican
forever
stor
stick
##ada
webs
hahah
vegas
starts
minute
##ments
##bye
walking
huh
##ails
chillin
film
chicken
dvd
peace
tuesday
aut
aint
cap
dh
gar
mention
non
ye
##mc
##bar
thurs
##owers
##etic
##ides
##illi
##ield
doc
requ
pract
##ains
yourself
##umb
mob
deb
scared
talent
direct
eye
updates
windows
##ype
bbq
sexy
self
daughter
stomach
although
bath
eh
hat
jus
lat
matter
ol
rand
round
sna
##kn
##af
##nect
##je
int
twilight
prog
cons
##berlake
realized
company
screen
official
24
ble
bill
dat
err
jord
jenn
kim
ny
ring
vot
##iq
##ien
##burn
##86
##30
##gs
##inn
iss
shes
fresh
##mmm
eng
usually
##ogra
swim
joe
##friday
emp
posted
staying
support
messages
body
fml
studying
officially
##ointed
tummy
graduation
appreciate
hubby
25
50
ba
fat
lab
land
mat
nik
voice
##uh
##under
##ville
##22
throw
##ease
##ism
##ison
##eno
note
sum
worked
##rib
brain
event
alright
keeps
##ette
dougie
legs
ashley
changed
question
gutted
random
2nd
aff
kate
lar
low
lis
mich
pen
um
wine
½m
##iot
##red
##83
##outh
##lled
##ester
##omas
insp
isnt
stopped
##ided
##amb
mach
death
##wwww
##azz
quiet
disc
street
danny
single
hanging
sending
revision
middle
french
hospital
version
website
bike
none
port
sis
sell
tem
wit
yup
##rie
##room
##nite
##wind
##21
##idge
anim
##others
imp
##anda
##igr
exha
cloth
##ago
headed
rainy
others
sky
addict
review
problems
angel
brothers
colle
giving
chinese
##orgeous
jason
currently
mobile
fish
gf
gorgeous
jan
mate
nut
rich
tm
½s
##ior
##ric
##ze
##sm
##ned
##nic
##jon
##89
##gy
##vious
##oul
memor
##sey
##illa
##unny
##pped
front
alot
ima
##ction
spot
spam
dep
waking
##ives
host
videos
wednes
darn
public
product
exactly
cher
case
etc
hay
hom
health
ir
jk
jul
tan
uh
xo
##ec
##head
##den
##ering
##arm
##arn
##arious
##archie
##oto
##idays
##ami
shin
share
##ured
ant
heat
gettin
succ
neigh
imag
awful
brand
##ape
tru
usual
##berg
bitch
moved
smell
lets
##xxx
starb
##board
decided
congrat
spring
taken
annoying
copy
proper
thursday
college
cried
eur
emm
fill
feed
nk
pos
rach
si
takes
yr
##iest
##cakes
##rd
##hoo
##how
##new
##do
##fan
##weet
##26
##omm
##ena
shot
shout
gosh
##ural
goodbye
allow
amy
##asty
import
closed
group
code
trou
swine
##aces
##eeeee
disney
##ensive
accident
planning
singing
charl
james
soul
jonasbr
airport
cancelled
wednesday
neighb
17
45
bac
det
hm
hoo
hist
mix
sand
##ient
##life
##da
##bit
##200
topic
##ito
##isd
##raid
feelin
##earch
afraid
favour
paid
south
burnt
packing
lauren
jeff
greg
honest
doctor
hilarious
clothes
acr
bk
ber
ban
bob
cert
dent
egg
hook
hrs
king
krist
lm
mcfly
pig
row
tur
wer
##ca
##cer
##cat
##rob
##rknight
##ex
##hi
##hol
##use
##wr
tor
##iced
incr
##ala
##unes
door
doll
twee
wash
neck
donn
bright
##ulations
spell
followfriday
manag
crash
##phy
##rrr
apps
##eeeeee
ended
##arely
##swift
killing
camp
davidarchie
spending
miles
freakin
disappointed
jonathanrknight
starbucks
jonasbrothers
bc
bow
breat
bang
cell
fit
gun
kay
migr
vi
yall
##rol
##rore
##oon
##mb
##har
##here
##uv
##back
##jor
##ined
##ste
##uth
incl
gold
lie
##illion
##ung
comf
priv
morn
##eless
space
expl
nights
##ific
##angel
screw
##0000
sunburn
mary
earth
cheer
##frog
exciting
books
recover
lately
##ground
access
##aaaaaaaa
rocks
steve
retrore
double
window
avail
bummed
july
vacation
wolver
germany
machine
congratulations
important
retrorewind
bal
fo
fre
gay
hy
honey
ign
jump
mal
mand
mist
nom
ros
rip
race
sir
sil
##cake
##za
##mber
##music
##dr
##ux
##99
##wa
##ator
hav
##owing
##uture
andy
##icks
##alia
rece
press
##using
impress
brad
somewhere
mod
speak
blah
degr
clou
momma
connect
queen
calling
interview
enjoyed
tex
##wards
install
return
blackberry
milk
wearing
bummer
drag
extra
taylorswift
puppy
possible
north
##ology
dunno
entire
cousin
normal
chicago
exhausted
history
wolverine
taylorswift13
ak
ahhhh
cas
epic
flo
fever
holl
jour
josh
lang
session
vict
yah
##let
##aly
##ule
##bt
##08
##vi
##vis
##ween
thunder
##ites
##eap
##icle
form
freaking
ref
sugar
mall
kno
anyways
coz
mont
scary
glass
##ggest
recomm
suppose
expensive
loads
woman
info
recommend
5j
aug
bi
bon
bak
cent
caught
five
il
ja
jes
nah
oops
tar
ug
yell
##cut
##off
##sc
##85
##34
##17
##05
##25
##oring
##ored
##atus
##itter
itunes
##etch
storm
##imp
doin
suggest
##ilt
nobody
max
breaking
knows
however
twittering
keeping
thoughts
service
trail
clear
##itchen
##attle
awwww
classes
daddy
deliver
##deck
surg
hands
failed
terrible
contin
indeed
grandma
##ergy
##incess
xoxo
program
dougiemcfly
success
trouble
across
certain
b4
bes
cud
cats
dom
ess
future
hes
hus
iron
mart
mouth
six
sense
wk
west
##iam
##ker
##ov
##lee
##bee
##bed
##form
##vo
##well
##ern
##otb
##eted
##icy
##ask
social
log
lock
##ado
sha
shift
notice
heh
chap
thanx
ages
argh
sale
##oooooo
between
follower
followed
##ists
scott
become
thru
mins
strong
bird
build
checked
##ibly
delicious
assign
eric
ticket
draw
gener
bloody
bottle
ryan
brian
practice
empty
favourite
21
80
cow
deep
dying
ken
mer
match
nan
nam
nyc
ori
peeps
sen
sem
silly
##ros
##87
##wk
##ints
##ouch
##ony
##stem
##vent
##east
island
##rey
lose
losing
lif
likes
butter
tweeps
nose
##aining
##antly
major
background
anybody
##ours
click
area
conta
flowers
##sss
cheers
mums
killed
dogs
buying
kelly
sooooo
attack
soup
invite
confused
tonite
training
women
straight
michael
allowed
available
august
contact
22
2mor
bub
cough
ga
gab
ily
kitchen
leno
nd
opt
pm
tab
treat
tear
tatt
val
wild
yfrog
##ost
##light
##zer
##mart
##und
##upp
##bie
##jack
##wich
##word
thomas
##itting
hall
##ices
often
##reme
state
##lyn
##pping
##ief
atm
chi
outta
##ili
places
asked
brought
dem
everyday
const
finals
##ational
swear
##loc
##orts
sched
calls
##heart
putting
hahahaha
scream
##ivers
fixed
children
imagine
surgery
00
age
austr
coo
cast
dry
dub
est
games
lou
lead
lake
lak
ni
poo
pal
ren
sig
ven
wif
##rock
##hin
##house
##sk
##don
##fit
##fire
##fox
##we
##wise
##69
tha
toast
tony
##atic
##edy
andrew
##asha
loss
##ades
sher
frank
noticed
twice
allerg
##cell
##enty
nowhere
##iling
##ility
proc
awe
##ands
somebody
##ums
anytime
energy
##itten
tweetdeck
cru
cred
crack
flat
##xxxx
dawn
##ived
craving
##iii
kidding
jobs
teacher
ahead
hangover
hugh
turns
ladies
lessons
msn
learning
country
sharing
techn
apartment
crossed
shining
private
aim
bf
bat
buff
batter
dut
fol
gear
geek
hee
jud
lor
lind
mir
main
rose
rof
ul
ut
##cas
##aur
##mas
##mag
##te
##did
##bing
##01
##gers
##74
##llll
hah
##cha
bey
bear
##ids
##alc
frustr
##thew
##iles
##ript
asking
##ume
wanting
slight
demi
couldnt
showing
maria
flash
smart
joke
mini
helping
painting
jamie
court
macbook
cookies
passed
falling
system
blocked
##bury
nearly
tumbl
finger
depressing
depressed
philipp
american
experience
##natural
jimmy
afford
truly
dentist
incred
09
3d
3rd
90
aha
bull
barely
ci
cub
dc
dow
dish
east
fi
fest
gas
jp
les
lord
oce
ohhh
pants
tix
type
##ran
##oa
##mom
##mith
##top
##dog
##ua
##ban
##bell
##yr
##82
##16
##good
##x3
toy
##anne
##ative
##itive
##ooth
##ari
shoot
libr
##irty
worried
sudd
##tttt
timberlake
somehow
##ulu
excell
org
dropped
sort
convers
##ango
usa
##www
##bert
quiz
married
babys
daily
hotel
disco
strange
holy
telling
supernatural
deser
##nnn
step
delay
##uuuu
turned
personal
color
buddy
laying
jenny
respond
surprise
fabulous
teeth
##baby
latest
##ography
husband
tattoo
tumblr
philippines
000
5z
aaa
bee
bay
kr
kh
kitty
las
lam
loud
mur
oct
pin
pam
rh
rom
tip
wood
##ium
##ray
##ez
##ml
##may
##tle
##uation
##32
##04
##ware
##79
##76
##ered
tooth
##anth
##ances
youre
soft
##ustin
button
cheap
##ental
##ila
##hall
##haps
##ained
gotten
blast
ground
fave
everywhere
drop
##ooooo
coast
philly
hasn
scar
crush
##ship
##ugs
appear
##ival
crappy
perhaps
dancing
series
sweetie
doubt
attem
simple
grab
interested
grey
katie
mommies
pleasure
arrived
piece
productive
sandwich
includ
received
rofl
sudden
excellent
2nite
aly
bother
boss
bunny
cab
dnt
dumb
ew
ic
jb
ki
ko
ka
nasty
tg
vir
woot
waste
yess
##res
##rad
##lim
##nx
##bel
##jr
##jay
##jam
##84
##ini
##ination
third
##erc
tough
##ora
##ani
theat
##nding
##edic
##uts
##ution
##enter
onto
##cks
stri
stock
mex
shoo
lives
##verse
ank
wasnt
washing
cha
chem
##one60
##ils
knight
awh
brook
##ults
watchin
fault
dread
sever
que
##izzy
##photo
uncle
adv
adam
##play
smh
girlfriend
##queen
##ullen
daniel
mondays
emily
tax
planned
##kkkk
attend
##ipped
fancy
cooking
sims
##oooooooooooooooo
emails
tons
article
juice
extreme
theres
uploading
downloaded
studio
pissed
obvious
entert
##illiams
request
consider
gfalc
managed
battery
##one601
gfalcone601
333
az
ahaha
ache
bre
cir
cass
econ
hill
kell
lack
lap
mm
master
ng
ot
rac
tag
wet
wide
xbox
½t
##iu
##ko
##aff
##ev
##miss
##mark
##sl
##ns
##nal
##ders
##uj
##uit
##fm
##ford
##95
##vous
##wl
##ores
##anc
##oose
##oomy
##oming
myloc
##char
begin
##ida
##ady
shel
golf
##ury
##ali
butt
anna
within
heyy
candy
canada
##oph
choice
workin
amber
knock
abt
misses
##ntown
span
cla
clock
gross
arm
hero
trad
trust
##ista
carter
shouldn
level
##lock
unless
##athon
launch
finding
stream
skin
##cret
talkin
snow
chann
given
release
plane
setting
scratch
lesson
cards
angry
promise
##yyyyyyyy
woohoo
##ornia
calif
catching
picked
collect
lights
nicole
##ycle
laughing
magic
uploaded
commun
based
nerd
heaven
football
distract
local
issues
addicted
memories
nkotb
weren
ugly
australia
library
33
60
ay
ach
auss
aunt
bills
crow
cash
cav
der
eb
fur
gh
gal
gah
hid
kirst
mus
mile
mount
nl
os
oper
pj
pix
poop
rice
sf
tac
wx
wii
yog
##ij
##cou
##ror
##aj
##zing
##zen
##men
##mind
##ht
##han
##dney
##jb
##jen
##gins
##pen
##xo
##29
##inting
##omy
havin
##ises
##ico
style
meg
shots
##omez
lived
##alo
##una
wend
##erez
tweep
chr
sux
goodness
print
alco
pls
##rah
##rap
##rif
awards
##ished
brown
##eets
##icked
spo
spin
grr
fake
arr
##ifts
tree
lookin
carol
lex
quit
uni
marie
sucked
gloomy
born
action
##iva
reality
photosh
painful
added
prefer
messed
charac
handle
board
updated
robert
##ipping
decide
midnight
##123
cali
##airs
figured
episodes
market
2009
evil
christian
questions
frenchie
celebrating
closer
fourth
oooh
desktop
yeh
swimming
healthy
properly
mornin
floor
victor
montana
credit
california
alcohol
26
ain
bff
ce
cust
core
capt
dee
fash
gir
hr
lem
mt
mp
mult
nin
sym
tut
table
taste
½i
##core
##kut
##right
##zil
##eg
##ser
##di
##dra
##ben
##born
##fin
##07
##gen
##val
##with
##williams
##ero
##ouston
##ano
##ona
##eech
##aron
ham
##otion
fore
soph
##add
shan
goss
##iem
anth
chall
sus
suff
neither
knee
##aby
bread
spir
slee
twitters
drama
arms
phys
cond
badly
seattle
cars
sweat
##azine
##ahl
##izing
creep
ador
##shi
##ugg
##ploy
flor
awesom
##pres
##ends
helps
perfor
compet
famous
##blog
happening
mummy
report
deleted
booked
kevin
ideas
attention
hehehe
simp
grace
invol
easier
blessed
changing
iamdid
joined
##eased
stressed
effect
##host
fighting
straw
bottom
nervous
motiv
burned
purple
england
##jonas
migraine
hyper
besides
origin
beyond
downtown
ocean
discover
iamdiddy
aka
cc
du
drew
fem
father
gin
iv
jr
jun
jtim
lee
muff
mik
nooo
nails
push
ree
raw
rude
ss
tast
tiff
tips
tears
umm
wast
yrs
zomb
##ius
##ring
##zzy
##mic
##hr
##hor
##dies
##uce
##bb
##bow
##jones
##15
##gest
##gue
##war
##72
##esy
##stal
##stack
##eall
iti
##isc
##ety
##chick
##child
##lect
##leigh
##asc
whoo
station
status
lim
limit
cancer
##cel
workout
##essed
plant
plenty
impr
speed
spark
spider
exist
##ucky
clim
grrr
saving
##ify
##ittin
##loves
##ups
tweeted
marc
flick
wrote
babies
dammit
hurry
##ivity
##ggie
##gggg
realize
hella
##bles
finishing
fuckin
##zzzz
situation
research
results
total
##dddd
rocked
##oked
paint
camer
pair
announ
keys
rove
##icial
grade
diffic
packed
cafe
sydney
media
natal
learned
chatting
praying
insane
student
peter
ruined
esc
america
reminds
mrskut
##world
inspir
discuss
temp
tmr
europe
comfort
impressed
langu
theatre
fashion
performan
jtimberlake
mrskutcher
35
ace
bound
bones
dest
dirty
equ
foc
fox
gm
gam
ht
hob
hills
ik
jap
ker
lin
liter
meal
mtv
ness
opp
odd
perez
rite
sg
sin
ti
tat
vol
x2
zach
##kid
##rick
##rup
##rich
##old
##like
##mins
##hs
##hay
##ses
##some
##n1
##nie
##ners
##down
##but
##bers
##just
##yd
##ych
##fs
##fg
##06
##02
##vs
##pol
##xs
##win
##44
##que
toe
##inger
##orious
##lla
##itor
hack
item
##ched
whis
##lynn
##amps
shann
lizz
##sel
##urt
##irts
##alian
##pper
##vert
fri
fridays
heather
twist
chuck
champ
choose
regr
sushi
comin
comedy
##anta
ali
alive
##issa
happiness
##rik
##ander
##ela
##ument
##icky
offer
speaking
blank
hadn
deck
##morning
##earching
drinks
friendly
##isters
swe
swed
quote
##000
##aches
marathon
appoint
becoming
diet
starving
##onds
intern
biggest
realised
server
talked
accord
hahahahaha
desp
mostly
address
teach
kept
roast
retweet
editing
horse
revise
remembered
sara
medic
paying
brazil
possibly
surprising
presentation
annoyed
miser
britains
ordered
miami
##books
elect
massive
fully
##know
voting
##ique
issue
rachel
lmfa
texas
trailer
essay
schedule
lakers
allergies
awhile
channel
frenchieb
gossip
adorable
difficult
07
28
9am
ale
bs
booo
cs
cable
dust
duck
dud
feat
field
gee
goooo
gives
ghost
hd
hen
ie
jere
kir
kry
lic
mcr
million
nig
pier
pump
pages
ram
rough
rap
sour
sens
ts
tin
tis
typ
wisd
##ians
##kd
##kat
##ken
##rop
##zi
##hil
##hip
##ni
##des
##bn
##bug
##bby
##fy
##face
##92
##gi
##gra
##vv
##pet
##web
##wars
##71
##27
##erts
##erence
tooo
##ities
##ndry
##stre
##etcher
##eness
##iculous
##ashing
stack
staff
lip
##iller
##illed
weight
heck
china
chels
neph
upgr
price
alarm
plz
##ushing
amand
##issy
brows
knowing
##ffff
blame
##aaay
wave
gray
orange
everytime
points
##udge
secret
theme
switch
tweetie
##007
##ode
##cca
##athy
##ciety
ears
stars
starwars
urgh
hurting
idiot
amazon
##ashed
perform
birds
excuse
driver
posts
posting
stayed
##aaaaa
classic
cleaned
winter
forgive
holidays
chilling
unfair
curious
laundry
accept
cookie
simon
files
##elearn
conference
avat
avoid
flying
thereal
downloading
comments
dressed
hollyoa
chineselearn
ruby
kisses
stories
bathroom
large
michelle
richard
cherry
positive
bacon
details
gunna
golden
degrees
cloudy
glasses
yellow
continue
building
##donald
process
folks
slightly
conversation
tgif
several
aussie
custom
challen
original
performance
literally
according
wisdom
nephew
hollyoaks
29
99
bah
boom
base
cer
cnt
dork
fer
fear
ftw
hood
hulu
ilove
jew
mee
noo
nathan
oo
pit
pill
pour
path
ron
ross
river
sow
search
tes
tit
tight
tenn
ummm
viv
virt
yu
york
##kins
##real
##ae
##eh
##hl
##hal
##hrs
##sen
##nter
##bon
##bre
##bour
##bird
##jess
##fc
##90
##gb
##god
##vr
##42
##65
tow
todd
thes
##onse
##lll
##ese
##isy
##eta
stage
beck
meh
soap
shake
shock
lies
liking
lime
fred
anx
remo
subs
neg
outfit
princess
##uses
##usion
makin
awsome
##abe
britt
mission
##arts
##ardash
##ules
spec
blow
blond
anywhere
hows
guest
clar
cloud
grow
grrrrr
faith
drum
arch
army
coach
truck
user
pod
##emy
##ipe
scot
score
cris
thankful
appl
applic
smo
smoke
smooth
laid
##brad
##break
idol
otherwise
hardly
tele
##iki
parking
ending
recently
haircut
trending
adding
annivers
erin
termin
content
control
unfollow
##izzle
woop
opening
laura
spread
difference
jessic
salad
polar
respect
response
cancel
regular
firefox
celebrate
replace
replied
closing
popular
pulled
stephen
motor
ellen
voted
nikk
dannywood
animal
honestly
eggs
journey
jesus
cuddle
senior
bubble
frustrated
including
shooting
extremely
obviously
cavs
spoil
simply
miserable
jeremy
anniversary
48
austin
bast
buck
bunch
brew
cine
ds
dick
ec
eight
fed
fir
js
jane
ky
kayl
links
moo
mia
mouse
mush
nurs
oz
pd
ray
rab
rush
sr
sab
und
voc
wo
wicked
yer
##cott
##rin
##rid
##roy
##rence
##luk
##mat
##mel
##mers
##mac
##tra
##dc
##bh
##bor
##bear
##ji
##jab
##yb
##fish
##field
##81
##94
##gre
##64
##66
##75
##ington
##eem
##ayy
##oman
##sth
hal
##ota
##isa
##iser
##isha
myst
##enag
andr
##icip
infect
##chy
steak
states
bein
socc
ship
##ality
wel
##iment
worries
chas
chest
susp
neil
commer
##happy
##antic
alas
##rage
above
known
##eels
mode
speech
exerc
dece
funn
funer
twitterland
gr8
greet
groc
drove
arg
##aph
cock
against
pock
manage
##istic
seat
carl
headaches
pean
weekends
suns
##aker
##aked
player
admit
advice
##show
schools
besties
sometime
letting
div
glorious
parts
##ended
##gged
##fresh
embar
hole
ughhh
buzz
paris
##bled
fucked
skills
checking
boot
recog
musical
sniff
partying
##iewahl
dads
walmart
##ava
dreaming
surv
boston
lucy
term
revising
cutting
msg
##fletcher
grandpa
meds
slowly
seconds
danger
fellow
karen
##boys
laughed
selenag
basically
polit
police
##john
subway
surprised
##chester
digital
ridiculous
##guy
mamas
cousins
nooooo
bella
expected
auto
error
jordan
charlie
donniewahl
breathe
screwed
##00000000
recovering
mistake
clouds
suggestions
chapter
2moro
wifi
mariah
babysitting
deserve
delayed
circ
spanish
regret
avatar
selenagomez
donniewahlberg
23
31
6th
aid
ally
ari
aaron
bt
bust
cu
cig
cob
cult
center
dk
dye
eth
fif
houston
jt
jake
jac
jose
lul
ox
obs
oven
pad
rick
sd
sv
size
searching
ted
tir
tun
tig
txt
uber
ustre
va
vs
vista
wil
wire
yard
##cent
##cool
##run
##rain
##reed
##oz
##oft
##lan
##maine
##tell
##ture
##sup
##nor
##dam
##die
##bc
##bu
##bish
##js
##jan
##food
##fry
##fol
##ges
##van
##py
##pool
##wi
##ws
##wal
##73
thnx
tong
##ata
thel
##oned
##itis
##oof
##arr
##stone
##otic
##each
inn
forum
whore
stalk
megan
sober
socks
##ament
shad
shiny
liz
liver
france
sup
suit
##ryan
comb
##ttt
mah
imma
asap
twitt
brilli
##elt
##elow
spl
sports
##mme
devel
##aah
gud
##aud
growing
sadd
sadness
truth
##anger
beta
##ement
##aga
##iph
##berries
monica
sway
whoa
scan
science
##acey
urban
acting
actual
##ected
hott
##from
helped
listened
##anknight
##ensen
hearing
##black
runs
couch
sneez
accom
freezing
hunting
##ddd
##awa
##away
30pm
##sweet
prep
charge
restaur
boat
edit
updating
hopes
##gling
##yyyyy
invited
testing
definately
xxxx
confir
picking
counting
juicy
network
blocks
##aaaay
ahhhhh
ps3
magazine
graduate
geor
140
kicked
subject
ruin
standing
denver
##laur
replies
jerry
jersey
keyboard
##street
##ounge
doctors
cyrus
panic
typic
creative
garage
jennif
##news
neighbor
##2009
breath
comfy
degree
texting
yahoo
martin
assignments
signing
duty
utter
incredible
dishes
attempt
photoshop
florida
competition
appointment
smoking
peanut
recogn
tongue
27
55
500
bam
bomb
curl
corn
dies
dedic
eu
f1
fool
kl
kel
kyle
mater
mandy
nur
nood
py
pun
pound
pays
pian
rs
rp
ris
rent
sau
sett
sittin
td
tap
ugg
vill
vent
wen
wats
½n
##iod
##cd
##cia
##kay
##ral
##roll
##round
##rose
##lu
##zilla
##mike
##hood
##nk
##now
##bunny
##jd
##ju
##jac
##31
##ped
##wy
##78
tht
##oust
##oma
##eday
haw
##vey
italian
##isf
##ether
##ening
##icles
inc
ish
##lew
whit
whew
beans
##aded
##adam
##amed
shr
lily
##urance
##ira
##ppin
fran
notes
nothin
chees
reun
refer
supr
goodmorning
reach
##ential
##ilar
prot
alter
alice
plug
amount
##ateful
##elton
lolz
##oles
##alltim
##gend
blo
bleed
##obe
##oyd
##ella
clue
gree
grown
saved
##ooooooo
phones
conv
usb
uses
yeahh
sept
bitter
swee
tweetphoto
heads
scare
scene
##acy
##aced
unhappy
##shop
##ugget
thankyou
appt
appro
himself
hiya
picnic
url
lawn
minus
##ossible
##ggy
##gging
emotion
hoor
##bling
##blue
skype
##cream
belong
##zzz
snip
snug
30am
walked
teaching
##what
soooooo
hitting
provid
contest
contract
robluk
##1974
apolog
burr
metal
tommor
cait
syn
laurie
profession
psych
salt
cupcakes
prayers
human
correct
rule
quickly
britney
teena
mommas
heavy
mcdonald
rubbish
transl
mikey
##iiiiiiii
holding
##works
solange
pieces
massage
roomm
dhugh
talented
snap
errands
jordanknight
matthew
##ribly
events
selling
irish
##isdale
hooked
tweeters
spelling
viol
##mbers
rosie
locked
drawing
named
semester
2morrow
option
##words
ankle
economy
claire
ebay
wendy
captain
lemon
anthony
spirit
tastes
wasted
language
shannon
despite
baseball
virtual
subsc
soccer
grocery
##alltimelow
robluketic
300
4v
5th
bin
bing
bun
bass
bio
cre
cind
cord
cakes
cries
dates
dizzy
eww
emo
fal
gil
geez
hide
kp
kitt
kris
kwk
lon
mill
ment
mos
mang
nt
noooooooo
names
oil
ohhhh
pity
punch
pitch
pills
ri
rog
tc
tx
tink
tub
tyl
vet
wy
wink
wand
weak
woken
zoo
zac
##ias
##cs
##cook
##ket
##ointing
##li
##lam
##lie
##log
##zs
##zel
##mr
##mad
##tg
##tar
##town
##hy
##sa
##say
##name
##nia
##dave
##ued
##bd
##bot
##bill
##bra
##brow
##jc
##jp
##jud
##felton
##35
##100
##91
##gee
##gic
##vie
##po
##pher
##pack
##pting
##wil
##west
##70
##inson
thor
toss
##orter
##orting
##anie
##anny
##anoid
theater
theory
##online
##eesh
##ooke
##arian
##otha
##eag
##isher
##eng
##ened
##ency
##ences
##icing
##icia
##chi
##cho
force
forced
##reck
##asg
whether
stoked
belly
##idget
members
loser
##amous
goal
##usting
##sell
##irou
##iron
##iece
fridge
##imo
##ims
heid
held
canucks
##hern
reh
refu
reject
recept
##entr
##essa
##haw
noon
nove
plants
##usk
morris
gots
tool
##outs
imm
image
##ribe
aswell
todays
brings
missin
##uma
##arded
##alley
blues
##obs
##ober
howie
slam
wah
whenever
client
grateful
faces
drank
sav
trees
trade
waitin
##itted
##iped
select
carry
leigh
##lover
quin
quar
script
leavin
##ockey
sunbur
bedtime
##aki
unlim
adore
##shirt
##ples
##tsk
fluff
someday
##princess
sms
rains
rained
##ichelle
daw
##moore
feelings
craz
loose
yayy
older
##spot
pretend
trips
period
danie
tells
ughh
paranoid
trace
eliz
released
sundays
meaning
##tones
##lando
##aws
photography
rocking
##twitter
beauty
useless
prepar
previous
steven
killer
charger
hangin
##uuu
role
hmmmm
##hahahaha
cutie
indian
angels
invest
visiting
trains
tomfelton
colour
harry
giant
sales
2008
therap
##carey
humid
pupp
mmmmm
register
##parents
bugs
younger
vancou
mommys
square
pleased
balls
##paul
arrive
traveling
potato
wolf
laws
normally
atleast
blew
ringtones
lisa
impossible
nuts
memory
depends
emma
shoutout
hmph
topics
bowl
bowling
##harris
ignore
pressure
queens
installed
hollie
delivery
certainly
assignment
constant
constantly
palm
dutch
ultim
alyss
bothered
brooklyn
dreading
tweeple
victoria
creepy
html
japan
surprisingly
lmfao
chelsea
cereal
pathetic
##bourne
infection
december
pocket
mariahcarey
brilliant
develop
typical
roommate
dhughesy
kwk9
sunburnt
unlimited
vancouver
08
3am
7am
apr
apt
aye
bm
biz
bump
cart
cale
db
df
dur
dum
dall
dump
ee
fc
g1
gg
ginger
hp
hind
hating
hockey
iw
jd
jet
jos
jod
jak
jazz
java
kk
kas
keen
lugg
ml
mas
mud
munch
mister
nc
nz
nh
ore
oooo
pb
ping
pand
pff
poll
pure
rc
rot
ric
rave
sry
sized
sisters
tayl
tune
ub
wi
ways
wud
woss
waaaa
wings
ze
##iee
##ios
##ients
##cor
##cup
##city
##cmay
##kr
##kar
##rass
##oi
##luck
##luv
##ahh
##zo
##mate
##hm
##hu
##hours
##sy
##sed
##nl
##nin
##ui
##uel
##bi
##bies
##bag
##bstack
##jee
##jirou
##yed
##fo
##fon
##fest
##fab
##full
##80
##gal
##great
##geek
##vm
##vd
##vee
##pan
##wis
##walk
##45
##inner
thumb
toys
##anks
##oni
##onder
##onica
##itas
##itions
##ares
hamm
##otes
##vet
##eaks
##icated
inj
ing
##chris
fort
##asp
whoop
stun
sod
sob
solo
loll
##adee
shud
shitty
##sex
##irre
fries
fruit
##imi
##imin
wore
##days
twpp
cho
chant
chips
rebe
outl
##esss
##them
nov
noes
plays
amusing
likely
morgan
##rip
assh
awa
##abl
##ability
##andra
timing
bron
##eline
##arty
backstreet
##ffe
##uled
##olic
willi
willing
moi
agent
agreed
##mma
demo
##oytell
grass
grrrr
moments
drugs
greatest
saf
coc
phew
wouldnt
converse
usern
##agn
thingy
showed
cares
##azing
nicely
quality
makeup
##ewl
cramps
mari
adm
##shit
##ugal
smiling
##cious
##irsty
surely
beast
bigger
##freak
strug
luckily
guessing
kidd
employ
##ika
##oxy
snack
##ierd
sites
resist
awwwww
##nnnn
stops
repair
singer
##otte
foods
dogbook
kev
retarded
##kkk
terry
cutest
##roid
grandparents
samanth
decision
burning
goose
johncmay
tests
darling
##ebbstack
faster
budget
buddies
signed
cupcake
insurance
humor
george
publ
students
effort
viewing
broad
corner
sharon
wordpress
appreciated
disappointing
riding
transfer
jerk
##babe
audio
audition
bags
entry
sanct
obama
pancakes
recording
##ssssssss
expecting
created
stores
haters
oliver
data
anti
souljab
neighbors
banana
donnie
crashed
camping
explain
model
central
wknd
shaun
general
screaming
dawnrich
technology
incredibly
festival
considering
community
distracted
hiding
carolina
characters
##addict
##present
involved
limited
tmrw
comfortable
focus
international
electric
##knowles
dudes
henrie
kirk
license
##hilton
browser
starwarsday
tesco
tennis
##ardashian
cinema
nursing
exercise
funeral
survive
accompl
restaurant
village
snipurl
solangeknowles
reception
november
luggage
##oytellem
username
johncmayer
souljaboytellem
dawnrichard
05
4am
400
8am
aj
ara
bul
battle
cit
crew
cupp
cullen
dor
dim
diss
eag
fe
fy
foo
fid
gri
gum
gall
gifts
hip
heal
hated
heels
ian
ick
iced
jc
jj
jail
junk
jared
kam
kitten
lit
led
lines
lance
lamb
mz
mn
mf
m8
mow
meeee
mental
nun
nint
nail
naked
pee
pir
pear
punk
rr
rou
rat
rly
rus
rout
rum
rang
rarely
tend
task
tbh
wth
wra
wise
yee
##ieall
##can
##cra
##call
##ross
##lady
##aver
##ael
##zp
##zie
##mes
##met
##mine
##mod
##mond
##mary
##mates
##tn
##tastic
##talk
##tila
##hat
##hee
##hen
##him
##nz
##dj
##dess
##del
##uy
##uum
##uous
##ucc
##bat
##bud
##bach
##bath
##jour
##yk
##yer
##fiss
##1q
##97
##gm
##got
##gab
##gles
##vt
##vest
##vine
##vation
##vity
##pal
##pix
##68
##63
##28
##210
##inst
##inea
##inion
toron
##ati
thee
##itz
##oms
##sta
##stairs
##vell
##eah
##eaut
##eapp
##isco
andycle
##iceless
##chool
stat
steel
steal
stinks
bever
bebo
begins
##iders
member
society
##adi
shy
shak
shaw
shops
##illian
frick
frig
fried
anime
withdra
cand
chip
represent
negle
##hah
##hawk
no1
pra
prim
##aint
##ante
alp
##ksha
plain
##ctor
##ctic
##ria
##riage
awk
##abel
##abeth
twitting
brent
bridge
bruce
backup
knowled
##ffin
##ulin
##ige
##igirl
##igner
##olo
##olf
##eedom
##iney
spock
blink
nighty
slice
##mmensen
##ollen
guil
guilt
clip
organ
orlando
every1
saus
heroes
##aper
##apore
coke
phill
convin
poet
poker
##eme
wonders
##agr
##ubs
follows
manchester
##istry
##iper
seats
seven
separ
bits
swing
swift
swollen
lect
##loved
tryin
##ewell
##izon
##izes
cro
mothersday
##phones
##aching
uns
united
##anson
marks
marley
adop
advent
longest
flav
##pro
##prom
##prod
smack
joh
joey
##beat
##beck
glasg
borrow
partner
babes
active
eaten
##ivan
craig
crawl
omfg
##endo
##ggg
lying
lynn
harder
disg
perth
lovin
bush
ends
##oxo
stuffed
hunt
farm
resc
desper
crystal
satisf
preview
##nold
singapore
##ettes
charged
##white
winning
blogging
blogspot
##nessee
##club
edin
educ
##hahaha
horror
doug
attract
chilled
concentr
indust
india
robin
acad
grandm
similar
graph
johnny
films
##attered
##101
texted
legal
package
##medi
melissa
melbourne
touring
artist
##burgh
tomato
jean
jeans
karma
##rrrrrrrr
benson
honor
christmas
basket
##track
inform
infamous
mmmm
canceled
regard
kicking
##monday
bugger
##untu
britain
hollywood
##kyo
americ
reminder
reminded
maths
potter
potential
##eeeeeeeeeeeeeeee
cyber
covered
tennessee
location
michaelm
autom
progress
officialtila
bleh
##innam
penny
portfol
animals
reviews
hayley
homie
##eringring
filled
accidentally
bkite
berry
tweeter
freeringring
silver
connection
journal
baked
centre
target
successful
domain
kenny
##rosoft
contacts
thomasfiss
renew
october
grounded
virus
mexican
mexico
entertaining
brend
beginning
collection
mountain
spinning
character
multip
sleeep
motivation
female
zombie
flickr
natalie
destroy
linux
perezhilton
items
whisper
lizzie
##selves
twisted
sweating
medicine
typing
challenge
pillow
pouring
brittany
application
wireless
liverpool
noodles
reunion
convince
emotional
hooray
rehears
therapy
dallas
wossy
williams
sanctu
cuppa
toronto
andyclemmensen
friggin
neglect
convinced
glasgow
portfolio
06
360
5k
5pm
6am
95
ack
aqu
aaaa
bh
billy
cn
cw
cad
cate
cath
dl
dia
dyl
dirt
eee
edd
ft
fone
flew
ftsk
gem
gnite
gaga
hq
hed
hyp
ih
ire
jaz
jury
kin
kor
kal
kra
kore
kath
lj
lun
lower
lounge
mk
mcc
nar
nash
oy
og
ooooo
pt
pas
pil
pant
patch
pac
pets
porn
pete
panda
pony
rq
rate
roy
rod
rise
sj
sight
sink
sang
sass
tid
tam
una
uhh
vamp
valley
wu
wooo
wins
wana
xp
yi
yipp
yucky
##iors
##coo
##cal
##cie
##coll
##cord
##camp
##cullen
##kiss
##roo
##oen
##oha
##oons
##lt
##lj
##lis
##mur
##mum
##hem
##hod
##sat
##nate
##nik
##dh
##dee
##dia
##dling
##bg
##big
##bol
##bob
##bull
##bank
##bster
##yo
##fi
##fic
##3r
##36
##03
##93
##55
##gam
##gun
##gate
##gri
##gian
##gory
##pi
##put
##pink
##patt
##xi
##wm
##wing
##wee
##will
##woman
##67
##inter
##eres
##erie
toooo
##ature
##oning
##onic
##iters
##aries
##omor
##sty
##store
hai
hawa
youth
itself
italy
##eter
##eting
##ghh
##chu
##chan
##rep
##rell
##rend
##lem
##lection
whil
wheel
stu
stood
stol
stub
stitch
##kelly
bears
meow
mega
sof
##lys
lover
sho
shell
shoe
shifts
##sem
##urity
##alan
##alking
frm
fry
frog
frost
freedom
twurl
wassup
rez
allah
upon
##thin
##ileen
noise
pros
prince
prior
priceless
##antal
##raz
imax
immedi
##rix
asp
bru
bran
brandy
brooke
##osis
missx
##elf
somewhat
##arten
##ership
##igan
william
mock
molly
##eeds
##inez
spain
spoke
blu
blind
blows
thinkin
homeless
dex
##olla
##ellen
function
##aund
twitterberry
groo
arent
##aps
cod
coding
##ified
trent
enth
veget
popped
tomorow
sean
afr
##ysh
##ysp
overcast
##iac
##iao
##nyc
shoulder
gona
##yyjirou
whoever
leon
lemme
afterwards
leah
leaves
##acity
univers
playin
mars
marry
margar
marriage
ads
advert
sayin
##eams
flood
smiley
joj
letter
diam
##atherine
sooner
thread
thrilled
##ealand
probs
minor
coolest
##moon
##ection
craw
loop
##bro
##tail
helen
##quet
##quid
##quel
##free
realise
helpful
teh
##iko
listenin
parent
warning
soundtrack
skies
travis
10th
gods
recent
drivers
belie
##grl
mighty
relation
related
result
##tweet
useful
delete
##otten
##etti
instant
surf
surround
winner
annie
opinion
edge
luke
lucas
highly
terribly
##unky
##iction
##hhhhhh
computers
indo
indie
##glass
laught
barry
complain
complicated
deadline
burger
##iverse
goood
shortly
##connect
tommy
bbc
careful
2010
confusing
darren
melt
replying
##itional
##iety
##burg
bringing
papers
nicol
blessings
1000
nature
changes
accounts
loaded
joining
evry
katy
##easy
insom
numbers
diego
raise
respons
patrick
##coming
##marie
dealing
devon
digg
daughters
heaps
arrival
crossing
ryans
costume
muah
##worth
distur
##young
roads
owe
purse
vids
mentioned
latin
datab
kimber
engage
##ograph
tempt
impala
##nicole
##jonathan
anticip
filling
##2001
kristen
pigs
turning
turtle
##writer
washed
##stein
##steph
sunburned
mandyyjirou
silence
models
holla
##official
delivered
lifes
butterfly
dublin
cruise
judge
courtney
cubs
lesley
murder
suddenly
advance
entertain
settings
kirstieall
mountains
yoga
printed
##rific
foreign
sophie
effects
strawberries
discovered
climb
cameron
rove1974
escape
inspiration
sweden
kryst
upgrade
customer
shocked
anxious
negative
replacement
mystery
commercial
embarrass
allyson
fifth
obsessed
saddest
recognize
dedicated
material
piano
burrito
mcdonalds
##brown
preparing
ultimate
outlook
fyi
nintendo
awkward
knowledge
guilty
edinburgh
hawaii
whilst
stolen
immediately
mandyyjirouxx
kirstiealley
38
3g
36
4pm
64
75
7th
800
ai
aa
au
aer
aah
aching
bot
bol
bite
boooo
bod
bby
bare
bail
boun
bwa
ct
cyn
dill
dash
dull
dare
duh
ets
ecl
erik
fn
fift
fudge
gang
gmail
hw
iz
ira
irr
jst
jog
juss
kon
kud
kewl
lc
lr
lan
lah
lac
mb
mut
mim
mite
miz
nu
nj
nim
nine
nach
naw
nana
nhi
national
niece
occ
ped
pow
pers
puff
pork
pedic
riot
sq
sid
sant
sally
sandy
sasha
tall
tuck
tire
tape
vine
vog
vod
vicky
wook
wiz
wik
wreck
xk
yas
yuk
zoe
zealand
##iar
##cam
##cop
##corn
##kardashian
##rot
##ret
##ras
##ril
##rast
##read
##ridge
##o3
##oong
##oves
##lers
##list
##lace
##aid
##aoke
##ault
##zart
##md
##mg
##mia
##mcc
##muse
##ti
##hun
##sn
##spr
##nan
##nam
##biz
##bits
##jer
##junk
##james
##yh
##far
##fall
##fort
##foot
##360
##0n1
##54
##57
##gon
##gies
##vl
##vp
##via
##pn
##pes
##pea
##pad
##power
##xc
##xa
##xe
##wd
##wer
##wit
##wid
##49
##iner
##inis
##inty
##inating
thi
thail
threw
##erd
##erina
toes
toil
tokyo
##ingo
##ators
theb
theellen
##eezy
##ndr
##arin
##stor
##othing
##eaa
##ealy
##eally
itouch
andre
android
infl
inbox
##ghhh
##christ
##change
##rek
whom
stink
stell
stopping
styl
stole
bend
beha
beats
##iding
##idence
meat
mell
##lym
##lying
lobster
##aden
##adget
##amor
##amas
##amore
shuff
shark
shade
shared
shirts
sheesh
shaund
limo
##lda
##sec
##ura
##urdy
##iro
##ales
##alog
##unn
fro
frame
anton
dod
twi
cani
chin
chlo
chili
chores
refresh
suz
suzy
allison
comics
reall
reader
thisis
##thep
##theb
##thomas
##hael
pred
prison
prices
proof
##antom
alan
plastic
##usive
lovel
tools
happier
##este
asyl
seemed
##ando
abby
twits
twitts
brb
brun
brick
bride
brunch
breast
##osa
missy
##umber
##umbs
##eeling
weed
willy
##inda
offline
moder
newcast
##inem
spa
spiders
dean
decl
##aac
##aaah
##ello
clients
twitterverse
grub
sac
sorting
coco
mornings
##akeup
trick
trash
sleepin
sleepover
finale
##eman
waited
friendster
##ags
##ager
##ague
##ipse
monster
monitor
bites
bitches
overall
carn
shouldnt
##aze
legend
##lode
quotes
##uper
scen
##ews
##ewart
cran
crashing
##odd
##phere
unable
marian
adri
adams
##she
peoples
##rrl
##eye
flip
flower
##perry
smith
smok
smiles
joint
became
rainbow
##eeeeeee
littlefletcher
wrk
parties
lappy
##uffin
##quin
lyr
##ashes
lovato
damnit
famil
ughhhh
parade
remix
remote
sounded
skate
skip
boredom
tracy
coup
counter
recipe
belive
stuffs
sitter
##atte
chances
farewell
##iewebbstack
resched
##aaaaaa
cryin
##ibes
##avin
reports
pregn
##uzzy
blogs
blogger
handy
keza
##meg
sooooooo
failing
highlight
terrence
prov
hopeless
##icted
macar
##gled
angie
promised
acoust
cooked
gravity
security
filming
epiph
milksha
seafood
##conrad
passes
password
##106
calm
calvin
legit
microsoft
meliss
colleag
dragged
chocolates
mitchel
jackie
jackson
##burger
sentence
harley
jessie
reasons
bene
gregg
gardening
unfortunat
forgetting
iamjonathan
##check
bands
##carr
common
geoff
jenna
##gold
##theart
##thegreat
stressful
brave
views
##marsh
##paris
device
factor
factory
celebrity
vanilla
disappear
squirre
gigs
transport
##iiiii
##boots
##struct
audi
pulling
##eeze
costs
muse
solid
rolls
verizon
fund
wallet
roof
require
empire
nikki
notebook
ashleyt
randomly
michigan
inspired
##wwwwwwww
portugal
##smith
homes
tanning
smells
feedback
position
laurenconrad
bobby
##exp
torn
dollars
manager
bangs
fold
ignoring
jumped
bradiewebbstack
connected
dragon
yelled
attacked
cooper
louise
allergic
##xxxxxxxx
buffalo
judd
frustrating
##mommy
deserved
econom
##charl
shelby
knocked
auntie
crown
galax
muscle
taco
tacos
chrome
susan
suffering
condition
muffin
climbing
announce
discussion
gaming
ikea
opportun
feature
goooood
##design
##bnation
jewel
title
podcast
applied
terminator
woah
welsh
greetings
teddy
tuned
innoc
sneezing
prepare
confirmed
nurse
sauce
blokes
september
tommorow
tubes
tyler
registered
alyssa
april
ubuntu
stunning
asshole
##install
sausage
satisfied
basketball
dylan
hq0n1
korea
prosper
##connected
insomnia
eclipse
vinegar
thailand
theellenshow
newcastle
pregnant
keza34
colleagues
iamjonathancook
01
04
1am
2night
44
42
4ever
5am
70
88
8th
94
aun
apl
bj
bake
bond
bbl
bald
boooooo
cm
cp
cus
cel
cac
css
civ
cinnam
dot
dre
dere
dess
dip
dunk
dyn
duc
e3
fot
fang
file
fog
furn
font
fusion
gt
gim
gel
gna
giv
gurl
gary
gib
grew
het
hic
hud
hog
ist
icon
izzy
iantal
ji
jill
jays
judy
kg
kan
kil
kap
kenn
kale
kicks
l8
lid
lal
lulu
mit
mun
mug
mates
mask
mango
nes
nas
nad
nest
nort
nich
nipp
naught
nugget
od
ott
pg
pp
pw
por
peep
pul
pau
pem
pup
patter
peas
rt
rd
rome
rant
rash
rox
russ
rails
ripped
rules
sed
sack
sons
srs
sissy
tp
tack
tess
tiss
tel
tang
tank
tierd
vo
wes
wut
wack
wrap
zo
zone
zack
zero
½o
½ng
##iott
##ieee
##iya
##come
##cess
##cour
##cass
##cash
##cles
##cript
##kp
##kit
##kate
##kitty
##ru
##rit
##rett
##rams
##lou
##lor
##len
##lord
##lib
##zu
##zon
##eva
##mz
##mie
##mys
##mach
##tur
##hw
##hes
##hill
##hand
##hard
##hib
##hinks
##sav
##nm
##nar
##dz
##df
##din
##dan
##dar
##dul
##dig
##dav
##uzz
##uits
##uced
##bz
##bal
##bone
##bitch
##jt
##jv
##jul
##j106
##yan
##f3
##father
##fair
##fillion
##39
##300
##0o
##98
##96
##53
##56
##gir
##gia
##pot
##pie
##point
##xy
##wp
##wan
##wine
##wife
##4d
##41
##47
##qe
##qp
##61
##2k
##2s
##2b
##inee
##inate
thou
threat
thirty
##err
##erto
tooooo
tourn
towards
##inge
##orp
##order
##anz
##lle
##aya
##iton
##itation
##iture
##itude
##stood
##stick
##stud
##storm
##stars
##style
haa
haz
halo
youu
youuuuu
##otton
##eau
itag
##isn
##etime
##uto
##enc
##enz
##icular
intr
onion
##cht
##chell
isaac
forth
##asco
whack
stacey
beating
melo
sos
soy
##lyw
logo
logging
##ads
##amber
shir
shine
shattered
gov
lift
##ights
dayy
##ires
##aling
##alcon
##pppp
##imental
justice
anne
dol
twins
twenty
##opo
##opia
chal
chew
chatt
chase
reb
reck
reinstall
sud
suic
upcoming
comed
comet
realy
##tha
##thon
##thes
##ilk
##hac
##hab
##hale
prat
pride
alm
aloha
amb
among
##astar
donna
happiest
male
##inky
##eston
##estar
imo
imac
##cts
##rier
award
sees
##abear
aband
ability
bris
bros
some1
##arted
lolol
##ffy
##fficial
##icket
##ulk
##ula
##uleta
##ola
##olar
##olis
##olution
spook
sport
spicy
bla
bliss
blowing
##obile
exotic
exchange
slower
dez
dew
##olley
##reative
##oynter
##morgan
ohio
funky
guinea
wax
waves
clau
clap
clare
twitterers
grin
gran
gram
grum
sail
sacr
##rows
herself
sorted
##apr
##apa
coat
phase
env
convo
pole
betty
finan
##emic
##employ
##aged
##agne
section
themselves
##fever
carrie
leather
##aholic
tweetup
pepper
crit
cramp
##ocks
##phot
##aka
unemploy
##anscott
march
adult
##shot
flow
flies
smashed
bestie
somethin
jokes
sucky
##belly
starship
particular
yearbook
daft
daisy
##society
actress
mint
cooler
##nerd
##iviney
looove
loosing
##bron
##inton
##ordan
hardcore
dislike
##mann
pero
percent
compared
lovee
danc
kinds
kinderg
excite
famili
built
paramore
nothings
##blond
ski
##creen
checkin
babygirl
10pm
recital
musicmonday
clever
cleared
##zzle
##green
meetings
relief
hahahah
awwwwwww
desire
designer
rockin
##coffee
supply
##ibility
repeat
planet
trekk
prec
prem
coldplay
kills
killers
instr
charm
##uuup
blogtv
restr
keith
oprah
##cloud
assist
assume
hits
contrib
scrubs
chilly
expired
##onte
index
windy
##1986
curve
acqu
completed
compliment
##yyyyyy
hearts
decent
burgers
gooood
invis
shorts
12th
minds
##annab
##umpy
##umpet
passing
passion
opened
##121
##1234
icecream
texts
linked
xxxxx
president
##ampa
pasta
artists
county
lightning
jacket
##mingham
nicky
nicks
karaoke
fixing
honour
magn
layout
commute
selena
basement
seasons
geography
##starchild
##star007
genius
mmmmmm
raff
patron
effin
brody
guts
##mony
##monster
standard
smaller
espress
absolut
british
denny
devil
devast
digging
pleasant
transform
apartments
touched
holds
audience
stephanie
solution
mamma
experien
18th
boxes
distance
elle
fuel
owl
owner
atlanta
current
creating
document
debbie
matters
oliv
votes
engine
baking
bahaha
fatty
larry
umbre
addiction
jasonbrad
spamming
depend
hayes
hayfever
julie
rachael
soulja
neighbours
##roberts
dollar
include
recovered
ignored
silent
ahhhhhh
victory
bikes
bonus
jesse
##impson
programme
generation
80s
cowork
seniors
optim
atmos
estate
louis
venue
##rocks
##sketch
cruel
technically
batman
leslie
##bella
pamper
woods
cabin
virgin
strip
chaos
chemistry
girlfriends
taxi
attending
kellie
skinny
opera
operation
marketing
girly
symp
tutor
sweaty
awesomeness
hehehehe
strawberry
motivated
muffins
zombies
improve
##rupt
##hayes
champion
swedish
csi
nigga
accepted
nathanfillion
sowwy
limeice
anxiety
removed
archuleta
scotland
crisis
polaroid
stephenfry
spoiled
bastard
kayla
management
sunset
ridiculously
circus
cigar
cobra
joseph
tiger
stalker
shadow
juicystar007
utterly
pounds
settle
cheesy
reference
snuggle
professional
translation
kitties
##pherd
heidi
refuse
##ipedia
selected
quarter
fluffy
kasey
ooooh
safari
struggling
accomplished
citiz
dissap
##eautiful
##eapple
separate
rescue
concentrate
industry
grandmother
americans
ireland
korean
##oenix
dexter
diamond
crawling
surrounded
indoors
##glasses
laughter
cynth
etsy
fifteen
kudos
nachos
wikipedia
##junkie
shuffle
shaundiviney
lyrics
terrencej106
acoustic
ashleytisdale
juddday
blokeslib
dessert
furniture
iantalbot
kalebnation
pattern
srsly
itagg
jasonbradbury
37
32
47
58
79
ast
aust
aver
aub
aaaaa
aches
bom
bone
bry
bart
bead
beet
bik
batt
bkk
bucks
busted
bamb
booooo
bryan
ck
cf
cld
cere
cum
cure
crist
cache
dg
ding
doo
dood
dion
dag
dah
dual
dyed
ez
ether
ego
ewww
fon
fee
fasc
gy
gor
gent
gnight
gaw
gained
hk
h1
han
hir
hater
hint
ia
izz
jin
jar
jade
kle
kos
kyl
kathy
lg
len
lys
lens
leeds
mh
mast
mash
nm
np
nit
nate
nag
nxt
nause
nath
nats
nina
niq
nvm
oi
oph
oak
olym
pk
pout
pong
pine
pag
pops
purch
powers
qld
rb
rf
ror
reel
rul
rays
rag
rah
rug
rss
rib
sb
sess
santa
tn
tu
tas
tie
teen
tty
tina
tisdale
ud
u2
vm
var
vast
vel
vick
vip
vene
wot
wid
wrist
weth
wango
yan
yeeee
yooo
½y
½re
##iab
##iving
##ioc
##cee
##col
##case
##cups
##kb
##kf
##kee
##kill
##kie
##kers
##kies
##kia
##krist
##rl
##rt
##rp
##rant
##rest
##roc
##rina
##oor
##l0
##lon
##lea
##lal
##lking
##live
##lets
##lines
##aan
##aire
##mp
##mill
##mal
##mell
##mans
##mich
##mare
##mont
##made
##master
##mouth
##makeup
##tp
##tam
##tal
##tie
##hd
##hot
##hel
##hart
##hum
##hey
##hopp
##high
##hugh
##nut
##dm
##dx
##ded
##date
##daught
##dress
##uals
##bes
##bir
##bri
##bod
##bak
##bey
##bike
##btr
##bears
##bomb
##jk
##jas
##jew
##jose
##yx
##yard
##yles
##ygirl
##f4
##fur
##fah
##fty
##fact
##808
##38
##1p
##1w
##0r
##52
##gp
##gw
##gel
##gig
##gens
##grrl
##v3
##vor
##vas
##ping
##pit
##pers
##park
##pants
##xie
##was
##wel
##wall
##watch
##wag
##4h
##4life
##617
##214
thrif
thirsty
thumbs
##eric
##eries
torr
tops
tootha
##orks
##orate
##oration
##oria
##orary
##anic
##anas
##anner
##anced
##once
##llike
##eena
##esign
##ndar
##ndred
##oos
##arys
##omo
##omit
##omet
##omen
##eds
##stop
##stra
##stell
hairst
habit
##oted
##otcom
##veland
##ealf
##eash
mys
andys
##icit
ink
ingr
inlove
invent
##ghan
##chin
##chet
##chik
fors
forest
forums
##asi
wheres
stan
stone
stac
steam
stamp
stealth
sticks
stairs
##kel
beard
beers
beloved
##idy
##idel
sock
soci
##lyah
lobby
##ading
##adon
##aday
##addy
##amc
##amar
##amad
sham
shopp
shave
shane
shape
gos
goat
gover
##ldn
##lder
##illing
##uro
##tera
##alis
##alie
##aline
##uns
##ppus
##ppers
##ieo
##imum
analy
doh
dos
dope
doggy
heath
worn
twin
canal
##opher
chu
chea
chile
chose
chron
cheek
chair
chai
rey
rebel
neat
nell
goodby
##ryder
##ryanscott
react
##entz
thisstarchild
##essive
##ths
##thel
##ilee
novel
pritch
##anted
##usch
amor
amen
likey
gotcha
donny
##rab
mak
maggie
##ested
knw
knack
seek
##ishing
breed
##oso
##osen
##osoph
misss
##artist
##umps
##eeping
##ardi
##ardo
##ulg
##ulation
##nington
##oline
mozart
newborn
##gele
spare
blisters
##obb
exited
nightmar
howard
slim
slack
slap
##mmmm
##uckle
guide
clay
clut
clair
clothing
twittered
twitterville
grill
hopeful
faire
orch
dropping
sao
sorta
##apan
##ously
cole
trop
tricky
envy
encou
convert
construct
##angers
poke
poly
popp
popping
beth
##emp
##empl
##aging
tonights
mann
manly
manual
##istan
##irlines
selection
monkey
overhe
##picture
##nya
##asso
sweep
sween
shoulda
##aza
leop
quad
quilt
tryna
scrap
league
crunch
crime
creek
##oda
downstairs
sunglasses
unc
unit
uncom
universe
unexp
admin
##shire
##ships
madre
startrek
##place
##eyes
thankfully
werew
movin
moves
apples
joel
##eaky
sucker
hire
diana
##bec
##beats
glen
glenn
nevermind
##cience
##toad
earn
written
writers
urs
particip
chef
##soci
acts
activity
sickness
damage
##mental
ours
crab
loooong
##brand
##broken
##bridge
##ender
##sons
hot30
##frank
##frances
##heather
##spark
realbill
triple
hardest
string
strand
perman
hellen
compan
birmingham
yaay
loveeee
omgosh
dann
emerg
eminem
hoppus
##iku
kindle
##anky
parad
parks
warren
reminis
endless
runny
skool
tragic
travell
sweety
sweetest
jones
recall
recession
belated
##zzi
postp
snoo
snoring
accent
##cycle
##cynic
relay
superb
hairdress
resort
tail
poorly
theirs
rocky
rockstar
##coach
##tweets
awwh
foundation
mumm
wales
##oko
##avis
repe
defo
default
premi
steff
stevie
okayy
tease
delhi
sings
##ettem
##dev
charity
charming
##who
win7
##uuut
forgotten
hundred
holes
##cler
##cling
boiling
retire
retail
##kkie
eden
ladyl
luvin
erm
erick
horny
higher
##aseer
prove
attach
hoped
scram
expo
explode
##girls
indy
##roe
##ippin
4wk
4ws
4w9
curse
souls
acce
bars
complaining
sammy
decis
##oooooooooooo
graham
hungover
##owski
inviting
##anned
methinks
presence
presents
caffe
syrup
wears
melting
##ballerina
relaxin
medium
showered
figuring
spray
sprained
coursework
150
jackalltimelow
ashleigh
ashamed
##friends
papa
harris
4jb
honored
loading
chrisc
markhopp
signs
signal
magical
graduated
answers
fairly
polish
moods
patio
patient
##joe
effing
##marisa
kickin
##ieluv
dvds
menu
takin
takers
##bailey
standards
projects
dmv
ordering
denial
##oegele
16th
ohhhhh
auditions
popcorn
##guin
mua
paulo
paula
665
hilary
expert
experiment
elliott
elev
eleph
pcsketch
veronica
propos
covering
tracks
wallp
chicks
safely
entered
enterpr
davey
roots
rooms
xoxox
sticker
author
cape
caps
capital
capacity
garlic
yelyah
##mcinty
practically
practicing
directions
selfish
##jeans
intense
billion
label
landed
inspire
dannymcfly
witness
nutty
spotify
spammers
hosting
cheryl
julia
##arnick
antib
brandon
euro
disneyland
charlotte
mixed
banquet
piggy
turkey
torture
dolls
dollhouse
necklace
spelled
fitness
guna
balcon
freck
jumping
mistress
impressive
installing
returned
format
recommendations
clearly
handsome
continues
domin
ironic
logic
locker
shawn
scottr
semi
22nd
##unday
demons
##hearts
coollike
castle
leader
laker
frankie
procrast
loren
##casey
##aurus
beyonce
90210
bullshit
jpg
conversations
colorado
tattoos
kriss
pineapple
rhett
romance
romantic
softball
software
scaring
sandwiches
yesss
##jamin
washington
advant
##oooooooooooooooooooooooooooooooo
tonsils
lacking
trading
distractions
yogurt
photoshoot
multi
##egal
forecast
suffer
physical
physically
##president
drewryanscott
pushed
tiffany
wasting
sparkly
cameras
announced
escap
sinus
zachary
##butter
hacked
comedyqueen
sensation
tsarnick
##ropri
##grace
performing
hoodie
towel
guests
drummer
nikkib
firm
mushroom
rabbit
srry
vocab
andrea
##0000000000000000
culture
tiring
combination
georgia
##lauren
jennifalcon
kyleand
python
sweetheart
create
false
##ength
quinto
elizabeth
investig
puppies
pfft
injured
backstreetboys
samantha
sharonhayes
pearl
routine
##model
frickin
alpha
lecture
adopt
adventure
disgusting
academy
multiple
sanctuarys
neglected
category
jazzy
nashville
yikes
yippee
##kisses
stubborn
missxmarisa
africa
database
engagement
tempted
##width
toilet
shadez
frozen
families
epiphany
unfortunatly
disappeared
galaxy
opportunity
aplusk
cinnamon
hiccups
ottawa
##cessary
melody
environ
kindergarten
excitement
familiar
##blonde
espresso
devastated
ceremony
thrifty
toothache
pritchard
nightmares
encourage
unexpected
realbillbailey
emergency
hoppusday
markhoppus
yelyahwilliams
##mcintyre
jennifalconer
sanctuarysunday
160
2k
2w
2pm
4wh
57
68
600
6pm
630
7a
7pm
9pm
agh
aus
aven
asth
bou
bic
bid
bould
buch
bach
bash
bale
c4
ces
cone
cue
cork
cds
cba
cycle
dt
dn
dp
das
deed
dough
dans
dms
doom
dazz
ek
et
ere
era
eug
eps
fj
fis
fau
fond
fier
fetch
fern
gc
gn
gb
gw
ging
git
gul
gather
gps
goooooo
gadget
hve
hous
heeee
hence
ib
ig
iget
jg
jur
jem
juz
jai
kc
ks
kw
kend
katherine
lt
ls
lur
lees
luna
lacey
mj
mes
mea
mish
mig
meee
mowing
masc
mashed
nw
njoy
nba
oj
ole
oas
oww
ooc
pi
pon
pha
pnt
pies
pud
pile
pak
pug
pond
pens
pats
pune
peek
posh
pimp
pushing
ponder
peeling
rx
rer
rust
rig
rope
rank
rio
rings
ruth
rode
rasp
ses
sic
sets
sides
tay
titt
tah
tube
tany
tasty
tango
tnx
tshirt
tampa
vit
vic
vint
viny
vibes
wks
woooo
witty
woe
wealth
wives
wooooo
wiki
widget
xt
x3
xmen
yt
ys
yur
yest
yip
yaaaay
zt
##ih
##iea
##cj
##cp
##cow
##cil
##cus
##cout
##cul
##care
##cings
##center
##km
##kw
##kas
##kim
##kick
##rar
##rom
##rent
##rum
##rated
##riel
##raine
##ois
##ody
##low
##lus
##litt
##lah
##liz
##lated
##law
##london
##laws
##a8
##a4
##zt
##zf
##zle
##z94
##ej
##eer
##egr
##mw
##mee
##mack
##mus
##mand
##mph
##mons
##michelle
##muffin
##tom
##tot
##tre
##till
##table
##taylor
##tots
##hmer
##hole
##houston
##healy
##sch
##np
##nick
##nob
##note
##nugget
##dp
##dead
##dles
##diva
##u2
##uer
##ught
##uary
##ucing
##uya
##bk
##bin
##bet
##bid
##bry
##bound
##bage
##boom
##base
##beth
##block
##beautiful
##jenn
##yra
##your
##fam
##fil
##fail
##0y
##58
##50
##5v
##gor
##gay
##goss
##von
##vol
##pop
##pts
##pace
##xic
##wb
##wen
##wish
##wear
##wire
##43
##40
##qa
##qt
##qbee
##62
##inel
##inated
##inthe
thus
thick
thous
thts
##erv
##erve
##erealf
tott
tori
##inging
##oura
##oups
##oung
##orun
##anan
##ancy
##atth
##atically
##atives
##atomy
thef
thecom
##onies
##llc
##eex
##eece
##eeks
##ayyy
##itan
##itzer
##nda
##ooks
##aring
##argh
##arks
##arrow
##arah
##army
##ario
##omp
##omer
##omes
##omed
##edi
##eder
##eded
##edly
##edaw
##stee
##stances
##stewart
hazel
youi
youuu
##owr
##owww
##eason
##eacher
##eague
itst
##isin
##isis
##etes
##etra
##etty
##etnor
##utz
##eni
##enk
##enad
##encer
inner
input
##chuck
##chang
##chem
former
offf
##rem
##rex
##record
##lev
##lep
##leon
##legend
##asy
##ased
wha
wht
whin
whist
whip
ster
stere
stap
stats
stung
strep
stalking
##kell
##keys
bev
becc
bebe
##iddy
mein
meme
soda
loan
login
lope
##ader
##adas
##amy
##amin
##aming
##amic
##amur
shed
sheep
shipped
lied
##uster
##urse
##urning
##tersex
##alf
##alon
##aled
##alone
##ppie
weigh
##veronica
franc
fringe
##imon
##imont
ana
ants
##oody
notting
heater
hectic
ath
##hero
##oper
##opus
ches
chow
chir
chel
chica
##onely
reward
subl
suits
sulking
nemo
goodies
goodluck
allen
alllll
##ceo
##ryl
combo
comcast
reached
##acket
workshop
##thr
##there
##iled
##ilis
##ilig
##ilton
##ilicious
##hai
##haa
noone
nola
prize
princ
printer
##aina
alt
alab
alike
plat
plee
plot
##usin
amo
amp
amys
likewise
##aston
donuts
##rak
##rae
##rawr
mai
maz
maker
##inking
##outhern
##ests
imiss
images
imjust
##rive
##rien
##rial
asks
asian
associ
knox
knees
knitting
awak
todayy
##abi
##abs
##aboo
##abelle
##andal
timeline
abc
twiter
brut
brid
brett
breaks
##oser
##elg
##umm
##umar
##ookie
backpack
backyard
##ongo
##arde
##igo
##iga
##oliver
offering
offered
##nts
##allow
spong
spork
spree
spoon
blur
blown
bloom
bleach
##obal
##oboi
express
exhib
nightsh
nightmare
howd
slo
slip
slush
slipp
##opez
agu
defe
##oyo
##oyle
ohmy
guild
needing
clums
twitterworld
twitterfon
grat
greek
grease
grilled
granny
mucho
##ounds
orbit
drill
drool
ark
arse
arie
archie
arsen
sake
wishin
lasts
lasted
##ousers
coff
cody
coinc
phr
phen
phoenix
##ifi
##ifey
##ifying
tramp
trousers
woulda
confl
concept
users
vegan
vega
veggie
pose
poison
pointing
yeahhh
##wwy
##emon
##owns
##agna
##agical
##ublic
##itta
mayer
mannnn
##xton
##bernate
themandy
showers
overnight
overcome
##pict
##iah
##assing
##assic
carr
cara
caring
careless
lewis
lebron
headin
headphones
scoo
scores
##ewh
weekly
cram
##acre
downside
sunn
sunsh
bedroom
##aken
unite
unlike
##ansen
marvel
ada
adapt
##shana
##shots
madness
##eamer
flop
appeal
appropri
##max
smf
smashing
heycass
girlie
##ccurdy
joes
joking
joelm
##urely
lett
letters
talks
becuz
callin
diva
diagn
littl
##becca
glut
gloss
global
##cio
##cials
littlemiss
staring
writer
urself
##iche
dav
daved
davis
##pton
##ption
##ealer
chez
cheating
listed
lax
probly
damm
damoh
mines
##onda
hurray
eatin
omj
omar
##bright
##brush
idi
##ilyn
hotter
##ques
##quito
##fran
olds
##okey
lyk
enjoyable
##hepherd
##spir
trist
tripping
trippin
hardd
##iana
##iann
disk
display
strate
struct
stranger
perry
dane
bueno
##ension
warped
skint
sketch
serve
##crest
boost
booth
booze
elvis
10k
10am
sweets
drives
##othy
below
belgian
##zzie
poster
sneak
snuff
accid
freezer
##attack
relig
birthdays
hunny
superman
superstar
stayin
reset
awwwh
desert
##awr
##awh
photogra
mrss
rocket
##cohmer
classy
supporting
##fuld
##avid
dreambears
##bsdave
prejud
precious
cleaner
placement
messy
##why
##whit
camille
handed
bookstore
hols
illegal
roomies
##clay
asses
assum
eyed
returning
##anae
edition
hugged
##active
ermm
erock
soooooooo
horses
highway
terri
attics
revolution
cuts
contempl
scroll
jamba
chillax
grades
concer
concern
##ictions
##hhhhhhh
remembering
indiv
robot
robpatt
##roez
macquid
##eshk
yummm
##1983
##1982
##1972
4wl
curry
personally
promo
promotion
sarcas
acct
##flu
##flies
##flowers
barb
barack
barcel
##aleigh
owners
sample
samberg
##ooooooooo
grape
burbank
wooh
midday
inval
127
milan
falls
tila
metall
metro
##venient
bball
vision
visual
career
##apple
caused
darry
sykes
syndr
##media
micro
mickey
##cherry
profess
articles
relaxed
relaxation
medical
payday
lighter
sprink
blocking
favorites
15th
jackman
##ussy
67hac
ladybug
colin
easily
extend
jelly
sentimental
jessica
##aaaat
##rrrrrrr
100th
4jk
native
psy
laughs
naps
budurl
sonic
sonny
salon
salary
salvation
eva
christine
christina
downloads
graduating
##carter
##easing
##eases
commiss
command
commence
prayer
pinky
sidewalk
sidekick
fairy
numb
commentary
geoc
laptops
studied
##ynes
celebs
raf
parker
patience
petrol
##ferr
##isingly
effed
##marks
region
fireworks
gutter
##standing
dresser
dresses
answered
dvr
##rieshepherd
surprises
##monkey
standby
depression
misunder
vaca
vacuum
albums
appreciation
alexand
alexalltimelow
fabric
britne
teehee
cheesecake
digest
lineup
vanessa
freaky
reminding
ffs
heap
##777
167
cosmic
giggles
rides
##oids
produc
arrives
##2306
##stream
motion
cycling
mami
pissing
powerpoint
##faith
elliot
eleg
roller
rolling
wallace
##sssss
nooooooo
versions
locations
flights
storms
sticky
sticking
hahahha
peaceful
##mcg
##mcnugget
docs
required
debating
hatz94
olive
snake
##jean
intell
intro
integr
blend
errr
jennamad
jennettem
kimkardashian
labor
matty
voicemail
thrown
throwing
sum1
sumthin
inspection
##ambers
##azzi
discount
streets
portland
temper
##215
exhausting
addictive
angela
fishing
janet
##ricia
depot
depos
hosted
hostage
products
irvine
##newetnor
charlies
neighbour
45am
deter
hmv
honesty
breathing
kayleigh
##steve
exploring
##ification
recovery
balance
fost
freya
ignor
malays
mistakes
impression
speakers
entirely
casa
casey
##leton
##viol
refused
reflect
recommended
recommendation
5jg
biology
bakery
suggestion
maxim
beside
cuddling
essays
ironing
##askar
logies
scottish
generally
brianmcnugget
nano
nanny
nancy
naman
semin
lifetime
majorly
attacking
straighten
coughing
tablets
treated
valid
valent
##jackieo
statement
screamed
australian
sigjeans
venice
wifey
sherrieshepherd
hughes
buffet
lorraine
linda
##magazine
ciara
festiv
gasp
responding
5z3
crushed
appearance
attempting
attempts
grabbed
included
icons
kiy
##resp
strike
severe
considered
3333
ahahaha
brekkie
kelley
masterballerina
tags
traditional
communic
heavenly
achieve
crowd
hidden
pjs
pooped
tweeples
chriss
spinach
ceiling
mp3
ninja
symph
spirits
physics
junior
rawr
whoops
marcus
inspirational
tempting
temporary
focused
kerry
kerri
##kidd
champagne
brazilian
gooooood
pierced
pumped
source
upgrades
aussiecynic
ferret
iloveyou
##goddess
remove
specific
blonde
archite
smoothie
##bradie
terminal
unfollowed
motorcycle
48hours
brewing
mushy
rabbits
vocal
##melon
suspect
funniest
argument
buzzed
dangerous
karen2306
politics
political
ethan
jacob
tires
ubertwitter
##runberg
##damn
##build
##frye
thelonely
##amento
confirm
neighborhood
bamboo
pyroez
risk
hawks
whitney
alternat
bleeding
greece
bittersweet
approaching
apologies
tommorrow
psychology
teenage
##iiiiiiiiiiiiiiii
cindy
wandering
heidimont
refund
slammed
dawson
stevencohmer
indiana
potatoes
calendar
hindi
iwonder
waaaaay
##cupcake
##luvs
choir
rebecc
awaisn
employee
snacks
published
broadway
electricity
dimples
eagles
footy
grizz
gallery
icky
router
##pixie
beverley
praise
primaver
poetry
crochet
flavor
joeymcintyre
lynne
education
graphic
regarding
michaelmagical
automatically
renewed
rehearsal
eddie
hedge
lungs
ogberry
vampire
##rooms
stuart
stitches
reznor
bruised
enthus
vegetarian
leonard
universal
relationships
disturbed
entertainment
krystyn
bolt
pedicure
sql
wizard
suzyqbee
modern
carnival
reschedule
milkshake
greggrunberg
##charlotte
aunts
derek
fangirl
gimme
lalal
northern
naughty
nuggets
pembsdave
##digital
##fairy
tournament
reckon
sacramento
financial
babygirlparis
precise
premier
assistant
invisible
linkedin
debbiefletcher
umbrella
gawd
h1n1
nauseous
olympic
purchase
sessions
##hughes
##btrkisses
goodbyes
uncomfort
##francesca
hellenbach
paradise
reminiscing
repeated
attached
scrambled
accepting
decisions
caffeine
enterprise
balcony
escaped
kyleandjackieo
epiphanygirl
avenue
bicycle
boulder
pntbtrkisses
raspberry
ztnewetnor
##gossip
lopez
francisco
clumsy
arsenal
themandymoore
heycassadee
damohopo
prejudice
sarcasm
barcelona
syndrome
jennamadison
jennettemccurdy
karen230683
pyroezra
heidimontag
awaisnaseer
ztnewetnorb
1m
2n
2b
2x
2am
2uh
39
3x
3000
3hrs
3words
4i
4f
43
4gb
54
61
78
700
85
87
8pm
98
96
900
ae
ax
ave
aight
aston
aaaaaaaaa
aileen
airlines
bd
bg
bp
bck
bop
bish
baa
bour
bog
bia
bens
besh
bees
bible
bjo
bots
cz
cb
cj
cri
cope
cau
cia
cage
cnn
cents
cube
cuss
ctr
cuc
crib
cities
cathy
celt
cotton
dw
dea
dal
dul
dma
ditch
ducks
dsl
ea
eg
eft
ems
evid
eugh
echo
fired
fare
fatt
fuk
fiction
fuzzy
gp
gq
gust
gill
gur
gain
gard
geel
gian
gail
gents
gaining
gums
gomez
gillian
gavin
hh
h8
hv
hong
hive
hhaha
hips
hittin
hhrs
hanson
iq
iow
ich
iain
iris
icar
iya
ivy
iheart
jy
jee
jum
jag
jub
jens
jams
jpm
kt
kit
kool
kau
kaz
kak
kman
kik
kaw
kings
kobe
lb
leep
lick
loooo
lup
luff
lush
lars
linc
lara
litter
lanc
latte
length
md
mx
mw
mere
mop
mri
mead
msh
msp
moth
mild
mizz
mesh
meeeee
masha
miller
mraz
nn
ning
nir
naz
nak
nav
nett
nai
nhl
nvr
oc
oll
pf
p2
pes
pard
pope
pip
peak
pint
pms
pwn
patt
pav
pouts
poynter
qd
rn
rw
r6
rit
ras
raz
rik
rare
rated
root
rene
rental
raleigh
sx
sot
ske
sist
sian
sik
sana
sesh
southern
tl
tt
tj
tent
tif
tys
tia
taught
tastic
tara
tarm
tsk
tends
ui
uu
upp
ulc
ustream
vt
vh
vw
von
vee
ves
vim
voy
vix
viet
vars
void
vien
vlog
volley
wl
wd
ww
wing
wld
wnt
wool
wkend
w00
wock
wired
wiv
witch
wanda
wisc
wierd
xi
xs
xvo
yun
yuck
yew
yey
yaaay
za
zar
zen
zip
zune
½ve
##i9
##iks
##iers
##ially
##iap
##ials
##ija
##iantly
##card
##cox
##cert
##cav
##crib
##cored
##creative
##k3
##kad
##kra
##kah
##kenn
##kids
##rc
##r3
##rine
##rod
##rors
##rees
##rtle
##oday
##occ
##oeb
##ova
##lead
##lum
##long
##leen
##lif
##lud
##lbs
##lett
##leth
##lala
##lucky
##lounge
##aut
##aim
##zc
##zm
##zh
##zd
##zj
##z6
##z2
##zens
##zfuld
##ego
##mk
##mh
##mam
##mil
##main
##mour
##mile
##mix
##mandy
##mazing
##tb
##tx
##tain
##take
##tney
##times
##hv
##hp
##has
##hack
##hong
##hope
##hell
##hub
##hire
##honey
##hana
##sd
##see
##sic
##says
##suit
##n0
##nad
##nies
##nuts
##du
##db
##dom
##dub
##div
##doom
##dance
##uf
##uin
##uing
##uld
##ully
##uity
##uations
##bp
##bx
##bou
##bay
##bus
##buck
##bang
##bond
##bane
##bai
##belle
##bbles
##buster
##jl
##jq
##jin
##jes
##jar
##jun
##jand
##jox
##june
##jane
##juk
##yst
##yal
##yah
##york
##fk
##fb
##fay
##fun
##find
##fuck
##follow
##fits
##files
##818
##3g
##383
##0n
##900
##59
##500
##585
##517
##505
##gur
##gain
##gib
##grey
##gium
##gament
##var
##vind
##pc
##pee
##poo
##pre
##pri
##pos
##pies
##punk
##panda
##post
##party
##piper
##xh
##xv
##wv
##woo
##wow
##wart
##water
##wild
##4u
##4b
##48
##4p
##qo
##qs
##qn
##qv
##718
##2c
##2t
##inal
##inne
##innat
##info
thn
thier
thigh
thai
##erin
##eron
##erry
##erge
tove
##ouble
##orer
##orld
##orth
##orning
##orated
##organ
##orange
##anl
##anes
##anar
##anch
##annn
##anche
##atas
##attt
##atine
##ataylor
thesp
theerealf
##onday
##onym
##lli
##ayay
##esa
##esome
##esth
##eshing
##itate
##itute
##itated
##itable
##ndo
##oost
##oool
##aro
##arp
##aris
##arina
##arazzi
##ede
##edan
##edith
##ediva
##sting
##start
##station
##stock
##story
##static
##stryder
haun
haul
haley
haiku
##oting
##otch
##otions
##owright
##eacrest
itt
itchy
##ismo
##isley
##iseman
myy
myster
myname
mypict
myrtle
##etw
##etau
##etto
##ethe
##utt
##utter
##uther
##ench
##enna
##enger
anderson
##icon
##icole
inability
##chas
##chong
##chap
##chels
##cheese
##chua
##chitis
isp
ford
forms
ofcour
##reh
##reys
##leo
##leg
##leman
##asion
##asia
whn
whos
whaaaat
##cking
sta
stum
stace
steady
bean
belf
##idz
##idd
mend
megs
meghan
sox
sofa
los
loic
lold
logged
##adel
##adams
##adden
##amer
##aman
##amel
##amaz
shh
shw
shat
shack
shhh
shite
shoooo
shown
shah
shades
sheets
shipping
goals
liber
liqu
lips
limb
libby
ligament
##ldo
##lden
##illo
##illah
##ighton
##urve
##urally
##terego
dayyyy
##almer
##alicious
##unshine
##iez
##iex
fras
fright
##iman
##imate
##erell
anh
anoop
anotha
doe
doors
doggie
heff
heating
heyyyyyyyy
worm
atom
##llywood
twas
canad
##opu
##opes
chop
chain
cheet
chau
chore
champs
##onel
rex
rever
refr
neva
neuro
alli
allll
upstairs
##cey
outs
outdo
outfits
##ento
##entone
##entation
worker
workers
##that
##thest
##iloves
##hair
##hazel
noe
nod
nodd
nova
nokia
prix
prism
prints
printing
##aints
##ainted
##antino
aloud
alham
alien
alison
aloliver
##ionado
plate
pleeee
##usher
amster
amanda
thang
mort
morph
gota
loveyou
dong
donate
donation
##atel
##raw
##rach
##raph
maid
macc
maps
img
##ctose
##rig
##rian
assem
knife
##aba
##about
##abell
##ablo
##ishi
abit
brill
bridget
missk
missjo
whatta
whatchu
##eln
##eling
##elee
##elter
##arting
##artinez
##umi
##umed
##umstances
##ooked
backs
backse
backround
knoww
##ffles
##ardy
##nap
##naily
weeds
##ulf
##ulate
##ulting
##iger
##igning
##oli
##oln
##olas
offices
offended
##allday
##allel
evernote
therefore
moe
moby
mohawk
newest
newport
##hhe
##hhhhh
spit
spine
spac
spont
splin
spelt
spencer
blair
any1
anyhoo
##obil
exter
hadnt
slut
slum
slave
sleeeeee
##uchess
##ools
dey
dell
deangel
##oys
##aaw
##ucker
##ells
##elled
##elldav
guard
needa
needle
needles
waz
clone
clog
cliff
clara
claud
clinton
twitterific
grl
grim
grind
grove
grumpy
grentone
orth
everyon
everyones
drs
drown
drug
drops
drums
arc
ard
arrr
arvo
arnold
saur
sagee
##rowave
sadden
##apat
##apse
##apers
lastnight
cof
cozy
php
phob
phantom
##ifically
trim
trisha
hass
ens
ench
enemy
conan
concr
confu
convenient
##anged
finn
finna
yeaa
##emin
badd
tomoro
##itto
##itts
##ittles
##ittyp
mayb
mane
mania
whyyyy
##xtra
##istr
##ipop
##ipment
seo
sep
seper
sequ
##berlin
##ogy
##ogan
mona
montr
overs
overload
overtime
##assy
##assie
carried
swings
whose
leighton
##loe
##loid
##ahope
qual
quizz
tweeties
headlin
scal
scout
##ewitt
peg
pend
schoool
##iza
##izdel
wayne
leav
crust
crane
crimin
cricket
##acc
##aco
##odos
##odont
##phill
##phil
downs
sunbath
##akat
unh
unpl
unkn
unique
uncler
unlucky
playoff
playlist
marsh
marina
marines
marked
margin
adamb
##shock
##shirts
##ugging
madd
madina
madrid
maddie
##placed
flown
floss
flats
flush
flashing
floyd
##myh
applying
himym
##pretty
sme
smoo
smut
heyhey
bestfriend
awesomely
hiii
hiatus
hippie
tales
dios
divers
dianne
littler
glee
gloom
##things
borders
##cier
urge
eventh
babyy
dale
actor
actions
actors
laff
lactose
minn
minimum
hurric
hurrah
wherever
##moz
##ects
##ective
craft
crabs
looool
loopt
##boi
##iiit
omel
##brandy
##branch
bea09
##endent
keepin
yayyy
biggie
hotdog
##ggin
##ggies
##fron
##fred
##front
##inted
somethings
##kesh
amazin
amazed
lynd
lydia
songzy
##space
prett
trial
tripped
##ocat
##ireland
##iance
readin
disap
discr
##mania
stretch
strangers
perf
helll
comps
compare
complex
telly
yao
yawn
loveee
guessed
kidney
danab
##zy24
##zyjonas
emb
emil
embra
emzyjonas
hoe
excurs
excuses
amazingly
buh
buen
##enses
warn
warrant
remains
boyz
##bler
##bloss
##blues
sounding
skl
skim
skins
skating
skyp
skyl
serena
##cras
##crush
boots
boohoo
traged
trapped
eli
elaine
elses
101
godfather
recip
##incez
belt
puter
##group
##itchelldav
snick
meets
diner
giveaway
summers
relate
relative
farmer
resign
resume
researching
tafe
untill
##aaaaaaa
awwwwww
##lands
##landers
photob
rockeye
##coz
classmates
##nnnnn
##ibi
##ibaby
##neck
##nelly
##oku
##oker
##aves
dreamed
dreamwidth
pains
planes
trend
define
deflated
prevent
teased
singers
drinkin
##deg
placements
charley
charles
charging
##whel
##ymon
##ymaster
paige
##uze
handbag
annual
##onsin
resting
restoring
##cliff
boi
bold
boil
eyeb
retain
retro
edward
edits
edwards
luci
##nger
##hahah
ers
ernie
fails
failure
horrid
horribly
lili
lilx
highs
redo
##icially
##icians
teres
terra
prolly
proving
douch
seth
setup
scree
chilli
chillen
graders
concerts
##hhhhhhhh
indep
robs
robbie
##rov
macs
##ipper
##eshow
winds
yumm
##190
##1988
##1985
4wt
4w8
curly
cursed
laurend
angus
promising
aclock
##flow
##flip
##flash
##floyd
cooker
learnt
samben
heartbroken
##oooooooooo
gracie
googled
midget
invitation
shortstack
johnmaine
123
12am
##annie
##conn
studyin
perfectly
perfection
fallen
definition
##108
calor
bb517
visa
xxxxxx
xxxxxxx
lego
20th
emailed
config
confident
preschool
causing
catbook
djing
darth
##ronic
##ebob
##ebear
microwave
pickle
melan
melted
laurad
profiles
paste
pastor
watering
watermelon
##balls
toni
draft
##iethes
countries
countdown
networ
payed
paypal
paycheck
lighting
11am
##worktoad
67x
colours
jayk
nicer
nicest
##uko
##erae
dangit
flyer
harm
jessmcfly
##aaaan
sighs
reasonable
wakey
4jc
4jj
4jg
benjamin
natural
naturally
felix
felicia
markb
iamchris
sony
salute
##chef
jealousy
2000
evan
evans
##etheless
graduates
katies
committed
##lovegood
afternoons
humble
humming
arena
gemm
pizzas
womp
##uction
##incinnat
studies
##ynk
##333
infact
celeb
dieing
raised
raises
braces
viewers
regards
corp
##ielee
submit
clubbing
sharp
peac
##monton
esme
esmee
fighter
strap
exception
bottles
dealership
misst
misplaced
vacc
vacay
applecored
alexa
##oopers
philip
philosoph
denmark
miiz
##force
##ginger
cheeseburger
devyra
sarahamur
celebration
celebrated
vancity
##tenance
webcam
freaked
drunken
teamcyrus
404
closes
closet
closest
techno
understands
touching
worrying
produced
arriving
travels
jasmine
keych
##strong
##111
##guitar
costa
##eeeeeeeeee
##eeeeeeeeeee
stephan
muy
##timore
moonfrye
hilzfuld
powerful
##182
lawrence
boxing
distant
darkness
element
pcd
panera
rolled
verify
##206
coverage
recorded
fuzz
walls
entering
sleepytime
burns
noooooo
waters
watson
shuts
shutup
shallow
designs
michaels
creativity
rooting
##247
storage
stickam
websites
huhuh
gareth
garrett
nonetheless
requiem
debit
debby
directly
directory
snail
##afone
##aftersex
##jeff
intel
intended
kimmy
swimsuit
250
bailey
labs
labels
matild
matrix
matinee
eventful
kate383
michele
##iotics
##wwwww
discoura
animation
animated
angelic
nutella
richie
tmw
tmobile
spotlight
homies
##heads
imagin
brandi
eurov
nkangel
posit
##doch
##weetup
##daily
##daisy
berlin
banks
hooker
kristin
##robb
##wright
##writing
toriloves
increased
campus
banging
cellphone
fitting
vibe
vibr
explan
cheered
cheerlead
baltimore
foster
hyster
honeymoon
malib
roses
sirius
havnt
receive
bradie
speaker
ahhhhhhh
cases
casual
joshtastic
##letter
thunderror
thunderstorm
refuses
bonjour
uggh
yelling
##scott
##oredman
domest
irony
##iamonds
##ovan
##ovie
arghhh
stronger
drawer
merc
merch
merlin
matches
origins
##roseall
##ouchy
##reyes
##reyoday
lifest
nosebl
clicked
august84
bubbl
gahh
gabby
options
treats
##martinez
##jackson
hallmark
chiodos
demand
scheduled
dryer
dubai
leads
leading
leadership
nih
renee
venus
frankiethes
cruising
credits
cracking
cracked
aiming
bathing
lindse
lindsey
miranda
mirror
mainly
maintenance
rosehw
ultra
##magn
##llllll
##llllllll
jimmyfall
ahah
cubicle
oceans
toyota
##ttttt
babysit
personality
5z7
aaah
aaaah
laser
lasagna
lambert
octo
pinched
pamela
icant
kiwi
kaush
##radio
##belie
striped
dreadful
advanced
entertained
ahahah
mmitchelldav
mastered
masterchef
otalia
racism
##affe
##mission
golfing
##ophil
knocking
claim
tradition
levels
launched
scratched
aussies
further
kirsty
muscles
sfo
##aloves
spoilt
arrange
lexus
lexington
corey
ninj
sympt
forehead
sophia
susie
conditions
awesomness
involves
effective
discovery
miked
reeeally
ssd
##michael
statuses
##celon
planted
sparkle
##gggggg
announcing
languages
equipment
foxy
gamer
hobo
hobby
linz
nessie
##444
whiskey
##urtis
champions
blankets
appointments
teachers
medication
07k
geeks
ghosts
mcraddict
piercings
tinchy
##kenny
##giapr
lipstick
amandab
browsing
##ffffffff
switched
##aaaaaay
therealsav
customers
nephews
29th
dorky
toddler
thesis
becky
specifically
cloudconnected
crisps
applies
applications
motorbike
##boro
##666
##sthem
suspected
neilhim
alaska
funerals
##aphoto
cocktail
admitting
divor
sniffle
lucykd
##johnson
circumstances
regretting
31st
aiden
arian
oxy
tigers
thelast
stalkers
split
monicafrancesca
hottie
prepared
georgie
georgiapr
##laura
jennifer
utterhip
curled
pounding
rsvp
rented
##jacobs
hawt
shrimp
lilyroseall
suprisingly
protect
alternate
belongs
providing
apologize
sync
teenager
teenagers
mikeyway
subscrib
subscript
subscribe
bunnies
falcon
loner
millions
mentor
pitcher
rogers
tcot
##lamation
##wilson
thorough
rejected
morrisons
craziness
daniell
danielf
wolfie
queensland
japanese
development
bmth
bumped
cartoon
dfizzy
josie
jodie
pinging
richa
raven
zelda
##fabric
hammer
injury
lollipop
novaw
##ablack
bronchitis
admitted
broadband
accomplish
eagle
fiddle
pirate
russell
route
##journey
beverly
adventures
##product
desperate
desperately
##nolds
attractive
honorsociety
information
whisperer
rehearsals
sanctuary
bhb
hypn
ihate
pilot
sinking
##cooper
##ltd
##murphy
##dhc
##omorrow
##alanche
frosty
priority
aspaphoto
branch
functioning
##yspears
adsense
jojowright
relationship
katyperry
ryanseacrest
kimberly
anticipating
bodies
dashboard
iraq
tucking
vodafone
##mccoy
##peace
stellar
##seconds
twiiter
chloe
refreshed
predict
asylm
asylum
coupon
coupons
macarena
calvinharris
benefit
squirrel
museum
requirements
economic
innocent
dreary
givin
hudgens
kilkenny
porridge
##cription
##0o0o
##studio
##encies
##lywed
reboot
suicide
comedian
prateek
amongst
brisbane
spooky
claudi
##photography
unemployed
particularly
instrument
restrictions
contribute
acquired
nicksantino
magnific
transformers
documentary
coworker
atmosphere
sympathy
cigarettes
kasey79
citizens
average
aubreyoday
fonts
lyss
masters
ophel
velvet
wethetra
yoooou
##iocre
##human
##jewel
##factory
torrent
hairstyle
##eashley
inlovewith
##adonna
govern
dosent
cheaper
chronicles
knackered
tropical
poppins
sweeney
glennbeck
stranded
travelling
postponed
hairdresser
wallpaper
nuttychris
antibiotics
freckles
scottrmcg
rhettroberts
advantage
nikkibenz
firmware
2w5v
asthma
fierce
rusty
vintage
vinyl
yipee
##couture
##edawson
nottingham
sublime
##andalous
spongebob
exhibition
arkham
coincidence
phrase
phenomen
trampoline
appropriate
joelmadden
gluten
idiots
photographer
concerned
robpattinson
invalid
darrylep
professor
misunderstood
britneyspears
intellig
temperature
determin
freyalynn
##violet
##respond
architect
grizzly
beverleyknight
krystynchong
suzyqbee10
uncomfortable
2uhs
3wordsaftersex
evidence
geelong
iowa
icarly
jpmizdel
lincoln
meshel
tarmac
varsity
w00t
wockeez
wisconsin
xvojox
##81849
thighs
##atasnaily
theerealfdhc
##esthetic
mysterious
##chapman
ofcourse
refreshing
alhamdul
amsterdam
mobypicture
spontane
deangeloredman
concrete
montreal
quizzes
headlining
unknown
unclerush
marginatasnaily
diversity
hurricane
songzyuuup
independent
aclockworktoad
sambennington
networking
jessmcflyxxx
##incinnati
sarahamurdoch
kate38381849
eurovision
nkangel74
torilovesbradie
joshtastic1
frankiethesats
rosehwang
jimmyfallon
mmitchelldaviss
mcraddictal
tinchystryder
therealsavannah
neilhimself
georgiaprincez
lilyroseallen
wethetravis
scottrmcgrew
jpmizdelicious
03
02
1x
110
1pm
1hr
2z
2m
222
2moz
3k
34
320
365
4u
41
49
4wn
4get
4got
53
56
530
63
69
6p
8d
81
82
830
9m
9th
ayy
aph
aired
azz
avid
aots
astr
arik
axe
auction
batch
bore
baz
bose
beam
brist
benn
baaaaaaaa
bisc
booooooo
bcoz
c0
cg
cay
cen
cun
cth
cong
cens
catt
cave
cops
cya
cider
cze
csk
cuuu
ciao
dy
d3
dx
dit
dome
dil
dand
dice
daz
dup
dak
dint
dooo
dating
dorm
dandy
dora
dns
darts
dota
duper
ditto
ej
eq
egh
eld
eter
eup
eta
ehhh
eeee
ecom
eileen
efron
fw
fay
fad
fion
fame
fought
fits
feb
fade
foto
fiest
fuuuu
fusch
gs
gis
gus
geet
gour
gau
gays
gma
gpr
gio
gina
gush
goooooooo
geee
gino
gator
giddy
hs
hn
hos
hers
hatch
hort
hcc
hired
hord
hats
hann
hump
htc
hype
hulk
ij
ion
iha
iame
jl
jn
jv
jw
jor
jol
jav
jets
jude
jayl
jml
jizzle
jalan
jello
jedi
km
kd
kv
kes
kur
kand
kul
kub
kah
kod
kans
kav
kett
kits
koh
kfc
kardash
kardashian
lk
lf
lv
lus
leel
lool
laa
lag
lore
lint
lbs
lenn
lump
lane
latter
lena
lala
lined
ljs
lashes
mg
mck
mack
mul
mol
mice
mour
mrr
mss
mii
moss
mens
mio
mosh
mwa
mcca
mgm
ns
n9
nou
nee
nie
nop
nth
nif
nii
nike
nym
niley
napt
napp
nya
nita
namb
nites
nudge
ov
oow
oth
obl
oof
ovi
pent
pel
pang
paz
pause
psp
paw
pins
pals
png
penn
pja
puma
pablo
qi
ql
rj
rv
rlly
rol
rally
rpl
ruff
riv
rats
rates
rav
rents
riley
rapp
range
reese
rising
rye
reno
razz
rape
rushing
ritas
sas
sill
sere
sate
sri
saa
sash
sank
sier
sins
sams
syl
sgt
sinc
sista
sipping
sizes
tb
t0
tet
tad
tame
tuff
tash
tary
tits
tied
tyn
tuc
tester
tuna
tanned
tshirts
uhhh
upper
vu
vj
vp
vin
vou
vas
vie
vood
vul
vets
vital
vinc
vhs
vroo
vpn
voegele
wt
ws
wn
wv
wir
weet
ward
wating
wann
waaa
wester
waaaaaaaa
wimp
waaay
wiped
waaah
weeping
xl
xh
xj
xan
xen
xmy
xspark
ym
yoo
yays
yank
yarn
yupp
yooooooo
yorks
yoko
yvon
zs
zy
zim
zel
zem
zanna
zzz
zhay
zzzz
½l
½a
½6
½ch
##i3
##iw
##i7
##iaa
##ibe
##ibles
##iwil
##cm
##cn
##cb
##c3
##c1
##cit
##cre
##cri
##cob
##cope
##cub
##cnn
##cons
##cont
##castic
##curtis
##ku
##kle
##kur
##kil
##kaz
##katt
##kno
##kitten
##kumar
##rk
##rw
##r2
##rim
##rry
##rack
##rice
##rays
##rud
##rise
##rox
##rary
##rfc
##reams
##really
##oj
##oou
##okes
##oze
##ojay
##oeln
##lk
##l3
##lg
##lq
##l2
##lay
##lad
##lain
##lind
##lap
##lies
##lang
##lip
##laz
##lily
##loud
##lai
##laine
##ao
##aic
##aks
##aking
##aired
##aways
##aily
##averse
##aula
##z1
##zx
##zw
##zin
##zee
##zes
##zip
##zona
##eo
##e1
##e4
##eone
##eff
##eous
##ext
##eber
##eats
##e87
##mj
##m1
##m5
##mx
##m7
##mea
##mid
##mast
##mos
##moy
##mah
##mak
##mend
##mint
##money
##mals
##mars
##mills
##miles
##maker
##mitted
##t5
##tor
##tay
##tri
##tos
##tel
##ties
##tah
##tles
##trip
##hc
##hon
##hur
##hus
##hos
##hig
##holl
##hang
##hist
##hog
##hatt
##hark
##hoto
##hanson
##holla
##si
##s4
##sin
##set
##sam
##sher
##squ
##sville
##sgri
##screen
##sbeautiful
##nee
##nom
##noy
##nem
##nation
##nip
##nity
##nox
##nib
##nows
##nurse
##d1
##dat
##dood
##dab
##dope
##doll
##duck
##doc
##dale
##dler
##uo
##uke
##uine
##uell
##ukes
##uces
##uomo
##b5
##bw
##b4
##bic
##bas
##bly
##bast
##bys
##beam
##bkk
##brew
##benn
##bows
##bones
##bism
##bugs
##baker
##bysh
##jj
##j3
##jie
##jim
##jth
##jos
##job
##jag
##jizz
##jama
##jandra
##yu
##y9
##y7
##yam
##yth
##yout
##ylove
##f5
##fw
##f2
##fing
##fst
##fie
##fra
##feed
##four
##fag
##fash
##fav
##fork
##fka
##faces
##fold
##8k
##8r
##8s
##8q
##3d
##3f
##3x
##3000
##1fan
##1121
##0l
##010
##9i
##5s
##5th
##5000
##goo
##gly
##gth
##gum
##gang
##gag
##gup
##gurl
##gars
##goes
##vill
##vish
##vard
##vide
##vans
##vik
##vier
##vins
##vina
##vict
##viet
##vices
##voegele
##pb
##pat
##pow
##pir
##pil
##part
##pick
##pear
##pose
##page
##pire
##pier
##preci
##paste
##pund
##porter
##pdx
##xd
##x0
##x4
##x2
##xst
##xander
##wc
##wo
##wj
##w8
##w9
##wx
##wat
##wie
##wiss
##wand
##wick
##wiz
##witch
##wered
##wreck
##wentz
##wifey
##wittyp
##46
##4ever
##414
##420
##408
##4president
##qc
##ql
##q13
##6n
##6j
##612
##614
##626
##733
##2v
##2ia
##277
##224
##inz
##in9
##inor
##inos
##inity
##inib
##inness
##inces
##inja
##invey
##inthes
thin
thas
thaa
thera
thnk
##erad
##eros
##erous
##errr
##ergirl
##ervation
tok
toll
toward
topped
tooooooo
##ingal
##inggirl
##ouz
##ouxs
##orah
##orman
##orne
##anv
##ania
##atm
##atb
##aty
##atan
##atum
##aters
##atible
##atient
##ativity
##atq13
theo
theh
thej
thecl
theblack
thedaily
##onot
##onight
##onian
##lls
##llir
##llite
##lloyd
##eeyed
##ayd
##esp
##esad
##esful
##iti
##itos
##itary
##itals
##itations
##nds
##ndd
##nday
##nders
##ndip
##ooz
##ooow
##ooper
##oosing
##arat
##aroo
##area
##aret
##aren
##arry
##arra
##around
##aria
##arrr
##arey
##arich
##arris
##arro
##arling
##arcia
##omon
##ompt
##omson
##omato
##edge
##stm
##stow
##stic
##stant
##state
##steen
##sthing
##stage
##stopp
##stats
##stupid
hail
yous
youuuu
##otle
##otter
##othe
##otype
##owen
##owning
##vement
##vender
##vene
##vegan
##vegas
##eaz
##eaver
##eaway
itv
itll
itch
##isi
##isk
##isay
##isch
##isse
##isem
##isey
##ismy
##islife
##isstee
##iswiss
mya
myth
myers
mycar
myinner
##eton
##eten
##etter
##etite
##etown
##etta
##etching
##etches
##etooth
##uted
##utie
##utions
##enha
##enia
##enorn
##enade
##enka
##enstein
##enews
##icu
##icer
##icar
##icity
##icester
ines
init
inse
inher
inik
incon
inrs
incom
inches
inlaws
##ghz
##gher
##ghee
ono
onions
onwards
##chad
##chew
##chelle
##chino
##charm
##chambers
isac
forbid
oficially
##reid
##lez
##lell
##ases
##asher
##asnow
wher
whine
whitt
whiny
whits
whipped
wheels
##cky
##cknight
stv
stre
stad
stays
stash
stones
stiff
stoned
styles
stanky
##keith
##kevin
bex
##ido
##idoo
##iden
##idual
##ideshow
mechan
memph
soz
sole
soak
soggy
##lyheather
##lyamaz
loong
loft
lovers
lolll
loyal
thati
##adent
##adong
##adge
##adoll
##adays
##adia
##am0
##amal
##amand
##amos
##ammy
##ambr
##amazing
sht
shld
shal
shant
shab
shif
shav
shont
shizz
shamp
shopped
shield
shred
shizzle
shaked
shuld
goeb
liv
lion
liam
livin
liquid
##semb
##illie
##ighty
##ightful
##urr
##urb
##urge
##urfer
##urred
##terbury
day26
dayzie
##iri
##irene
##irowr
##alin
##alen
##alad
##alam
##alore
##alph
##always
##alfon
##al1986
##uno
##uny
##uning
##unner
##universe
##ppa
##pps
##ppen
##pple
##iths
wei
weare
##very
##verty
buti
fris
frown
frag
frak
frapp
frazz
frances
frugal
fruits
fruity
##imer
##imsh
##imcfly
##iments
##imonds
##immons
justwatch
ano
ans
anit
anam
ange
analog
anatomy
anberlin
##oodness
dop
dock
dose
dozen
nott
notorious
heir
heine
heated
twt
twn
twat
twig
tweed
twib
twebbstack
wasabi
canon
canber
candle
candid
canvas
canterbury
##herlands
##opr
##ople
##oplin
chk
chor
chad
chil
chub
chach
chich
choke
chik
chopp
chats
chops
chino
chester
choked
cheeks
choosing
gett
rein
remy
rept
regg
recr
repress
rearr
relying
sue
suuu
suites
nem
neon
nekk
necessary
goody
goodnite
alll
alley
allergy
allright
upside
outline
##ryn
##ryor
##ryss
comic
reaching
reaction
##enthe
##entina
workk
nowadays
##essss
##esssss
##thy
##this
##thet
##thought
##thouse
##thorne
##ilo
##ilow
##ilver
##ilinn
##hav
##hach
##haus
##haaa
##habit
noi
nos
noct
noble
nostal
noisy
prime
props
prada
priest
priced
preach
prizes
prague
##anti
##anton
##anther
##antos
##antley
alb
alum
align
alither
aloe
albert
alicia
##ksh
pluck
plots
plaster
amyy
amused
thanking
##astr
##asting
##astor
##astics
morr
moring
doni
dontt
happend
##rac
##rael
##razy
##raven
##raham
mae
mau
map
mahh
maaa
magg
mahn
maui
maaan
maenad
maaaaan
##estr
##estn
##estones
ims
##rippers
asada
assemb
knuckle
awhh
aware
todayyy
seed
seein
seeking
##abou
##aban
##abid
##abab
##abeen
##abass
##ables
##abbit
##abdul
##ande
##andh
##anders
##andco
##andez
##andfriends
timmy
timeee
timothy
##ishy
##ishere
abd
abusive
abrams
abbey
broooo
brenn
brits
brief
brushing
breezy
breeze
bronte
brooks
bracket
##osil
##osion
##osmond
missd
misssh
missss
##elp
##elope
##elock
##elps
##elaine
##eluj
someones
##artment
##eadmill
##umul
##uments
##umbling
##umption
##eepy
##eephoto
backk
##ffield
##ffiths
##ongs
##ongirl
##nally
##naud
##naught
weee
weeding
##ulse
##ulus
##ulum
##ulary
##ulbert
##ulko
##erscore
##igi
##igma
##igeb
##ols
##oloo
##olve
##olick
##olation
##olove
##olfs
##olences
willie
willem
##indy
##indab
offense
offically
officia
offspr
##ntm
##aller
##alloy
##allfabric
everbody
moj
mog
moan
moll
mold
moore
moons
mozilla
mofo
mohand
newark
newbie
##eedo
##eedy
##eeded
##hhs
##gear
##gebra
itson
itsucks
sp2
spay
spar
sped
spill
spice
spect
spike
spoken
spears
spazz
spilled
spymaster
blan
blister
blower
blerg
blunt
blades
blushing
blahh
##obi
##obo
##obra
##obson
##obbing
exit
##atches
nighter
nightlife
slot
sleeee
slipped
slideshow
agile
aggr
agrees
deer
dele
decr
demon
devers
degen
##ollo
##olling
##ollie
##olleeee
hahaa
##reations
##oya
##oyf
##oyal1986
##moron
##morris
ohm
ohwell
wellington
##ucking
##elleb
funnn
guinness
##augh
needless
wakes
waffles
clark
clipping
twitterer
twitterena
twittertake
##dyn
grid
groom
grief
greets
gromit
groups
greedy
facial
oro
orph
orders
drea
dram
drows
arth
arty
arts
arto
artw
argue
arnaud
greatly
sap
saga
##kings
wished
herd
heres
sadie
saddo
sorcha
##apra
##apoint
##iesgirl
cox
coats
covers
phi
phat
phoe
phoeb
tray
tres
tricked
trumps
troopers
treadmill
hasnt
hasht
enought
energ
shep
sheila
sheffield
conor
conse
conver
conqu
convent
lookout
##angle
##angod
thenew
usd
veh
polly
poking
poem
poets
poppy
poetic
poppin
poverty
betta
finest
yeahhhh
yeaahh
byron
byeeeee
badge
baddd
coulda
waitress
##agent
##again
##agious
##agree
##agram
##uba
##ubin
##ubed
##ileys
mayhem
manic
manny
manners
##ively
##istra
##ipt
##ipino
sez
sev
sexx
sega
sewing
sequel
afwife
themake
##ogs
##ogg
##ogers
monies
##ysc
##ysalis
biting
showin
showtime
showcase
overrated
overwhel
##piclyamaz
cary
carly
carnt
carbs
carmen
carpet
carrot
carrier
swiss
swell
swap
sword
switzer
swallow
whoaa
ley
leica
leicester
##loj
##lost
##loven
##ahar
##ahman
##ahua
quir
queries
okie
oklah
tweetstats
sci
scra
scum
scale
scoop
scorp
scrab
scifi
scandalous
##ewentz
pei
pep
peer
pebbles
schol
##izer
##tycd
wayned
afterall
leap
leaked
##acr
##acing
##acan
##acrow
##acies
##acious
##odg
##phin
##phys
##phia
##phantom
downer
suncream
##akery
##achrist
union
unif
unity
unint
unne
unlock
unreal
ungod
uncool
unpack
unloved
unbelie
players
playboy
playdate
marl
mare
marly
marking
marath
marco
mariam
marij
marebear
adity
adren
adjust
adobe
adnam
sayang
##shay
##shad
##sheen
##shell
##shoes
##ugger
madly
madison
madden
##pler
##plurk
##rrry
##tsmith
##eamy
flicks
flags
flippin
flisstee
thankies
apply
apprent
himover
##mae
##prot
##prats
##pratt
##pritty
##proxy
smilinn
heyits
girlies
joer
joan
joem
jojo
joker
joanne
##eakoeln
sucking
sucksss
hii
hiking
hibernate
lettin
taltal
talindab
picks
callback
diy
dial
diving
diane
##bean
##beans
glow
glitch
glory
glitter
glimp
globe
##athe
##athom
borin
border
##cient
##today
##toast
earphones
starfl
wrest
urb
##iches
##ichole
##ichfield
partners
daeone
##irstin
alread
##ftw
throbbing
##ptweet
##ealice
chev
cheery
cheated
cheering
##sof
##sox
##soft
listing
sicker
laut
lava
##blebee
##blevins
damaged
minee
coolness
##moet
##moke
crafty
looong
looming
##boe
##boards
lotr
lotion
##iiing
omgggg
##brain
##bread
##britt
##brock
finds
idr
ident
##tails
helmet
##ending
yaya
##ilynn
##gger
##quit
##quire
##quiet
##quinn
##fras
##ixon
##intr
oldest
##ashi
##ashar
##ashley
##heyy
##hehe
##spin
##speci
reals
realizing
housemates
trix
trixie
##ocs
##ullivan
##iano
##ianne
reads
disab
disease
disloc
disconnected
disorder
dispos
disagree
##man6
##manus
strings
peru
permit
hellos
helloooo
compos
compens
compatible
yael
loveeeee
omgits
##urlshana
kiddo
kiddies
damned
dani
dana
danh
dances
danced
dancer
danwar
##zyg
emz
emerge
##ikk
##ikak
kindness
exclamation
busays
amazingphil
buu
bully
buuuut
buonot
parvo
parcs
warp
warner
warming
warcra
remaining
remeber
##blood
##blah
##blesh
##blessed
runner
runners
runnin
skill
skater
skull
skank
skirt
skirts
serial
servers
services
##cru
##cred
##crack
##cross
##crumpet
##oppy
boredd
boreddddd
boob
booty
boobs
bootle
##ofc
##of2
##ofly
##ofth
##ofthe
traum
travol
thingsmum
elm
elmo
elton
elij
elimin
108
105
102
goddess
courage
recy
recon
musicians
clem
cleveland
dried
drivin
drizzle
belgium
##ertime
##zzard
##zzles
postal
puts
##gree
##gray
##grim
##grant
##grass
##grade
worlds
freeway
freeze
freebies
freezes
meetup
sits
situations
dino
dins
dinno
mustang
reli
reluct
relapse
sundae
wondered
wonderland
##booklover
hairs
meanie
tai
tao
taur
tact
##tonhouse
##aaaaan
totall
xxm
fewer
designing
##awg
##awan
photograph
cryst
rockn
rockets
##cole
##coast
##coaster
classical
supper
supporter
##psi
dada
beautif
##fuly
##fuzzy
##insider
30mins
##iban
##never
##neil
##neys
##oryall
mumbai
walks
##oka
##okid
##okitty
##avage
##avirt
##avvy
##av83
republic
favs
treiz
trevor
##sween
##swilliams
addic
additional
premat
stef
stev
steps
stepped
##ildstar
teasing
teaser
delic
delish
delays
singstar
colds
killin
cleanup
##dec
##deb
##arker
institute
messing
messenger
charle
charms
ahem
surve
surge
survi
surfin
surreal
survey
##whore
camper
campa
camcor
hangout
winston
winners
##uuy
##etsch
pale
paisley
##uzik
shitttt
throughout
handles
handled
understood
annas
bookmark
bookmarks
##onsense
rested
##claw
boa
boards
roz
roar
rohan
rochell
##meh
retrie
##veshark
eddy
edited
edwin
edmonton
huggles
lux
erich
erica
##aylee
##ayloryall
lilaz
liljizz
redd
redhead
redbull
redesign
terrific
proves
dougre
doubled
seths
attic
attitude
hoptonhouse
contro
contrary
context
scrub
jamies
jammin
export
expenses
grader
##ontin
courthouse
##girlie
##girl18
indulg
robbed
##epryor
msgs
msnew
##roach
blacks
##ualpa
##1914
##1987
##19585
4wd
4wj
4w1
4w5
4wp
4w7
cured
curren
curses
cardio
fanboy
fanclub
angle
promote
promises
promoting
sarmy
sarcastic
acid
##ypants
##ypandy
##flower
internetz
bargain
##alez
completing
grande
grandad
grandkids
deadly
deadlines
owns
sami
samee
samuel
heartless
heartbreak
grac
graf
grave
grabe
gracious
grapes
hunger
burst
woof
goofy
midter
midwest
shorten
shortyyyy
shortcake
johnson
johnlloyd
filthy
filipino
##anni
ep31
milano
seaworld
saturdays
fallow
fallout
tested
##ylvia
##1221
meter
method
metaverse
##103
##eesha
calcul
##jects
##vens
visited
visible
xxxxxxxxxxx
careers
legally
20s
20mins
interests
confidence
confusin
##apples
ava
caf
caus
caity
djs
djsp
djkn
dareal
darian
sytycd
##amped
##ampbell
micah
microb
picky
closely
laural
bumblebee
collab
colleague
pasty
pastors
watered
waterfront
replys
##lington
tonic
tourist
anywayz
medi
mediter
mediocre
showering
dragging
##ietran
trained
counts
mitchell
mitchbenn
netbook
netfl
netherlands
sprain
sprout
blockbuster
11pm
1500
15min
jacked
##cedes
67h
670
676
tomarrow
slowing
slowest
cola
coloss
columb
coliwil
paparazzi
extended
example
jayc
jaykp
jaybranch
nic0
nicsey
nicoles
##ukh
fellas
fellows
jeje
karl
karin
karam
topshop
harbour
harbor
harvey
harlem
jessi
jesssic
##ycat
##ycity
##aaahh
wakeup
4j9
4jf4
4jam0
bench
natty
natasha
psn
pshh
nearby
##boystell
weirdo
accounting
napa
chrisette
markets
buddh
iamk
iampritty
signific
##ursannie
mags
magnet
2006
2007
##ethan
christopher
dearly
walker
cups
cupboard
katrin
layne
##licious
##easant
##easure
greens
pinkberry
pinkbunny
pinkpop
pinkynk
##iffer
insert
insulin
insulting
specialist
basic
humour
humans
hummer
puke
puked
puerto
polo
poland
dda
geo
gemma
##tras
##train
##604
##602
geneva
genuine
##gov
##gofficial
infested
worthy
worthless
##thecat
##thekid
raj
raid
patty
patrol
patricia
petty
petey
petril
petewentz
radi
##joey
##fern
stressin
stressing
efforts
##comb
##marine
regent
registr
brocc
143
corps
corona
corrupt
coraline
correspond
firefly
firequin
firewire
kickass
possibility
##yeux
##gasmic
subtle
submitted
dressjunkie
weddings
answering
menace
##notes
myspac
sharlynn
takn
##parks
stands
blueberry
apparent
smallville
presenting
presentations
strabism
depresses
upsetting
bugging
buggy
deals
misery
vacations
youngest
alexis
alexander
nerve
nerves
denise
denied
mixt
mikes
##kiwi
##forest
##forward
##vault
visitin
hubs
vaness
##ological
disappoint
fantasy
heav
mcd
squad
squire
squeeze
teams
##tcobra
##775
replay
replacing
pleaseee
mrsnew
131
132
13th
40mins
balloon
copenha
gigantic
giggling
##hamilton
##paige
transition
transmit
##lovee
technic
understanding
crosses
##iiiiii
holder
jerm
jasper
nao
nappy
ranch
##booty
##888
businesses
paperwork
bagel
entries
mathewh
potus
population
##ucer
##guins
##eezie
childhood
##eeeeeeeee
mattress
mattcut
ouchies
pools
behalf
beatweetup
beatwittyp
669
667
pissy
pisses
##aldo
##aldiamonds
##ularly
lawyer
feltbeats
1995
distrib
ellapa
election
pantera
verge
veronic
##143
covergirl
tracking
records
fucc
ooops
tengo
##bandit
proudly
altho
boyfriends
purpose
##naturlshana
bells
locate
atlantic
designed
jimm
xoxoxo
storys
stormy
stickers
auth
autism
autograph
dhewl
##barnes
##illiam
##ielding
documents
debut
debate
direction
baths
lata
oli
olives
snag
snapp
snakes
snappy
snapping
intrus
consult
conserv
consolation
blech
billbath
errors
jords
jordie
jennloves
ringing
##burns
##305
freshman
joejonas
supported
labour
landlord
nikon
nikhil
eventually
katevoegele
lowkey
lisam
lisahope
michell
penis
penguin
penguins
machines
portra
portable
temple
imperson
skyd
angelina
fishies
janes
janis
january
##smack
##smart
##smile
##890
##ouli
memorial
spotty
hosts
cheri
cherish
homo
hometown
jules
##armstrong
shinning
imagination
springsteen
copyright
emmie
feeding
nkot
sih
sixt
siya
siouxs
##dolly
##doctor
amyatq13
troubles
bacc
bacter
detox
##bites
##2000
##2002
jeffery
jeffree
jeffsgri
bobbie
dentists
hookah
kingdom
kingsthing
kristi
kristens
mcflyhar
werd
##robe
##robthomas
##holm
tort
increasing
brighter
brighton
brightens
migrane
goldfish
privacy
explorer
explosion
maryland
accessible
##aaaaaaaaaaaaaaaa
bali
balmain
frequ
mandypandy
silk
##drum
##dreamer
##999
receiving
impressions
modem
queenof
interviews
ako
aku
akavirt
ahhhhhhhh
caspar
float
holland
##alyn
##alynn
thunderstor
##eapolis
formal
reflection
bios
biased
bonfire
bonnie
jaim
jaja
##scap
##script
storming
trailers
westend
westlife
##icyu
logical
shaking
chaper
scottataylor
21st
cowboy
mercy
meredith
namaste
lifting
lifts
##ssseee
gaba
gaby
gabrie
kitchenfire
lenovo
tabby
treating
value
halleluj
chihu
demiswiss
schedules
hahahahah
agenda
casting
esther
niabass
pooh
tonyrobb
sherry
sheriff
aweful
cracker
cravings
hughsbeautiful
technical
folk
geeky
heeey
lindsay
mirand
maint
ultras
utah
hahha
##chaos
flashback
smartie
courtesy
jimmymarsh
bullet
dishwas
fiasco
##ran1
##dogs
##banks
##yrl
##goodbye
babysitter
##uuuuuu
colorful
responded
tattooed
kittykat
lamer
loudly
murray
pamjob
rhym
woody
##mlt
toothbrush
toothpaste
phillyd
scares
appeared
##ivalent
includes
icam
koi
kait
yessir
##belt
theaters
strikes
stockholm
ankit
ankita
chemical
knighty
dreaded
queue
##kkkkkkkk
attended
attendance
requests
33333
cassie
laps
racing
racoons
##evol
##evitable
##missy
##market
##marketing
##slist
##slinky
##ujx
shelf
shelves
trader
streaming
scratching
##yyyyyyyyyyyyyyyy
collecting
distracting
acho
achy
derrick
furry
furious
galore
kirsten
pixies
poopy
##ijer
##minds
##jenkin
##penny
wendys
chrissy
brownie
brownies
arrg
preferred
bffs
ceo
mtn
##diaries
##benz
hamster
shanedawson
suspic
##abyte
sleeve
physio
condolences
sweatshirt
creeped
##uggles
awesomee
##blogger
simpsons
involving
hyperopia
originally
duo
femin
fathers
ginoboi
ivory
ivanae
reemer
tasted
tipsy
ummmm
##jonesy
##iscilla
##ascope
imprompt
speeds
speedy
speeding
sparkling
##zzzzz
##dddddd
natalietran
inspiring
discussions
destiny
equal
equals
equivalent
hobbit
ikr
nessa
oppos
sinuses
volunt
##polis
##xsaula
##quez
lizzi
alias
blanket
sweater
sweats
hahahahahah
hahahahahaha
retweeted
lmfaoo
gossiping
bsg
cs4
featured
fields
fieldnotes
henry
licens
millionaire
piercing
pumpkin
ramen
rapids
typos
##bnb
upgraded
amandap
switchfoot
avoiding
michellezen
richardepryor
processing
challenged
meester
poured
tennant
vivid
vivian
shocking
liesboystell
removing
negativity
princesssup
clarify
grrrrrrrrrrrrr
faithful
scotty
telecom
controls
unfollowing
spreading
jessicac
bastards
bucket
brewed
cinemas
ecstatic
eighty
fedex
kyois
kaylee
pdx
rabies
sabby
sabrin
sabrina
undeni
vocals
##matthew
##fields
##949
##gregory
mystic
andreakoeln
shipment
chasing
suspended
commerce
commercials
aboveallfabric
argentina
carlos
sunscreen
divine
buzzing
survived
politicians
circuit
arizona
lulz
oxford
sdk
tuner
vaut
wilw
##rainer
##rainbow
##vanessa
##walsh
##oticons
##ryanross
combine
twitties
splitting
hottest
restaurants
editors
juicytots
subjects
ruining
recognition
27th
curling
cornell
diesel
dedication
kelvin
mandybooklover
settling
uggg
ugggh
venture
##kaye
##luke
##luver
##juice
##jacin
##wyatt
referring
suprised
suprnaturlshana
prototype
plugin
plugging
yeahhhhh
snuggled
contracts
syncing
translate
violence
violently
spiritual
4vuuy
cinderell
cords
cordon
gilmore
kittens
mentally
mosquito
nooooooooo
rogue
##logger
##zshach
##saayyy
##sayin
##1001
##poet
##packet
thorney
tossed
##ishers
##choly
rejection
immune
immobil
savage
quinland
crazii
pretending
tracey
previously
cutiemoet
humidity
developers
bumping
caleb
dummy
iwas
jodi
munching
oreo
oreos
pandam
pandora
pfff
pollution
##cupcakes
##fuller
##galenorn
fortun
chantell
rebecca
assholes
awaiting
cocabeen
admire
##irstyxo
##freakinvey
struggle
kevind
publish
##ssssssssssssssss
aravind
cullen10
fiddler
gummy
healing
jailbreak
junkie
lancearmstrong
rangers
wrapped
wrapping
##minegalenorn
##batty
##gabriel
##eauty
statue
fricken
withdraw
withdrawl
candis
chipotle
##ulinity
organizing
phillip
adopted
##promise
##producer
johnd
johannab
craigslist
disgusted
attracted
industrial
academic
grandmothers
tomatoes
informed
regardless
automatic
journalists
renewal
brendon
multiply
destroytoday
whispering
brittanyasnow
cadistra
catholic
ftp
ftskirstin
iholleeee
kathleen
mccoy
naruto
oyfreakinvey
paso
patchouli
pacman
ponytail
rodney
tidy
unahealy
wuld
##nikki
##ficionado
##griffin
frogs
priorit
mocking
blueeyed
bluetooth
groove
grooveshark
cod4
vegetable
african
university
marshall
margaritas
flooding
flooded
##broad
believed
surfing
bbc1
evry1
evryone
responses
disturb
lifesaver
embarrassing
embarrassed
allysonalfon
aaarrr
bounce
bouncy
bwahahahaha
fudgecrumpet
irritated
mutual
nimoy
occasion
puffy
pedicures
sandy19585
vickytcobra
wookie
xkirstyxo
yasemin
yasminegalenorn
yuki
stinkin
stylish
behave
behaved
framework
antonio
thisisrobthomas
thisisryanross
##thebest
lovelies
bruno
cranberry
smoker
rescheduled
bloggerific
milkshakes
melissapan
squirrels
transportation
homesick
folding
cooperating
economics
announcement
4everbrandy
bonding
cacs
civic
dynasty
ducati
foggy
gelato
gibbs
kaput
kennel
nipple
pulp
romeo
rashid
tackle
tissue
teles
wesley
##louis
##mysaid
##turtle
##saved
##studios
introd
shirley
chalet
chattin
chatted
sudoku
suicides
almonds
abandoned
abandoning
claude
clarexsaula
grumble
peppermint
unemployment
percentage
dancers
passionmd
magnol
raffle
absolutly
experiences
experiencing
coworkers
sympath
tutorial
dissapointed
cynthia
beetle
bambi
cristal
doodle
dagadong
feeeel
fascinating
gykd
hiring
jinx
jareason
klemm
niqht
pku
rorzshach
rahulg
rugby
tasmania
vene2ia
##kristi
##roca
##mellows
##michi
##hartley
##joseph
ingred
ingrid
forsure
stanley
shoppin
breeding
slacking
##ucklehead
clutches
construction
pokemon
leopard
werewolf
werewolfs
writersblock
participating
##frankie
permanent
permanently
companies
resorted
premiere
hundreds
ladylogan
ericka
chriscuzzy
chriscuomo
paulaabdul
elephant
proposal
mistressmia
dominic
procrastination
procrastinating
krissysalis
vocabulary
environmental
encouragement
4wh4d
cesyeux
houses
ibm
kwod
kendra
masculinity
oasis
pakistan
reread
rankin
ruthie
sesame
tittch
##little
##trev
##family
thousand
##ompson
itstayloryall
##records
whining
whistle
staples
chirping
alabama
amysav83
awakening
brutal
bridal
nightshift
slippers
orbitaldiamonds
conflict
scooby
unitechy
appealing
lettuce
diagnosis
harddrive
sketchy
religion
##avidson
camilleprats
contemplate
chillaxing
individual
metallic
sentimentalizzy
jessicaveronica
commission
producers
discounts
charlieskies
malaysia
seminar
straightener
communication
buzzedition
confirmation
bamboozle
##luvsjb
primavera
precisely
boulderdiaries
bishop
bjoie
ctrl
cucumber
celtic
dslr
efteling
gardens
kikirowr
kawawa
leeprov
mwah
moped
mashable
pardon
qdob
r6rfc
sxsw
vietnam
vienna
volleyball
##kennedy
##jesus
##jandro
##faye
thnks
##anchez
belfast
shatner
canadian
morphine
backseat
slumdog
sleeeeeeep
claudia
orthodont
drowned
sageeb
saddened
phobia
confuse
seperate
pendulum
criminal
##phillips
playoffs
marshmellows
littleradge
minneapolis
prettier
perfume
excursion
warranty
##blossoms
tragedy
snickers
eyebrows
highschool
screening
robsessed
robbiebarnes
fallenstar
iamchrisc
corporate
esmeeworld
philosophy
keychain
huhuhu
matilda
imaginary
explanation
malibu
siriuslyheather
domestic
kaushal
amandabynes
divorce
thelastdoctor
subscription
thoroughly
danielfielding
novawildstar
hypnophil
prateekgup
magnificent
inlovewitharmy
government
fiercemichi
phenomenal
intelligent
alhamdulillah
9mua
czech
cuuuute
ecomonday
fiesta
fuschia
iamepiclyamaz
judez
kavya
kettle
kardashians
mccafe
nifty
nymph
naptime
nambu
pjaficionado
serendip
satellite
tucson
voodoo
vincent
xsparkage
yvonne
zanna85
zhayrar
##klein
##zipan
##noxious
##1fan1
##video
##pilot
##pickler
##precious
##pundit
inikco
inrsoul
isacullen
forbidden
stadium
memphis
shaved
shontelle
shampoo
shields
goebicyu
justwatched
heineken
canberra
repressd
nekkid
##hausen
alitherunner
mahhsaayyy
assembly
##ababesss
broooooke
##igebabe
offspring
mohandoss
aggressive
deversum
twittertakeover
drowsy
artof
artwork
arnaudjacobs
phoebealice
conquered
convention
sexxieluv
afwife08
switzerland
waynedastar
unnecessary
ungodly
unpacking
unbeliev
mariju
adnamay
apprentice
himoverthere
smilinnursannie
glimpse
starfleet
##special
trixie360
disposable
compensate
danwarp
buonotomato
warcraft
thingsmummysaid
prematurely
surviving
campaign
camcorder
retriever
liljizzel
redesigned
dougreport
sethsimonds
hoptonhousebnb
indulgence
johnlloydtaylor
djknucklehead
coliwilso
jaykpurdy
jesssicababesss
buddhist
pinkbunny69
pinkynkotb
petrilude
registration
firequinito
sharlynnx
strabismus
mrsnewlywed
copenhagen
mathewhulbert
mattcutts
beatwittyparty
distribution
ellapaigebabe
dhewlett
conservative
billbathgate
jennlovesm5
joejonas1fan1
lisahopecyrus
siouxsinner
jeffsgrippen
kingsthings
mcflyharry
mandypandy32
akavirtualpa
thunderstorms
hallelujah
chihuahua
demiswissfan
niabassett
tonyrobbins
jimmymarsh617
dishwasher
impromptu
princesssuperc
kyoisorange
cocabeenslinky
allysonalfonso
occasionally
sandy195850
rahulgoyal1986
werewolfseth
krissysalisbury
leeprovoost
prateekgupta
iamepiclyamazin
serendipity
0r
0x
1c
1s
113
1gb
1sweet
2l
2d
2gether
2mar
214
220
2hrs
2mr
2890
3o
3n
3oth
3pm
3oh
311
330
3x3
371
3md
4t
4n
4d
4g
4ward
420
4days
5d
5y
52
5yy
5000
539
6mor
612
626
6fg
76
77
72
730
789
8a
89
92
930
ao
aq
aon
ait
aar
ais
aas
ary
aol
aik
aann
a12
aster
aries
aja
axs
aaaaaa
aahh
aargh
alden
b0
bw
bent
btt
bion
bos
bong
bard
bind
bif
bip
beak
beeee
bii
boc
bof
bats
bates
baw
bigh
bins
bib
bark
boooooooo
bapt
bai
bberry
bpe
bham
balk
bien
bhi
bung
bsc
b25
bitten
beets
bwm
banned
bnp
bhai
c8
c1
c5
cv
cx
c6
c7
cin
cee
cch
cly
cim
cood
cest
cul
cite
caa
cem
cag
cny
cpl
cmy
cater
cpt
cian
cco
cory
cott
cact
cors
ceb
cera
caine
cpe
cease
cec
cvs
cisco
culin
catherine
cbrown
c2s
cincinnati
dz
d4
dq
d7
ded
dir
dus
dab
dind
daa
dap
dif
dile
dac
dug
deeee
dated
dps
dne
dime
dpress
denn
dmed
dips
dito
dwell
doooooo
dund
dustin
duj
dfs
daaay
dws
dzs
dusk
dagn
duchess
eo
ef
e4
ely
ect
eish
ena
ehh
eew
ema
eeeee
ebr
ebook
eds
ease
eep
eeek
egan
easter
egs
emmm
eeeeee
eex
eeeeeee
ebt
e71
etown
etn
elys
eeshk
fs
fp
fx
fll
fut
fic
fas
fate
fart
fick
fob
faa
fub
fey
foss
furl
fence
faaaa
fount
fees
fones
fuss
ftr
fears
fkn
fgs
feast
fizzy
fisc
firts
fffff
faint
fwd
farted
fender
fussy
fcking
fiance
fathom
gry
gap
gif
gown
gia
gord
gash
gable
gently
gtf
glove
gho
gears
gnat
gila
gloves
gmorning
gaah
gtg
gtalk
gender
gcrush
hc
hb
hj
h0
hx
h2
hut
hust
hith
hha
hiss
hart
hick
hul
hite
hound
hoooo
hanna
hpt
huff
hull
hank
hitch
hatt
hdd
hoot
heee
hilly
hgt
hints
hte
hbu
hiph
hokey
iit
iight
iim
iph
ipr
ipt
iii
ips
iams
igl
iale
iyl
iva
iloves
ijust
iknow
igot
iphones
jm
j3
j0
j9
j2
jow
jis
jad
jab
jeep
jig
jool
jaa
jip
jass
jup
j00
jans
jace
joss
joom
jert
jaw
jark
jana
jizz
jann
jba
jpe
jorge
jeez
jtv
jls
jarn
jmb
jgood
jensen
jaded
jadee
jillian
jager
jansen
jclay
janae
joplin
jenthe
jloj
jwalsh
kb
kj
kx
kq
kut
kse
kun
kent
kth
kus
kink
kart
kong
kol
kall
kour
kear
kang
kix
kash
kof
kats
kary
kier
kbs
kde
kail
kkk
koot
kont
kesh
kane
k12
kamp
kandy
kmc
kgs
kuh
khi
kung
ketch
kern
kreme
kali
kurt
kmr
kadi
kaden
kuya
ketau
khair
lh
ld
lw
l7
lust
lain
lest
lice
lite
lous
lud
lub
lass
lue
lure
lath
lond
lull
lina
layl
lube
loooooooo
lows
lamp
lrs
lones
lames
linn
lung
licks
lances
looooo
lcd
laced
lsat
lumber
lichfield
m3
m0
mv
mq
m6
ming
mst
mong
mery
mms
mgr
mney
menn
mees
meek
muss
mtf
mills
mcar
miff
musso
mba
maine
mga
meeeeeeee
meeeeee
muth
mbb
manta
moust
mhm
mimi
mvp
mswilliams
nb
nx
nq
nay
ned
ngh
nks
nct
nab
nand
neen
nud
nation
n00
nanna
ngg
nets
nvid
nyl
nye
niiii
narn
niam
noooooooooooooooo
nfg
nbc
narr
naina
nonsense
ou
o0
oin
oot
oher
oha
ora
oink
omm
ober
oma
ops
ovid
ooooooooo
ova
owww
ozzy
ocd
oui
oatm
pn
p9
pll
pom
pse
pim
pry
peel
peed
pach
pace
pci
pta
pooo
pik
pett
pams
pitty
poun
pints
pouch
pours
pyr
pugs
pups
pffff
porter
paws
p47
pumps
pusher
patel
pitts
qc
qo
qs
qn
qq
qot
qlj
qwer
rm
rin
rut
rack
ril
rast
rish
rif
rud
rive
rak
rpr
reeee
rii
roc
rian
rbl
righ
rym
rets
rache
rina
rro
rees
rita
rican
ramb
rena
races
rhin
rgood
rico
ripping
ricky
ranger
roxy
rotten
racket
ralph
s3
snd
sly
sion
sct
sook
sard
smor
sirl
sia
sans
sss
seal
sond
sats
sike
sizz
sama
siem
svs
sjd
saint
sinnam
skelly
saints
t4
tch
tld
tant
ttt
tish
tna
tmor
tau
ties
tup
tew
tiz
tts
tcc
tss
tto
tik
tier
tym
tng
turk
tizz
tipp
ttf
tfer
tye
tfa
tita
tami
tiest
tunes
ticks
tasha
tiii
tjoe
tainted
tinted
tf2
uo
uj
uy
ux
ull
uff
uuu
uhhhh
ugl
u12
upppp
uuuup
vc
vr
vb
v2
vom
vad
vest
vish
vig
vice
vag
vcr
vince
vert
varden
vai
ville
vicious
vald
varn
vado
vzer
viva
vfc
velf
vague
vomit
vcenter
vmarine
wz
wm
w8
wan
wab
wos
weep
wig
wip
wich
wank
watt
wlc
wuz
woh
wiet
wiff
wider
wgn
wides
wuv
woooooo
wwe
woa
wander
waaaaa
wiser
wbu
waaaay
wtg
wires
wounds
xc
xz
xol
xbl
xles
xdd
xosh
x33
xmas
xml
xjam
xander
xtra
x64
yk
yg
yat
yon
yar
yal
yday
yack
yus
yol
yaa
yang
yak
yach
yash
yaaaa
yuu
yaaa
yky
yards
yiann
yopu
yaaaaaay
yeeeeeeeee
zz
zd
zu
zan
zee
zom
zam
zion
zeen
zak
zend
zoom
zane
znat
zzzzz
zoids
zobi
½e
½h
½u
½ll
½you
½rl
½isi
##iin
##iing
##iat
##iay
##iit
##iast
##ieed
##iies
##iang
##ibo
##iqu
##iooo
##iens
##iently
##iuk
##iastic
##cg
##cot
##cad
##cur
##cir
##cab
##cos
##cart
##catch
##crow
##cies
##cock
##cond
##coke
##cited
##cats
##cork
##csw
##cets
##crew
##count
##cale
##cann
##candy
##cunt
##cards
##caf
##cape
##cule
##couch
##cbon
##cules
##cribe
##conte
##cincinnati
##cindy
##kc
##kz
##k1
##k2
##koo
##kic
##kch
##kal
##kab
##kong
##kul
##kaa
##kake
##kang
##kyy
##kater
##kris
##kane
##k13
##kram
##killer
##khal
##kardash
##knaught
##k949
##rm
##rh
##r0
##rg
##rx
##rat
##rea
##rone
##rtt
##rion
##rand
##rish
##rite
##reak
##rens
##ruu
##rings
##rants
##rulous
##reall
##rissy
##rules
##rubin
##oar
##ogh
##oil
##oard
##oak
##oash
##oved
##ojan
##lr
##lv
##lat
##loo
##lom
##las
##link
##lish
##lag
##lass
##leal
##lunch
##lins
##lav
##lana
##latter
##lene
##luc
##lowers
##l83
##lago
##liest
##lacey
##label
##lusive
##luther
##a9
##a5
##a2
##aer
##ait
##aher
##aul
##aally
##awn
##aik
##a86
##a05
##aque
##a73
##aesthetic
##zb
##zg
##zv
##zor
##zone
##zha
##zers
##zhe
##zann
##zki
##zomb
##zoned
##zucker
##zielee
##zatb
##zalez
##ek
##e5
##eon
##eve
##ech
##eld
##ece
##ept
##eiv
##eons
##ejo
##ega
##eville
##ehouse
##efin
##emma
##eilig
##mt
##mf
##m0
##m9
##mv
##m4
##m6
##mot
##mck
##mir
##mun
##mop
##mess
##mth
##mant
##mother
##mest
##mick
##mies
##mud
##mey
##meam
##math
##mouse
##mash
##mitch
##mple
##mama
##makes
##muss
##meth
##mille
##mcle
##mothers
##milla
##million
##mitchen
##mango
##muts
##mwilliams
##motion
##meme
##maps
##milk
##mobile
##minton
##mimcfly
##tl
##t1
##t7
##tee
##tea
##tion
##toy
##tys
##tia
##tiz
##team
##torn
##tron
##tics
##tops
##touch
##tese
##tshirt
##tiger
##hz
##h8
##h0
##h5
##h4
##h6
##h2
##het
##home
##hlly
##hop
##hra
##hine
##hirl
##hass
##hanna
##hooo
##hzz
##hams
##hipp
##hatter
##hills
##handy
##hung
##hicks
##halo
##su
##s1
##sv
##sx
##sou
##sly
##sur
##sal
##sha
##sink
##sound
##sies
##sang
##sub
##sip
##syl
##soul
##shaw
##siao
##sru
##simpson
##somer
##sdeg
##nr
##nj
##n7
##nit
##noo
##nant
##nab
##neet
##nge
##nys
##nny
##nup
##nike
##nett
##nals
##nangel
##n25
##nht
##nastics
##nichole
##dt
##d2
##dou
##dad
##dur
##dere
##dge
##diz
##due
##deal
##dire
##dated
##dict
##dunn
##daze
##dotcom
##daddy
##dewitt
##dosil
##dawg
##u3
##uw
##u4
##uet
##uic
##uha
##uks
##uul
##uite
##uah
##uable
##uio
##ucy
##uating
##uppy
##ueless
##uws
##bf
##bv
##b2
##bad
##bith
##bout
##bart
##bead
##buch
##bau
##bub
##bitt
##bah
##bup
##bue
##bbo
##bik
##bward
##bzz
##bott
##bons
##bush
##bees
##billy
##bugg
##beach
##bunn
##bolling
##jm
##j0
##jat
##jic
##jal
##jest
##jking
##jang
##jays
##jia
##jah
##jak
##joc
##jaw
##jana
##jorn
##jared
##jole
##jlove
##joice
##jmcfly
##j89
##jx3
##jxs
##jobs
##jordan
##jclay
##joker
##jchambers
##yz
##y8
##y4
##y2
##yes
##yit
##yone
##yall
##yous
##yxx
##yaaa
##yaaaaaa
##yheather
##fn
##fat
##fee
##fis
##fre
##fle
##fal
##flly
##fone
##fri
##feet
##fig
##fell
##five
##fia
##flo
##fac
##fod
##fans
##fts
##fto
##fner
##font
##fesh
##fried
##fiq
##future
##finger
##fias
##fisher
##famous
##ftsk
##fakery
##819
##810
##804
##8jt
##3k
##3o
##3a
##37
##313
##3boy
##323
##311
##321
##317
##373
##1e
##1s
##1d
##1b
##1ph
##119
##112
##0k
##0t
##0p
##0ll
##0se
##0ph
##018
##9v
##919
##909
##977
##924
##5r
##5j
##5sh
##521
##576
##515
##506
##531
##gd
##g3
##gx
##g7
##gad
##gand
##gard
##gol
##gnt
##game
##gore
##gys
##glo
##gah
##gity
##gment
##gable
##gary
##gift
##g12
##gade
##g18
##gadget
##g38
##gularly
##vc
##vh
##vb
##vw
##vic
##vant
##voy
##vag
##vaz
##vah
##vod
##vond
##vii
##vise
##vves
##vana
##vors
##vane
##vamp
##voice
##v88
##v89
##vani
##vfc
##vscap
##pf
##pw
##pin
##pon
##pse
##pand
##pna
##pig
##poll
##pour
##phing
##pist
##pod
##puff
##pde
##person
##pump
##porn
##pages
##pdr
##pthew
##parts
##piece
##paws
##posis
##prak
##pelled
##pective
##patches
##xr
##x1
##xp
##xper
##xox
##xico
##xoxo
##xchaos
##w6
##w7
##w2
##wks
##wra
##wau
##woooo
##wang
##wide
##wii
##wend
##wash
##wave
##wings
##week
##wade
##wyn
##weeps
##wears
##wilight
##wished
##wbooks
##wolf
##whale
##4o
##4l
##4j
##4y
##4f
##4v
##4nt
##409
##411
##401
##474
##404
##4jb
##4christ
##4peace
##qk
##qot
##qiu
##6c
##6u
##6f
##6lf
##622
##634
##7e
##7x
##7q
##7en
##713
##720
##2o
##2d
##2u2
##inat
##inen
##inct
##ineen
##inac
##inach
##inther
##inney
##inlove
##inette
##inator
##instone
##invest
##inthep
##ineste
##inhard
##inicole
thm
thq
thar
thot
tham
thur
thie
thud
thak
thooo
thik
thng
thorn
thirt
thompson
##eri
##erp
##erun
##erth
##eria
##erty
##erich
##erget
##erof
##erio
##erib
##erals
##erved
##erife
##er26
##erxo
##ernerd
##erabbit
tod
tost
tore
tory
tosh
topl
tomo
tota
tofu
toki
toaster
torie
toasty
topping
toooooo
toxic
##ingr
##ingt
##ingh
##ingle
##ingitis
##ouk
##oug
##oux
##ouq
##ourage
##ori
##oro
##orb
##orgh
##orch
##orig
##ories
##orsh
##ority
##orms
##orib
##orcher
##orical
##orters
##oreline
##orrent
##orfollow
##anor
##anat
##aned
##anal
##anage
##anyl
##ancing
##anborn
##anese
##anbc
##anxi
##anatomy
##at7
##atin
##atoo
##atie
##atown
##atson
##atory
##aturday
##atcool
##atalking
##atrix
thek
thet
thed
theen
theun
theem
thebl
thede
thegu
thehar
thegood
thehy
thewine
thepresident
thedead
theapple
##onn
##onee
##onie
##onne
##onics
##onyc
##onoun
##onfire
##onhall
##onimo
##onlys
##llan
##llen
##llth
##llai
##lleg
##llivan
##eeves
##eemcfly
##ayi
##ayo
##aying
##ayor
##ayone
##ayne
##ayons
##aybooks
##ayhem
##aymakeup
##eson
##esar
##esis
##esch
##esast
##itd
##itu
##itin
##itur
##itus
##itsh
##itss
##itating
##itors
##itrs
##itivity
##itgrey
##ndid
##ndra
##ndel
##ndog
##ndrix
##oove
##ooop
##ooting
##oosh
##ooms
##oogie
##oohoo
##arb
##aran
##arre
##arter
##arie
##arth
##arant
##arley
##arav
##arney
##ariley
##arron
##arged
##ar01
##ar76
##arizing
##archy
##areasy
##arlow
##arshana
##arcelon
##omi
##omse
##omiss
##omile
##omore
##omans
##omination
##omarr
##omuzik
##edt
##edon
##eden
##edel
##edays
##edward
##edym
##edgar
##edged
##edmind
##edisco
##eddar
##edryl
##edrine
##edouble
##sti
##stet
##stab
##stuck
##stown
##stav
##steb
##stones
##stract
##stuh
##sticks
##status
##stwin
##stokes
##strippers
haf
hale
haaa
haft
hagg
hazy
hala
hawk
hauled
hasta
habits
habbo
younge
##otn
##oty
##otta
##owe
##owee
##owens
##owines
##owards
##owls
##owwww
##veil
##veno
##eav
##eage
##eagle
##eaustin
itl
itz
ittt
##iso
##isu
##isat
##iset
##isad
##isation
##isure
##isme
##ismail
##iseee
##isnot
##isette
##israd
##isoft
##isement
##isabel
##iself
##isiac
##isnyc
##isaloves
myse
mybr
myfab
myuze
##etan
##etea
##etly
##etel
##etub
##etass
##etary
##etron
##etics
##etaylor
##etweet
##etitive
##etria
##etumbling
##uting
##utar
##utious
##utton
##utista
##enu
##enks
##enem
##enity
##enades
##engers
##encia
andd
anddd
andyp
andcasey
##icad
##icall
##icals
##ications
##icua
##icature
##icinfo
ini
ino
ina
inks
inother
inning
inover
inhal
inhabit
inevitable
##ghirl
##ghai
##ghost
##ghurt
ons
ontar
##chs
##chou
##chat
##chic
##cham
##chun
##chum
##chord
##chio
##chale
##chapp
##champ
##church
##chien
##chiu
##cholar
##chosen
##charde
##chloe
##chacc
##chmid
isa
isis
isle
isha
isab
isla
isabel
isaper
israel
fork
forens
forcing
ofc
##rel
##repl
##repr
##reign
##relex
##reja
##reino
##remins
##referr
##regularly
##lei
##leyy
##leans
##leback
##leface
##lequin
##lemonkey
##lecule
##lendid
##asa
##asw
##asan
##asad
##asir
##asper
##asuz
##asimpson
##asaurus
##asylvia
##aslatter
whb
whee
whar
whii
whale
wheat
whaaaaaaaa
whites
whoooooo
whiles
whores
whales
##ckp
sti
stp
stq
stee
stam
stir
stim
stain
stead
stag
stint
stable
stok
stating
stunt
stacy
stewart
staging
stinging
stooop
##kegg
##keogh
bem
beb
beery
began
beards
beware
becca
begun
##idi
##idan
##idas
##idol
##idnt
##idia
##idance
##iddle
##idred
##id2k
mey
meld
melly
memo
memes
sopr
soco
sogn
soaked
socall
socal
##lyy
lof
lop
loon
loish
lollll
lozzy
thatd
thatlass
##adc
##ador
##adeep
##adele
##admin
##adena
##adryl
##amo
##amm
##amu
##amen
##amack
##amess
##amol
##ammm
##amia
##amcfly
##ammed
##amanda
##amiller
##amichelle
##amuffin
##amiche
shm
shay
shea
shet
shen
shri
shish
sheet
shard
sheen
shaa
shery
shub
shore
shaz
shiz
shure
sheeee
shib
shines
shana
shayl
shoud
shakes
shunt
shrop
shiiiiiiiiiiiiiiii
shouq
gog
gobl
goats
govt
goonies
gocincinnati
##omend
lik
lia
lill
lilly
lilc
liep
liza
libre
livest
lilem
lionel
##usters
have2
##ldr
##lding
##ldon
##ldave
##sein
##seven
##sels
##seileen
##searted
##sefone
##illes
##illas
##illia
##illhere
##illero
##illavin
##ight1
##uri
##urd
##uru
##urf
##urv
##urer
##uric
##uros
##ureen
##urrr
##urvv
##tern
##tery
##tersh
##terhor
dayna
dayyy
dayuum
##iry
##iring
##iran
##irly
##irting
##irap
##irah
##ireee
##alm
##alou
##aloo
##alry
##alent
##alab
##alol
##alang
##alist
##alah
##alty
##alii
##align
##alina
##alrus
##alien
##alami
##alfy
##alatine
##alterego
##unz
##unb
##unus
##unct
##unna
##unty
##unity
##pph
##pptc
##ppnews
##itha
##ithin
##iek
##iep
##iecc
##iebr
##ieved
##iejen
##ieireland
weat
weve
weir
welly
weiss
weary
weho
wegm
##vering
##vered
##verly
##verick
##verts
##verbs
butth
buttt
butts
butte
butbut
butttt
fray
fres
freel
frined
frida
frantic
##imk
##imb
##imist
##imson
##imina
##imately
##imination
##imples
##imartinez
##imetria
##erely
justam
justlike
ani
ane
anch
anal
anant
anny
ansh
anto
antw
anita
anjee
anonym
ankesh
ancient
withstanding
##oodle
doon
dove
dover
dolly
docks
dosen
dojie
noting
notch
notion
noteb
notific
notices
notdi
noticing
notification
heyyy
heyyyyy
hemp
hendrix
wordy
worsh
worship
atx
atra
athl
##llyanna
##llyeah
twa
twis
twill
twink
twirl
twatter
tweaking
tweat
twtv
twibes
twhirl
washer
canc
cane
canadam
##hers
##herd
##opc
##oping
##open
##opic
##oplan
##opened
chee
chit
chet
cham
chun
chand
chart
chol
chally
chaz
chup
chock
chey
chirst
chord
chav
chesh
chapp
chical
chucks
chitty
chains
chung
chief
charts
chota
cholla
chunky
chingo
chiro
chamber
chosen
chomp
cheddar
gettt
##oneyy
rend
rear
reve
rele
relly
rebl
reload
rewr
rebell
rechar
reborn
reggie
reiki
rehab
releg
rejoice
suk
suh
suf
suv
suss
suited
suzi
su2c
sullivan
suareasy
nel
neb
ney
neice
nevr
neillavin
allo
alls
allan
allig
allian
allears
alleg
allthat
allllllllll
alllyy
upss
upto
upstate
##ceci
##celet
outa
outage
outlet
outbreak
outstanding
outdated
##rys
##rying
##rykah
##rythis
comms
comming
comfor
compromise
reaaa
reass
##entl
##ented
##entic
##entious
##entially
workload
workaholic
workplace
nowt
nowww
thiss
##essh
##essica
##thood
##theed
##thats
##ilking
##ilah
##ilms
##ilof
##ilating
##ilera
##ilza
##ilasha
##ilogy
##iloohoo
##haz
##hake
##happ
##hawn
##haaaa
##halex
##hausted
##havl
##hauns
##hazzard
nol
nois
noel
noah
noches
nobel
noida
nobod
noggin
nofakery
prs
prn
prd
pree
prow
prie
prest
preet
prty
prank
prote
propped
prosp
pricy
pricing
pradas
princes
pruning
priscilla
pradeep
##aines
##ainthe
##ainanic
##antas
##antjee
alo
als
alis
aliss
alri
alig
alph
alma
albe
alton
alki
aladd
alaina
algebra
alzhe
##ksu
##tta
##ttn
##tteam
##ion32
##ion07
plc
plis
plce
plzz
plates
plato
pleeeeee
placed
plague
##usa
##usman
##usuf
##us626
amr
ama
amt
amf
amee
ames
amate
amel
ammo
amors
amara
ambit
ambers
ammary
ambig
amymon
aminor
amhzz
thanxx
##astasia
morrow
morley
morgen
mortg
morethan
##issant
##issus
goto
gott
goth
gottf
lovey
loveist
lovemed
lovelove
donot
donut
donald
##atech
##rag
##rapt
##racy
##ravel
##rabut
##raiser
https
maa
maj
maan
macr
macy
mavin
maze
makat
mahal
maureen
maverick
##inkt
##inker
##inkyd
##estion
##estra
##estri
##estorm
##estains
imt
imper
imple
imho
imba
imeem
imovie
imreally
##cton
##ctiv
##ctions
##ctric
##rio
##riot
##riad
##riley
##rived
##rigan
##rika
##rigue
asd
asb
asher
aside
ashing
ashhh
asfa
asda
asians
asiar
aswel
askegg
knit
knooow
awee
awoke
awfully
todayyyyyy
seeeeeeee
##abh
##abee
##aback
##abil
##abob
##abare
##abees
##abec
##ablock
##ababy
##ababe
##abuzz
##andar
##andom
##andang
##andaw
##andme
##andrew
##andjb
##andcheese
timee
timha
timmin
##ishk
##isham
##ishiki
aber
abou
abro
abuse
abusing
abbie
abhor
abbre
aberd
abiding
abuzz
abiga
aboard
twitted
brat
brum
brrr
broom
broth
brok
brush
brrrrr
brides
broody
bratine
brran1
##osw
##osie
##osund
##osaki
##osbourne
##osaurus
##osullivan
missus
mississ
misspl
missco
missmary
missgig
misslaura
miss604
misspelled
whati
whatt
##el5
##elin
##elve
##elis
##elist
##eliz
##eloves
##arta
##arte
##arture
##artney
##artolo
##eade
##eadams
##umn
##uming
##umes
##ummy
##umns
##ooker
happyyyy
lols
lolzy
backe
backing
backed
backgr
backstage
knowww
##fff
##naa
##naz
##nae
##nage
##napper
##navar
##icking
##ickle
##icklen
##eeler
##eelove
##eelady
##ulh
##uls
##ulas
##ulge
##ulaa
##ulty
##ulian
oneofth
##ninger
##ningham
##ersmith
##erskate
##igee
##igos
##igations
##iggy
##igy7
##olk
##oler
##olan
##olous
##olfe
##olito
##olsen
##olid2k
wills
##inds
##indra
offers
offend
offensive
officer
##ntigh
##alli
##allon
##allis
##allen
##allly
##allels
didger
##icean
##icecream
everone
everrr
everton
evermore
everrrr
moz
moh
moist
mozy
mojo
mopping
mochi
mogw
moanas
molecule
newb
newly
newsp
newjab
##eedd
##inecc
##geist
itss
itsjust
itsgab
itschrist
itsmeam
spn
spy
spf
spoo
spur
spart
spite
spew
spose
spank
spins
spons
spots
spiel
spaces
speach
sporting
splendid
bling
blat
blake
bloss
blade
blipping
blvd
blkad
blooms
anyday
anyth
anyhow
anythin
anywho
##obc
##obot
##obly
##obie
##obear
##obber
##obass
##obert
##obics
##obsc
##oberts
##obrien
exa
exs
exx
exoc
exec
exists
thinkgeek
thinkreferr
motheri
nightly
##eenth
howl
howdy
howeva
hada
##allynn
sla
slick
slide
slater
sliver
slots
slides
sliced
slov
slices
slugg
slaps
slaves
slouchy
sloppy
sln25
##uchan
agg
agress
agnes
agency
agencies
homemade
##mmy
##mmeeee
theyre
theyotes
##oolery
##itequ
dek
deh
deff
deanna
devin
deann
dears
depe
deploy
dehy
deleon
deplurk
##ollar
##reation
##moring
##moran
##moreno
ohay
ohmon
ohsweet
ohshit
##aa1
##aaas
##aaap
##aaale
welll
wellity
##ourt
##oured
##ourke
##ource
##ourcing
##ourmag
##uckett
##eller
##ellow
funk
funy
funkey
##vings
##ameis
gue
guap
guides
guiller
guarant
##aug
##aux
##auce
##auder
needy
thankss
wag
waik
wacom
wahl
wahahaha
wavves
waverly
whens
clam
clown
clint
claw
clips
clunky
clancy
clowns
clueless
twitterr
twitterfr
twitterfox
twitterbugs
##dys
##dying
##dybaby
grou
grea
grun
grant
grans
greeee
grcr
grann
grump
grants
greta
grasp
greasy
greaa
granted
grouchy
gretel
grenades
watcha
watches
stilll
stiller
fag
fakes
fakin
faker
facil
faulko
lljess
llcoo
momo
momot
oral
orang
orbic
orleans
orillia
##earing
##earance
everythin
dru
drat
dres
drain
drob
drup
drron
drrus
drained
drowning
arre
arun
arnt
ariel
arbit
arrrr
arjb
arcel
arthr
arlington
greater
saz
saget
sauna
sawwy
##rowe
##rown
herb
herit
herrr
herman
hereeeeee
hercules
sadder
sorts
sorrows
sorrry
sorrrry
##api
##apd
##apam
##aperson
##apants
##apres
##aphor
##apses
##apeesh
##apova
##iesworld
##iescupcake
##ooooow
##oooool
coord
coated
cohen
##akexchaos
phl
phd
phx
phon
phar
phomor
phelps
pheasant
##ifil
##ifier
##ificial
##ifusion
##ifths
##iendo
##iends
tran
tron
trill
trough
troll
trud
trunk
trudy
treas
tricks
trades
trvs
trashed
trolley
trinity
trpilot
trojan
trilogy
hash
hasin
enlight
encore
enroll
enigma
energet
enrapt
shez
shepherd
conno
conrad
concret
conorp
conspir
conchord
##eryone
lookbook
##anging
##angil
##aysrawr
##aysantos
sleeps
sleepless
usage
veggies
pov
poia
pokes
pochacc
betting
betray
beths
finland
finance
yeaaa
yeaaah
yeaaaah
yeaaaahh
byeeee
byeee
##emt
##emot
##emis
##emoney
##emark
##embry
##emcknight
##emaybooks
badmic
baddie
badluck
badminton
badar76
waitt
friendship
friendorfollow
##udo
##uder
##udude
##udger
wonky
##agu
##agreat
##agod
##agraph
##ubanks
##uballow
##uberry
##ubarb
##ittee
##ittys
##ittman
##ilewis
##ilelaine
followin
followmandy
followfrankie
mayo
mayn
mayor
mayday
mayne
mana
manu
manics
manhatt
whyarey
tomorrows
tomorroww
##xts
##ivella
##isti
##isth
##iston
##isted
##ipoynter
##ipilking
##irls
seb
sew
seiz
seating
seann
seuss
seized
sevent
seanther
segment
se7en
##berger
afc
afgan
af8jt
afrykah
themes
##ogic
##ogirl
##ogue
##ogne
##feige
monk
mono
monet
monroe
moncton
##ysl
##ys4
##yson
##ysoul
##yshow
##ysweet
##ysghirl
bitching
showr
yesh
yesy
overr
overst
overdo
overdid
overlord
overdue
##pics
##pic0
##picardo
##iak
##ia09
##nyt
##ny27
##nyeh
##asss
##assin
##assman
caro
carp
carey
carne
carina
carole
carpen
carold
carbon
caramel
carocat
swin
swears
swarm
swoon
swelter
swamped
shouldve
shoulders
##yyo
whover
##azy
##azdan
leo
lev
lew
lein
lean
lend
leod
leann
legged
leuke
lefto
leprak
##lois
##loding
##lovin
##loids
##ahr
##ahw
##ahan
##ahel
##ahead
thoughh
quee
quess
quinn
quitting
quimo
quoted
quesad
##upation
##upert
##upwk
tryed
tryst
oki
oka
tweety
tweetin
tweeten
header
headhard
headlines
scone
scent
sccr
scave
scents
scones
##ewang
##ewins
##eworm
##ewiseman
peck
peir
peole
peppers
pepsi
schuh
##izo
##ization
##tyn
##type
##00d
##008
##001
weekday
wayn
wayy
wayyyy
wayyyyyy
afterward
afternoo
leak
leaks
leash
leaky
leafs
crs
cron
crut
cros
crzy
crunk
crump
croon
cringe
cricinfo
crimson
##acow
##acle
##acles
##acav
##acular
##acaro
##acampbell
##odi
##odor
##odom
##oded
##odope
##odile
##odjang
##odicean
##ockaholic
##phn
##phic
##philly
##phoenix
##phreys
downed
downfall
downpour
sunrise
sunflower
beds
bedd
##aku
##akin
##akas
##akid
##akim
##akiss
##akeen
##akami
##aknya
##achs
##acher
##achan
unre
unus
unans
unatt
unload
unpar
unpa
unbreak
unread
unmarketing
unopened
comeback
##ansch
##ansie
##ansera
##ansmith
##ansfield
playah
playtime
playfork
marg
marin
marir
mariss
marey
marqu
mario
maryp
mariel
marries
maroon
marissa
maritz
martha
marbella
marilyn
marcelon
marzipan
ade
addy
adap
adaw
adele
advis
adium
adela
adlounge
adidas
saynerd
##osefaces
##shep
##sheets
##shorter
longg
longboard
schooling
schoolers
##uga
##ugee
##uggs
madam
madame
maddy
maddd
madams
madres
maddies
madpier
madsdeg
startup
##plan
##plet
##plain
##plus
##plays
##plash
##pletes
##rrs
##rrgasmic
twitpics
##eyo
##tsville
##eamanda
flea
flour
flap
flake
flag
flute
flatt
flaw
flesh
flops
flames
flipping
fletcher
flaming
flallday
flahman
flamen
flirting
fluballow
somatic
thankgod
didni
##myt
##myd
##myra
##myers
##myster
##mylife
##myheart
##mybell
##mywords
##myadmin
apper
appears
appstore
appetite
appartment
##perci
##perfect
##pertur
himm
##mao
##maw
##mage
##maize
##prouse
##print
##prash
##prince
##prada
sml
smily
smash
smush
smitten
smoked
smiled
heya
heynad
bestest
girltr
dayss
dayssss
somethn
##ccc
##cco
jo3
joann
jofar
joonian
jovani
##urement
##ssl
##sson
sucka
suckssss
awesomeann
hihi
hijack
hiiii
hihat
hiiiiii
talaga
becabear
becomes
picnik
calll
callum
dix
dian
dias
diab
diary
dipping
dippin
dixie
dianar
littlet
##bex
##being
##beque
pleaz
glas
glam
gland
glue
glowing
glands
glued
glinner
rainin
rainstorm
rainbows
rainycity
rainforest
##athetic
##athbone
##athediva
##thington
bord
borg
##xxie
##xxfiles
##cied
##ciate
##ciation
##toa
##toach
##eeeeet
littlelee
littlebir
littlegig
earning
earned
earbud
earrings
starr
stare
starry
wright
wrink
wrang
writes
wretch
urg
partyyyy
partied
partyyyyy
yearrrr
yearbooks
babb
dai
daly
daks
daxx
dawl
davest
dawwwwwwww
dairy
##athers
##atherbes
soonish
##ftk
##fton
##ftop
##ftme
thro
thrilling
##ptic
##ptons
##ptune
##ptuous
##ealanth
cheat
chevy
##soh
##sole
##soap
##social
##sofresh
lists
listning
activ
sicky
lafl
laffy
lavender
lailasha
laodicean
##uffy
##uffed
##uffsy
probable
problogger
probobly
damp
damon
damien
damali
dampen
mina
minut
minic
minas
minim
minty
minne
minivan
##ondd
##ond007
hursty
coolio
##mente
##nerbum
##moa
##mox
##mohan
##movie
##ecting
ourselves
##ivn
##ivor
##ivon
##ivore
##ivist
loool
lotus
##iieee
##ossini
omw
omgg
##brd
##bray
##brother
##brink
##brook
##brite
##bride
##broke
##breaking
##brooke
##brkr
##bruary
findings
ideal
idkk
idkkkk
##taj
helmuts
helsink
heltersh
##endave
##endran
interup
interact
interns
interrup
interface
interweb
interrupt
interactive
##urney
tiredd
bigtoach
hottt
hotsp
hotness
hotmail
hotels
hotpants
##joyed
##ggs
##gggh
##ggghhh
##qui
##quick
##quette
##quiao
##frid
##fram
##freed
##frame
##freeze
##ixa
##ixie
amazes
anotherjul
lyric
##orders
##ash4
##msmith
##wnz
##wns
thoughtful
##heb
##spam
##sport
##spoons
##spoil
realcon
realistic
livefr
livejour
housework
househo
trio
trib
tries
trials
triste
trivia
trigger
##oco
##ocon
##ocuppy
##ullet
hardware
##irects
##ianca
readyyy
disgu
discret
disgra
dismal
diseases
##manilow
stray
stroll
strained
strength
stretching
perky
perpet
perrin
permission
hells
helloo
hellocuppy
compass
compute
compability
compreh
tei
tehe
techie
teerib
yaayy
lovess
omgoodness
kiddie
damnnn
dany
danis
danica
danni
danipoynter
ember
emper
embed
emotions
emoticons
hoj
hoes
tellin
##ikat
##ikers
##ikah
##iketh
##ikki
##ikaysantos
kindred
excessive
exclusive
buses
wowinsider
##byr
##bypickler
buys
paras
parach
parked
parental
parody
parallel
parallels
warri
warmed
warham
warehouse
remin
remir
remain
remem
rember
remark
endearing
boystown
jobless
jobros
##blak
##blank
##blets
##blair
##blanc
##blading
##bloody
##blorib
finishes
fuckt
fucks
fucker
fuckers
runaway
sk8
skit
skoo
skits
skipped
skipping
skittles
sketches
sera
##crn
##crime
##cruz
##creek
##cratic
##crisis
checks
babycakes
babystow
babypatches
bootc
booboo
tinypic
tinytwitter
tinyleg
##ofg
##ofen
##ofman
##ofzen
##ofoz
##ofjud
##ofuel
##ofdoom
##ofboe
trak
trax
traitor
travest
elk
elig
elisa
elisha
elvish
eljmcfly
elainanic
104
106
10mins
1045
godd
godaw
goddamn
cougar
couches
sweetav
sweetpea
sweetdreamer
sweetemma
joncon
jonoh
recap
recieve
recomend
musicislife
drip
drizz
driven
faceofboe
belinda
belmont
##ertor
stuffy
stuffier
lostalone
lostmyheart
posters
##gro
##grn
##gring
##gret
##grid
##grub
##granger
##granny
##greece
##groove
##itchie
snatch
snif
snurl
snark
snoop
snjen
##aryan
##aryann
worldwide
breakie
##ignal
accadent
accumul
freee
freesat
##ndering
##ierra
##ierced
##ierhen
##ierchua
##ierockaholic
weathermen
##cyruu
sucha
##atti
##attoos
chanel
dinn
dining
dinos
dinna
dinero
muster
mustaches
givemest
##lesinner
summar
summery
summertime
relays
relieve
relient
relatives
releases
birthdayy
sundress
wonderfull
partyin
partyends
hunk
hunnie
huntsville
superw
supergl
superpower
supervise
hairdo
hairspr
farro
farrah
farmers
farrell
resem
resident
restera
reserve
resolve
tae
tails
taipe
tactic
taffy
untuk
untweeps
##toni
##tons
##tonline
totes
xxlauren
xxhazel
description
describe
##awer
##awesome
photow
photog
photof
cryed
##lcuv
mroh
mrden
mrjr
mrjay
mrfloyd
mrjim
mrtrev
rockdam
##coat
##cost
##coffin
classics
classmate
##twin
##twit
##tweep
##twice
##twist
##twits
##twism
##twitta
##nnnd
##nninja
##nn1e
suppr
supporters
satan
##insky
everythings
30s
30p
306
30sec
##ibs
##ibee
##ibarra
##ibartolo
##neath
##neko
##oryx
##oki
##okee
##avy
##av1
##avan
repo
repost
repairs
reporting
repaired
repierced
dreamt
dreamer
lunchtime
painted
faves
favrd
monthly
##ikey
planter
trey
tremend
trellth
##swx
##swan
##sway
##sweets
##swifey
##sworth
defense
defunct
defrag
adds
addition
gameboy
preced
prepped
preprom
preocc
preciate
stever
steves
steview
stefan
ste1987
okayyy
##ildsou
welcoming
welcomed
teaches
##rising
##noon
deli
delt
delas
delta
delightful
colder
killen
killzoned
##otted
##ottie
fooddes
##ett89
drinker
cleanin
##death
##deleon
##deppnews
instantly
charave
ahm
ahn
surface
##while
##whirl
##whites
forwarded
cambridge
winks
winwood
##ymay
##ympna
##ymaryann
isni
forgiving
pao
pax
paed
pawn
pavement
##uzman
##uzeedo
stupidly
huaaaa
##rista
bloggers
blogtalk
##axo
##axa
##axe
##ax3
##axis
##every
shitter
shitload
handz
handful
handling
handmade
undergar
underwood
underdog
underbelly
underwear
underneath
annad
annett
annamess
annainthe
##ness23
bookbag
hola
holmes
turnon
turnout
turnitgrey
##inai
illness
illustr
##onsible
restart
restless
##hnimo
buyer
roomie
sends
kebab
keiya
opens
##cled
##class
##cloth
##clark
##clusive
##claire
##claim
##ormous
assure
assault
assedly
boise
boonies
boasting
roi
roh
roxx
rochester
rocio
##mek
##melly
##me1988
hmmp
reth
##dsourcing
##vescent
##anaf
##kky
edc
edna
edumed
edstet
ladie
ladyp
laddie
ladymaryann
updat
##network
luk
luh
luis
luig
soooon
##acts
##actor
##actyl
##actress
erie
erry
erase
erwin
erased
soooooooooo
sooooooooo
guyz
guybatty
horrend
horrific
horrors
hitman
lilith
lilmiss
lilayy
lilmarsh
highest
highland
highness
redba
redsk
rediculous
redeem
redsox
redhalo
redirects
##icient
##pression
terms
terric
terror
terabyte
proven
prohib
proverbs
sethhs
cuter
cuties
cuteness
hopfully
contain
contagious
screa
jamesh
jamaic
jammies
tvtot
expat
expos
expans
grading
##ontana
##ontec
##ontdf
##ontv88
momsrising
unfort
##girl2
##girlstell
##girl1972
indies
indians
indulge
robc
robor
robins
robina
robyn
robkardashian
robinecc
msfe
msft
mscat
msalon
##roi
##roix
##roeder
cameo
weds
##velt
##veless
macaron
macadam
macmus
trekking
##gl3
##glas
##glenn
##glitrs
##vinny
##eshad
##eship
##eshoe
##itherandom
heheh
blackjack
blackberries
blackhaw
winding
windsh
windoze
yums
yummmm
##1908
##1969
##1979
##1981
##1991
problemo
4wc
4wb
4wf
4w4
4wq
4wpp
4wox
4w67
4w52
4we5
curt
curried
cursing
cardiff
cardboard
fanny
fanfic
laubow
laurelex
anger
saran
saraa
sarabare
##ennel
souff
davids
davidald
davidspr
acute
acmc
##ypanda
##flat
##flic
##flight
##flake
##fluff
##floss
##flakes
##flutter
##flitur
elsewhere
api
apa
apollo
apathetic
barn
barks
barley
barbs
barnes
barbar
barrie
barns
barcamp
barbec
barroca
barbeque
cookout
##alex
##alevina
completes
compliments
grandfather
computermuse
owned
samm
sambrad
sammich
samlum
sammoran
heartburn
heartbomb
heartedly
decently
decides
decaf
decode
deciding
decorated
##ooooooooooo
##oooooooooooooo
##ooooooooooooo
graci
gravey
##cester
hungary
buried
woow
wooot
wooow
woops
##ingsunshine
hurtin
crazytwism
googling
midst
midway
midnite
midsomer
##owsinstone
invites
invitations
shortie
shortcut
spendin
##aughter
johnathan
johnlegend
120
1210
12hr
12seconds
filter
filos
filmed
mindddd
mindy9
##itsjess
##itskristi
epmorgan
milest
milky
military
milosund
ticking
tickle
##conner
##conqu
newsletter
passive
passport
passwords
passengers
jonasweb
lotsa
openhack
soothing
tiles
##yloo
##129
##125
##121986
definit
iceberg
metre
metaphor
truely
airing
airpl
airsoft
calib
calilewis
##venge
##icaly
##icaquinn
textin
textmate
bankrupt
visits
visial
2011
emailing
catchy
catches
confess
confession
confusion
mileycyruu
##appa
##apps
##apping
##appointed
##134
##1309
##1302
##13hd
##ster77
##ster25
choco
presale
prescript
avoc
avril
avalanche
cao
caly
caff
causes
cautious
catar
catwalk
catwoman
djl
djd
djst
djgig
djalfy
##reece
##reetteam
##reeftme
##ohno
##ohost
##ohbill
##owering
darl
darlin
syam
##ronin
##ron76
##ronnie
##ebag
mommy414
breakfastnews
micar
pickles
pickings
##anye
##chergirl
melon
melvin
melkoo
lauraa
bumps
collide
collins
collapses
fastest
##eeker
##ade10
profit
profound
lmaoo
##ergame
##erguy
##oshed
##oshock
##oshimartinez
replyed
tonigh
toured
##aredpacket
artfire
artificial
medal
medros
medbot
meditate
evenings
drawn
figur
figures
##iethe
##ietrich
##italiana
movement
movements
chocolat
juan
netball
payment
payroll
oneself
lighten
lighters
sprite
springs
sprung
116
11th
jacks
jackass
jackets
jackfa
jackgray
ukrain
ashton
ashsimpson
67i
67f
678
673
675
67q
677
6714
67yk
67tp
67swx
nicked
nickname
nicktion
nickchien
nickleback
nickimina
##burst
##burgring
tompiper
askin
##ginny27
bringin
slowed
ladylove
colors
colette
colbert
columns
cologne
paps
papaya
extens
extrem
extension
jaya
jayy
jayce
jayme1988
nico
niceee
niceeeee
##uku
##ukreja
dangggg
fella
karate
karens
karene
karla
karlee
karleigh
karasw
sentences
harsh
harney
harmon
harold
harrass
harpers
harvard
jesser
jessdosil
##olexa
##ycate
##ycase
##rrrrl
1000000000000000000
4ja
4j8
4jaz
4ja8
benzo
benedryl
benadryl
naty
natie
natash
natali
natdc
psst
##aial
##lexie
changs
nearing
nearest
fixd
fixrepl
greer
tumor
tumors
##boy32
##boyonline
##boy808
weirdest
sexys
sexual
supposedly
unfortunate
felip
feliz
felici
felted
felicity
felitherandom
giants
giblah
naplan
##leeper
chickie
chrisg
chrisp
chrisdj
chriscorn
chrisjlove
chrisontv88
marky
iamki
iamoph
sonia
sonics
salty
signature
##chevious
##cheuer
magners
magento
specially
2001
bandit
bandwag
bandwidth
evo
eval
evicted
evolution
theree
thermom
thereall
therealy
##ethis
##ethird
##ethomson
christa
christie
christening
christiner
walkin
espn
katcal
layin
laydown
##carl
##gteacher
##easley
##eashale
commin
commit
greenville
fluid
fluids
gymnastics
sideways
sidebar
##iffy
insight
insur
insult
inshall
absent
absoul
absurd
##lovely
bases
basics
huma
humm
humbug
hummmmm
puzzle
puzzles
puertor
polite
policy
commenting
agreeing
agreement
ddub
geomet
gerb
gerard
germs
gericaquinn
moody
womens
##true
##60s
studios
##entionally
genre
genetic
gen22
genev
geneh
jenrol
jenkins
##goz
##garland
##garcia
##woods
infin
##thearts
##thebeat
##elle23
raider
rajas
raerae
##renee
##rength
byebye
patmaine
patiently
##bumps
##jo42
braz
brake
brawl
bracel
brabak
bracelet
viewed
##comm
##comedy
##maree
##marcus
regal
regime
warmth
14th
corning
firewall
guten
possa
possession
possessed
##hoon
##holy
##hoang
##hova
##hollywood
##yeong
subt
subcons
dressing
meningitis
ppls
##notaperson
shares
sharapova
peaches
peapod
takeaway
##minerals
##monke
##monroe
##monkeys
##bae
##baum
##baillie
##bautista
##parad
##parade
##parency
##isioning
wordchar
bluecat
apparantly
projected
projectcloud
dmc
dmb
esse
esque
esmeg
fights
fightin
fightstar
strauss
##versial
buggers
bottling
bottled
miso
mischie
mismile
mischevious
nora
norway
youngster
quicker
alexi
alexandra
fabre
nero
nerdy
nerds
##ooping
##oopid
philos
philadel
deny
miiself
teething
teemonster
teemwilliams
##forth
##forlife
##forums
##forbes
cheesey
cheesecakes
devot
devices
devils
deviantly
sarahk
sarahies
sarahbell
sarahjp
sarah68
sarahjacin
celebrities
lazing
##kyria
##kybiz
##jaff
##people
##enechua
webc
web20
freakgoddess
justinbright
##ologically
mommie
daughtry
fanta
joyce
joyner
joyful
joyfull
joyofzen
mcast
mcmuffin
mcmedia
rubs
rubbing
squee
squeak
squeaking
squeaky
squishy
##linntigh
##ledd
##7785
livingroom
livinghandy
replaced
pleaseeee
pleaseeeee
mrsdaught
130
1600
1667
16urvv
balling
ballerina
copies
copyc
cosplay
footage
giggle
ridding
ridden
closure
closeness
transparency
understandable
luvvv
mikefri
##clean
##clement
##mcflyfan
touchin
touches
produce
whatsup
crossfit
##ealthy
holdin
travelin
traveler
dunn
eachother
jerms
keyed
keytar
keylah
keytaj
naww
ryank
##booth
##boosh
##boogie
##boogi
##babies
##babyy
##babyyy
##88b
##234
##237
##string
##stroke
pointless
paperback
audacious
bagels
entrepr
mathews
potty
potface
potbelly
potentially
##11y
##115
##gae
##guer
##guing
##ounce
##eezle
stomache
stompthew
costly
costco
##eeeeeeeeeeee
muji
mundo
motto
mattmccoy
ouchie
wolfram
##tini
##tinat
##worthington
beaten
beatles
solve
solving
solves
solved
solaris
solobass
soldiers
paulamack
66n
66u
664
6695
66l83
cybers
cydia
cystic
cyrand
hilton
mamap
mamac
sanity
sanfran
sanjana
##castell
##castillo
##alderon
##faire
##187
##keyism
lovingly
experimental
everybodys
lawl
1864
19th
1986
1999
1984
boxers
darklord
ellie
ellipt
ellisnyc
eleven
massages
massacre
obv
object
obnoxious
panel
panhand
rollo
rollerskate
tyra
typh
tyres
veritas
vermont
verdict
yoghurt
##tvf
##1469
##202
##alko
proposed
roadtrip
funding
hospitals
ooohhh
tenen
tenerife
wallah
shopaholic
shirtless
proudkiwi
safeway
##ssssss
##sssssss
davewar
daveg38
lonelyyyy
noooowww
owt
owen
oohlal
purdy
watir
watts
bellion
bellag
locals
shutting
atlas
mails
mailed
designers
designia
expectations
michaeld
brigh
brianna
hannahs
jims
rooftop
##ramos
##246
foreverrr
walkinghor
peacelove
tuesdays
capcom
capemaybooks
dharshana
dhympna
garth
garner
garret
garbage
garrulous
mentioning
yezzz
##mcgu
##mcmanus
docbat
##umbers
debra
debussy
debugging
directv
eyefi
eyefic
bbqs
laters
roundtable
snaps
##knits
##afar
##afed
##afina
intent
intake
twilightguy
twilightfairy
twilightgossip
programs
consist
consists
conscience
consumption
screens
screenshot
24th
24hrs
blehh
blender
blehhh
billington
billzucker
billohbill
jordans
jennic
kimp
kimba
kimsher
kimmimcfly
nybabe
##iqht
##iqminerals
##ienne
##867
##inned
##innip
freshypanda
engaged
engulf
joely
joek949
50am
baha
bahah
fatbelly
labarcelon
landon
landline
landsc
matalatine
niko
nikz
nikster
##uhx
throwback
##ismusic
##isonfire
sumone
sumthing
sumtime
sumptuous
brainbone
brainstuck
ashleylovegood
ashleygofficial
questionable
affili
affected
affects
katecam
lowest
lisatalking
michy
michel
penelope
##8320
##esterol
inspite
deaths
deathwished
##wwwwn
##azza
##azzle
quietly
discs
discontin
dannymast
dannyjclay
portsm
imput
impatient
##andaj
##igrade
clothcouture
skyfire
reviewing
reviewed
angelistic
angelakeen
angelibarra
jasonmitchen
fishes
janice
janine
janell
janey
janitor
matey
nuttin
nuthin
nutreal
richmond
tmz
##smum
##small
##smooth
##oult
##oulet
##oulton
##seyx
spammer
spammed
deprived
departure
wednesay
publicly
production
homee
healthcare
irc
irgx
irregularly
jkphn
jkreeftme
julian
julied
juliet
julius
julierockaholic
tania
tanner
uhm
uhmazing
shinjuk
succesful
brando
truong
bitchy
bitchnotaperson
##xxxy
springtime
property
europ
euruko
eurodjang
emmy
emmar
emmal
feeds
rachell
siam
##howl
##newt
##door
##fanpire
##269
##265
##2610
shotgun
shouts
shouting
amyxst
amydewitt
imported
groupies
troublesh
swineflu
accidente
charleston
soulchild
170
179
45pm
bacardi
detail
detro
detention
hoots
historical
mixing
##2008
##2004
favourites
southend
southland
jefftra
jeffparks
doctoral
acronym
bklyn
bern
berra
bernad
banking
banner
banjo
boba
certific
denton
dental
hooky
kingston
kingivn
krista
krist0ph
lmk
mcflys
mcflyinggirl
mcflyandjb
piginthep
rowing
rowans
rowsell
turtles
werent
wernt
##cat224
##robyn
##holt
##holic
##usel
torch
torment
torta
##alaur
tweeet
tweeth
donnell
donniescupcake
brighten
brightly
campers
bcit
bcause
bowwow
bangin
bangalore
guns
kayo
kayench
kayaknya
migrate
migrating
migranes
##harsh
##steppa
##stevens
liek
##ungberg
mornig
explains
exploration
##angela
screwing
marykay
maryjane
earth2
cheerful
##aaaaaaaaaaaa
##aaaaaaaaaaa
importantly
balancing
foam
foil
foxxfiles
freo
frend
jumpstart
malicious
malaria
maltese
mander
mandarin
mandacrow
misty
noms
nomore
nominated
rosa
rosieee
rosalie
roshnimo
sirreign
sirhova
##drop
##drate
##dream
##drated
##dreams
##9999
havn
pressie
brady
speakeasy
connecting
connections
installation
returns
northland
northwest
akte
akomuzik
journals
joshc
joshy
victim
yahyan
##alypse
##vibe
thundering
formula
formulas
refs
refusing
refugee
sugarland
mallory
montel
montanna
5jn
5jj
biking
bioshock
boner
bonnar
bonkers
baka
bakers
centro
centigrade
ilike
ilhong
jae87
jaisey
jaunty
oopsie
tarot
tarra
tariq
tararizing
ugghh
##cutiesworld
##scribe
##058
##etcho
suggested
maxin
maxed
trails
clearing
surgury
continually
continuous
indeedy
programmer
programming
troublebrother
cuddles
essential
husky
marta
marty
martins
martini
sixth
wkjth
##iamunn
##leeeaa
##leeadams
##beexx
##formist
##askins
logos
shaving
shaft
shaanxi
heheee
chapters
agesthegreat
arghh
scottiejen
strongly
assigned
ericlud
ericmille
ericbolling
drawning
generous
generator
brianlim
cowbell
cowboys
deeper
deeply
kennet
kenzielee
mercedes
matching
matched
naming
namaskar
orientation
seng
##8705
islands
##reynolds
buttercup
majorspoil
clicking
kellyolexa
michaelsheen
augustine
bubba
gahhh
gaiman
gailelaine
gabe
gabba
gabriel
tabs
tables
tablet
tabloid
tabloids
treatment
teary
tearing
tatted
values
valuation
valerie
valkyria
wildlife
wildflowers
##lights
##zero3
##martin
##undred
##uppp
##uppet
##wichdab
halls
hallooo
hallway
halluc
##iefisher
chiu
chioma
demands
swearing
##heartof
screamin
007
cooks
coool
cooool
castiel
dubbed
dublins
loung
lakoda
poole
poofy
poojar
palace
renay
sigg
venzann
##fitonline
##weight
##wegian
##weathers
toasting
toasted
tonyhawk
andrews
andrewgold
##adesi
sherri
sherman
sherbert
shereemcfly
sheridan
frankly
aweomse
cruises
crackers
hangovers
technique
aimeelady
baton
batty
buffer
buffett
folio
geekwears
heey
heehee
judith
loretta
loribartolo
lindal
lindentr
mirrors
roseanne
rosemary
rosellyanna
uti
##mason
##maggie
##tech
##tekno
##bingo
hahhaha
##chae
frustraded
flashlight
miniatus
paintings
courtpet
systems
0981
90s
bullied
cuba
cuban
cubes
cubbies
downing
downt
fiat
fiasc
jp1983
typezero3
##ranch
##moms
##mith88
##mith22
##dogg
##banana
##yright
##8212
##ariee
##tttty
##tttttttt
##ttttttt
strangely
deserves
##babyv
husbands
5z4
5z6n
aaaand
aaahhh
aaahhhh
baybee
krush
krissy
kricket
krogers
khan
khansera
lament
lambs
murphy
murphys
murakami
octopus
pamluther
rhix
rhyth
rhubarb
romant
romina
woodstock
##rayne
##raymond
##328
##329
##792
cheapy
##halle
blasting
scarf
scarlett
appearing
appearances
doubtful
grabbing
pleasurep
roflmao
alyandaj
bothering
bosses
cabut
cabbage
icurve
kiis
koifusion
viral
yessss
yessssss
##radcliff
##jayy
toughie
toughest
stocks
stocktwits
shooter
chaof
chemo
chemicals
brooked
brookstuh
brookeamanda
dreadfully
quebec
advil
adamjackson
##player
danielradcliff
emilyyoung
taxes
##kkkkk
##kkkkkkk
requested
considerably
azt
circle
circa
cassette
cassidy
cassivella
hillary
kelli
kellz
kellan
lapbook
racers
racoon
racists
racquet
tagalog
##koz
##evil
##missed
##marked
##slow
##ancox
##charming
##charlie
begining
shelter
annapolis
heyya
candypants
##ophonics
claims
grosses
trademe
##lockwood
streams
streamline
snowgirl1972
channels
scratches
collective
nicole531
communist
basedmagazine
nerdprom
nerdatcool
distraction
60s
ayt
achur
crowdsourcing
cashier
cashouts
caviar
derby
derbysh
ebassman
ghetto
galact
galiiit
kirstyy
musiq
nliuk
oscar
osaka
operating
operational
pixel
pixels
pooping
ricebunny
tacoma
wxl
yogg
##ajames
##zinger
##jenner
##pencer
##penguin
##2904
##ico1
megaman
megaredpacket
printchick
##raphael
##rified
arrest
arrays
arranged
caroljs
lexi
lexie
lexia
lexiloohoo
handlewith
boarding
robertp
robertkaz
##123x
christianity
frenchiep
cece
custard
caption
captive
capture
deena
deejays
giro
giraffe
lemons
lemsip
mpre
mpix
multitas
symbol
##righteous
##service
##dragon
##benet
##benjamin
##finch
##finette
##gen8705
##withme
##anovel
hamburger
hamilton
hamptons
sophomore
##addles
shanghai
##iemxx
anthem
anthrop
susans
suffers
sleeeep
twittersphere
awesomeeeeee
competitive
##blogs
kevinpoll
nervousness
burneded
discovering
duvet
drews
females
ginjag
ivanaf
jrknaught
juno
jungle
mikki
pushplay
reeves
rawk
rawrrgasmic
tasting
##horia
##warming
##warren
##stalterego
##iscool
##child59
whooop
whooops
limburger
planting
improv
improper
savings
##lovespr
##lovesyou
##lovesjb
##zzzzzzzz
rockedbypickler
paintball
camerontdf
pairs
natalidel
peterpol
##worlds
discussed
performances
35mins
bounds
bonescra
destination
dirtydiz
foxandfriends
gmt
htown
hobart
hillsong
opposed
tatami
volume
voltur
x2b
zachsang
##hayyam
##butt
##justice
##ydia
##ydazzle
##police
##polkad
##policar
##winter
hacker
heathershorter
aliens
aliwise
##umenthal
swedes
internets
internship
hahahahahahaha
hahahahahahahahaha
despair
roasted
retweets
medicated
miserably
miamiadc
electrik
lmfaoooo
07x
28th
alext
alexx
alexxx
alejandra
dustb
dustbin
featuring
geehall
ie8
ie6
kirash4
krys
krystal
mcrmuffin
mcrsaved
niggas
pierre
roughly
raped
sources
sensible
sensibility
tinab
tisk
types
typed
##bbyryan
##fyre
##face2
##giving
##vvv
##peterson
##webb
amandalaur
##ffffff
switching
simonusher
michelleblanc
cherrythegreat
processor
aussiemcflyfan
challenges
bahamas
boomstone
boomkatt
ceramiche
ferr
ferris
fearless
iloveyout
meebo
noob
nathanblevins
oohh
pitas
pitiful
pillows
ronin
ronald
ronenk
riverside
sowy
sowwwy
sowwie
testers
tesla
titanic
titothe
tightly
ummmnnn
vivi
vivzy
vivienne
##halter
##jessica
##651
towels
thesimsh
soaps
soapylove
liesgirlstell
limegreen
fred6
fredwilson
outfitters
##abeanz
brittney
blowin
blonding
clarks
clarifying
growl
grrrrrr
grrrrrrr
drummers
drumstick
scotts
crispy
crispies
applaud
smokes
smokey
smoothies
smoothness
teleport
telemarket
erincharde
contentwhore
spreadsheets
jessicag
jessicasimpson
popularity
stephenhartley
nikkic
nikkipilking
bubblegum
jeremycow
48am
bastos
bastetass
buckley
buckhollywood
brewers
dsi
dsds
fires
jsie
kyra
mooorning
moochergirl
mousebud
mushrooms
nurses
ozdj
pdf
pd1001
underscore
wicked12
yermilla
##ridley
##matai
##melody
##macy
##tracy
##bear7
##greco
##757
##eemah
halt
halib
andreashale
soccergame
shipwreck
chased
chasingsunshine
##rageous
exercising
exercises
funnier
greeting
groceries
##aphone
cockat
cockney
cocktails
pockets
seatbelt
playerstation
divarina
embarass
embarassing
sniffles
medscholar
karenalloy
politico
##johnston
error505
charlieboy808
aidan
aidadoll
allyycase
aaronob
btches
busting
cuzz
coboyf
cultural
dkmash
dkmatai
dyeing
ethi
ethics
ethnic
fifty
jacobs
jacquel
josepicardo
lulion07
luluberry
observation
sdweathers
txtin
wilson
##runetti
##buzz
##janette
##foods
##foodie
##folk
##vania
thelma
##oofi
shaddybaby
shadowsinstone
lizridley
supers
suitable
combust
maheshk
mahirap
twittascope
brilliantly
splash
splurge
##aahed
##audrey
monica058
whoaohno
scanner
urbanfly
sneeze
sneezes
sneezed
##awaii
jerryshaw
jerseyz
typically
jenniferd
martinhavl
signings
bamablock
curls
cornwall
foolish
klaud
klutz
maternal
maternity
nurofen
nurburgring
noodle
punisher
pianist
rscheuer
rpg
riskybiz
settled
tdl
taped
tapulous
tapeworm
villains
##nkotb
##jdavis
##juist
##jaca
##oustillhere
income
incase
incense
shrug
shrinking
lilyginny27
franner
franco
franca
cheeses
cheescake
references
protection
plugged
amounts
blogher
greentm
greegreece
sweeet
approach
approved
emotionally
hoorah
snuggie
provider
provides
provided
providence
contracted
caitie
caitling
caitlin
synced
professionals
correctly
correction
translated
irish1974
hookedon
violet
violent
optional
wendyand
wendywings
lemonade
4vw9
bingo
bingofuel
cre8
cordova
gilbert
gilamuffin
kpatth
krispy
lonley
mosque
mosquit
manga
mangoes
noooooooooooo
roger
##iasm
##madman6
##safe
##brave
##judd
##geezy
##points
##wilfred
##westbrook
##70s
##eeshman
##engrey
membership
rejects
morrison
morrissey
immense
##oberry
slammer
slamming
savfort
tradehub
selective
leighanner
quincy
quarant
quarters
scriptgirl
adoreiii
dawg
crazier
danielle
tracecyrus
traceyh
elizab
elizapat
preparation
stevens
stevenbward
hmmmmmmm
investor
colouring
colourful
puppet
mmmmmmmmm
##paula
wolfchild59
emma300
##harrison
dutchrud
ultimatum
decemberists
developing
ayeblood
durin
durian
dumped
eek
eeks
fcuk
hindu
hinder
hockeygal
jdpeterson
josette
jakeashley
jakarta
kasi
mlb
mason
masks
munchkins
misterpertur
ncremins
oregon
pollard
rc234
rotting
rotation
ricerabbit
ravels
tayla
waaaah
zeke
##corner
##zo7
##ninja
##jiroux
##panag
##walker
hammock
fortune
stunned
sodas
sodahead
sobk13
choices
##theman
##themoon
awaits
##ffeur
willingly
democratic
safety
cocod
mariqueen
admir
kiddin
kiddshow
employer
employees
resistant
##nnnnnnn
samanthad
publishers
broadcast
cornerstone
transfered
transferred
##babe4
shaunie
generaltekno
##addicted
bulky
bulmers
battleground
cullen13
cullen26
dorzki
dimple
feck
february
fiddling
griffin
gumbo
healed
jcubed
jaredmaine
kamy
ledge
lamborgh
mz5th
mnth
m8zf
mentality
nunu
pirat
rrod
roux
ratty
wrapper
yeeeah
##rossi
##mesis
##modern
##ucci
##uccess
##uccino
##bathija
stealing
shaky
shaken
shawin
shawty
shawtys
withdraws
withdrawal
candic
representation
praising
prawns
alpine
brento
organic
organiser
sausages
phillies
phillips
##agrl
##agrant
##agreen
followsavvy
##iperry
sevens
seventh
sevenspoons
separately
croissant
flavored
##project
##promo
smacked
smackdown
bushes
crystalmar
crystalchapp
##whitehead
educated
concentrating
graphics
johnnydeppnews
melissa808
jeanette
##rrrrrrrrr
informative
hollywoodtv
##eeeeeeeeeeeeeeeeeeeeeeeeeeeeeeee
michaelmknight
progressive
pennydog
silverstone
brendan
sleeepy
sleeeping
destroys
destroytwitter
lizzie123x
lizzieiscool
williamsburg
neglecting
aqui
caddy
cadbury
categor
cathjenkin
gems
hypnot
ihop
jaztwitta
kinanl
kaloka
kraut
kraken
mccain
oyster
ogveno
pasadena
pilates
pilgrim
pantone
pantry
panties
pacific
pacquiao
rqo
royals
sassy
sassij
tidur
tidied
tammy
##collect
##cullenxo
##hodie
##hodge
##deeone
##bolt
##boby
##bullets
##555
##gaming
##guns
##puternerd
##pattz
##weekend
##willow
##omorphic
##styles
##eteria
shells
frosties
allahpundit
princeofc
bruise
bruises
brandywand
brandystrippers
missxu
groovy
codemon
margarita
margaretcho
advertise
advertising
advertisement
smiley92
travisgarland
believing
believes
##unkyone
##hhhhhhhhh
barrymanilow
complaints
darrenj0
meltdown
nicolerich
responsible
patricklang
devonsteb
##worthy
##youngs
pursebuzz
databases
kimberley
temptation
kristenstewart
##stephens
butterflykate
lesley007
murdered
anxiously
allysont
materialistic
awkwardtown
bbyowls
bailed
bouncing
bwahah
erikar
erikveland
fnr
fnoo
gangster
irresp
jogs
jogging
konghee
lrpw
lahiran
lacrim
laccbon
lacroix
mbp
mimis
mizfitonline
nimbup
nhibernate
occup
occured
pedro
powder
persu
persist
perspective
puffs
santi
santos
tucker
vogue
vodka
wookiesgirl
wrecked
##copy
##copic
##reads
##listed
##hunter
##hunters
##nancy
##jersey
##widow
toilets
andremichelle
andreanbc
influ
inflight1
##christine
##christopher
meatballs
mellalicious
melluffsy
##amorous
##alogue
dodger
dodging
dodgy
twibe
chinatown
chloes
suziperry
reallly
realllly
predicted
alancarr
loveliness
deanomarr
declare
declined
##ello92
grubby
sacrif
cocoa
scenes
scenie
scenario
marianne
adrians
adriana
smokin
rainbowanne
lappytop
familia
skateboard
tracymacy
highlights
provide
provoke
hopelessly
macarons
angiemartinez
epiphora
legitimate
beneath
unfortunatley
audiopr
fundraiser
nikkiwoods
portugaltheman
positioned
tornado
cooperate
galaxydazzle
conditioning
opportunities
goooooddd
jewelry
innocence
dylanxtra
insomniac
42nd
70s
9412
aunty
celeste
caca
civilis
dunkin
dynamic
fotos
gibb
hudson
hogging
izzyj
jiay
jillvee
judyrey
kg86
kanoa
kennedy
kennedym
liden
munir
munich
nesse
nasa
nascar
nadine
norton
nippysweet
pgpm
ppittman
pauld
russian
railsbridge
tacky
tessmorris
tissues
telstra
tangible
voci
voices
zoeloves
zojuist
##courtney
##zuela
##machine
##machina
##hardy
##f3f3
##98dave
##girly
##potter
##qe7
threaten
threatened
tourney
hazard
youuuuuu
youuuuuuu
##ascoe
sosolid2k
lifted
dolphin
reinstalled
sudafed
comet09
##thaessica
almighty
ambience
ambien
##estarred
##ulkner
funkylovin
waxed
clapton
grinning
grammar
grumbles
sailor
sacred
critic
critical
critique
cramping
##photos
dancin
danceashley
skiing
trekky
trekkerguy
instruct
##annababy
xxxxxxxx
rafferty
brodyjenner
absolutley
olivia
oliviamunn
larrybenet
depending
dependent
victoryhawk
optimistic
pampering
virginity
stripey
tutorials
hehehehehe
championship
kayla02
cigarette
citizen
dissapear
dissapoint
cynthiay
astynes
austria
aaaaaah
beads
bikini
battles
bkkrak
bambam
dahling
ezrabut
etherreal
fascinated
gorilla
gentleman
gentlesinner
hanster77
izzard
kylieireland
kathyireland
lenses
mashup
natsnapper
natsmith88
niqa86
oakland
pouting
popsicle
rbmartin
rfid
ruler
ruling
rssanborn
ribena
teeny
ttyl
vmware
variety
vicki
venezuela
wethedan
yeeeeah
##killz
##kiebear
##rt3r
##rpc
##leaf
##lalayone
##mellow
##talks
##help
##helpm
##daughter
##daughters
##birth
##brian
##brianna
##bakidz
##gelman
##anicole
##esigns
andysowards
invented
inventory
stampflitur
sociology
##amarie
goatzilla
analytics
analystalterego
heathrow
heathfox
cheaptweet
reyes
reynolds
nellagrl
##thelab
donnyosmond
makikaysantos
breedimetria
newborns
##obbins
howardlind
claires
orchid
orchestra
##apanama
polyester
bethbabe4
overheard
overheating
leopold
scraped
scrapbooks
uncond
##shirepixie
##brandt
companion
dannysghirl
endlessly
postpone
snooze
superbad
hairdressers
mummies
##avis1914
premium
retirement
ashleighhh
hilaryjp
elevate
elevator
elephants
proposals
wallpapers
daveyboyonline
formatting
dominos
scottrhodie
tattoos1985
advantages
##oooooooooooooooooooooooooooooooooooooooooooooooooooooooooooooooo
tradinggoddess
yogurtland
firmly
##00000000000000000
investigate
investigation
investigated
adoption
yikes77
melodyleal
environment
thriftymommy
bouvier
buchaut
dnb
doughnuts
doomed
dazzle
eugenia
eugenechua
fjkeogh
fisch
fischer
faux
fondue
fernanda
gcse
gulpanag
gathering
gooooooood
goooooood
heeeey
igob
jurassic
ksdaisy
lurgy
mesmer
meagan
migre
phaoloo
puddyn
patsy
pondering
rx8
rx2904
reruns
tanya
vitamin
wealthy
##cjordan
##kasplash
##zt72
##mw1
##musik
##tothe
##nicki
##dpf
##betts
##films
##inthecity
thousands
tottie
tottaly
##atthedisco
thefifths
thecompletes
thecomputernerd
sterling
steroids
stereophonics
stapler
bebeisis
meinj
anais
athens
athlet
##heroine
cheskiebear
chowder
chelsey
##through
platform
pleeease
mazda
makerfaire
imjustcreative
imjustlalayone
association
associated
knoxville
twiterfon
brutus626
##elgado
##elgiu
##ummings
blurry
bloomington
nightshade10
aguirre
aguilera
defend
defending
##oyoly
ohmyj
gratitude
arielleg
poisoned
carrots
scooter
cramming
sunniest
sunshines
##aken77
marvelous
marvelvscap
adapted
adaptation
smfh
smashingpump
joesgag
diagnosed
littlere
littlestarred
davedays
chezery
omarabid
##spiral
tristan
strategy
strategic
structure
accidently
accidents
##awhite
mrssosbourne
mrssprouse
assuming
assumes
erockett89
contemplating
chillaxin
indivibe
barbara
woohoooo
bball4life
sprinkling
ladybug8320
geocache
geocaching
rafealanth
vacuumed
cosmicgirlie
producer
elegance
rollerblading
hatz94music
##jeanine
integrity
voicemails
deposited
deposits
ignorant
ignorance
malaysian
reflective
seminars
validation
festivals
festivities
kiyosaki
kiyoshimartinez
ninjafanpire
symphnys
ferretprincess
48hoursnz
##builder
##building
alternative
alternatives
primaveron
enthusiastic
enthusiasm
lalalal
lalaland
repeatedly
lopezwilfred
clumsyflic
1million
2nlc
4fzo7
aaaaaaaaaamazing
aileenwilliams
aileen2u2
baaad
czb
crikey
cussing
deaf
dmafia
emsy
gillianre
gavinholt
jumbo
jagger
jubilee
jensara
kaufer
kazim
kmancob
licking
lushltd
litterally
lancaster
mdur
mxlcuv
merewichdab
nirvana
nazi
nettles
pesky
popeye
pmsl
pwns
pattinson
rasberries
razer
sianhughes
tifa
tyson
tiaantjee
uppp
ulcer
ulcers
vh1
vwll
vespa
voyager
vixster25
wwdc
yaaayyy
##iapunk
##cribed
##lifesast
##aimee
##zenski
##milife
##tneykardash
##boucher
##jinx
##yorker26
##function
##guru
##poole
##punkmom
##eron2002
thespunkyone
##ayayay
haunting
mynameismo
stumble
megspptc
loldarian
shahr
liberty
liquor
liquids
frasier
atomic
cheetos
chaubella
chauffeur
neuroanatomy
alliworthington
outdoor
outdoors
##thestars
nodding
pleeeeease
##rachel
img15
##umiere
##alleled
##hhearts
splinter
external
clogging
grinding
everyoneeeee
drugged
arrrgh
saurus
saurabh
phpmyadmin
hassle
enchil
enchanted
baddestn
scalzi
sunbathe
unhook
unhealthy
unplug
uniqueguitar
adambusch
madinafire
##myhello92
smelly
hippiekat
eventho
eventhough
omelette
keepinupwk
lyndon
disapointed
discrimination
danabrunetti
embrace
buenas
buenos
skyping
skylit
##crashhearts
recipes
recipient
relatively
resigned
photobook
boiler
retainers
##ngerlor
erniehalter
lilxcutiesworld
douchebag
laurendaymakeup
googledocs
shortstackband
calorie
xxxxxxxxxx
preschooler
melancholy
lauraduha
4jg09
feliciaodg
hummingbird
misstaken77
vaccines
miizronnie
stephanierhen
stephaniemxx
fuzzball
shutupand
garethcliff
garrettmaine
debbylovespr
discouraging
discouraged
angelicav1
brandiheyy
positron76
cheerleader
cheerleading
hysterical
mercury
lifestyle
nosebleed
nosebleeds
bubbletweet
##magnus
octo77
pamela010
arrangement
symptoms
sophiaf3f3
mikedelgado
07k6
oxymoron
oxygen8705
georgielockwood
jenniferlai
subscribed
subscribers
bmthofficial
ravenous
lollipop26
predictable
##0o0o0o
claudiatan
lyssiecc
mastersavage
ophelia
opheliapunk
robpattinson444
determined
determination
architecture
spontaneously
eurovision2009
320gb
arikhanson
bristol
c0v89
centers
censoring
dilated
dandineen
dazed
dakota
eternally
euphoria
eileenright
fwiends
fiona
fuuuuu
giselle23
gourmet
gauge
gooooooooood
hnprash
horde
ihave
javierchua
jaylink
jmlares
kurang
kubuntu
kansas
kohmah
lennon
ljsbaby
mulch
mgmt
noufah
neeed
obligations
pentagram
pennsyl
rjramos
roland
sashimi
sincerely
tynisha
vjartist
vasilly
vulcan
vrooom
wvbr
wardrobe
wannabe
xhaylee
xjakexchaos
xennyeh
xmylifesast
yankees
zimmer
zemote
##iwoe
##control
##oouoou
##lazar
##e4real
##moyles
##tosing
##husband
##holland
##history
##nibblets
##bastian
##fingers
##victoria
##pearl
##2776
##inibow
##inthesky
theraj
tokio
thedailyblonde
##llirva
##arenee
##ischen
##isseur
mycaricature
initial
insects
inherent
whitsun
mechanic
shtoofi
dayzie63
frisbee
frappuccino
frugalgaming
twiggas
candidate
chorus
chubby
chachi
choppers
chesterbaker
reptar01
reggae
recruits
rearranging
nemone
##thoughts
nocturn
nostalgic
alumni
albertposis
amyyvee
donttrythis
##estruck
abduzeedo
brennan
missdeeeee
missshannababy
officiald
mollie
moldovan
itsonly
spayed
spectacular
sleeeeep
delegate
decreasing
degeneres
dramatic
heresmyhello92
phoebe
hashtag
energized
shepards
consequ
##angoddess
vehicles
poems
manicure
themakelounge
overwhelmed
carrotmadman6
swelling
whoaaitskristi
oklahoma
scrabble
##achristina
uniform
unintentionally
marathi
marebear521
aditya
adrenaline
adjustment
##proxy2
taltalush
urbana
lautner
idratherbes
##fraser
disabled
dislocating
composition
yaeljk
emz2009
bullyosullivan
warpdesign
skillz
##credible
##cracker
bootleg
traumat
travolta
eliminated
reconnect
clemson
reluctantly
tauren
tactik
totalled
crystaaale
rocknroll
addicting
stevico1
rochellewiseman
ericajo42
lilazng
controversial
msnewyorker26
4w7yp
currency
midterms
calculus
xxxxxxxxxxxxxxxxxxx
cafeteria
causeee
darealtinat
microbes
bumblebeex0
collaboration
netflix
67h72
colossal
columbus
jaycees
nic0pic0
karamat
nattymsmith
chrisettefan
iamkhayyam
significantly
greensboro
pinkberrygirl
inserted
broccoli
correspondent
mixtape
heavily
transmitter
technician
veronicas
purposely
authentic
autographs
oliyoung
intrusive
portraits
impersonal
skydiver
emmielovegood
nkotblorib
bacteria
jefferycjordan
jeffreecunt
increasingly
frequent
casparterhor
jaimemcknight
westendactress
tabbycat224
sheriffs
geekysteph
mirandabuzz
ultrasound
smartie999
rhymes
icametumbling
ankitbathija
chemicalbullets
suspicious
reemerband
volunteer
licensing
amandapalmer
faithfulchosen
undeniable
##matthews
vautrin
kelvinlls
thorney88
immobiliser
savagemike
tracey1972
oreosandcheese
pandamayhem
fortunately
chantelleaustin
kevindavis1914
aravindkumar
johannabee
prioritize
disturbance
yaseminx3
yukihoang
introducing
magnolias
ingredients
werewolfembry
dominicalevina
cesyeuxble
##familyuk
mopedronin
qdoba
backseatgoodbye
orthodontist
robsessedblog
fuschiafoot
unbelievable
marijuana
1sweetwhirl
2maro
2mrw
6moredays
6fgxd
aonir
aislinntigh
asterion
axsujx
aldenpolicar
bipolar
bpekk
b25651
cchiron
cemetary
cmyk
cianan
cebu
culinary
cbrown7785
dindin
dilemma
deeeesearted
dennis
dujourmag
duchessamy
edsaint
eastern
egsa
eeeeeewwwwwwww
etniqminerals
elysion32
eeshkapeesh
fickl
fossilof
faaaaar
fountain
fiscally
gtfo
hgtv
hiphop
ipswitch
igloo
ialejandro
ijustine
j3nn1e
j2thaessica
joomla
jertronic
jannarden
jadeeisabel
jclayville
janae24
jentheginger
jlojlo
kunal
kalliet
kourtneykardash
kangaroo
kkkrista
keshia
kmc1121
ketchup
kernel
ketauan
l7zt72
lainey
lrsng
lamesauce
loooooong
lumberjack
m6sru
meryreino
mneylon
mennard
miffed
moustache
mswilliamsmusic
neenz
nvidia
niamh
oracle
oberhausen
omaha
oatmeal
pllleeeaa
pamslim
pugsly
qljyb
qwerty
riveting
rblpn
rgoodchild
sookyeong
smores
sondra
siempre
tldavidson
taufiq
tupac
tccrt3r
tizzik
ttfn
tferthomas
tamij
tiesto
vardenrh
vzerohost
velf79
vmarinellirva
wabble
wiping
wieters
xlesseyx
xanderprod
yacht
yashved
ykyat
znatrainer
zobi09
½rlich
##kramer
##mcleod
##hamsingal
##hungry
##uicide
##fiasco
##vodka
##vondoom
##puffs
##xpert
##inatra
##inesteps
thamissus
thakkar
topless
totaly
torie007
##original
theengteacher
thedebbyryan
theguigirl
thegoodhuman
thewinevault
thepresidentjx3
hafta
##isalovesu
mybrute
myfabolous
inotherwords
inhaler
ontario
##chumfm
isapersefone
forensic
##aslattery
stimulate
sogni
socallove
loisheilig
shaaqt
shubhamsingal
sheeeeit
shibuya
shanajaca
shropshirepixie
librefm
livestr
lilemoboi
wegmans
butbutbut
fridaay
justlikeanovel
anjeebaby
anonymous
ankeshk
notifications
notdiyheather
athletic
twtvite
canadamigos
cholesterol
challyzatb
chupach
cheshire
chicalit
rewrite
relegated
neillavin300
allianz
allearsdeb
allegra
allthatglitrs
comforting
##thatsme
noel4president
presten
prtyprincess
protein
pradeepto
albeit
aladdin
amateur
ammoxxx
amorsote
ambitious
ammaryasir
ambiguous
amymonzon
aminorjourney
mortgage
gottfried
lovemedown
lovelovelove
mavinbkk
makati
implement
ashington
asfaq
timminchin
abroad
abbrevi
aberdeen
abigaildsou
bratinella
misscokasplash
missgiggly
misslaura317
lolzyluvsjb
oneofthosefaces
didgeridoo
moistur
mogwai
moanasaves
newspaper
newjabbakidz
itsgabbith
itschristablack
itsmeamerie
sponsor
spielburg
blkademic
exocetau
thinkreferrals
slovak
sluggish
sln25373
theyotesdiva
dehydrated
ohmonika
ohsweetnibblets
guillermop
waikiki
twitterfridge
grcrssl
greaaat
fakerparis
faulko1
lljessicall
llcooldave
orbicule
drupal
drronvondoom
arjbarker
arthritis
trvsbrkr
energetic
connoisseur
conspiracy
conchords
pochaccoyoly
badmicrosoft
manhattan
whyareyoustillhere
seventeen
seantherobot
carpenters
leftover
leprakhauns
quesadillas
headhardhat
sccr18
scavengerlor
crumpin
crooning
unanswered
unparalleled
unpaid
unbreakable
playforkeeps
mareyachristina
marypascoe
maritzasylvia
adawada
adelaide
saynerd01
madamsalami
madpierrot
madsdeguzman
flahmanow
##percival
smushed
heynadine
girltrumpet
jofarnold
awesomeann7
hijacked
hihat7
rainycitylove
littlegigigirl
wretched
davestyles
dawwwwwwwwwwwwn
activities
lailashah
helsinki
heltershelter
interrupting
hotspots
hotpants79
anotherjulia
realconformist
livejournal
household
discretion
disgraced
perpetual
hellocuppycake
teeribbzz
danipoynterjudd
embedded
warhammer
remarkably
babystowz
bootcamp
tinylegacies
travesty
elvishsiao
1045chumfm
godawful
sweetavalanche
sweetemmaxxx
jonconnelly
drizzling
accadentally
accumulating
givemestrength
superglue
hairspray
resteraunt
taipei
xxlaurenbeexx
xxhazelxx
mrohboy32
mrdeniro
mrjrgregory
mrjaydeeone
mrfloydnl
rockdamullet
trellthms
preoccupation
killzonedotcom
fooddesigner
charavel
undergarments
annamessias
annainthehouse
keiyaunna
edumedia09
edstetzer
ladypn
horrendous
lilmarshmellow
redbaff
redskins
terricook
sethhs23
jameshancox
jamaicapanama
tvtotal
robineccles
mscatou
msalonen
macadamia
macmuso
blackhawks
4w52z
laurelexmachina
sarabareilles
davidaldrich
davidspruell
acmcwhale
barnsley
computermuseum
sambradley
samluminate
graveyard
mindy979
milosundae
jonaswebcast
openhacklondon
bankruptcy
confessional
mileycyruuus
prescriptions
avrilchan
catwoman123
djgigidred
mommy41402
artfirejohn
medbotjinx
jackfaulkner
jackgraycnn
ashsimpsonwentz
6714p
67tp9
nicktionary
nickiminaj
ladylove88
karleemay
100000000000000000000000000000000000
natdcook
fixreplies
giblahoj
chrisdjmoyles
chriscornell
chrisjlovell
iamkiara
bandwagon
thermometer
thereallilza
therealyungberg
geometry
genehiga
jenrolton
rajasen
bracelets
brabakr
wordcharmer
bluecat7
philadelphia
deviantlysweet
sarahjpin
sarah6800
sarahjacinta
justinbrighten
mrsdaughtry
mikefrizzi
keylahtia
entreprene
mathewsanders
stompthewalrus
solobasssteve
paulamackay
6695k
cyrandorman
1864ml
darklord1
tyrese4real
oohlalisa
walkinghorse
garretjiroux
docbaty
eyeficard
billingtonart
kimsherrell
engulfed
fatbellybella
labarceloneta
landscape
katecameron2002
lisatalkingtots
deathwishedx3
discontinued
dannymasterson
dannyjclayton
portsmouth
clothcouturellc
jasonmitchener
irgxana
jkreeftmeijer
shinjuku
eurodjangocon
amyxstftk
troubleshooting
jefftracey
krist0ph3r
piginthepoke
bowwow614
kayenchante
rosieeejones
sirreigns
akomuzikera
bonnaroo
ilhongy
jae878
wkjthd
ericludzenski
ericmillegan
brianlimond
majorspoilers
valerie2776
dublins98dave
poojarazdan
andrewgoldstein
shereemcfly09
geekwearsprada
loribartolozzi
lindentreephoto
fiascowines
khanserai
koifusionpdx
danielradcliffe
emilyyoung09
cassivellaunus
candypants2
nerdatcooltable
derbyshire
nliukin
handlewithcare
robertkazinsky
multitasking
anthropomorphic
kevinpollak
ginjagin
limburger2001
natalidelconte
peterpolaco
bonescrazy24
dirtydizco
volturi
mcrsavedmilife
ceramicheart
thesimshub
telemarketers
nikkipilkington
jeremycowart
bastetasshur
mousebudden
shipwrecked
divarina21
medscholar08
dkmashino
jacquelinesteps
shaddybabybitch
maheshkukreja
jenniferdodd
martinhavlat
bamablockhead
riskybizness23
4vw9a
kpatthethird
mosquitoes
savfortomorrow
tradehub21
leighannereena
traceyhewins
elizapatricia
dutchrudder
ayebloodyright
misterperturbed
jcubed1
lamborghinibow
mz5thave
m8zfx
crystalchappell
categories
kinanlw
ogvenoe
pilgrimfamilyuk
princeofcode
brandywandlover
codemonkeyism
darrenj0nes
nicolerichie
patricklanglois
devonstebnicki
kristenstewart9
irresponsible
lrpw1302
laccboner
andreanbc13hd
melluffsyew
audioprincess
civilisation
kennedymaine
nippysweety
zoelovesarchie
danceashleylove
cynthiay29
bkkrakora
ezrabutler
hanster7705
stampfliturci
howardlindzon
melodylealamb
buchautor
puddynface2
thefifthsister
ariellegore
marvelvscapcom
smashingpumpkin
joesgagirl
mrssprousex
rafealanthem
symphnysldr
dmafiax
kmancobhc
merewichdabitch
baddestnla
uniqueguitarist
keepinupwkris
lauraduhaime
stephanierhenee
pamela010474
jenniferlai7
giselle2323
hnprashanth
kohmahts
pennsylvania
xhayleeey
xjakexchaosx
xmylifesastoryx
idratherbeski
jeffreecuntstar
casparterhorst
aislinntighee
fossiloflife
m6sru3
taufiqz
vardenrhode
myfabolouslife
allthatglitrs21
abigaildsouza
0i
0k
0l
0a
0z
0t
0n
0f
0ay
0om
0zy
0hhh
060
023
024
0rob
025
0eg
0gm
0wv
0oze
0l2
0b5
0ghz
1z
1e
1t
1b
1v
1p
1out
1thing
1mo
1cr
1of
133
177
1do
1123
1zs
1cor
1bi
1zp
1zu
1km
1tb
1fav
1zyg
1dire
1jared
1y2
1aa1
1xts
2o
2a
2h
2y
2v
2or
2ur
2ce
2ind
2nt
2aa
2ag
2ft
2get
2sw
2uz
2me
260
2go
2for
218
286
230
221
2do
2da
2hi
299
234
2yr
2ser
2field
2twitter
2hours
2list
2mz
2dm
2stop
2u2
2215
2hp
2ghz
2888
2s1
2jobs
2gnt
2nyt
2toa
2flutter
2134
2people
3r
3l
3h
3s
3p
3or
3ys
3lo
3to
3gg
3sp
3are
3ds
3yp
3ale
3min
318
326
3ala
3mb
3bt
3mag
3ware
395
342
3break
364
3mr
370
3hours
3him
3yo
3easy
3o3
3aaah
3v3
3lbs
3squ
3pb
3minds
3a5
3milk
3asa
4k
4a
4e
4b
46
4ut
4ce
4ha
4us
4ish
4ge
4ph
4me
4more
4uk
409
460
411
418
434
487
4yr
4ev
4bb
4000
4real
4hrs
4boys
4hours
445
4eva
4qp
461
4km
4xv
4x4
4rm
4m9
4sx
4x1
4ttn
4grn
5o
5e
5m
5h
5s
5f
51
59
5p
5ke
5ry
5ish
5mm
5of
512
513
560
5yn
5jo
518
520
5je
599
525
516
5mins
527
590
5hours
5days
5yk
563
5sec
51p
5wb
562
5tb
5900
5m7
5t5
5ghz
6k
6j
65
6ool
660
6jo
688
614
624
683
689
617
695
6gb
6nk
645
697
654
6hes
639
656
638
658
650
6500
6urr
6wks
6ireee
73
71
7p
74
7ar
7ag
710
760
777
711
718
7af
7ex
785
701
7bell
782
784
715
745
7vik
7mth
8c
8k
8m
8p
8q
86
8mm
8sh
888
821
808
805
874
8hrs
865
870
8101
8mz
82k
840
8qa
8900
8j3
8w7
8ahw
9r
9h
9j
91
97
9ft
9yn
911
999
9yr
916
929
9yd
9000
965
981
9100
970
9uin
9follow
9x0
98212
a9
a2
aat
aay
aes
aot
ake
ald
ase
aur
aab
aand
aum
aul
aig
aob
auch
ady
aking
aap
aag
airl
aac
aure
aeak
ahe
aime
auu
arist
aever
avin
aoh
achie
affic
aki
aene
aoe
augh
aami
aural
aost
azer
aund
aids
aila
ajay
aero
aryan
ajd
ajc
asex
aubs
aghh
ayoung
astor
aghhh
apicture
aawh
a0n
a48
aannn
aiza
aesthetic
a0p
a4f
aewang
aoki
bz
bn
b8
b3
bx
bis
bld
bith
bim
bere
bce
bess
bil
bha
bain
bate
beep
bice
bally
bown
bfe
bny
bort
bph
bpr
bcc
bater
bto
bpt
bgg
bian
burl
bert
bcy
bfly
bps
bne
bsw
bbs
bde
bwh
bmore
bote
bals
bact
bhaha
bayl
bunk
binks
bows
bann
bakes
bfast
bops
biff
b33
beeps
bmar
bitty
bgn
bolog
bmi
biiii
beez
btv
bbye
bails
binn
biot
boul
bient
bwr
bala
bsk
bwe
bx3
b32
bustin
bnx
bwl
bhan
bhr
bucky
bhs
bonds
bni
bhl
bizzle
bmac
bjs
bwi
bws
biph
bawa
bjc
baws
bnl
bxa
batte
b2b
bhab
bampa
b0r
beeping
beaky
boooooooooooo
bzt
b0y
bilig
beamer
bbrush
booooooooo
baaaaaaa
boooooooooo
bnever
bsween
baylee
billiam
b9v
bbrooke
bgeezy
c9
cq
c2
cing
cll
cet
cic
cse
cain
ciss
cead
cna
coy
cking
cip
caz
cah
cort
csh
cug
ccc
cci
cii
cms
cull
coom
ccr
cward
coney
cps
cfu
cib
cple
cde
cuu
cush
cote
cember
cici
cked
cyp
coooooooo
ceee
cger
cees
cade
cages
ceas
cinc
c33
ciel
cmin
cmon
cunt
ckin
caster
ctv
cbar
cazz
cient
c25
cbee
cbed
czer
creme
c76
cjam
ceased
cbb
ckd
cgi
cushing
cbear
c64
ceem
cjs
c73
cement
caga
cnk
cbd
cbra
crip
celine
c63
caching
cfi
cxi
cfree
ciner
cager
cgold
cjt
cdev
cuuut
cinel
creyes
cjewel
cqc
cstm
cspin
caaaaan
cujx
coty
cakin
cierra
cowering
cumbers
cmagnus
d8
d9
d6
d2
dll
dnd
dha
dink
deet
dff
deen
duch
dame
ddy
doooo
dive
dlo
dach
deak
duff
dble
dbr
dord
dbl
dats
dzz
dary
daaaa
dbs
dload
dde
duu
dym
dmore
dush
dict
deee
dica
deek
dics
dages
dilly
duk
daaa
dense
dya
d60
dwood
dots
dunt
dstr
deez
dusted
dler
dilli
dsm
daaaaaaaa
dicks
deap
dotb
dili
dali
dahl
ducky
dfg
dxs
dander
dluk
dsth
daph
doof
daaaay
dnk
dchi
dims
dyer
d1q
dante
dizon
dpi
daps
diction
dingo
daze
d300
d4h
deder
dhair
dwhel
dgree
dspecial
dantas
dastasia
daug
dyson
dcastell
d792
dworlds
dwestbrook
e1
e0
ein
ean
eit
eck
ead
eam
eill
eun
eim
elly
eink
eab
eos
eum
eeep
eeet
eine
eally
euch
eau
efe
eyy
eph
elf
esh
eey
epr
eater
eci
eather
eash
eman
eens
eco
eave
eved
eesh
eppy
eject
eany
eche
einc
ekin
ecle
eston
euc
eeeeeeeee
eje
euh
e83
egy
ewr
este
euth
eov
ewk
ecas
eaj
e44
eeem
ejc
eoi
ekkk
eerie
e2b
echt
ealing
eabear
eblond
elder
emax
echarlotte
ehhe
eassy
eeeeeeeeeee
ewwwww
eedawson
ehehe
echs
eidol
eitha
erika
eallen
eisted
etonline
eavy
eboogi
fk
fd
f8
f9
f2
fou
fow
fet
fen
fle
fck
fome
fim
fent
fack
fain
fink
fand
fos
fff
ful
foll
foooo
fiend
fist
ffe
fiz
fsh
fug
fma
fure
feeee
fend
fian
fof
fats
fok
fuu
fhn
fds
fizz
fyl
foh
ferg
fyn
fiel
fkin
foe
fused
falk
fowers
foul
fxxx
fists
fenter
fxs
fstre
feta
fuses
ffrom
faded
fisher
fhm
fika
fkkk
fnyc
fetti
fcharl
fading
faints
farting
fooked
fulf
fuze
fopr
f0ll
fuming
fennel
gk
g5
gv
g4
g2
gat
ges
ged
gow
gle
gly
gad
gday
gth
gha
gant
gate
gout
gong
geen
gaa
gag
gny
gaz
giz
gcc
ganna
gss
gxx
gpt
geal
gii
gta
gint
gooo
gman
gby
gert
gates
gne
gav
gsw
gbs
gves
gals
gayl
genn
gale
giver
gump
gees
geb
gerg
gera
gai
geas
gya
gjo
gba
gips
gpa
gara
gknight
gails
gains
ggs
ginn
gamb
ganda
goul
ghi
gala
galia
gimp
givers
gwe
giii
gmas
gjr
gils
ggen
gaaay
gparents
gimi
gazing
gsn
gjer
gators
gaaah
gaze
gashes
gnar
gjv
gwp
ganz
g1986
gaging
goooooooooooo
gaston
gooooooooo
gaskar
gjq
g4p
gedan
ggggggg
gastr
gyrl
g3o
gtta
gandang
g00d
g11y
hz
hg
h7
hin
hou
hre
hse
hone
hink
heep
heel
hig
hice
heed
hhh
hoy
hup
hue
hod
hose
hma
hble
hoke
hooo
hign
hcl
horm
hana
hayl
hhhhh
hesh
houd
hiness
h09
h60
hva
hky
hja
hpe
houn
h14
hides
hden
hrd
heeeee
hda
hhi
heeeeee
hicks
hitten
hwilliams
hano
hhs
hhil
hbn
hws
hstreet
hwy
hbd
hanny
huuu
hanks
hlj
hxc
hlyw
heston
hoooooooooooo
hifi
hansen
honda
hbp
hl2
hfw
hcole
hansie
hooping
h269
iy
i3
ix
iat
ies
iar
iis
ien
ile
ike
ight
iad
iun
iver
illy
iop
iri
iand
iff
iig
idy
iem
ixt
iber
iia
iod
ians
ipl
icc
igg
iank
icy
ibs
ikk
iont
iama
ilic
icing
iren
iye
ioe
iga
ils
ilife
iza
iloc
iiii
iko
ianc
iht
irah
iweb
iblue
iloved
ibeat
ibg
iyo
i36
ibiz
i41
icharlotte
i0n
i900
isthem
i420
i733
iaret
ilost
iloven
ibex
iplayer
ijanette
jx
jq
j6
jth
jish
jel
jmor
jell
joooo
jive
jber
jia
jah
jpl
jts
jms
jsp
jare
jton
jland
jps
jib
jne
jbs
jax
jfl
jale
jits
jcon
jrs
jair
jars
jyn
jeeps
jfer
jandy
jmar
jho
junt
jkin
jpa
jboo
j14
jester
jsm
jarm
jape
jrob
jwr
jades
jenty
jmas
juuuu
jhall
jjr
jipped
jsl
jaron
jhay
jlynn
jmel
joman
jota
jaker
jcd
jmike
jcs
jlam
jmr
jhy
jjud
jockey
jaws
jfab
jvm
jgm
jlj
jwill
jolla
jglass
jmcc
jwd
jwp
jotton
jmorgan
jl0
jumps
jender
jmichelle
jader
joper
jiah
jhughes
jfb
jeln
jools
jzw
jkeith
jalen
jhicks
j1s
j4o
jtype
juga
joooooooooooooo
jlovely
jcharming
jgreco
jyoungs
ku
k8
k3
k1
k6
kee
koo
kot
kve
ket
kad
kie
kha
kain
kab
kum
kard
kite
krow
kww
kem
kag
kile
kia
kass
kup
kac
kbe
kto
kather
keal
kond
kwn
khe
ksp
kian
kurl
kare
katt
kates
kina
kase
kro
kmer
kual
kinks
kately
korn
kato
kree
krs
kair
krrrr
kai
kels
kya
kjo
kcom
kho
kye
kpe
kitar
kpa
kstr
ktv
kaf
kazz
kdr
kween
klee
kost
kmart
kices
kuts
kkkkk
kuj
kwl
kjb
kalo
kona
kittin
kela
kknow
kiki
kmac
kdc
keem
kisha
keels
kava
kadam
kacy
kaki
ksy
kaching
ksat
kwee
kysp
kunky
ksn
kews
katte
kbal
kinky
kreative
kaka
komen
koda
kdp
kboom
knda
kookie
kiana
kbang
kfb
k0n
kchas
karting
kassie
kurtis
kouz
kooz
kedge
kables
kiso
kfff
kanye
kkoz
kawaii
kgeezy
lz
ln
l0
lp
lx
lq
l2
ling
lll
lom
lve
lut
lke
lly
lome
lent
ltt
lish
lel
lum
leet
luch
lough
ldy
lking
lown
lug
lcc
lbr
lank
latt
lates
lory
lark
lng
lurk
lann
lpm
lron
ltr
lwood
lho
lmon
lba
ltc
lmi
lboo
lino
lram
lomb
lmc
lester
lago
lured
laces
lwr
lunes
lrol
laaaaaaaa
loooooo
ljr
licked
lhr
lvs
linger
lken
llll
looooooo
lusting
lvt
lante
lbig
lpi
lti
llda
lager
l4d
luto
lumpy
lanky
loooooooooooo
lbutter
lutz
lchang
luster
laina
ldb
lpost
luther
lassie
lnger
l0l
lachrist
lmoa
lumiere
m5
mle
mke
mome
mse
mith
mie
mver
mce
mry
mant
mook
meep
mick
mool
muck
mif
mub
mph
mpl
mma
mute
mgg
mfr
mull
mooo
mbl
mcy
mhhh
mco
mps
mib
mbs
mett
mde
muu
mets
muz
mcl
moot
mnet
murk
mase
moooooooo
mits
mower
milly
mops
mucks
mising
mial
mkin
mja
m77
mstr
mains
mito
mdr
mimp
mwe
mhall
mlim
mizzy
moooooooooooooooo
mfm
moose
moomy
mjb
muna
mrah
meech
mstal
mucky
mhs
mfs
mkd
manger
mkay
mlew
moles
mbill
msell
mhaw
mkar
mingo
mdf
mjv
mgir
mxy
molar
mdm
mths
mardi
mgor
minging
mrex
mrae
mcherry
mardy
mucking
muzik
measure
m1d
mchale
moneyy
mfeige
mlexie
mounce
n3
n0
nv
n2
nea
nke
nome
nal
npp
nack
nil
nri
nook
neep
neel
nul
nind
nge
naa
nau
nub
nive
nip
nber
nia
nass
nup
niz
nue
nac
nans
nsh
nug
nts
npr
ncc
neeee
npt
nmo
nta
nix
nord
null
nare
nside
nzz
nio
naaaa
nigh
nno
nuu
nude
nds
nors
nees
nics
nuss
ncar
noop
ngn
nyle
n23
nga
noun
neeeeeeee
nsing
niter
nada
nje
nien
ninn
ndo
neeeeee
nils
n95
noose
nzing
nhan
njb
naaaaa
n64
njd
nisf
naded
nira
nmr
nisher
nims
nvd
n97
n28
nadi
nagr
nsty
nmg
neaa
nuffin
nsmith
nrier
numpy
nbk
naskar
naba
niza
nipt
nixon
niano
neesha
niffer
nfn
nttn
nishiki
nnaa
nmyster
nmaize
nibs
neemah
o3
o2
oes
ond
oom
ost
ove
oic
och
oome
oir
oday
oop
oks
ous
oxt
oist
oyy
oey
oto
oder
oso
omo
oii
oint
oats
ozz
otw
ode
ouu
orist
oep
oyl
oster
oging
ola
oiiii
ough
owwww
oda
ouse
ophy
ouv
odr
ooooooo
oouch
ocell
oiii
oooooo
oils
oval
ovr
ojc
ovie
ojee
ocra
oucc
ovation
ocamp
odee
owwwwwwww
ojt
otha
oamc
ouuut
ought
oowww
ould
oqs
oxtra
oaks
oaer
odys
p3
p1
pv
px
p4
pq
pis
ple
ply
ppp
pess
pus
pate
pum
peet
pind
pob
peen
pough
poy
pell
poooo
pww
pist
pia
pew
piz
pans
psh
pper
ppr
pss
pft
ppt
pbr
pman
purl
poom
pank
poth
ptw
pib
pbs
pple
pina
pase
pues
pors
pyp
pinks
pits
pcon
pmed
pamp
pade
piet
puss
paaa
purs
piff
pinc
p33
pots
pider
pva
pester
pala
pung
pask
plyn
piling
pns
peech
pius
pasc
pque
pipe
pbc
pelt
pilar
pooooooo
pirou
pabl
pika
pvt
peasy
pvp
peste
pager
pxy
p1p
ppicture
peaky
pests
pitta
pussy
pidd
pffffffff
pisay
plez
pkeith
p6lf
potted
pinned
pfinette
qk
qr
qa
qz
qe
q3
q9
qx
q7
qis
qet
qreat
qip
qxx
qik
qcy
qates
qsw
qcl
q13
qmb
qrock
qwe
qiu
qfs
q100
q63
qa4
qantas
qirls
qqe7
rk
rl
rz
r5
r2
rck
rir
rim
rere
ress
riss
rink
reed
reen
rame
rau
rdy
rous
rake
ration
rys
ria
rny
riz
rue
rft
rder
rond
rms
rhe
roth
rince
roney
ratt
rence
rlc
rory
rating
rwh
rail
rons
rng
rayl
rors
ripp
renn
rfl
roooooooo
rows
rump
rcon
rane
rapt
rica
ramp
rosh
raaa
rrrrr
rai
rants
randy
rames
r18
r20
roup
roul
rural
rific
rwa
rsc
ritter
rugs
rsl
r65
rizzle
rbu
rjd
rpaul
rbi
ruled
rmet
rdj
rdel
ritz
rolf
rgam
rwit
raze
raaaaaa
rwan
rettem
rippin
rmw
rookie
riah
rmil
ropes
raaw
rlq
rukh
r4nt
roping
rupert
rathbone
riqht
raaaaaaaaaaa
s1
s0
s9
s5
s4
s7
s2
sve
sust
sie
sce
sain
sast
siss
sge
sear
sking
sif
sitt
sxt
sip
sys
seam
sma
sath
sich
sso
surn
sited
sio
sary
sence
sift
sals
sount
sipp
senn
sinks
sife
sane
s12
saaa
sears
s20
sbar
sided
ssm
saaaaaaaa
sdr
svi
s05
sfit
sxxxx
swww
saaaaa
szs
svet
sssssssss
seams
sxc
saaaaaa
siiiii
sxy
sippin
sutz
sookie
sealer
ssssss
s48
sftw
sroach
sbenz
sutar
ssway
sinai
tk
t8
t1
ting
tks
tate
tct
tand
teet
tally
tuch
tdy
tays
tide
tud
tile
tfe
tiday
tanna
tci
teal
tso
tii
tint
tian
tare
tgr
tps
tins
tib
tsw
tbs
tams
tude
tush
tents
tudy
tfl
tees
teek
tuss
tars
turs
tcar
tgt
tense
tvers
tja
turch
ttc
tyle
tga
tada
tides
tazz
tnite
tnew
tda
tito
tswift
tined
tangel
tza
tlet
t17
tsss
tupp
tini
tipped
tlock
teets
tipping
tbb
txs
tknow
tkd
t71
tbird
tiki
tanger
tessa
tluck
tnl
tbag
tadi
tattered
tantal
tfar
tshe
tiiiii
tjv
tlking
tchet
taddy
tldn
tarde
tension
tferr
tk3
t4p
ticon
tassie
tpretty
tjeff
tzx
tugger
tiiiiii
tluke
tarte
taaas
tivon
teeeeeeeeeeee
uc
uz
u5
uv
uw
uq
uou
uve
uch
ure
uld
uter
uce
utt
uug
uts
uma
uft
ubook
udd
ucl
uds
utf
umin
umi
uugh
u14
uls
uda
udon
uuuuu
uwl
ugggg
uae
ubc
ucs
uribe
uuuu
ucler
uwb
urien
ucky
uuuuuuu
ueiv
ufig
usticks
ukkkkk
vk
vd
v1
v0
vg
vv
vx
vor
vat
vll
voo
ved
vur
vere
vil
vink
vos
vind
vall
vob
vous
vitt
vive
virl
vah
viz
vans
vma
vond
vsp
vian
vats
vib
vav
vime
vail
vines
vmail
vows
v10
vron
vair
vops
vuk
vera
vgt
vips
vja
voe
valk
vita
various
vwr
vouch
vcha
vdog
vari
vser
vlynn
vrik
voyd
vinson
vicia
vuel
viper
vhem
viters
viner
vorder
vrom
vader
vests
vandal
vynk
vradio
vstudio
vfactory
vlad
vfav
vyz
vqiu
viendo
vachan
vmyster
vikki
vinnip
vaahed
vagrant
wc
wb
wf
w3
wst
wve
wis
wad
wun
wim
wate
wri
wong
wna
weel
wul
wally
woll
woy
waa
wdy
wound
wking
wang
wyy
wrr
wath
wint
wsp
wcr
woth
wiew
wfu
wok
wets
wude
wizz
wesh
wyl
w12
wade
wwork
wuss
warden
wyn
weeps
wpar
wla
wmi
wita
wmc
wje
wuh
wsm
woul
wbt
weap
wilt
wov
wades
wiii
wfm
wycle
wzzzz
wold
wyd
wych
wese
wizzle
wyb
wlan
wbc
wws
waah
wwis
wiper
warten
wlda
watte
wuzzy
wamar
wldn
wongo
wannn
wrig
waaw
woooooooooo
waaaaaay
wcm
wbw
wstm
weaver
wogs
wamu
wys4
wcharlie
woooooooooooooooooooooooooooooooooooooooooooooooooooooooooooooooo
xa
xu
x1
x0
x7
xer
xing
xon
xom
xst
xot
xet
xam
xir
xim
xant
xra
xab
xong
xul
xww
xem
xac
xbe
xmo
xii
xms
xhe
xoc
xian
xav
xark
xams
x12
xcept
xoes
xcar
xthe
xye
xoe
x23
x11
x24
xomb
x86
xogra
xnic
xux
x34
x17
x25
xran
xanth
xnx
xzen
xmind
xht
x29
xbb
xeh
xyb
xsay
x100
xkar
xvd
xthem
xomor
xbiz
xshe
xcharl
xbron
xaan
xfact
x1p
xchik
xfiles
xrays
xmx
xb4
x9i
xvik
xchad
xanther
xhausted
xoded
xmelly
x9999
xchristine
xcourtney
yl
yh
yn
yd
yb
yj
yp
yw
yin
yst
yly
yir
yere
yop
yos
yong
yna
yul
yoy
yap
yag
yfe
yass
yose
ykes
yoke
yself
yike
yoot
yro
yult
yeee
yoh
yamp
yosh
yars
ygt
yuc
yyyy
yield
yeeeee
yeeeeee
yhere
yung
yaaaaaaaa
ysc
yiii
ymas
yuuuu
yoooooooooooooooo
yuj
yyyyyyyyy
yano
y92
yaaaaa
yvr
yipe
ybc
yata
ybd
yjp
yhaw
yanks
yvet
yarin
yeye
yopo
yestar
yuuup
ygp
yoda
yeni
yoyo
yhana
yaaw
yin9
yelaine
yvw
yomiss
yansie
yelgiu
zh
z3
zx
zw
zq
z7
zin
zer
zing
zor
zit
zed
zot
zic
zad
zur
zop
zent
zil
zum
zong
zul
zol
zind
zah
zzy
zaaaa
zps
zav
zuz
zact
zep
zipp
zorn
zeb
zade
zera
zoid
zgu
zoul
zomm
zda
zzer
zupp
zulu
zuj
zeta
zeem
zoz
zwal
zlam
zhen
zucc
zyk
zoning
zwriter
zaid
zdf
zhigh
zeds
zaboo
zbrush
zhong
zwart
zapat
zinz
zeros
zanti
zahar
ziggy
zappa
½c
½z
½8
½3
½1
½9
½7
½an
½ar
½om
½en
½se
½ry
½ra
½ive
½pr
½ure
½thing
½ii
½ta
½gr
½wh
½ana
½13
½lic
½33
½ries
½ky
½tim
½14
½20
½30
½rd
½ule
½34
½17
½we
½ns
½di
½gue
½27
½hl
½ji
½mme
½cia
½91
½oi
½who
½50
½pict
½why
½stupid
½always
½ndel
½being
½every
##iy
##i0
##iis
##iad
##iight
##iur
##iie
##iant
##iand
##iine
##iif
##iation
##iia
##iyy
##iug
##iath
##ieeee
##ibl
##iated
##iert
##ibook
##iune
##iizz
##iees
##iops
##iberry
##iinc
##iwood
##iene
##iara
##i20
##ije
##iux
##i07
##iblog
##iata
##i78
##ioust
##iadam
##i91
##iesss
##iarty
##iyer
##iolla
##iwer
##iators
##iwine
##iinee
##iuto
##iques
##ieeeeeeeeeee
##iouz
##iessss
##ieamy
##iblesh
##i819
##iowe
##c0
##cw
##c2
##cea
##cet
##cust
##cill
##cter
##cun
##cry
##cth
##could
##cain
##cant
##cers
##cau
##cap
##cation
##cys
##cause
##cach
##cans
##cure
##coc
##curl
##cank
##catt
##ciful
##crist
##cave
##cote
##cents
##cmail
##cube
##cult
##capt
##capp
##cuk
##caaa
##c09
##cmit
##cries
##cene
##cpa
##c88
##cuc
##cino
##cmc
##coul
##cden
##cmusic
##csc
##cund
##cades
##cango
##cils
##cford
##cali
##clock
##cano
##cjones
##cotic
##c35
##cmoore
##crip
##c68
##colo
##caps
##catherine
##cxc
##cando
##caaaaaa
##cotton
##cads
##crows
##c4h
##caken
##c1983
##cotch
##curve
##cmurphy
##cwo
##candar
##ceadams
##creation
##coded
##calderon
##cangela
##cslow
##kl
##kt
##k8
##k0
##kow
##kea
##kis
##kly
##kess
##kha
##kus
##kink
##kand
##kos
##kart
##keep
##kind
##kall
##kine
##kown
##kitt
##kass
##kath
##kbr
##kash
##kby
##kise
##kitch
##kates
##kaw
##kne
##kok
##kav
##kail
##khn
##kme
##kines
##kana
##kayl
##kase
##kont
##kyl
##koh
##kera
##kaaa
##kai
##kya
##kwood
##keeps
##kho
##kita
##kuh
##k83
##komm
##koon
##kmusic
##k99
##kbt
##ketch
##kitchen
##kov
##kado
##kili
##kwe
##kiii
##k04
##kady
##kuna
##krin
##kayy
##kbc
##kfrom
##kzilla
##kcs
##kimo
##kuma
##kvt
##kadi
##kalan
##katherine
##kiko
##kolar
##k1w
##komo
##krab
##keeping
##kistan
##kcj
##khouston
##khai
##kiann
##k505
##kamel
##kallday
##kphotography
##koka
##k977
##kvb
##k4peace
##komi
##kunz
##kikah
##kappa
##kanye
##kmarked
##kawaii
##kwidow
##rz
##rn
##rj
##rf
##rv
##r7
##rou
##rch
##rome
##rld
##rse
##rill
##rce
##rks
##rout
##rard
##rind
##reen
##rope
##rrow
##riend
##ride
##rue
##rsh
##rouse
##rond
##ready
##roke
##rats
##rons
##rds
##rana
##rush
##root
##rents
##rgl
##resh
##r19
##rance
##rann
##rump
##rane
##reee
##rica
##rpm
##roken
##rted
##range
##reth
##rense
##rthe
##rho
##rstand
##rnes
##rara
##rino
##riter
##rgy
##rhi
##rala
##ruv
##ruth
##rbt
##rlee
##rask
##ratic
##r01
##rjay
##rphoto
##roph
##rbut
##rode
##rbear
##rality
##rcook
##rjp
##rnl
##rnin
##rtalk
##rubs
##rhod
##rbg
##rotten
##rmg
##rinda
##rodd
##r61
##roda
##rcp
##rbk
##rinking
##reamer
##rcials
##ronda
##rleo
##roker
##r108
##ruction
##rcooper
##r8k
##rstupid
##rnever
##ruggles
##rbau
##ritchie
##o0
##o4
##oq
##oet
##och
##oly
##olly
##oess
##ohh
##oving
##oang
##oore
##ofe
##oort
##oans
##oxx
##ofr
##ohe
##oise
##oare
##offee
##ohn
##oane
##o12
##oster
##oelle
##ojo
##o77
##o23
##o18
##o24
##ovi
##ojack
##o84
##ocel
##occa
##oaker
##octor
##o214
##oinne
##ollywood
##o414
##oicu
##oapples
##oivist
##lh
##l1
##lp
##lx
##lnd
##lot
##lust
##lun
##lop
##lry
##lil
##ltt
##lion
##last
##liss
##late
##lest
##lab
##lig
##lob
##lope
##lite
##lour
##lau
##lays
##lide
##lac
##lug
##liv
##lii
##loss
##lbr
##lix
##lint
##lash
##lian
##lman
##lare
##lio
##ligh
##lory
##lime
##lark
##lude
##lift
##lush
##loot
##links
##lane
##lapt
##liness
##lilly
##laaa
##lots
##liel
##l88
##lunder
##lease
##leno
##lette
##lomas
##lamb
##lape
##laces
##lux
##lator
##lvi
##lund
##lief
##lili
##litten
##lulu
##liu
##luj
##luna
##luce
##lbre
##l90
##lvr
##lizzle
##lisa
##loma
##ladee
##lika
##ladi
##l55
##lwill
##lchu
##liko
##linda
##latte
##licted
##lpppp
##leston
##lestar
##lola
##l1w
##lpark
##loos
##laza
##loper
##labs
##loser
##lopez
##lassic
##lr3
##looked
##lhon
##laugh
##lacan
##lichfield
##lianne
##lnike
##l401
##larged
##lstatus
##liddle
##liketh
##loshed
##lnnnnnnn
##aq
##aat
##aes
##aed
##aea
##aas
##aam
##aust
##aun
##aith
##aus
##aum
##aell
##aip
##axx
##aqu
##aoc
##ahhhh
##aica
##a13
##aoe
##aiiii
##a23
##afa
##aural
##auth
##a69
##a82
##aez
##austin
##aani
##a29
##aeg
##aela
##afrom
##afreak
##aarin
##aicit
##airlines
##aarmy
##aamy
##aaris
##ahhhhhhhh
##a108
##a206
##agher
##afton
##zn
##z5
##z7
##zoo
##zar
##zed
##zke
##zun
##zim
##zent
##zul
##zine
##zang
##zem
##zaz
##zac
##zak
##zug
##zey
##zure
##zner
##zqu
##zian
##zik
##zio
##zco
##zgirl
##zipp
##zings
##zeee
##z12
##zapp
##zels
##zeth
##zcar
##zandy
##zene
##zara
##ziest
##zala
##zology
##zrock
##z01
##zua
##z16
##zjr
##zini
##ziu
##zali
##zxo
##zsen
##z90
##zaph
##znews
##ztar
##zbd
##zbill
##z35
##zonline
##zims
##zaki
##ztwitter
##zfab
##zaddict
##ztalk
##zsta
##zmum
##zealand
##zworth
##zwd
##zshe
##zmeg
##zires
##zcts
##zlive
##z4life
##zluvs
##zraw
##zlad
##zabid
##zkaa
##zicua
##zirah
##zalol
##zthatsme
##ei
##ef
##e9
##eq
##ein
##eing
##eor
##ean
##eit
##eck
##eight
##eir
##eil
##eish
##eers
##eia
##eath
##eater
##exx
##eity
##eich
##eather
##ebo
##ezz
##ehhh
##epress
##evel
##e19
##eover
##egle
##eced
##euring
##e89
##eering
##eux
##event
##eua
##e04
##eggie
##e75
##echo
##e2001
##eo3
##e4d
##eerr
##echt
##ekell
##efron
##eople
##ekaye
##ecost
##econqu
##mn
##mq
##mnd
##moo
##mis
##mut
##must
##mood
##mink
##mead
##meet
##mul
##mig
##mall
##match
##mite
##moll
##mau
##mound
##map
##mang
##mem
##mation
##mist
##mass
##myy
##mug
##mater
##mpt
##munch
##matt
##mott
##mina
##mcl
##mines
##miley
##munk
##mits
##mower
##mosh
##mics
##milly
##miff
##m88
##meez
##mfa
##metic
##meeeee
##meeeeee
##mask
##mund
##matic
##mbury
##mnx
##m29
##mfin
##mhr
##meall
##mwin
##m27
##miller
##mode
##mcca
##mese
##mdc
##m81
##maph
##mtg
##musk
##mimi
##mnz
##mbeat
##m3r
##m67
##mraz
##mysh
##munky
##m54
##mello
##maze
##mobb
##maza
##mnts
##mobil
##muted
##malloy
##mblah
##muah
##maa1
##mshep
##m1979
##mjohnston
##mpromo
##tu
##t9
##t6
##tan
##tes
##tch
##tke
##tid
##tter
##tone
##til
##tart
##tum
##tig
##tol
##teed
##tob
##teen
##tough
##tour
##tang
##tays
##tile
##tog
##tak
##tpr
##tage
##tii
##turn
##tash
##tms
##tde
##tions
##tune
##tues
##teee
##tees
##tster
##tiff
##tstar
##t77
##tosp
##tgu
##tler
##tumb
##tje
##tuh
##trib
##tester
##tives
##txxx
##teeeeee
##tung
##talia
##t34
##tzer
##tupp
##tnnn
##tiu
##tij
##teem
##tigirl
##teaa
##tando
##todd
##toos
##templ
##tests
##tasia
##tarting
##tardy
##tools
##tomorrow
##tagious
##tubed
##t409
##tallon
##tmusik
##hg
##hq
##hit
##hea
##his
##hust
##hess
##hate
##hout
##hna
##hob
##hting
##hdy
##hound
##hoooo
##hays
##hew
##hty
##hose
##hts
##hought
##hater
##heady
##hend
##hof
##hgr
##hign
##hates
##hild
##hett
##hines
##hors
##hongr
##horn
##h13
##himes
##hamp
##hinc
##helle
##hunt
##hpe
##h77
##health
##houn
##htv
##h20
##hita
##hler
##howers
##hilli
##h30
##homas
##h89
##hsey
##hunny
##hasha
##hands
##hua
##hyr
##h32
##h76
##hugs
##hlim
##hoph
##hwilliams
##hiller
##hemy
##h81
##hjs
##hcullen
##h03
##helf
##hvl
##hiro
##hqe
##hjk
##hfah
##hansen
##healer
##hewitt
##hkumar
##hmae
##hllai
##heeler
##hindra
##htweep
##hooooooooooo
##hoult
##haskins
##hbrian
##sr
##sb
##sf
##san
##soo
##sar
##sea
##sis
##sse
##sir
##sun
##sie
##sim
##sil
##sum
##sap
##sia
##ssh
##sma
##seeee
##six
##sman
##sign
##sley
##saw
##sions
##shhhh
##sult
##scher
##sling
##siet
##siness
##sai
##scar
##sucks
##snot
##sky
##s77
##sara
##sgy
##sca
##sung
##s99
##supp
##scho
##szo
##ssem
##sbz
##s56
##science
##sih
##sarah
##sullivan
##sbroad
##seshoe
##safar
##success
##nu
##nb
##n5
##n6
##n2
##nnd
##nea
##nis
##nen
##nch
##nly
##nse
##nack
##nil
##nus
##nout
##nand
##nos
##nead
##nook
##nard
##nice
##need
##nour
##nitt
##nath
##nso
##nend
##nash
##nated
##noth
##nio
##nier
##nating
##nark
##nets
##nors
##nizz
##nipp
##nits
##neee
##nato
##namp
##nthe
##nja
##nolog
##n86
##nville
##nasty
##nunes
##nwa
##noring
##nitter
##n76
##nuj
##njones
##nchick
##nvs
##nizzle
##nobs
##nika
##nfree
##nsteph
##njul
##nilk
##nocks
##nfk
##nqv
##nwilson
##nw8
##nayd
##nandez
##nfuzzy
##nclaw
##nidance
##noodle
##niqht
##dl
##d3
##d0
##dv
##dw
##d4
##dor
##dot
##dow
##dis
##det
##dut
##dre
##dust
##dir
##dim
##dent
##dha
##dest
##deep
##dong
##dna
##dnt
##dall
##dite
##diend
##dem
##dup
##dac
##dod
##dak
##dsh
##dey
##dater
##dix
##dash
##dio
##dign
##dence
##dork
##dbs
##dott
##dax
##dana
##drew
##dunk
##denn
##dato
##doh
##deek
##diff
##diel
##dging
##dino
##dism
##d89
##dgy
##doul
##dmb
##dung
##dlee
##dask
##dustin
##dained
##duj
##dahl
##ducky
##dirts
##dbn
##djs
##data
##delt
##danger
##danknight
##daway
##dmr
##dusk
##droid
##dhilton
##dsta
##dolla
##dapr
##demic
##dadon
##drive
##dealer
##dtx
##d4b
##d2t
##disley
##dillah
##daaaaaay
##dlaura
##d408
##dreid
##dilo
##dobson
##danni
##dthekid
##dstab
##dahw
##dendave
##dtwit
##dactyl
##dwhitehead
##u0
##uor
##uan
##uar
##uis
##uen
##uust
##uess
##uers
##uice
##uge
##uem
##uud
##ufe
##uys
##uiz
##uure
##uci
##uert
##uhhh
##uett
##uets
##uhn
##ukk
##uase
##u19
##uale
##uane
##ueee
##uva
##uja
##ucial
##uald
##uetic
##ualy
##uational
##uwe
##uums
##uitive
##u32
##u95
##uela
##ufy
##ucca
##u42
##uelt
##uences
##ukkk
##uaries
##uwine
##uqe
##ulder
##uarde
##ucoz
##uantley
##ufern
##uarte
##uquette
##b1
##b0
##bom
##bst
##bam
##bere
##beet
##bff
##bong
##bard
##bick
##bind
##bdy
##bous
##bake
##bery
##bem
##bber
##bia
##baz
##blo
##bock
##bose
##brr
##beak
##bxx
##buff
##bii
##boss
##bix
##burl
##bates
##bib
##bbs
##bett
##bax
##bines
##berson
##burk
##bont
##bann
##bakes
##bapt
##b10
##bied
##bower
##beek
##barden
##bels
##b09
##boop
##borge
##balk
##biter
##bamb
##bfan
##brrr
##bmusic
##bcut
##b34
##bored
##b87
##bloc
##bwe
##bgood
##buts
##bhan
##bisc
##b44
##bpy
##bwy
##bzs
##bharris
##beme
##bpro
##bettes
##bmakeup
##bangers
##baza
##btoad
##bilis
##bilicious
##b3g
##b182
##beaver
##barker
##bjorn
##bianca
##bflat
##beasley
##boulton
##b9999
##bthatsme
##j8
##jg
##jw
##jou
##jst
##jow
##jse
##jur
##jere
##jain
##jtt
##jong
##jol
##jaa
##jake
##jach
##jsh
##jma
##joke
##jash
##jman
##jik
##jio
##jav
##jett
##jube
##jual
##jump
##jongr
##j12
##josh
##jbur
##joes
##jai
##jho
##jmi
##j88
##jides
##jkn
##jazz
##jilla
##joooooo
##jades
##jua
##jango
##justin
##j07
##jwilliams
##juce
##jhay
##jweb
##judge
##jules
##jizzle
##jji
##j1974
##juma
##jzp
##jbeck
##jkelly
##jelf
##jmg
##jsmith
##j47
##jhale
##jasso
##janky
##jnp
##jnap
##jotter
##jwyatt
##japres
##jodi
##jmyt
##jsmall
##jmatthews
##jhna
##yi
##yt
##yf
##yv
##yin
##yat
##yon
##yll
##yay
##yea
##yet
##yce
##yant
##yel
##yum
##yoooo
##yake
##yog
##yny
##y00
##yac
##yod
##yak
##yts
##yder
##yta
##yton
##ynn
##ybs
##yness
##yush
##yunk
##yro
##youd
##y10
##yai
##ylex
##yboy
##y77
##yada
##ykn
##y21
##y89
##yangel
##ystem
##y82
##yanne
##yani
##ydney
##yahl
##ygra
##ysth
##yzilla
[...]
