{
  "version": "1.0",
  "truncation": null,
  "padding": null,
  "added_tokens": [
    {
      "id": 0,
      "content": "[UNK]",
      "single_word": false,
      "lstrip": false,
      "rstrip": false,
      "normalized": false,
      "special": true
    },
    {
      "id": 1,
      "content": "[PAD]",
      "single_word": false,
      "lstrip": false,
      "rstrip": false,
      "normalized": false,
      "special": true
    },
    {
      "id": 2,
      "content": "[CLS]",
      "single_word": false,
      "lstrip": false,
      "rstrip": false,
      "normalized": false,
      "special": true
    },
    {
      "id": 3,
      "content": "[SEP]",
      "single_word": false,
      "lstrip": false,
      "rstrip": false,
      "normalized": false,
      "special": true
    },
    {
      "id": 4,
      "content": "[MASK]",
      "single_word": false,
      "lstrip": false,
      "rstrip": false,
      "normalized": false,
      "special": true
    }
  ],
  "normalizer": {
    "type": "Sequence",
    "normalizers": [
      {
        "type": "NFD"
      },
      {
        "type": "Lowercase"
      },
      {
        "type": "StripAccents"
      }
    ]
  },
  "pre_tokenizer": {
    "type": "Whitespace"
  },
  "post_processor": {
    "type": "TemplateProcessing",
    "single": [
      {
        "SpecialToken": {
          "id": "[CLS]",
          "type_id": 0
        }
      },
      {
        "Sequence": {
          "id": "A",
          "type_id": 0
        }
      },
      {
        "SpecialToken": {
          "id": "[SEP]",
          "type_id": 0
        }
      }
    ],
    "pair": [
      {
        "SpecialToken": {
          "id": "[CLS]",
          "type_id": 0
        }
      },
      {
        "Sequence": {
          "id": "A",
          "type_id": 0
        }
      },
      {
        "SpecialToken": {
          "id": "[SEP]",
          "type_id": 0
        }
      },
      {
        "Sequence": {
          "id": "B",
          "type_id": 1
        }
      },
      {
        "SpecialToken": {
          "id": "[SEP]",
          "type_id": 1
        }
      }
    ],
    "special_tokens": {
      "[CLS]": {
        "id": "[CLS]",
        "ids": [
          2
        ],
        "tokens": [
          "[CLS]"
        ]
      },
      "[SEP]": {
        "id": "[SEP]",
        "ids": [
          3
        ],
        "tokens": [
          "[SEP]"
        ]
      }
    }
  },
  "decoder": {
    "type": "WordPiece",
    "prefix": "##",
    "cleanup": true
  },
  "model": {
    "type": "WordPiece",
    "unk_token": "[UNK]",
    "continuing_subword_prefix": "##",
    "max_input_chars_per_word": 100,
    "vocab": {
      "[UNK]": 0,
      "[PAD]": 1,
      "[CLS]": 2,
      "[SEP]": 3,
      "[MASK]": 4,
      "!": 5,
      "\"": 6,
      "#": 7,
      "$": 8,
      "%": 9,
      "&": 10,
      "'": 11,
      "(": 12,
      ")": 13,
      "*": 14,
      "+": 15,
      ",": 16,
      "-": 17,
      ".": 18,
      "/": 19,
      "0": 20,
      "1": 21,
      "2": 22,
      "3": 23,
      "4": 24,
      "5": 25,
      "6": 26,
      "7": 27,
      "8": 28,
      "9": 29,
      ":": 30,
      ";": 31,
      "<": 32,
      "=": 33,
      ">": 34,
      "?": 35,
      "@": 36,
      "[": 37,
      "\\": 38,
      "]": 39,
      "^": 40,
      "_": 41,
      "`": 42,
      "a": 43,
      "b": 44,
      "c": 45,
      "d": 46,
      "e": 47,
      "f": 48,
      "g": 49,
      "h": 50,
      "i": 51,
      "j": 52,
      "k": 53,
      "l": 54,
      "m": 55,
      "n": 56,
      "o": 57,
      "p": 58,
      "q": 59,
      "r": 60,
      "s": 61,
      "t": 62,
      "u": 63,
      "v": 64,
      "w": 65,
      "x": 66,
      "y": 67,
      "z": 68,
      "{": 69,
      "|": 70,
      "}": 71,
      "~": 72,
      "¡": 73,
      "´": 74,
      "½": 75,
      "¿": 76,
      "##k": 77,
      "##e": 78,
      "##l": 79,
      "##i": 80,
      "##c": 81,
      "##s": 82,
      "##1": 83,
      "##r": 84,
      "##o": 85,
      "##a": 86,
      "##f": 87,
      "##h": 88,
      "##b": 89,
      "##t": 90,
      "##y": 91,
      "##n": 92,
      "##w": 93,
      "##u": 94,
      "##d": 95,
      "##g": 96,
      "##x": 97,
      "##p": 98,
      "##v": 99,
      "##6": 100,
      "##5": 101,
      "##3": 102,
      "##j": 103,
      "##q": 104,
      "##m": 105,
      "##z": 106,
      "##|": 107,
      "##9": 108,
      "##4": 109,
      "##7": 110,
      "##-": 111,
      "##)": 112,
      "##_": 113,
      "##2": 114,
      "##0": 115,
      "##8": 116,
      "##<": 117,
      "##.": 118,
      "##!": 119,
      "##@": 120,
      "##,": 121,
      "##%": 122,
      "##$": 123,
      "###": 124,
      "##\"": 125,
      "##(": 126,
      "##]": 127,
      "##½": 128,
      "##?": 129,
      "##/": 130,
      "##&": 131,
      "##\\": 132,
      "##[": 133,
      "##'": 134,
      "##^": 135,
      "##:": 136,
      "##*": 137,
      "##{": 138,
      "##}": 139,
      "##>": 140,
      "##=": 141,
      "##~": 142,
      "##;": 143,
      "##+": 144,
      "##`": 145,
      "##in": 146,
      "th": 147,
      "##er": 148,
      "to": 149,
      "##ing": 150,
      "##ou": 151,
      "##or": 152,
      "##an": 153,
      "##at": 154,
      "the": 155,
      "##on": 156,
      "##ll": 157,
      "##ee": 158,
      "##ay": 159,
      "##es": 160,
      "##it": 161,
      "##nd": 162,
      "##oo": 163,
      "##ar": 164,
      "##om": 165,
      "##ed": 166,
      "##st": 167,
      "ha": 168,
      "you": 169,
      "##ot": 170,
      "##ow": 171,
      "##ve": 172,
      "##..": 173,
      "it": 174,
      "##ea": 175,
      "##is": 176,
      "my": 177,
      "##et": 178,
      "##ut": 179,
      "##en": 180,
      "and": 181,
      "##ic": 182,
      "in": 183,
      "...": 184,
      "on": 185,
      "##gh": 186,
      "##ch": 187,
      "is": 188,
      "for": 189,
      "of": 190,
      "##re": 191,
      "##as": 192,
      "##le": 193,
      "wh": 194,
      "##ck": 195,
      "##ke": 196,
      "st": 197,
      "##id": 198,
      "me": 199,
      "be": 200,
      "so": 201,
      "##ly": 202,
      "lo": 203,
      "that": 204,
      "##ght": 205,
      "##ad": 206,
      "##am": 207,
      "sh": 208,
      "have": 209,
      "go": 210,
      "##ome": 211,
      "li": 212,
      "##ust": 213,
      "##ld": 214,
      "##se": 215,
      "##ill": 216,
      "##ight": 217,
      "##ter": 218,
      "##ur": 219,
      "day": 220,
      "##un": 221,
      "##ir": 222,
      "##pp": 223,
      "##al": 224,
      "but": 225,
      "we": 226,
      "##ie": 227,
      "##ver": 228,
      "##ith": 229,
      "fr": 230,
      "##ere": 231,
      "##im": 232,
      "an": 233,
      "just": 234,
      "!!": 235,
      "##ood": 236,
      "not": 237,
      "do": 238,
      "with": 239,
      "he": 240,
      "##day": 241,
      "at": 242,
      "wor": 243,
      "can": 244,
      "##her": 245,
      "##lly": 246,
      "tw": 247,
      "##op": 248,
      "was": 249,
      "ch": 250,
      "get": 251,
      "##one": 252,
      "re": 253,
      "su": 254,
      "ne": 255,
      "up": 256,
      "good": 257,
      "##ce": 258,
      "##ry": 259,
      "com": 260,
      "all": 261,
      "out": 262,
      "rea": 263,
      "##ent": 264,
      "..": 265,
      "##ack": 266,
      "##ha": 267,
      "##ess": 268,
      "##il": 269,
      "now": 270,
      "work": 271,
      "this": 272,
      "no": 273,
      "##th": 274,
      "##ould": 275,
      "##ain": 276,
      "pr": 277,
      "##ant": 278,
      "al": 279,
      "##ks": 280,
      "##ion": 281,
      "pl": 282,
      "##us": 283,
      "##tt": 284,
      "are": 285,
      "like": 286,
      "than": 287,
      "am": 288,
      "##iss": 289,
      "mor": 290,
      "##ast": 291,
      "got": 292,
      "love": 293,
      ":/": 294,
      "##ab": 295,
      "happ": 296,
      "##other": 297,
      "don": 298,
      "htt": 299,
      "http": 300,
      "://": 301,
      "ma": 302,
      "##est": 303,
      "too": 304,
      "##ink": 305,
      "##ate": 306,
      "your": 307,
      "im": 308,
      "##out": 309,
      "today": 310,
      "br": 311,
      "see": 312,
      "as": 313,
      "##ct": 314,
      "kn": 315,
      "aw": 316,
      "##ri": 317,
      "tim": 318,
      "ab": 319,
      "twit": 320,
      "##ish": 321,
      "##ra": 322,
      "##and": 323,
      "going": 324,
      "!!!": 325,
      "miss": 326,
      "##um": 327,
      "what": 328,
      "##os": 329,
      "##art": 330,
      "##el": 331,
      "##ead": 332,
      "some": 333,
      "##eep": 334,
      "lol": 335,
      "##ook": 336,
      "happy": 337,
      "back": 338,
      "##ong": 339,
      "know": 340,
      "fee": 341,
      "wee": 342,
      "from": 343,
      "##ff": 344,
      "##na": 345,
      "##ul": 346,
      "##ard": 347,
      "want": 348,
      "one": 349,
      "time": 350,
      "##ol": 351,
      "##ning": 352,
      "##ick": 353,
      "##ting": 354,
      "##ers": 355,
      "##all": 356,
      "##ig": 357,
      "##ice": 358,
      "feel": 359,
      "will": 360,
      "did": 361,
      "##nt": 362,
      "there": 363,
      "off": 364,
      "mo": 365,
      "ever": 366,
      "really": 367,
      "##ind": 368,
      "new": 369,
      "##ine": 370,
      "think": 371,
      "its": 372,
      "about": 373,
      "##ge": 374,
      "any": 375,
      "mother": 376,
      "ex": 377,
      "##ob": 378,
      "##atch": 379,
      "##hh": 380,
      "##een": 381,
      "##eed": 382,
      "night": 383,
      "sp": 384,
      "bl": 385,
      "##eet": 386,
      "how": 387,
      "had": 388,
      "##ally": 389,
      "##ite": 390,
      "hop": 391,
      "sl": 392,
      "home": 393,
      "ag": 394,
      "##mm": 395,
      "##oll": 396,
      "##ough": 397,
      "they": 398,
      "haha": 399,
      "##uch": 400,
      "##mor": 401,
      "##ell": 402,
      "##reat": 403,
      "de": 404,
      "if": 405,
      "##uck": 406,
      "well": 407,
      "##ool": 408,
      "oh": 409,
      "fun": 410,
      "wa": 411,
      "when": 412,
      "##oy": 413,
      "##our": 414,
      "##!!": 415,
      "gu": 416,
      "##ame": 417,
      "ll": 418,
      "cl": 419,
      "thanks": 420,
      "twitter": 421,
      "##aa": 422,
      "##row": 423,
      "mom": 424,
      "##au": 425,
      "need": 426,
      "fa": 427,
      "##ving": 428,
      "##night": 429,
      "hope": 430,
      "still": 431,
      "watch": 432,
      "##dy": 433,
      "or": 434,
      "##ound": 435,
      "##ear": 436,
      "here": 437,
      "much": 438,
      "every": 439,
      "....": 440,
      "ar": 441,
      "more": 442,
      "great": 443,
      "gr": 444,
      "sa": 445,
      "her": 446,
      "##ap": 447,
      "##oooo": 448,
      "##ies": 449,
      "##king": 450,
      "dr": 451,
      "sor": 452,
      "wish": 453,
      "sad": 454,
      "has": 455,
      "last": 456,
      "ta": 457,
      "##ous": 458,
      "morning": 459,
      "co": 460,
      "##if": 461,
      "ph": 462,
      "con": 463,
      "tr": 464,
      "she": 465,
      "en": 466,
      "##iend": 467,
      "##em": 468,
      "##ays": 469,
      "been": 470,
      "##ery": 471,
      "##??": 472,
      "again": 473,
      "then": 474,
      "ve": 475,
      "would": 476,
      "##ollow": 477,
      "fin": 478,
      "##ang": 479,
      "bet": 480,
      "look": 481,
      "us": 482,
      "sleep": 483,
      "##ub": 484,
      "##itt": 485,
      "##hing": 486,
      "##ide": 487,
      "po": 488,
      "yea": 489,
      "tomor": 490,
      "##ww": 491,
      "by": 492,
      "won": 493,
      "why": 494,
      "could": 495,
      "follow": 496,
      "wait": 497,
      "tomorrow": 498,
      "##ud": 499,
      "only": 500,
      "bad": 501,
      "##ile": 502,
      "##xt": 503,
      "may": 504,
      "friend": 505,
      "thing": 506,
      "sorry": 507,
      "##og": 508,
      "##own": 509,
      "##ist": 510,
      "tonight": 511,
      "##ation": 512,
      "##ive": 513,
      "##ber": 514,
      "##ip": 515,
      "##ag": 516,
      "mon": 517,
      "##pic": 518,
      "yes": 519,
      "##ore": 520,
      "##ny": 521,
      "them": 522,
      "right": 523,
      "over": 524,
      "man": 525,
      "##ass": 526,
      "af": 527,
      "##ys": 528,
      "##fe": 529,
      "nice": 530,
      "very": 531,
      "se": 532,
      "show": 533,
      "##yy": 534,
      "##irl": 535,
      "##up": 536,
      "should": 537,
      "##ia": 538,
      "who": 539,
      "eve": 540,
      "##az": 541,
      "sw": 542,
      "make": 543,
      "##lo": 544,
      "##ew": 545,
      "though": 546,
      "head": 547,
      "##ty": 548,
      "pe": 549,
      "qu": 550,
      "sc": 551,
      "car": 552,
      "gon": 553,
      "try": 554,
      "##ah": 555,
      "ok": 556,
      "##kend": 557,
      "bit": 558,
      "better": 559,
      "weekend": 560,
      "##ort": 561,
      "yeah": 562,
      "##iz": 563,
      "gonna": 564,
      "way": 565,
      "##od": 566,
      "week": 567,
      "lea": 568,
      "after": 569,
      "##00": 570,
      "le": 571,
      "mothers": 572,
      "ad": 573,
      "say": 574,
      "##ue": 575,
      "un": 576,
      "does": 577,
      "##ph": 578,
      "sch": 579,
      "cr": 580,
      "bed": 581,
      "##ans": 582,
      "getting": 583,
      "##ma": 584,
      "##sh": 585,
      "##pl": 586,
      "##ock": 587,
      "##ause": 588,
      "down": 589,
      "twitpic": 590,
      "##ose": 591,
      "sun": 592,
      "##ach": 593,
      "peop": 594,
      "come": 595,
      "long": 596,
      "tweet": 597,
      "mad": 598,
      "som": 599,
      "play": 600,
      "people": 601,
      "next": 602,
      "mar": 603,
      "##lf": 604,
      "##gg": 605,
      "##my": 606,
      "start": 607,
      "hour": 608,
      "##ey": 609,
      "##ts": 610,
      "##kes": 611,
      "##ac": 612,
      "best": 613,
      "mov": 614,
      "somet": 615,
      "thank": 616,
      "didn": 617,
      "##iday": 618,
      "##per": 619,
      "##eak": 620,
      "fl": 621,
      "were": 622,
      "##pr": 623,
      "plea": 624,
      "jo": 625,
      "##ure": 626,
      "hey": 627,
      "awes": 628,
      "school": 629,
      "him": 630,
      "di": 631,
      "##ought": 632,
      "sm": 633,
      "litt": 634,
      "##anna": 635,
      "watching": 636,
      "##ace": 637,
      "dont": 638,
      "hi": 639,
      "##cc": 640,
      "pic": 641,
      "##ath": 642,
      "days": 643,
      "rain": 644,
      "##be": 645,
      "suck": 646,
      "hate": 647,
      "tal": 648,
      "call": 649,
      "app": 650,
      "##xx": 651,
      "##eam": 652,
      "little": 653,
      "##rr": 654,
      "##ater": 655,
      "awesome": 656,
      "ur": 657,
      "gl": 658,
      "la": 659,
      "##ity": 660,
      "even": 661,
      "bab": 662,
      "let": 663,
      "never": 664,
      "bor": 665,
      "year": 666,
      "soon": 667,
      "wr": 668,
      "girl": 669,
      "##ci": 670,
      "##thing": 671,
      "##eeee": 672,
      "working": 673,
      "da": 674,
      "bec": 675,
      "##so": 676,
      "##age": 677,
      "##ways": 678,
      "##to": 679,
      "##irst": 680,
      "part": 681,
      "¿½": 682,
      "##ss": 683,
      "ear": 684,
      "##ired": 685,
      "che": 686,
      "##eal": 687,
      "bu": 688,
      "list": 689,
      "##der": 690,
      "##ather": 691,
      "##pt": 692,
      "##ich": 693,
      "##iv": 694,
      "##ft": 695,
      "take": 696,
      "please": 697,
      "##ouse": 698,
      "being": 699,
      "prob": 700,
      "##ble": 701,
      "dam": 702,
      "having": 703,
      "alr": 704,
      "his": 705,
      "##ake": 706,
      "stu": 707,
      "star": 708,
      "done": 709,
      "hur": 710,
      ".....": 711,
      "min": 712,
      "our": 713,
      "thr": 714,
      "sick": 715,
      "##ious": 716,
      "##ther": 717,
      "##ta": 718,
      "where": 719,
      "sure": 720,
      "##br": 721,
      "cant": 722,
      "feeling": 723,
      "cool": 724,
      "##ating": 725,
      "life": 726,
      "##ment": 727,
      "always": 728,
      "keep": 729,
      "##oss": 730,
      "##ful": 731,
      "##ond": 732,
      "inter": 733,
      "##mo": 734,
      "act": 735,
      "find": 736,
      "first": 737,
      "##son": 738,
      "doing": 739,
      "tired": 740,
      "##bo": 741,
      "##urn": 742,
      "##ect": 743,
      "lot": 744,
      "##ix": 745,
      "bea": 746,
      "om": 747,
      "##ily": 748,
      "##ute": 749,
      "##ian": 750,
      "##int": 751,
      "guys": 752,
      "everyone": 753,
      "wanna": 754,
      "##wn": 755,
      "other": 756,
      "##eady": 757,
      "##he": 758,
      "##ii": 759,
      "made": 760,
      "loo": 761,
      "yay": 762,
      "##fr": 763,
      "friends": 764,
      "movie": 765,
      "##sp": 766,
      "##oke": 767,
      "another": 768,
      "big": 769,
      "hot": 770,
      "##qu": 771,
      "cra": 772,
      "id": 773,
      "something": 774,
      "##ner": 775,
      "##ms": 776,
      "phone": 777,
      "hel": 778,
      "old": 779,
      "hell": 780,
      "already": 781,
      "hu": 782,
      "house": 783,
      "yet": 784,
      "##joy": 785,
      "pret": 786,
      "because": 787,
      "song": 788,
      "##end": 789,
      "##man": 790,
      "amaz": 791,
      "##fore": 792,
      "##ash": 793,
      "luck": 794,
      "real": 795,
      "guess": 796,
      "hard": 797,
      "##!!!!": 798,
      "tri": 799,
      "trying": 800,
      "before": 801,
      "dis": 802,
      "thought": 803,
      "ready": 804,
      "##ved": 805,
      "hours": 806,
      "str": 807,
      "live": 808,
      "??": 809,
      "bir": 810,
      "##ord": 811,
      "ya": 812,
      "##oc": 813,
      "exc": 814,
      "enjoy": 815,
      "te": 816,
      "damn": 817,
      "help": 818,
      "comp": 819,
      "pretty": 820,
      "mus": 821,
      "##url": 822,
      "##self": 823,
      "fam": 824,
      "friday": 825,
      "em": 826,
      "##ooo": 827,
      "##ire": 828,
      "##ank": 829,
      "finally": 830,
      "ly": 831,
      "tell": 832,
      "##iny": 833,
      "##unch": 834,
      "sucks": 835,
      "##ited": 836,
      "kid": 837,
      "listen": 838,
      "bus": 839,
      "omg": 840,
      "nothing": 841,
      "dan": 842,
      "##zz": 843,
      "##ox": 844,
      "##bl": 845,
      "read": 846,
      "maybe": 847,
      "monday": 848,
      "amazing": 849,
      "went": 850,
      "##by": 851,
      "same": 852,
      "war": 853,
      "looking": 854,
      "kind": 855,
      "##ik": 856,
      "##oom": 857,
      "##ens": 858,
      "rem": 859,
      "baby": 860,
      "sound": 861,
      "wow": 862,
      "##ually": 863,
      "ho": 864,
      "##cr": 865,
      "##ull": 866,
      "away": 867,
      "finish": 868,
      "check": 869,
      "bored": 870,
      "per": 871,
      "##ak": 872,
      "el": 873,
      "end": 874,
      "someone": 875,
      "ugh": 876,
      "hear": 877,
      "par": 878,
      "boy": 879,
      "fuck": 880,
      "##of": 881,
      "also": 882,
      "???": 883,
      "things": 884,
      "##ves": 885,
      "forg": 886,
      "rec": 887,
      "!!!!": 888,
      "ser": 889,
      "into": 890,
      "left": 891,
      "##io": 892,
      "##ary": 893,
      "##oth": 894,
      "##are": 895,
      "run": 896,
      "##gs": 897,
      "##ise": 898,
      "missed": 899,
      "jon": 900,
      "god": 901,
      "break": 902,
      "tiny": 903,
      "doesn": 904,
      "##opp": 905,
      "lost": 906,
      "two": 907,
      "while": 908,
      "stuff": 909,
      "looks": 910,
      "##zy": 911,
      "##haha": 912,
      "talk": 913,
      "cou": 914,
      "##oney": 915,
      "later": 916,
      "##ats": 917,
      "boo": 918,
      "job": 919,
      "##ert": 920,
      "bel": 921,
      "said": 922,
      "sk": 923,
      "those": 924,
      "music": 925,
      "##ince": 926,
      "##ated": 927,
      "post": 928,
      "cle": 929,
      "tra": 930,
      "##les": 931,
      "##able": 932,
      "face": 933,
      "glad": 934,
      "late": 935,
      "birth": 936,
      "##la": 937,
      "##gr": 938,
      "such": 939,
      "10": 940,
      "weather": 941,
      "##ign": 942,
      "sweet": 943,
      "##side": 944,
      "##nder": 945,
      "saw": 946,
      "coming": 947,
      "acc": 948,
      "world": 949,
      "?!": 950,
      "birthday": 951,
      "free": 952,
      "give": 953,
      "##wh": 954,
      "##itch": 955,
      "party": 956,
      "early": 957,
      "sn": 958,
      "##lc": 959,
      "hair": 960,
      "##cy": 961,
      "##book": 962,
      "##ence": 963,
      "few": 964,
      "must": 965,
      "sit": 966,
      "##ward": 967,
      "tot": 968,
      "dri": 969,
      "might": 970,
      "put": 971,
      "##ier": 972,
      "wonder": 973,
      "actually": 974,
      "##fly": 975,
      "##ton": 976,
      "chan": 977,
      "makes": 978,
      "around": 979,
      "cry": 980,
      "unt": 981,
      "poor": 982,
      "hun": 983,
      "##nn": 984,
      "##ley": 985,
      "##iew": 986,
      "waiting": 987,
      "summ": 988,
      "tinyurl": 989,
      "##tw": 990,
      "din": 991,
      "thats": 992,
      "anything": 993,
      "yester": 994,
      "mr": 995,
      "mean": 996,
      "yesterday": 997,
      "mum": 998,
      "since": 999,
      "##ors": 1000,
      "sund": 1001,
      "family": 1002,
      "found": 1003,
      "far": 1004,
      "gone": 1005,
      "##co": 1006,
      "##ins": 1007,
      "class": 1008,
      "##aaaa": 1009,
      "rock": 1010,
      "##aw": 1011,
      "##att": 1012,
      "##ates": 1013,
      "supp": 1014,
      "awww": 1015,
      "month": 1016,
      "until": 1017,
      "eat": 1018,
      "##iting": 1019,
      "super": 1020,
      "aww": 1021,
      "till": 1022,
      "use": 1023,
      "##fu": 1024,
      "##ps": 1025,
      "##ory": 1026,
      "##ne": 1027,
      "gotta": 1028,
      "making": 1029,
      "phot": 1030,
      "beaut": 1031,
      "des": 1032,
      "##land": 1033,
      "##ok": 1034,
      "stay": 1035,
      "welc": 1036,
      "sat": 1037,
      "##ike": 1038,
      "##ork": 1039,
      "their": 1040,
      "myself": 1041,
      "happen": 1042,
      "excited": 1043,
      "pre": 1044,
      "vide": 1045,
      "##ib": 1046,
      "##no": 1047,
      "##ets": 1048,
      "##ably": 1049,
      "cute": 1050,
      "res": 1051,
      "anyone": 1052,
      "##hhh": 1053,
      "##igh": 1054,
      "##cfly": 1055,
      "most": 1056,
      "least": 1057,
      "welcome": 1058,
      "30": 1059,
      "lunch": 1060,
      "##iful": 1061,
      "##most": 1062,
      "##ark": 1063,
      "fav": 1064,
      "##upid": 1065,
      "summer": 1066,
      "dad": 1067,
      "almost": 1068,
      "coff": 1069,
      "totally": 1070,
      "sing": 1071,
      "stupid": 1072,
      "cold": 1073,
      "sunday": 1074,
      "mess": 1075,
      "tea": 1076,
      "##uu": 1077,
      "haven": 1078,
      "##ieve": 1079,
      "##load": 1080,
      "##ild": 1081,
      "##dd": 1082,
      "add": 1083,
      "##ime": 1084,
      "without": 1085,
      "rep": 1086,
      "food": 1087,
      "kill": 1088,
      "##bs": 1089,
      "##ple": 1090,
      "cause": 1091,
      "isn": 1092,
      "funny": 1093,
      "listening": 1094,
      "book": 1095,
      "del": 1096,
      "game": 1097,
      "soooo": 1098,
      "wal": 1099,
      "##ris": 1100,
      "drink": 1101,
      "money": 1102,
      "##line": 1103,
      "##av": 1104,
      "##de": 1105,
      "ste": 1106,
      "def": 1107,
      "everything": 1108,
      "okay": 1109,
      "hurts": 1110,
      "cam": 1111,
      "pain": 1112,
      "xx": 1113,
      "coffee": 1114,
      "##ett": 1115,
      "stop": 1116,
      "beautiful": 1117,
      "##me": 1118,
      "##ude": 1119,
      "probably": 1120,
      "dinner": 1121,
      "ke": 1122,
      "thinking": 1123,
      "##ache": 1124,
      "tho": 1125,
      "char": 1126,
      "leave": 1127,
      "clean": 1128,
      "pict": 1129,
      "inst": 1130,
      "dream": 1131,
      "finished": 1132,
      "hang": 1133,
      "sur": 1134,
      "exam": 1135,
      "many": 1136,
      "sounds": 1137,
      "ah": 1138,
      "shit": 1139,
      "believe": 1140,
      "##ness": 1141,
      "plan": 1142,
      "missing": 1143,
      "through": 1144,
      "tre": 1145,
      "turn": 1146,
      "under": 1147,
      "##ina": 1148,
      "op": 1149,
      "pa": 1150,
      "##hn": 1151,
      "##way": 1152,
      "##oot": 1153,
      "fail": 1154,
      "buy": 1155,
      "hol": 1156,
      "##ever": 1157,
      "##vid": 1158,
      "##ions": 1159,
      "place": 1160,
      "##ift": 1161,
      "mine": 1162,
      "red": 1163,
      "##cl": 1164,
      "##ail": 1165,
      "##ana": 1166,
      "hahaha": 1167,
      "ret": 1168,
      "##ym": 1169,
      "##ott": 1170,
      "##urk": 1171,
      "##ents": 1172,
      "bo": 1173,
      "win": 1174,
      "ann": 1175,
      "lovely": 1176,
      "ass": 1177,
      "send": 1178,
      "##body": 1179,
      "rest": 1180,
      "##ines": 1181,
      "##rist": 1182,
      "##more": 1183,
      ";)": 1184,
      "##eci": 1185,
      "##ons": 1186,
      "##eeting": 1187,
      "wanted": 1188,
      "blog": 1189,
      "ill": 1190,
      "these": 1191,
      "intern": 1192,
      "##uz": 1193,
      "##ote": 1194,
      "##ember": 1195,
      "##rew": 1196,
      "enough": 1197,
      "##ial": 1198,
      "which": 1199,
      "##erson": 1200,
      "headache": 1201,
      "playing": 1202,
      "##ro": 1203,
      "lad": 1204,
      "ter": 1205,
      "www": 1206,
      "##ds": 1207,
      "wants": 1208,
      "lu": 1209,
      "ro": 1210,
      "##ave": 1211,
      "##ney": 1212,
      "##orm": 1213,
      "upd": 1214,
      "plurk": 1215,
      "times": 1216,
      "office": 1217,
      "##fully": 1218,
      "hit": 1219,
      "ind": 1220,
      "room": 1221,
      "##sw": 1222,
      "forward": 1223,
      "##ama": 1224,
      "##ently": 1225,
      "didnt": 1226,
      "scr": 1227,
      "fm": 1228,
      "##get": 1229,
      "hehe": 1230,
      "##phone": 1231,
      "high": 1232,
      "kids": 1233,
      "eating": 1234,
      "hand": 1235,
      "ms": 1236,
      "meet": 1237,
      "set": 1238,
      "##ayl": 1239,
      "ey": 1240,
      "hmm": 1241,
      "says": 1242,
      "##kk": 1243,
      "##ase": 1244,
      "att": 1245,
      "##osed": 1246,
      "##ube": 1247,
      "followers": 1248,
      "##act": 1249,
      "##ance": 1250,
      "##ont": 1251,
      "##essed": 1252,
      "whole": 1253,
      "stuck": 1254,
      "rev": 1255,
      "remember": 1256,
      "else": 1257,
      "forgot": 1258,
      "lau": 1259,
      "rob": 1260,
      "##ding": 1261,
      "##unk": 1262,
      "##ird": 1263,
      "outside": 1264,
      "pro": 1265,
      "##iley": 1266,
      "wrong": 1267,
      "video": 1268,
      "lil": 1269,
      "##une": 1270,
      "compl": 1271,
      "idea": 1272,
      "kinda": 1273,
      "sou": 1274,
      "tv": 1275,
      "##vin": 1276,
      "##eee": 1277,
      "##ict": 1278,
      "##als": 1279,
      "heart": 1280,
      "took": 1281,
      "conc": 1282,
      "both": 1283,
      "dou": 1284,
      "own": 1285,
      "##ipp": 1286,
      "##ger": 1287,
      "wasn": 1288,
      "##hhhh": 1289,
      "##izz": 1290,
      "##opping": 1291,
      "ca": 1292,
      "full": 1293,
      "##vel": 1294,
      "seen": 1295,
      "anymore": 1296,
      "ago": 1297,
      "moms": 1298,
      "cont": 1299,
      "unf": 1300,
      "yum": 1301,
      "##ues": 1302,
      "##girl": 1303,
      "##...": 1304,
      "##ade": 1305,
      "##ope": 1306,
      "weeks": 1307,
      "years": 1308,
      "david": 1309,
      "cour": 1310,
      "ed": 1311,
      "loved": 1312,
      "guy": 1313,
      "##mail": 1314,
      "diff": 1315,
      "4w": 1316,
      "bar": 1317,
      "er": 1318,
      "hor": 1319,
      "iphone": 1320,
      "jam": 1321,
      "less": 1322,
      "half": 1323,
      "proble": 1324,
      "came": 1325,
      "fil": 1326,
      "wed": 1327,
      "woke": 1328,
      "##ither": 1329,
      "person": 1330,
      "sooo": 1331,
      "##less": 1332,
      "##ug": 1333,
      "##gry": 1334,
      "##mus": 1335,
      "##ven": 1336,
      "dog": 1337,
      "##yyyy": 1338,
      "ap": 1339,
      "cut": 1340,
      "ty": 1341,
      "wind": 1342,
      "##fl": 1343,
      "##tube": 1344,
      "##esh": 1345,
      "youtube": 1346,
      "goodnight": 1347,
      "##ult": 1348,
      "black": 1349,
      "dec": 1350,
      "following": 1351,
      "fan": 1352,
      "##19": 1353,
      "##enn": 1354,
      "news": 1355,
      "comput": 1356,
      "cur": 1357,
      "cook": 1358,
      "card": 1359,
      "lear": 1360,
      "tick": 1361,
      "##ount": 1362,
      "##ete": 1363,
      "##ush": 1364,
      "ask": 1365,
      "able": 1366,
      "internet": 1367,
      "fall": 1368,
      "vis": 1369,
      "ye": 1370,
      "##app": 1371,
      "##mer": 1372,
      "chill": 1373,
      "prom": 1374,
      "##oooooooo": 1375,
      "taking": 1376,
      "##con": 1377,
      "##12": 1378,
      "##ica": 1379,
      "hopefully": 1380,
      "busy": 1381,
      "--": 1382,
      "##ied": 1383,
      "##oud": 1384,
      "##ows": 1385,
      "sitting": 1386,
      "ac": 1387,
      "dead": 1388,
      "met": 1389,
      "name": 1390,
      "##10": 1391,
      "##imes": 1392,
      "mac": 1393,
      "##aught": 1394,
      "lots": 1395,
      "hello": 1396,
      "serious": 1397,
      "jonas": 1398,
      "cal": 1399,
      "mid": 1400,
      "sam": 1401,
      "told": 1402,
      "##ane": 1403,
      "!!!!!": 1404,
      "##ump": 1405,
      "hurt": 1406,
      "bb": 1407,
      "sim": 1408,
      "shopping": 1409,
      "rel": 1410,
      "exp": 1411,
      "couldn": 1412,
      "john": 1413,
      "crazy": 1414,
      "facebook": 1415,
      "air": 1416,
      "catch": 1417,
      "goo": 1418,
      "test": 1419,
      "##ual": 1420,
      "short": 1421,
      "##urday": 1422,
      "alone": 1423,
      "seems": 1424,
      "spend": 1425,
      "mil": 1426,
      "sar": 1427,
      "sea": 1428,
      "woo": 1429,
      "##iver": 1430,
      "##over": 1431,
      "##gl": 1432,
      "##atter": 1433,
      "##its": 1434,
      "online": 1435,
      "brother": 1436,
      "used": 1437,
      "open": 1438,
      "pass": 1439,
      "##ele": 1440,
      "##ann": 1441,
      "once": 1442,
      "##ister": 1443,
      "text": 1444,
      "bur": 1445,
      "soo": 1446,
      "xxx": 1447,
      "##ces": 1448,
      "##fast": 1449,
      "##ng": 1450,
      "##inks": 1451,
      "##ower": 1452,
      "called": 1453,
      "trek": 1454,
      "btw": 1455,
      "ep": 1456,
      "##eb": 1457,
      "interest": 1458,
      "lucky": 1459,
      "saturday": 1460,
      "sy": 1461,
      "##13": 1462,
      "##ron": 1463,
      "##pe": 1464,
      "##orn": 1465,
      "##ato": 1466,
      "gets": 1467,
      "wont": 1468,
      "holiday": 1469,
      "computer": 1470,
      "##ife": 1471,
      "sec": 1472,
      "quite": 1473,
      "talking": 1474,
      "bank": 1475,
      "lma": 1476,
      "site": 1477,
      "pres": 1478,
      "##ongr": 1479,
      "mommy": 1480,
      "grand": 1481,
      "##fect": 1482,
      "evening": 1483,
      "tweets": 1484,
      "study": 1485,
      "fucking": 1486,
      "cat": 1487,
      "##ale": 1488,
      "##utes": 1489,
      "inv": 1490,
      "seeing": 1491,
      "raining": 1492,
      "breakfast": 1493,
      "coll": 1494,
      "dj": 1495,
      "email": 1496,
      "mind": 1497,
      "##top": 1498,
      "##port": 1499,
      "##ately": 1500,
      "art": 1501,
      "true": 1502,
      "dude": 1503,
      "pack": 1504,
      "##a_": 1505,
      "##mar": 1506,
      "##ster": 1507,
      "##rible": 1508,
      "watched": 1509,
      "grad": 1510,
      "favor": 1511,
      "lmao": 1512,
      "12": 1513,
      "congr": 1514,
      "link": 1515,
      "pick": 1516,
      "##ling": 1517,
      "##ree": 1518,
      "choc": 1519,
      "sometimes": 1520,
      "minutes": 1521,
      "wonderful": 1522,
      "bum": 1523,
      "either": 1524,
      "##pm": 1525,
      "mel": 1526,
      "##amp": 1527,
      "heard": 1528,
      "##ried": 1529,
      "care": 1530,
      "##where": 1531,
      "change": 1532,
      "defin": 1533,
      "20": 1534,
      "67": 1535,
      "##ition": 1536,
      "##ared": 1537,
      "##....": 1538,
      "wear": 1539,
      "broke": 1540,
      "offic": 1541,
      "beach": 1542,
      "wars": 1543,
      "instead": 1544,
      "fine": 1545,
      "##med": 1546,
      "tomm": 1547,
      "##eek": 1548,
      "##cher": 1549,
      "tried": 1550,
      "##oken": 1551,
      "reply": 1552,
      "lady": 1553,
      "av": 1554,
      "cuz": 1555,
      "ice": 1556,
      "ju": 1557,
      "lap": 1558,
      "mic": 1559,
      "miley": 1560,
      "##car": 1561,
      "##ject": 1562,
      "##any": 1563,
      "##????": 1564,
      "##ations": 1565,
      "concert": 1566,
      "til": 1567,
      "##rus": 1568,
      "##time": 1569,
      "##ming": 1570,
      "bring": 1571,
      "##osh": 1572,
      "feels": 1573,
      "conf": 1574,
      "leaving": 1575,
      "trip": 1576,
      "har": 1577,
      "##iet": 1578,
      "##uk": 1579,
      "##iness": 1580,
      "##ones": 1581,
      "##ees": 1582,
      "blip": 1583,
      "slow": 1584,
      "months": 1585,
      "picture": 1586,
      "dra": 1587,
      "ip": 1588,
      "june": 1589,
      "mitch": 1590,
      "tayl": 1591,
      "##rs": 1592,
      "##work": 1593,
      "##era": 1594,
      "ones": 1595,
      "move": 1596,
      "close": 1597,
      "hungry": 1598,
      "water": 1599,
      "##ics": 1600,
      "##ops": 1601,
      "ups": 1602,
      "##cept": 1603,
      "awake": 1604,
      "wake": 1605,
      "starting": 1606,
      "girls": 1607,
      "differ": 1608,
      "dar": 1609,
      "fell": 1610,
      "jack": 1611,
      "net": 1612,
      "pay": 1613,
      "##air": 1614,
      "##gle": 1615,
      "ext": 1616,
      "train": 1617,
      "laugh": 1618,
      "col": 1619,
      "fast": 1620,
      "gre": 1621,
      "xd": 1622,
      "##leep": 1623,
      "##iam": 1624,
      "##cle": 1625,
      "##eaking": 1626,
      "##chie": 1627,
      "##ures": 1628,
      "##irt": 1629,
      "##lax": 1630,
      "course": 1631,
      "chocol": 1632,
      "11": 1633,
      "ny": 1634,
      "spr": 1635,
      "shower": 1636,
      "join": 1637,
      "writing": 1638,
      "drive": 1639,
      "fly": 1640,
      "##ked": 1641,
      "##oh": 1642,
      "##ball": 1643,
      "##uff": 1644,
      "tom": 1645,
      "##ital": 1646,
      "##urs": 1647,
      "ash": 1648,
      "moment": 1649,
      "15": 1650,
      "fig": 1651,
      "##go": 1652,
      "ton": 1653,
      "##ppy": 1654,
      "relax": 1655,
      "##ages": 1656,
      "heading": 1657,
      "sunny": 1658,
      "##athan": 1659,
      "favorite": 1660,
      "esp": 1661,
      "med": 1662,
      "sign": 1663,
      "##ca": 1664,
      "##gan": 1665,
      "##33": 1666,
      "##_b": 1667,
      "tour": 1668,
      "wishing": 1669,
      "perfect": 1670,
      "city": 1671,
      "jeal": 1672,
      "tum": 1673,
      "##oint": 1674,
      "##ted": 1675,
      "##gin": 1676,
      "##inc": 1677,
      "##illy": 1678,
      "ang": 1679,
      "##ode": 1680,
      "pics": 1681,
      "laur": 1682,
      "dang": 1683,
      "eas": 1684,
      "iam": 1685,
      "kat": 1686,
      "nite": 1687,
      "##ible": 1688,
      "##ced": 1689,
      "##bur": 1690,
      "##che": 1691,
      "loves": 1692,
      "asleep": 1693,
      "anyway": 1694,
      "block": 1695,
      "couple": 1696,
      "happened": 1697,
      "jealous": 1698,
      "bout": 1699,
      "bought": 1700,
      "fix": 1701,
      "ps": 1702,
      "uk": 1703,
      "##com": 1704,
      "top": 1705,
      "##ange": 1706,
      "##itely": 1707,
      "started": 1708,
      "##press": 1709,
      "write": 1710,
      "running": 1711,
      "seriously": 1712,
      "second": 1713,
      "ipod": 1714,
      "fing": 1715,
      "je": 1716,
      "past": 1717,
      "pap": 1718,
      "sent": 1719,
      "##cing": 1720,
      "##ars": 1721,
      "load": 1722,
      "hoping": 1723,
      "##berry": 1724,
      "##ortun": 1725,
      "##!!!!!!!!": 1726,
      "complete": 1727,
      "problem": 1728,
      "definitely": 1729,
      "4j": 1730,
      "ive": 1731,
      "weird": 1732,
      "near": 1733,
      "##uss": 1734,
      "##astic": 1735,
      "##ffic": 1736,
      "fair": 1737,
      "mark": 1738,
      "supposed": 1739,
      "learn": 1740,
      "jay": 1741,
      "nap": 1742,
      "pub": 1743,
      "sel": 1744,
      "##ole": 1745,
      "##dle": 1746,
      "##gt": 1747,
      "##09": 1748,
      "town": 1749,
      "prof": 1750,
      "##els": 1751,
      "download": 1752,
      "season": 1753,
      "epis": 1754,
      "gra": 1755,
      "son": 1756,
      "##jo": 1757,
      "##__": 1758,
      "##eas": 1759,
      "goes": 1760,
      "reason": 1761,
      "##itty": 1762,
      "##ize": 1763,
      "##friend": 1764,
      "songs": 1765,
      "eyes": 1766,
      "mitchel": 1767,
      "chocolate": 1768,
      "ale": 1769,
      "ev": 1770,
      "fel": 1771,
      "nat": 1772,
      "nick": 1773,
      "sigh": 1774,
      "##tr": 1775,
      "ther": 1776,
      "##erg": 1777,
      "means": 1778,
      "answ": 1779,
      "chang": 1780,
      "chris": 1781,
      "##ention": 1782,
      "##the": 1783,
      "moving": 1784,
      "speci": 1785,
      "died": 1786,
      "boring": 1787,
      "tommcfly": 1788,
      "/~": 1789,
      "200": 1790,
      "cele": 1791,
      "hum": 1792,
      "##ls": 1793,
      "stud": 1794,
      "sho": 1795,
      "christ": 1796,
      "comes": 1797,
      "needs": 1798,
      "aren": 1799,
      "##ized": 1800,
      "movies": 1801,
      "crap": 1802,
      "boys": 1803,
      "forget": 1804,
      "tickets": 1805,
      "4th": 1806,
      "cup": 1807,
      "hon": 1808,
      "jen": 1809,
      "kar": 1810,
      "##lic": 1811,
      "##tf": 1812,
      "##mit": 1813,
      "##eese": 1814,
      "##ots": 1815,
      "fren": 1816,
      "chick": 1817,
      "abs": 1818,
      "dear": 1819,
      "yep": 1820,
      "special": 1821,
      "14": 1822,
      "100": 1823,
      "ahh": 1824,
      "bas": 1825,
      "band": 1826,
      "dd": 1827,
      "fb": 1828,
      "gen": 1829,
      "jess": 1830,
      "meeting": 1831,
      "pat": 1832,
      "##ba": 1833,
      "##boy": 1834,
      "##gas": 1835,
      "##xy": 1836,
      "##ja": 1837,
      "##mon": 1838,
      "##eth": 1839,
      "upload": 1840,
      "##aaa": 1841,
      "##love": 1842,
      "count": 1843,
      "unfortun": 1844,
      "cor": 1845,
      "dy": 1846,
      "gym": 1847,
      "mmm": 1848,
      "pol": 1849,
      "##ugg": 1850,
      "##ings": 1851,
      "stra": 1852,
      "light": 1853,
      "##ills": 1854,
      "##vers": 1855,
      "broken": 1856,
      "sore": 1857,
      "##odu": 1858,
      "afterno": 1859,
      "saying": 1860,
      "account": 1861,
      "die": 1862,
      "mood": 1863,
      "nic": 1864,
      "sal": 1865,
      "##ren": 1866,
      "##ching": 1867,
      "##rect": 1868,
      "works": 1869,
      "##arden": 1870,
      "green": 1871,
      "sleeping": 1872,
      "cleaning": 1873,
      "interesting": 1874,
      "gradu": 1875,
      "laptop": 1876,
      "ge": 1877,
      "gi": 1878,
      "gave": 1879,
      "side": 1880,
      "##led": 1881,
      "##fer": 1882,
      "comment": 1883,
      "agree": 1884,
      "final": 1885,
      "using": 1886,
      "##rrrr": 1887,
      "warm": 1888,
      "walk": 1889,
      "##musso": 1890,
      "mitchelmusso": 1891,
      "answer": 1892,
      "cy": 1893,
      "due": 1894,
      "lay": 1895,
      "pizz": 1896,
      "rad": 1897,
      "sister": 1898,
      "##gar": 1899,
      "toget": 1900,
      "##ising": 1901,
      "##ical": 1902,
      "ins": 1903,
      "##ches": 1904,
      "worth": 1905,
      "##eeps": 1906,
      "##elle": 1907,
      "bye": 1908,
      "photo": 1909,
      "different": 1910,
      "ben": 1911,
      "ger": 1912,
      "num": 1913,
      "sen": 1914,
      "##iff": 1915,
      "##ove": 1916,
      "##oice": 1917,
      "##60": 1918,
      "##ision": 1919,
      "stand": 1920,
      "chat": 1921,
      "##cell": 1922,
      "plans": 1923,
      "reading": 1924,
      "##cyrus": 1925,
      "afternoon": 1926,
      "lond": 1927,
      "mis": 1928,
      "pet": 1929,
      "ppl": 1930,
      "tee": 1931,
      "##ience": 1932,
      "##star": 1933,
      "inf": 1934,
      "##ames": 1935,
      "knew": 1936,
      "##ards": 1937,
      "##ucks": 1938,
      "club": 1939,
      "sadly": 1940,
      "cream": 1941,
      "hugs": 1942,
      "##opped": 1943,
      "exams": 1944,
      "visit": 1945,
      "together": 1946,
      "1st": 1947,
      "bud": 1948,
      "vote": 1949,
      "wom": 1950,
      "##ho": 1951,
      "##gn": 1952,
      "##ters": 1953,
      "cheese": 1954,
      "sub": 1955,
      "pray": 1956,
      "##andy": 1957,
      "dm": 1958,
      "date": 1959,
      "fab": 1960,
      "pu": 1961,
      "ru": 1962,
      "##ler": 1963,
      "##ress": 1964,
      "##nes": 1965,
      "##gu": 1966,
      "##reci": 1967,
      "reg": 1968,
      "##ries": 1969,
      "flu": 1970,
      "resp": 1971,
      "surpr": 1972,
      "##ecially": 1973,
      "wedding": 1974,
      "celebr": 1975,
      "bgt": 1976,
      "cap": 1977,
      "eff": 1978,
      "garden": 1979,
      "hea": 1980,
      "men": 1981,
      "mama": 1982,
      "##ky": 1983,
      "##bum": 1984,
      "##ya": 1985,
      "##mcfly": 1986,
      "##_d": 1987,
      "ate": 1988,
      "word": 1989,
      "##ants": 1990,
      "seem": 1991,
      "##olog": 1992,
      "fact": 1993,
      "point": 1994,
      "appar": 1995,
      "park": 1996,
      "annoy": 1997,
      "upset": 1998,
      "especially": 1999,
      "london": 2000,
      "dur": 2001,
      "dun": 2002,
      "fu": 2003,
      "poss": 2004,
      "vac": 2005,
      "wtf": 2006,
      "##not": 2007,
      "##wood": 2008,
      "##par": 2009,
      "##vice": 2010,
      "##min": 2011,
      "shar": 2012,
      "words": 2013,
      "bro": 2014,
      "order": 2015,
      "doesnt": 2016,
      "##shine": 2017,
      "small": 2018,
      "##space": 2019,
      "disapp": 2020,
      "enjoying": 2021,
      "horrible": 2022,
      "unfortunately": 2023,
      "!?": 2024,
      "ball": 2025,
      "ner": 2026,
      "##ken": 2027,
      "##cast": 2028,
      "##ai": 2029,
      "##ham": 2030,
      "##boo": 2031,
      "##itar": 2032,
      "inside": 2033,
      "white": 2034,
      "story": 2035,
      "##ident": 2036,
      "web": 2037,
      "spent": 2038,
      "trans": 2039,
      "huge": 2040,
      "holly": 2041,
      "episode": 2042,
      "absol": 2043,
      "ff": 2044,
      "fire": 2045,
      "mike": 2046,
      "nope": 2047,
      "pc": 2048,
      "power": 2049,
      "##11": 2050,
      "##yle": 2051,
      "##ugh": 2052,
      "##key": 2053,
      "##ider": 2054,
      "meant": 2055,
      "##ustr": 2056,
      "freak": 2057,
      "chines": 2058,
      "blood": 2059,
      "phil": 2060,
      "quick": 2061,
      "pictures": 2062,
      "google": 2063,
      "present": 2064,
      "pizza": 2065,
      "cake": 2066,
      "fant": 2067,
      "fans": 2068,
      "hub": 2069,
      "key": 2070,
      "pea": 2071,
      "ry": 2072,
      "##va": 2073,
      "##vy": 2074,
      "##vd": 2075,
      "##vato": 2076,
      "touch": 2077,
      "##oun": 2078,
      "store": 2079,
      "goin": 2080,
      "produ": 2081,
      "amer": 2082,
      "cross": 2083,
      "babe": 2084,
      "project": 2085,
      "alex": 2086,
      "deal": 2087,
      "each": 2088,
      "fight": 2089,
      "kick": 2090,
      "pur": 2091,
      "pink": 2092,
      "ra": 2093,
      "ride": 2094,
      "sle": 2095,
      "squ": 2096,
      "view": 2097,
      "##ram": 2098,
      "##ten": 2099,
      "##gie": 2100,
      "##str": 2101,
      "##iel": 2102,
      "##ession": 2103,
      "plus": 2104,
      "exper": 2105,
      "blue": 2106,
      "wouldn": 2107,
      "quest": 2108,
      "played": 2109,
      "##ealth": 2110,
      "dance": 2111,
      "remind": 2112,
      "driving": 2113,
      "mrs": 2114,
      "photos": 2115,
      "sarah": 2116,
      "dig": 2117,
      "es": 2118,
      "ob": 2119,
      "ohh": 2120,
      "pot": 2121,
      "##for": 2122,
      "##view": 2123,
      "##--": 2124,
      "thurs": 2125,
      "##orge": 2126,
      "##stand": 2127,
      "myspace": 2128,
      "shop": 2129,
      "##ille": 2130,
      "album": 2131,
      "mail": 2132,
      "##ction": 2133,
      "arri": 2134,
      "drunk": 2135,
      "##ips": 2136,
      "appreci": 2137,
      "##eeeeeeee": 2138,
      "three": 2139,
      "drinking": 2140,
      "congrats": 2141,
      "apparently": 2142,
      ".\"": 2143,
      "box": 2144,
      "bott": 2145,
      "cos": 2146,
      "gut": 2147,
      "##ki": 2148,
      "##lin": 2149,
      "##14": 2150,
      "##bab": 2151,
      "##band": 2152,
      "##77": 2153,
      "##20": 2154,
      "beer": 2155,
      "loving": 2156,
      "##unt": 2157,
      "tweeting": 2158,
      "##onely": 2159,
      "repl": 2160,
      "##aste": 2161,
      "##aster": 2162,
      "dem": 2163,
      "guitar": 2164,
      "safe": 2165,
      "looked": 2166,
      "shows": 2167,
      "pleas": 2168,
      "business": 2169,
      "jonathan": 2170,
      "figure": 2171,
      "18": 2172,
      "40": 2173,
      "ba": 2174,
      "cop": 2175,
      "dark": 2176,
      "daught": 2177,
      "ii": 2178,
      "jas": 2179,
      "line": 2180,
      "rather": 2181,
      "san": 2182,
      "via": 2183,
      "wol": 2184,
      "##tc": 2185,
      "##nect": 2186,
      "##_s": 2187,
      "##ara": 2188,
      "##ised": 2189,
      "stom": 2190,
      "living": 2191,
      "happens": 2192,
      "clos": 2193,
      "everybody": 2194,
      "hug": 2195,
      "tech": 2196,
      "chance": 2197,
      "apart": 2198,
      "mileycyrus": 2199,
      "completely": 2200,
      "slept": 2201,
      "16": 2202,
      "aud": 2203,
      "ahhh": 2204,
      "bday": 2205,
      "den": 2206,
      "ent": 2207,
      "four": 2208,
      "foot": 2209,
      "joy": 2210,
      "page": 2211,
      "rub": 2212,
      "van": 2213,
      "##ker": 2214,
      "##sing": 2215,
      "##fa": 2216,
      "##ga": 2217,
      "beat": 2218,
      "shame": 2219,
      "##ie_": 2220,
      "comm": 2221,
      "prop": 2222,
      "##used": 2223,
      "whats": 2224,
      "hahahaha": 2225,
      "save": 2226,
      "sunshine": 2227,
      "longer": 2228,
      "smile": 2229,
      "##cial": 2230,
      "earl": 2231,
      "##iiii": 2232,
      "hold": 2233,
      "yummy": 2234,
      "absolute": 2235,
      "bike": 2236,
      "gd": 2237,
      "pop": 2238,
      "piss": 2239,
      "##kin": 2240,
      "##oat": 2241,
      "##yl": 2242,
      "##pa": 2243,
      "##mc": 2244,
      "##ino": 2245,
      "##oop": 2246,
      "sol": 2247,
      "havent": 2248,
      "liked": 2249,
      "worry": 2250,
      "child": 2251,
      "##ains": 2252,
      "mag": 2253,
      "##ular": 2254,
      "except": 2255,
      "needed": 2256,
      "dress": 2257,
      "track": 2258,
      "direct": 2259,
      "luv": 2260,
      "bag": 2261,
      "ele": 2262,
      "kim": 2263,
      "laz": 2264,
      "team": 2265,
      "yo": 2266,
      "##tim": 2267,
      "##ned": 2268,
      "##nic": 2269,
      "##30": 2270,
      "##22": 2271,
      "##ada": 2272,
      "worst": 2273,
      "worse": 2274,
      "##hael": 2275,
      "yours": 2276,
      "mob": 2277,
      "bless": 2278,
      "cloth": 2279,
      "momm": 2280,
      "cover": 2281,
      "engl": 2282,
      "##annah": 2283,
      "traffic": 2284,
      "crying": 2285,
      "message": 2286,
      "easy": 2287,
      "paper": 2288,
      "shoes": 2289,
      "english": 2290,
      "cous": 2291,
      "grow": 2292,
      "hy": 2293,
      "lame": 2294,
      "math": 2295,
      "matt": 2296,
      "pull": 2297,
      "roll": 2298,
      "vers": 2299,
      "##ka": 2300,
      "##knight": 2301,
      "##ric": 2302,
      "##tin": 2303,
      "##88": 2304,
      "##eez": 2305,
      "##icious": 2306,
      "atl": 2307,
      "brit": 2308,
      "##ract": 2309,
      "##osp": 2310,
      "##ears": 2311,
      "dave": 2312,
      "......": 2313,
      "record": 2314,
      "steph": 2315,
      "camera": 2316,
      "understand": 2317,
      "paul": 2318,
      "film": 2319,
      "radio": 2320,
      "during": 2321,
      "fantastic": 2322,
      "2nd": 2323,
      "66": 2324,
      "bath": 2325,
      "mu": 2326,
      "rand": 2327,
      "tues": 2328,
      "xox": 2329,
      "##kn": 2330,
      "##room": 2331,
      "##_c": 2332,
      "thx": 2333,
      "##ene": 2334,
      "whate": 2335,
      "##ield": 2336,
      "doct": 2337,
      "alth": 2338,
      "!!!!!!!": 2339,
      "exact": 2340,
      "grou": 2341,
      "cons": 2342,
      "eng": 2343,
      "##lovato": 2344,
      "law": 2345,
      "throat": 2346,
      "keeps": 2347,
      "idk": 2348,
      "##bye": 2349,
      "snl": 2350,
      "updates": 2351,
      "relaxing": 2352,
      "fingers": 2353,
      "earlier": 2354,
      "absolutely": 2355,
      "19": 2356,
      "dist": 2357,
      "hil": 2358,
      "hates": 2359,
      "jer": 2360,
      "mc": 2361,
      "mot": 2362,
      "nor": 2363,
      "um": 2364,
      "##oid": 2365,
      "##wor": 2366,
      "##je": 2367,
      "##ita": 2368,
      "##omb": 2369,
      "young": 2370,
      "chic": 2371,
      "##aine": 2372,
      "proud": 2373,
      "along": 2374,
      "feet": 2375,
      "moon": 2376,
      "cost": 2377,
      "##yyy": 2378,
      "parents": 2379,
      "travel": 2380,
      "##ette": 2381,
      "screen": 2382,
      "self": 2383,
      "thursday": 2384,
      "clothes": 2385,
      "13": 2386,
      "aint": 2387,
      "gig": 2388,
      "lonely": 2389,
      "mam": 2390,
      "mention": 2391,
      "na": 2392,
      "ouch": 2393,
      "port": 2394,
      "##ege": 2395,
      "##ially": 2396,
      "##rit": 2397,
      "##ville": 2398,
      "##llll": 2399,
      "##ston": 2400,
      "shut": 2401,
      "sum": 2402,
      "ima": 2403,
      "##ulous": 2404,
      "vegas": 2405,
      "##pressed": 2406,
      "stress": 2407,
      "company": 2408,
      "emp": 2409,
      "dreams": 2410,
      "road": 2411,
      "felt": 2412,
      "chicken": 2413,
      "ddlovato": 2414,
      "german": 2415,
      "hubby": 2416,
      "stomach": 2417,
      "err": 2418,
      "hom": 2419,
      "pen": 2420,
      "roo": 2421,
      "wife": 2422,
      "##hi": 2423,
      "##bar": 2424,
      "##yn": 2425,
      "##ging": 2426,
      "##vious": 2427,
      "thinks": 2428,
      "##eel": 2429,
      "##etic": 2430,
      "sold": 2431,
      "##urch": 2432,
      "doc": 2433,
      "##ilight": 2434,
      "prog": 2435,
      "##abb": 2436,
      "hahah": 2437,
      "sky": 2438,
      "posted": 2439,
      "daughter": 2440,
      "mobile": 2441,
      "random": 2442,
      "whatever": 2443,
      "although": 2444,
      "burn": 2445,
      "dh": 2446,
      "eh": 2447,
      "mass": 2448,
      "matter": 2449,
      "ooo": 2450,
      "pie": 2451,
      "vid": 2452,
      "##ec": 2453,
      "##eat": 2454,
      "##iq": 2455,
      "##iot": 2456,
      "##18": 2457,
      "##you": 2458,
      "##owers": 2459,
      "##ison": 2460,
      "andy": 2461,
      "forever": 2462,
      "stick": 2463,
      "##ides": 2464,
      "##ided": 2465,
      "##usted": 2466,
      "justin": 2467,
      "worked": 2468,
      "wishes": 2469,
      "enter": 2470,
      "sleepy": 2471,
      "##wwww": 2472,
      "starts": 2473,
      "##box": 2474,
      "huh": 2475,
      "boyfriend": 2476,
      "desk": 2477,
      "camp": 2478,
      "body": 2479,
      "update": 2480,
      "windows": 2481,
      "brothers": 2482,
      "profile": 2483,
      "peace": 2484,
      "tuesday": 2485,
      "(:": 2486,
      "50": 2487,
      "jus": 2488,
      "kate": 2489,
      "land": 2490,
      "ver": 2491,
      "voice": 2492,
      "wine": 2493,
      "##lake": 2494,
      "##ior": 2495,
      "##ien": 2496,
      "##tv": 2497,
      "##uc": 2498,
      "##uh": 2499,
      "throw": 2500,
      "##ester": 2501,
      "##ican": 2502,
      "iss": 2503,
      "loc": 2504,
      "cannot": 2505,
      "requ": 2506,
      "pract": 2507,
      "yourself": 2508,
      "homework": 2509,
      "##ape": 2510,
      "##ogra": 2511,
      "sexy": 2512,
      "event": 2513,
      "swim": 2514,
      "quiet": 2515,
      "scared": 2516,
      "leg": 2517,
      "joe": 2518,
      "apple": 2519,
      "##ments": 2520,
      "realized": 2521,
      "staying": 2522,
      "single": 2523,
      "messages": 2524,
      "review": 2525,
      "chillin": 2526,
      "studying": 2527,
      "##ointed": 2528,
      "public": 2529,
      "version": 2530,
      "aut": 2531,
      "cd": 2532,
      "emm": 2533,
      "fish": 2534,
      "hosp": 2535,
      "jim": 2536,
      "low": 2537,
      "non": 2538,
      "norm": 2539,
      "pan": 2540,
      "ran": 2541,
      "round": 2542,
      "ten": 2543,
      "wat": 2544,
      "wall": 2545,
      "##cri": 2546,
      "##hind": 2547,
      "##nite": 2548,
      "##wift": 2549,
      "##rey": 2550,
      "bell": 2551,
      "lov": 2552,
      "share": 2553,
      "##unny": 2554,
      "fresh": 2555,
      "church": 2556,
      "imag": 2557,
      "deb": 2558,
      "dev": 2559,
      "##emp": 2560,
      "##azz": 2561,
      "flight": 2562,
      "##ives": 2563,
      "wondering": 2564,
      "support": 2565,
      "hmmm": 2566,
      "soul": 2567,
      "curr": 2568,
      "taylors": 2569,
      "tummy": 2570,
      "annoying": 2571,
      "lazy": 2572,
      "25": 2573,
      "ble": 2574,
      "cher": 2575,
      "dat": 2576,
      "det": 2577,
      "dvd": 2578,
      "fat": 2579,
      "ow": 2580,
      "pig": 2581,
      "pool": 2582,
      "sand": 2583,
      "umm": 2584,
      "yr": 2585,
      "##i_": 2586,
      "##cer": 2587,
      "##rob": 2588,
      "##burn": 2589,
      "##da": 2590,
      "##ged": 2591,
      "##23": 2592,
      "##200": 2593,
      "##?!": 2594,
      "tor": 2595,
      "##ease": 2596,
      "##chine": 2597,
      "behind": 2598,
      "twilight": 2599,
      "connect": 2600,
      "talent": 2601,
      "lets": 2602,
      "alright": 2603,
      "design": 2604,
      "hanging": 2605,
      "bbq": 2606,
      "airport": 2607,
      "##incess": 2608,
      "chinese": 2609,
      "ell": 2610,
      "gar": 2611,
      "hat": 2612,
      "health": 2613,
      "jk": 2614,
      "jan": 2615,
      "mate": 2616,
      "none": 2617,
      "ring": 2618,
      "##ient": 2619,
      "##fan": 2620,
      "##under": 2621,
      "##za": 2622,
      "##_l": 2623,
      "##89": 2624,
      "##inn": 2625,
      "int": 2626,
      "incl": 2627,
      "shall": 2628,
      "shirt": 2629,
      "front": 2630,
      "ant": 2631,
      "succ": 2632,
      "imp": 2633,
      "brand": 2634,
      "mod": 2635,
      "death": 2636,
      "taken": 2637,
      "swine": 2638,
      "rainy": 2639,
      "minute": 2640,
      "##friday": 2641,
      "street": 2642,
      "????": 2643,
      "recover": 2644,
      "videos": 2645,
      "sending": 2646,
      "decided": 2647,
      "middle": 2648,
      "expect": 2649,
      "college": 2650,
      "official": 2651,
      "july": 2652,
      "michael": 2653,
      "graduation": 2654,
      "number": 2655,
      "##wift13": 2656,
      "taylorswift13": 2657,
      "24": 2658,
      "bill": 2659,
      "creat": 2660,
      "cert": 2661,
      "egg": 2662,
      "gift": 2663,
      "hannah": 2664,
      "jul": 2665,
      "jenn": 2666,
      "lat": 2667,
      "lab": 2668,
      "mi": 2669,
      "mat": 2670,
      "yup": 2671,
      "##jon": 2672,
      "##83": 2673,
      "##isa": 2674,
      "##idge": 2675,
      "##illa": 2676,
      "##unes": 2677,
      "webs": 2678,
      "gettin": 2679,
      "alot": 2680,
      "##others": 2681,
      "dep": 2682,
      "closed": 2683,
      "##ooooo": 2684,
      "##berlake": 2685,
      "##phy": 2686,
      "##board": 2687,
      "disc": 2688,
      "host": 2689,
      "?????": 2690,
      "walking": 2691,
      "revision": 2692,
      "dougie": 2693,
      "problems": 2694,
      "greg": 2695,
      "straight": 2696,
      "appreciate": 2697,
      "copy": 2698,
      "proper": 2699,
      "exactly": 2700,
      ").": 2701,
      "2day": 2702,
      "kiss": 2703,
      "lar": 2704,
      "len": 2705,
      "mix": 2706,
      "ooh": 2707,
      "vot": 2708,
      "##let": 2709,
      "##iest": 2710,
      "##rd": 2711,
      "##rknight": 2712,
      "##oe": 2713,
      "##24": 2714,
      "##86": 2715,
      "##ator": 2716,
      "##archie": 2717,
      "##vent": 2718,
      "##uture": 2719,
      "insp": 2720,
      "##idays": 2721,
      "##amb": 2722,
      "note": 2723,
      "rece": 2724,
      "goodbye": 2725,
      "machine": 2726,
      "waking": 2727,
      "##berg": 2728,
      "##eeeee": 2729,
      "exciting": 2730,
      "danny": 2731,
      "failed": 2732,
      "##ails": 2733,
      "eye": 2734,
      "james": 2735,
      "##music": 2736,
      "jonasbr": 2737,
      "spending": 2738,
      "officially": 2739,
      "changed": 2740,
      "french": 2741,
      "##orgeous": 2742,
      "jonathanrknight": 2743,
      "ban": 2744,
      "case": 2745,
      "fit": 2746,
      "gorgeous": 2747,
      "lm": 2748,
      "rid": 2749,
      "rich": 2750,
      "sis": 2751,
      "vi": 2752,
      "wer": 2753,
      "##kers": 2754,
      "##cake": 2755,
      "##ald": 2756,
      "##how": 2757,
      "##tain": 2758,
      "##well": 2759,
      "##uv": 2760,
      "##25": 2761,
      "##oul": 2762,
      "##omas": 2763,
      "##ste": 2764,
      "##uts": 2765,
      "form": 2766,
      "stor": 2767,
      "sha": 2768,
      "shout": 2769,
      "heat": 2770,
      "neck": 2771,
      "brain": 2772,
      "##anda": 2773,
      "somewhere": 2774,
      "takes": 2775,
      "##ago": 2776,
      "smell": 2777,
      "singing": 2778,
      "south": 2779,
      "wednes": 2780,
      "taylor": 2781,
      "extra": 2782,
      "dunno": 2783,
      "wolver": 2784,
      "hospital": 2785,
      "!)": 2786,
      ":'": 2787,
      "bow": 2788,
      "bal": 2789,
      "epic": 2790,
      "gf": 2791,
      "honey": 2792,
      "jump": 2793,
      "row": 2794,
      "sell": 2795,
      "tm": 2796,
      "tur": 2797,
      "##life": 2798,
      "##red": 2799,
      "##rie": 2800,
      "##new": 2801,
      "##den": 2802,
      "##_m": 2803,
      "##26": 2804,
      "##ined": 2805,
      "##ern": 2806,
      "##arn": 2807,
      "hav": 2808,
      "##isd": 2809,
      "##ured": 2810,
      "anim": 2811,
      "cancell": 2812,
      "twee": 2813,
      "awful": 2814,
      "##umb": 2815,
      "##eless": 2816,
      "expl": 2817,
      "trou": 2818,
      "starb": 2819,
      ".......": 2820,
      "##arely": 2821,
      "books": 2822,
      "fml": 2823,
      "davidarchie": 2824,
      "congrat": 2825,
      "disappointed": 2826,
      "freakin": 2827,
      "product": 2828,
      "jason": 2829,
      "group": 2830,
      "certain": 2831,
      "wolverine": 2832,
      "17": 2833,
      ":-": 2834,
      "bc": 2835,
      "bac": 2836,
      "dent": 2837,
      "fill": 2838,
      "hm": 2839,
      "hay": 2840,
      "hist": 2841,
      "jord": 2842,
      "king": 2843,
      "kay": 2844,
      "krist": 2845,
      "mer": 2846,
      "mal": 2847,
      "mig": 2848,
      "nk": 2849,
      "pos": 2850,
      "rach": 2851,
      "si": 2852,
      "sna": 2853,
      "tan": 2854,
      "tar": 2855,
      "yall": 2856,
      "yah": 2857,
      "##ex": 2858,
      "##sm": 2859,
      "##har": 2860,
      "##wa": 2861,
      "##_r": 2862,
      "##21": 2863,
      "##08": 2864,
      "##outh": 2865,
      "##arious": 2866,
      "itunes": 2867,
      "##uth": 2868,
      "memor": 2869,
      "shin": 2870,
      "gosh": 2871,
      "##sey": 2872,
      "allow": 2873,
      "##asty": 2874,
      "feelin": 2875,
      "exha": 2876,
      "spell": 2877,
      "code": 2878,
      "headed": 2879,
      "scary": 2880,
      "screw": 2881,
      "bitch": 2882,
      "crash": 2883,
      "interview": 2884,
      "others": 2885,
      "disney": 2886,
      "checked": 2887,
      "service": 2888,
      "access": 2889,
      "accident": 2890,
      "classes": 2891,
      "paid": 2892,
      "indeed": 2893,
      "double": 2894,
      "##cakes": 2895,
      "jeff": 2896,
      "info": 2897,
      "##ology": 2898,
      "website": 2899,
      "jonasbrothers": 2900,
      "wednesday": 2901,
      ",,": 2902,
      "45": 2903,
      "ay": 2904,
      "bk": 2905,
      "bob": 2906,
      "breat": 2907,
      "cell": 2908,
      "caught": 2909,
      "eur": 2910,
      "etc": 2911,
      "fre": 2912,
      "flo": 2913,
      "future": 2914,
      "hoo": 2915,
      "ng": 2916,
      "race": 2917,
      "##ov": 2918,
      "##oon": 2919,
      "##hoo": 2920,
      "##head": 2921,
      "##do": 2922,
      "##_w": 2923,
      "##**": 2924,
      "##ering": 2925,
      "##ony": 2926,
      "##ically": 2927,
      "##ask": 2928,
      "freaking": 2929,
      "ref": 2930,
      "neigh": 2931,
      "morn": 2932,
      "spot": 2933,
      "tru": 2934,
      "usually": 2935,
      "##aces": 2936,
      "moved": 2937,
      "calling": 2938,
      "##sss": 2939,
      "lately": 2940,
      "daddy": 2941,
      "addict": 2942,
      "killing": 2943,
      "milk": 2944,
      "packing": 2945,
      "bummer": 2946,
      "avail": 2947,
      "drag": 2948,
      "spring": 2949,
      "lauren": 2950,
      "experience": 2951,
      "gutted": 2952,
      "xoxo": 2953,
      "germany": 2954,
      "program": 2955,
      "currently": 2956,
      "success": 2957,
      "cancelled": 2958,
      "starbucks": 2959,
      "acr": 2960,
      "cats": 2961,
      "gun": 2962,
      "hee": 2963,
      "ja": 2964,
      "lead": 2965,
      "mich": 2966,
      "nik": 2967,
      "ol": 2968,
      "sir": 2969,
      "##sa": 2970,
      "##aly": 2971,
      "##ween": 2972,
      "##ux": 2973,
      "##ule": 2974,
      "##vis": 2975,
      "##jor": 2976,
      "##mber": 2977,
      "##atus": 2978,
      "##iter": 2979,
      "##arm": 2980,
      "##oto": 2981,
      "##eap": 2982,
      "##ena": 2983,
      "##icy": 2984,
      "##iced": 2985,
      "##icle": 2986,
      "shes": 2987,
      "shot": 2988,
      "shift": 2989,
      "gold": 2990,
      "##pped": 2991,
      "##alia": 2992,
      "doll": 2993,
      "##rib": 2994,
      "nights": 2995,
      "clou": 2996,
      "usual": 2997,
      "mont": 2998,
      "manag": 2999,
      "apps": 3000,
      "##xxx": 3001,
      "glass": 3002,
      "tex": 3003,
      "favour": 3004,
      "deliver": 3005,
      "install": 3006,
      "blackberry": 3007,
      "ticket": 3008,
      "bummed": 3009,
      "wearing": 3010,
      "darn": 3011,
      "ashley": 3012,
      "question": 3013,
      "neighb": 3014,
      "bother": 3015,
      "bub": 3016,
      "cas": 3017,
      "dry": 3018,
      "ess": 3019,
      "fever": 3020,
      "holl": 3021,
      "jour": 3022,
      "lang": 3023,
      "sear": 3024,
      "treat": 3025,
      "wit": 3026,
      "##ros": 3027,
      "##hol": 3028,
      "##bie": 3029,
      "##weet": 3030,
      "##gy": 3031,
      "##_k": 3032,
      "##_j": 3033,
      "##01": 3034,
      "##87": 3035,
      "topic": 3036,
      "##itting": 3037,
      "##ism": 3038,
      "isnt": 3039,
      "##ady": 3040,
      "##ala": 3041,
      "wash": 3042,
      "sugar": 3043,
      "nobody": 3044,
      "##raid": 3045,
      "speak": 3046,
      "blah": 3047,
      "everyday": 3048,
      "hero": 3049,
      "##oooooo": 3050,
      "coz": 3051,
      "##angel": 3052,
      "between": 3053,
      "afraid": 3054,
      "sunburn": 3055,
      "mary": 3056,
      "mins": 3057,
      "##ensive": 3058,
      "ended": 3059,
      "trail": 3060,
      "mums": 3061,
      "suppose": 3062,
      "return": 3063,
      "miles": 3064,
      "burnt": 3065,
      "tonite": 3066,
      "angel": 3067,
      "fixed": 3068,
      "giving": 3069,
      "cousin": 3070,
      "congratul": 3071,
      "history": 3072,
      "22": 3073,
      "ak": 3074,
      "aff": 3075,
      "ahhhh": 3076,
      "bee": 3077,
      "bak": 3078,
      "cried": 3079,
      "deep": 3080,
      "gay": 3081,
      "hus": 3082,
      "ir": 3083,
      "ori": 3084,
      "peeps": 3085,
      "sil": 3086,
      "vict": 3087,
      "##lee": 3088,
      "##lie": 3089,
      "##ium": 3090,
      "##rol": 3091,
      "##fy": 3092,
      "##back": 3093,
      "##bers": 3094,
      "##te": 3095,
      "##nat": 3096,
      "##ze": 3097,
      "##99": 3098,
      "##85": 3099,
      "thunder": 3100,
      "##omm": 3101,
      "##eted": 3102,
      "##etch": 3103,
      "incr": 3104,
      "stopped": 3105,
      "social": 3106,
      "losing": 3107,
      "sher": 3108,
      "##ung": 3109,
      "##ili": 3110,
      "##abe": 3111,
      "donn": 3112,
      "degr": 3113,
      "followfriday": 3114,
      "##loc": 3115,
      "queen": 3116,
      "legs": 3117,
      "##ggest": 3118,
      "enjoyed": 3119,
      "##aaaaaaaa": 3120,
      "rocks": 3121,
      "surg": 3122,
      "terrible": 3123,
      "hands": 3124,
      "soup": 3125,
      "window": 3126,
      "vacation": 3127,
      "chicago": 3128,
      "\".": 3129,
      "2mor": 3130,
      "80": 3131,
      "bat": 3132,
      "bang": 3133,
      "cent": 3134,
      "fo": 3135,
      "five": 3136,
      "games": 3137,
      "hrs": 3138,
      "iron": 3139,
      "ign": 3140,
      "jes": 3141,
      "mist": 3142,
      "rip": 3143,
      "silly": 3144,
      "uh": 3145,
      "##cat": 3146,
      "##yr": 3147,
      "##will": 3148,
      "##xo": 3149,
      "##((": 3150,
      "##east": 3151,
      "##ades": 3152,
      "lie": 3153,
      "##illion": 3154,
      "##ief": 3155,
      "doin": 3156,
      "dogs": 3157,
      "suggest": 3158,
      "import": 3159,
      "bright": 3160,
      "brought": 3161,
      "##ands": 3162,
      "##ums": 3163,
      "anyways": 3164,
      "space": 3165,
      "click": 3166,
      "area": 3167,
      "conta": 3168,
      "showing": 3169,
      "sched": 3170,
      "##play": 3171,
      "flowers": 3172,
      "earth": 3173,
      "thru": 3174,
      "##frog": 3175,
      "skin": 3176,
      "kelly": 3177,
      "contin": 3178,
      "##123": 3179,
      "loads": 3180,
      "dying": 3181,
      "possible": 3182,
      "entire": 3183,
      "hilarious": 3184,
      "empty": 3185,
      "dougiemcfly": 3186,
      "across": 3187,
      "contact": 3188,
      "00": 3189,
      "3d": 3190,
      "austr": 3191,
      "boss": 3192,
      "dub": 3193,
      "hook": 3194,
      "main": 3195,
      "match": 3196,
      "nan": 3197,
      "oops": 3198,
      "pin": 3199,
      "sig": 3200,
      "##bee": 3201,
      "##wind": 3202,
      "##word": 3203,
      "##vi": 3204,
      "##mart": 3205,
      "##05": 3206,
      "##ored": 3207,
      "##stem": 3208,
      "##reme": 3209,
      "likes": 3210,
      "libr": 3211,
      "##cel": 3212,
      "press": 3213,
      "priv": 3214,
      "##using": 3215,
      "feed": 3216,
      "spam": 3217,
      "momma": 3218,
      "everywhere": 3219,
      "##ific": 3220,
      "const": 3221,
      "couldnt": 3222,
      "##ational": 3223,
      "cred": 3224,
      "##shi": 3225,
      "smil": 3226,
      "become": 3227,
      "cheer": 3228,
      "build": 3229,
      "strong": 3230,
      "bird": 3231,
      "dancing": 3232,
      "##wards": 3233,
      "awwww": 3234,
      "sooooo": 3235,
      "##deck": 3236,
      "steve": 3237,
      "turned": 3238,
      "buying": 3239,
      "retr": 3240,
      "falling": 3241,
      "nyc": 3242,
      "honest": 3243,
      "heaven": 3244,
      "ryan": 3245,
      "doctor": 3246,
      "trouble": 3247,
      "dentist": 3248,
      "migr": 3249,
      "exhausted": 3250,
      "available": 3251,
      "21": 3252,
      "b4": 3253,
      "dom": 3254,
      "fi": 3255,
      "fol": 3256,
      "il": 3257,
      "ily": 3258,
      "josh": 3259,
      "ken": 3260,
      "nam": 3261,
      "poo": 3262,
      "pal": 3263,
      "sem": 3264,
      "six": 3265,
      "tear": 3266,
      "val": 3267,
      "yell": 3268,
      "##here": 3269,
      "##vo": 3270,
      "##mas": 3271,
      "##oring": 3272,
      "##ices": 3273,
      "##alc": 3274,
      "butter": 3275,
      "frank": 3276,
      "door": 3277,
      "atm": 3278,
      "worried": 3279,
      "##ilt": 3280,
      "major": 3281,
      "excell": 3282,
      "however": 3283,
      "##rown": 3284,
      "argh": 3285,
      "sale": 3286,
      "trad": 3287,
      "follower": 3288,
      "##rrr": 3289,
      "##ption": 3290,
      "##ived": 3291,
      "keeping": 3292,
      "thoughts": 3293,
      "telling": 3294,
      "kidding": 3295,
      "planning": 3296,
      "assign": 3297,
      "msn": 3298,
      "eric": 3299,
      "lessons": 3300,
      "learning": 3301,
      "expensive": 3302,
      "frenchie": 3303,
      "gener": 3304,
      "sense": 3305,
      "sharing": 3306,
      "imagine": 3307,
      "allowed": 3308,
      "congratulations": 3309,
      "surgery": 3310,
      "important": 3311,
      "),": 3312,
      "3rd": 3313,
      "aly": 3314,
      "bes": 3315,
      "cough": 3316,
      "dc": 3317,
      "dut": 3318,
      "dnt": 3319,
      "ga": 3320,
      "jb": 3321,
      "lis": 3322,
      "ni": 3323,
      "ug": 3324,
      "wild": 3325,
      "xo": 3326,
      "##light": 3327,
      "##ij": 3328,
      "##sc": 3329,
      "##17": 3330,
      "##fox": 3331,
      "##form": 3332,
      "##han": 3333,
      "##y_": 3334,
      "##wich": 3335,
      "##don": 3336,
      "##did": 3337,
      "##ped": 3338,
      "##zer": 3339,
      "##79": 3340,
      "##74": 3341,
      "##_n": 3342,
      "##04": 3343,
      "##ito": 3344,
      "##otb": 3345,
      "andrew": 3346,
      "##icks": 3347,
      "often": 3348,
      "lock": 3349,
      "lose": 3350,
      "##ado": 3351,
      "##ural": 3352,
      "##imp": 3353,
      "chap": 3354,
      "proc": 3355,
      "max": 3356,
      "kno": 3357,
      "ages": 3358,
      "depress": 3359,
      "usa": 3360,
      "followed": 3361,
      "adam": 3362,
      "calls": 3363,
      "##xxxx": 3364,
      "##eeeeee": 3365,
      "##iva": 3366,
      "##heart": 3367,
      "hugh": 3368,
      "???????": 3369,
      "recomm": 3370,
      "deser": 3371,
      "##ibly": 3372,
      "step": 3373,
      "ladies": 3374,
      "scream": 3375,
      "macbook": 3376,
      "training": 3377,
      "tumbl": 3378,
      "finger": 3379,
      "studio": 3380,
      "woman": 3381,
      "women": 3382,
      "puppy": 3383,
      "bloody": 3384,
      "children": 3385,
      "consider": 3386,
      "practice": 3387,
      "normal": 3388,
      "includ": 3389,
      "favourite": 3390,
      "husband": 3391,
      "library": 3392,
      "excellent": 3393,
      "recommend": 3394,
      "aha": 3395,
      "bf": 3396,
      "barely": 3397,
      "coo": 3398,
      "gas": 3399,
      "mart": 3400,
      "mouth": 3401,
      "nah": 3402,
      "ros": 3403,
      "rof": 3404,
      "session": 3405,
      "tab": 3406,
      "ul": 3407,
      "ven": 3408,
      "wk": 3409,
      "##rad": 3410,
      "##fit": 3411,
      "##house": 3412,
      "##bt": 3413,
      "##yd": 3414,
      "##ua": 3415,
      "##und": 3416,
      "##use": 3417,
      "##upp": 3418,
      "##jack": 3419,
      "##ml": 3420,
      "##ini": 3421,
      "##erry": 3422,
      "##itter": 3423,
      "##ari": 3424,
      "##chy": 3425,
      "##asha": 3426,
      "##ida": 3427,
      "mex": 3428,
      "bear": 3429,
      "shoot": 3430,
      "lived": 3431,
      "##alk": 3432,
      "frustr": 3433,
      "twice": 3434,
      "wasnt": 3435,
      "chem": 3436,
      "outta": 3437,
      "##haw": 3438,
      "thanx": 3439,
      "brad": 3440,
      "knee": 3441,
      "awe": 3442,
      "##ished": 3443,
      "##rah": 3444,
      "misses": 3445,
      "##ume": 3446,
      "##ours": 3447,
      "##ify": 3448,
      "finals": 3449,
      "##www": 3450,
      "##orewind": 3451,
      "sex": 3452,
      "cru": 3453,
      "tweetdeck": 3454,
      "babys": 3455,
      "cheers": 3456,
      "##ival": 3457,
      "helping": 3458,
      "clear": 3459,
      "##ground": 3460,
      "##itchen": 3461,
      "##nnn": 3462,
      "teacher": 3463,
      "killed": 3464,
      "setting": 3465,
      "##ipped": 3466,
      "!!!!!!": 3467,
      "simple": 3468,
      "##ivers": 3469,
      "interested": 3470,
      "system": 3471,
      "grandma": 3472,
      "##iams": 3473,
      "theres": 3474,
      "jenny": 3475,
      "country": 3476,
      "fabulous": 3477,
      "crossed": 3478,
      "obvious": 3479,
      "bottle": 3480,
      ":'(": 3481,
      "retrorewind": 3482,
      "frenchieb": 3483,
      "tumblr": 3484,
      "5j": 3485,
      "90": 3486,
      "ahaha": 3487,
      "bon": 3488,
      "ci": 3489,
      "cir": 3490,
      "cast": 3491,
      "cud": 3492,
      "geek": 3493,
      "hes": 3494,
      "jud": 3495,
      "lem": 3496,
      "mcfly": 3497,
      "pm": 3498,
      "tg": 3499,
      "ut": 3500,
      "wet": 3501,
      "yfrog": 3502,
      "##eg": 3503,
      "##cut": 3504,
      "##ray": 3505,
      "##ban": 3506,
      "##bell": 3507,
      "##nal": 3508,
      "##wise": 3509,
      "##ugs": 3510,
      "##x3": 3511,
      "##ping": 3512,
      "##pen": 3513,
      "##vs": 3514,
      "##mom": 3515,
      "##miss": 3516,
      "##mag": 3517,
      "##95": 3518,
      "tough": 3519,
      "##ani": 3520,
      "##atic": 3521,
      "##ites": 3522,
      "hah": 3523,
      "hall": 3524,
      "##ense": 3525,
      "##cha": 3526,
      "sushi": 3527,
      "##enty": 3528,
      "##hall": 3529,
      "##ility": 3530,
      "princess": 3531,
      "mall": 3532,
      "breaking": 3533,
      "!!!!!!!!!!!": 3534,
      "##allen": 3535,
      "dropped": 3536,
      "convers": 3537,
      "##empt": 3538,
      "##ists": 3539,
      "shouldn": 3540,
      "scar": 3541,
      "unless": 3542,
      "uncle": 3543,
      "maria": 3544,
      "flat": 3545,
      "bull": 3546,
      ".........": 3547,
      "mini": 3548,
      "disco": 3549,
      "holy": 3550,
      "finishing": 3551,
      "coun": 3552,
      "sweetie": 3553,
      "##uuuu": 3554,
      "delicious": 3555,
      "cooking": 3556,
      "passed": 3557,
      "grey": 3558,
      "##ergy": 3559,
      "teeth": 3560,
      "##baby": 3561,
      "pissed": 3562,
      "latest": 3563,
      "australia": 3564,
      "333": 3565,
      "5z": 3566,
      ":|": 3567,
      "ace": 3568,
      "age": 3569,
      "aaa": 3570,
      "batter": 3571,
      "bunny": 3572,
      "est": 3573,
      "fest": 3574,
      "jap": 3575,
      "lack": 3576,
      "mir": 3577,
      "nom": 3578,
      "oce": 3579,
      "ohhh": 3580,
      "##16": 3581,
      "##oz": 3582,
      "##ost": 3583,
      "##hay": 3584,
      "##des": 3585,
      "##dog": 3586,
      "##32": 3587,
      "##may": 3588,
      "##07": 3589,
      "##ints": 3590,
      "tha": 3591,
      "third": 3592,
      "toe": 3593,
      "##itive": 3594,
      "##ooth": 3595,
      "##ises": 3596,
      "##ety": 3597,
      "##enter": 3598,
      "island": 3599,
      "storm": 3600,
      "log": 3601,
      "##add": 3602,
      "##ury": 3603,
      "##una": 3604,
      "angry": 3605,
      "canada": 3606,
      "##ils": 3607,
      "nose": 3608,
      "##antly": 3609,
      "amy": 3610,
      "amber": 3611,
      "##aby": 3612,
      "awh": 3613,
      "twittering": 3614,
      "arm": 3615,
      "sort": 3616,
      "tree": 3617,
      "##itten": 3618,
      "##bert": 3619,
      "quiz": 3620,
      "ador": 3621,
      "flor": 3622,
      "smart": 3623,
      "##ssss": 3624,
      "##iii": 3625,
      "##cret": 3626,
      "jobs": 3627,
      "delay": 3628,
      "cards": 3629,
      "syd": 3630,
      "invite": 3631,
      "confused": 3632,
      "slowly": 3633,
      "color": 3634,
      "joined": 3635,
      "katie": 3636,
      "##bury": 3637,
      "blocked": 3638,
      "evil": 3639,
      "buddy": 3640,
      "arrived": 3641,
      "##ography": 3642,
      "received": 3643,
      "shining": 3644,
      "rofl": 3645,
      "&&": 3646,
      ":]": 3647,
      "ache": 3648,
      "bi": 3649,
      "cow": 3650,
      "cass": 3651,
      "cash": 3652,
      "east": 3653,
      "kitchen": 3654,
      "lind": 3655,
      "loud": 3656,
      "mm": 3657,
      "ot": 3658,
      "ren": 3659,
      "rice": 3660,
      "rose": 3661,
      "rac": 3662,
      "table": 3663,
      "west": 3664,
      "##kid": 3665,
      "##ev": 3666,
      "##iy": 3667,
      "##ius": 3668,
      "##cas": 3669,
      "##15": 3670,
      "##ror": 3671,
      "##res": 3672,
      "##oa": 3673,
      "##off": 3674,
      "##hal": 3675,
      "##hil": 3676,
      "##bed": 3677,
      "##gen": 3678,
      "##vous": 3679,
      "##69": 3680,
      "##jay": 3681,
      "##mark": 3682,
      "##ination": 3683,
      "tooth": 3684,
      "##ora": 3685,
      "##ative": 3686,
      "##ese": 3687,
      "##oose": 3688,
      "##omy": 3689,
      "##edic": 3690,
      "myloc": 3691,
      "onto": 3692,
      "##char": 3693,
      "stri": 3694,
      "lif": 3695,
      "lim": 3696,
      "lives": 3697,
      "notice": 3698,
      "tweeps": 3699,
      "chi": 3700,
      "sudd": 3701,
      "nowhere": 3702,
      "##thew": 3703,
      "places": 3704,
      "bru": 3705,
      "brian": 3706,
      "asking": 3707,
      "somebody": 3708,
      "somehow": 3709,
      "background": 3710,
      "##ulu": 3711,
      "span": 3712,
      "blow": 3713,
      "twitters": 3714,
      "tax": 3715,
      "coast": 3716,
      "##ango": 3717,
      "sever": 3718,
      "swear": 3719,
      "##000": 3720,
      "adv": 3721,
      "marath": 3722,
      "##gged": 3723,
      "dawn": 3724,
      "action": 3725,
      "craving": 3726,
      "emily": 3727,
      "talkin": 3728,
      "putting": 3729,
      "##attle": 3730,
      "report": 3731,
      "kevin": 3732,
      "ahead": 3733,
      "planned": 3734,
      "##ipping": 3735,
      "asked": 3736,
      "calif": 3737,
      "collect": 3738,
      "article": 3739,
      "##marie": 3740,
      "extreme": 3741,
      "nearly": 3742,
      "ordered": 3743,
      "apartment": 3744,
      "mommies": 3745,
      "sandwich": 3746,
      "weren": 3747,
      "gfalc": 3748,
      "truly": 3749,
      "private": 3750,
      "gfalcone": 3751,
      "09": 3752,
      "2nite": 3753,
      "::": 3754,
      "booo": 3755,
      "der": 3756,
      "ew": 3757,
      "gah": 3758,
      "jun": 3759,
      "ka": 3760,
      "lor": 3761,
      "mur": 3762,
      "mount": 3763,
      "oper": 3764,
      "pants": 3765,
      "rh": 3766,
      "tit": 3767,
      "wood": 3768,
      "wif": 3769,
      "woot": 3770,
      "waste": 3771,
      "##kat": 3772,
      "##ez": 3773,
      "##lim": 3774,
      "##ians": 3775,
      "##sup": 3776,
      "##rup": 3777,
      "##rock": 3778,
      "##af": 3779,
      "##aur": 3780,
      "##face": 3781,
      "##fire": 3782,
      "##nel": 3783,
      "##wr": 3784,
      "##ware": 3785,
      "##good": 3786,
      "##jam": 3787,
      "##mith": 3788,
      "##82": 3789,
      "thomas": 3790,
      "toy": 3791,
      "tony": 3792,
      "theat": 3793,
      "##ndry": 3794,
      "##stal": 3795,
      "youre": 3796,
      "##ico": 3797,
      "##rell": 3798,
      "state": 3799,
      "meg": 3800,
      "soft": 3801,
      "##lynn": 3802,
      "shoo": 3803,
      "shake": 3804,
      "##ustin": 3805,
      "##irty": 3806,
      "button": 3807,
      "wend": 3808,
      "##erez": 3809,
      "##imb": 3810,
      "anth": 3811,
      "chuck": 3812,
      "cheap": 3813,
      "##ila": 3814,
      "workin": 3815,
      "alco": 3816,
      "##asted": 3817,
      "knows": 3818,
      "offer": 3819,
      "anybody": 3820,
      "anytime": 3821,
      "speed": 3822,
      "slight": 3823,
      "fave": 3824,
      "grr": 3825,
      "drop": 3826,
      "hasn": 3827,
      "##ubs": 3828,
      "badly": 3829,
      "##lock": 3830,
      "scott": 3831,
      "##ahl": 3832,
      "##007": 3833,
      "uni": 3834,
      "crack": 3835,
      "##ship": 3836,
      "marc": 3837,
      "married": 3838,
      "joke": 3839,
      "lake": 3840,
      "wrote": 3841,
      "daily": 3842,
      "##onds": 3843,
      "hotel": 3844,
      "idiot": 3845,
      "hella": 3846,
      "stream": 3847,
      "##zzy": 3848,
      "##blog": 3849,
      "situ": 3850,
      "messed": 3851,
      "teach": 3852,
      "painting": 3853,
      "hangover": 3854,
      "turns": 3855,
      "attack": 3856,
      "attend": 3857,
      "unfollow": 3858,
      "type": 3859,
      "cookies": 3860,
      "simp": 3861,
      "catching": 3862,
      "##ornia": 3863,
      "picked": 3864,
      "draw": 3865,
      "##airs": 3866,
      "thereal": 3867,
      "2009": 3868,
      "##601": 3869,
      "surprise": 3870,
      "american": 3871,
      "demi": 3872,
      "fourth": 3873,
      "piece": 3874,
      "request": 3875,
      "productive": 3876,
      "montana": 3877,
      "sydney": 3878,
      "sudden": 3879,
      "california": 3880,
      "gfalcone601": 3881,
      "alcohol": 3882,
      "!\"": 3883,
      "aim": 3884,
      "aug": 3885,
      "cab": 3886,
      "du": 3887,
      "fox": 3888,
      "kr": 3889,
      "ko": 3890,
      "kitty": 3891,
      "lou": 3892,
      "les": 3893,
      "muff": 3894,
      "master": 3895,
      "nd": 3896,
      "noooo": 3897,
      "pam": 3898,
      "pix": 3899,
      "push": 3900,
      "rom": 3901,
      "sf": 3902,
      "tis": 3903,
      "tut": 3904,
      "tip": 3905,
      "tix": 3906,
      "tatt": 3907,
      "taste": 3908,
      "x2": 3909,
      "##kr": 3910,
      "##li": 3911,
      "##dr": 3912,
      "##gins": 3913,
      "##34": 3914,
      "##76": 3915,
      "##-)": 3916,
      "##_p": 3917,
      "##84": 3918,
      "##erc": 3919,
      "##anc": 3920,
      "##ances": 3921,
      "##ities": 3922,
      "##nding": 3923,
      "##stack": 3924,
      "##chick": 3925,
      "##cks": 3926,
      "stock": 3927,
      "style": 3928,
      "status": 3929,
      "bey": 3930,
      "##lyn": 3931,
      "shots": 3932,
      "goss": 3933,
      "##urt": 3934,
      "##iem": 3935,
      "noticed": 3936,
      "heyy": 3937,
      "tweep": 3938,
      "challen": 3939,
      "suff": 3940,
      "##ained": 3941,
      "amand": 3942,
      "impressed": 3943,
      "brill": 3944,
      "timberlake": 3945,
      "wanting": 3946,
      "spo": 3947,
      "blessed": 3948,
      "##mmm": 3949,
      "depressed": 3950,
      "clock": 3951,
      "fake": 3952,
      "fault": 3953,
      "org": 3954,
      "arr": 3955,
      "gross": 3956,
      "##ifts": 3957,
      "energy": 3958,
      "que": 3959,
      "quit": 3960,
      "##izing": 3961,
      "##izzy": 3962,
      "##photo": 3963,
      "dammit": 3964,
      "##queen": 3965,
      "strange": 3966,
      "compet": 3967,
      "##zzzz": 3968,
      "##bles": 3969,
      "given": 3970,
      "mummy": 3971,
      "happening": 3972,
      "painful": 3973,
      "charac": 3974,
      "hehehe": 3975,
      "##kkkk": 3976,
      "laundry": 3977,
      "court": 3978,
      "decide": 3979,
      "laughing": 3980,
      "iamdid": 3981,
      "straw": 3982,
      "##guy": 3983,
      "respond": 3984,
      "nerd": 3985,
      "philipp": 3986,
      "america": 3987,
      "commun": 3988,
      "north": 3989,
      "desktop": 3990,
      "issues": 3991,
      "local": 3992,
      "jimmy": 3993,
      "cherry": 3994,
      "properly": 3995,
      "leno": 3996,
      "memories": 3997,
      "mornin": 3998,
      "credit": 3999,
      "battery": 4000,
      "adorable": 4001,
      "marathon": 4002,
      "iamdiddy": 4003,
      "\",": 4004,
      "000": 4005,
      "33": 4006,
      "60": 4007,
      "az": 4008,
      "ain": 4009,
      "cust": 4010,
      "dish": 4011,
      "econ": 4012,
      "field": 4013,
      "gab": 4014,
      "gear": 4015,
      "ic": 4016,
      "lam": 4017,
      "mand": 4018,
      "noo": 4019,
      "nut": 4020,
      "nasty": 4021,
      "os": 4022,
      "oct": 4023,
      "poop": 4024,
      "temp": 4025,
      "wide": 4026,
      "wii": 4027,
      "yess": 4028,
      "##kut": 4029,
      "##log": 4030,
      "##iant": 4031,
      "##cou": 4032,
      "##sl": 4033,
      "##ring": 4034,
      "##hy": 4035,
      "##hen": 4036,
      "##bb": 4037,
      "##bish": 4038,
      "##born": 4039,
      "##ych": 4040,
      "##ders": 4041,
      "##down": 4042,
      "##val": 4043,
      "##jr": 4044,
      "##mind": 4045,
      "##90": 4046,
      "##_g": 4047,
      "##ero": 4048,
      "##edy": 4049,
      "##sth": 4050,
      "ham": 4051,
      "##ution": 4052,
      "whoo": 4053,
      "loss": 4054,
      "shan": 4055,
      "golf": 4056,
      "##omez": 4057,
      "##sel": 4058,
      "##pping": 4059,
      "##ality": 4060,
      "butt": 4061,
      "##vert": 4062,
      "fri": 4063,
      "heh": 4064,
      "cha": 4065,
      "sux": 4066,
      "allerg": 4067,
      "reach": 4068,
      "alas": 4069,
      "plz": 4070,
      "##uses": 4071,
      "##ttt": 4072,
      "imma": 4073,
      "braz": 4074,
      "##olf": 4075,
      "spin": 4076,
      "blast": 4077,
      "everytime": 4078,
      "ground": 4079,
      "lookin": 4080,
      "##ista": 4081,
      "##aches": 4082,
      "tweeted": 4083,
      "##gggg": 4084,
      "sometime": 4085,
      "flash": 4086,
      "diet": 4087,
      "smh": 4088,
      "appear": 4089,
      "becom": 4090,
      "........": 4091,
      "helps": 4092,
      "daniel": 4093,
      "mondays": 4094,
      "##ullen": 4095,
      "series": 4096,
      "##laur": 4097,
      "?!?!": 4098,
      "photosh": 4099,
      "added": 4100,
      "holidays": 4101,
      "doubt": 4102,
      "diffic": 4103,
      "release": 4104,
      "##????????": 4105,
      "tons": 4106,
      "learned": 4107,
      "grace": 4108,
      "natal": 4109,
      "christian": 4110,
      "laying": 4111,
      "ruined": 4112,
      "surprising": 4113,
      "celebrate": 4114,
      "nervous": 4115,
      "purple": 4116,
      "reminds": 4117,
      "pleasure": 4118,
      "magic": 4119,
      "elect": 4120,
      "england": 4121,
      "swimming": 4122,
      "expected": 4123,
      "##jonas": 4124,
      "depend": 4125,
      "addicted": 4126,
      "cloudy": 4127,
      "managed": 4128,
      "essay": 4129,
      "origin": 4130,
      "victor": 4131,
      "incred": 4132,
      "schedule": 4133,
      "ugly": 4134,
      "tgif": 4135,
      "gossip": 4136,
      "philippines": 4137,
      "!...": 4138,
      "**": 4139,
      "^^": 4140,
      "ach": 4141,
      "core": 4142,
      "dow": 4143,
      "eb": 4144,
      "fem": 4145,
      "father": 4146,
      "gir": 4147,
      "hill": 4148,
      "kir": 4149,
      "kell": 4150,
      "kirst": 4151,
      "lord": 4152,
      "mee": 4153,
      "meal": 4154,
      "obs": 4155,
      "rite": 4156,
      "ss": 4157,
      "sym": 4158,
      "tin": 4159,
      "wx": 4160,
      "zomb": 4161,
      "##iw": 4162,
      "##core": 4163,
      "##fc": 4164,
      "##fort": 4165,
      "##ford": 4166,
      "##ht": 4167,
      "##hin": 4168,
      "##hor": 4169,
      "##nx": 4170,
      "##wl": 4171,
      "##war": 4172,
      "##gest": 4173,
      "##po": 4174,
      "##pet": 4175,
      "##vr": 4176,
      "##que": 4177,
      "##men": 4178,
      "##mic": 4179,
      "##75": 4180,
      "##ores": 4181,
      "##anne": 4182,
      "##oomy": 4183,
      "##otion": 4184,
      "mem": 4185,
      "shel": 4186,
      "shann": 4187,
      "weight": 4188,
      "heather": 4189,
      "cancer": 4190,
      "plenty": 4191,
      "gotten": 4192,
      "bread": 4193,
      "britt": 4194,
      "awards": 4195,
      "##ument": 4196,
      "##icked": 4197,
      "anywhere": 4198,
      "arch": 4199,
      "dread": 4200,
      "drama": 4201,
      "drinks": 4202,
      "philly": 4203,
      "pod": 4204,
      "##ogn": 4205,
      "##ipe": 4206,
      "secret": 4207,
      "##ups": 4208,
      "cars": 4209,
      "carol": 4210,
      "level": 4211,
      "crush": 4212,
      "flick": 4213,
      "awesom": 4214,
      "lakers": 4215,
      "buff": 4216,
      "bugg": 4217,
      "##brad": 4218,
      "finding": 4219,
      "realize": 4220,
      "##ensen": 4221,
      "fuckin": 4222,
      "snow": 4223,
      "prefer": 4224,
      "camer": 4225,
      "keys": 4226,
      "board": 4227,
      "files": 4228,
      "##yyyyyyyy": 4229,
      "fancy": 4230,
      "##oooooooooooooooo": 4231,
      "midnight": 4232,
      "##carter": 4233,
      "##iami": 4234,
      "figured": 4235,
      "easier": 4236,
      "seconds": 4237,
      "market": 4238,
      "downloaded": 4239,
      "##____": 4240,
      "##eased": 4241,
      "based": 4242,
      "uploading": 4243,
      "uploaded": 4244,
      "miser": 4245,
      "peter": 4246,
      "celebrating": 4247,
      "presentation": 4248,
      "fighting": 4249,
      "questions": 4250,
      "replace": 4251,
      "closing": 4252,
      "hyper": 4253,
      "motiv": 4254,
      "??????": 4255,
      "##isdom": 4256,
      "bacon": 4257,
      "nkotb": 4258,
      "besides": 4259,
      "discover": 4260,
      "ocean": 4261,
      "august": 4262,
      "difficult": 4263,
      "(@": 4264,
      "35": 4265,
      ";-)": 4266,
      "aunt": 4267,
      "bs": 4268,
      "bay": 4269,
      "bff": 4270,
      "drew": 4271,
      "fear": 4272,
      "fash": 4273,
      "gh": 4274,
      "gin": 4275,
      "ht": 4276,
      "iv": 4277,
      "links": 4278,
      "mik": 4279,
      "pj": 4280,
      "perez": 4281,
      "ree": 4282,
      "ram": 4283,
      "sg": 4284,
      "tat": 4285,
      "vir": 4286,
      "vol": 4287,
      "wra": 4288,
      "##kins": 4289,
      "##cu": 4290,
      "##rop": 4291,
      "##old": 4292,
      "##ax": 4293,
      "##aff": 4294,
      "##fry": 4295,
      "##fish": 4296,
      "##hr": 4297,
      "##bd": 4298,
      "##ben": 4299,
      "##yp": 4300,
      "##nie": 4301,
      "##we": 4302,
      "##with": 4303,
      "##wars": 4304,
      "##ges": 4305,
      "##gra": 4306,
      "##gers": 4307,
      "##god": 4308,
      "##just": 4309,
      "##mad": 4310,
      "##mins": 4311,
      "##78": 4312,
      "##02": 4313,
      "##inting": 4314,
      "##err": 4315,
      "##inger": 4316,
      "##ona": 4317,
      "##lll": 4318,
      "##eech": 4319,
      "##aron": 4320,
      "##stre": 4321,
      "##eness": 4322,
      "##child": 4323,
      "station": 4324,
      "begin": 4325,
      "##iller": 4326,
      "##illed": 4327,
      "##verse": 4328,
      "ank": 4329,
      "anna": 4330,
      "candy": 4331,
      "washing": 4332,
      "choice": 4333,
      "choose": 4334,
      "regr": 4335,
      "neither": 4336,
      "price": 4337,
      "impress": 4338,
      "brook": 4339,
      "brown": 4340,
      "##rif": 4341,
      "abt": 4342,
      "##ults": 4343,
      "##icky": 4344,
      "##eets": 4345,
      "grab": 4346,
      "drum": 4347,
      "trust": 4348,
      "friendly": 4349,
      "lex": 4350,
      "creep": 4351,
      "##ploy": 4352,
      "##pres": 4353,
      "gloomy": 4354,
      "starwars": 4355,
      "hurry": 4356,
      "crappy": 4357,
      "reality": 4358,
      "stressed": 4359,
      "perfor": 4360,
      "recogn": 4361,
      "talked": 4362,
      "total": 4363,
      "channel": 4364,
      "resear": 4365,
      "booked": 4366,
      "winter": 4367,
      "updating": 4368,
      "ideas": 4369,
      "##izzle": 4370,
      "visiting": 4371,
      "promise": 4372,
      "accept": 4373,
      "cali": 4374,
      "sims": 4375,
      "simon": 4376,
      "woohoo": 4377,
      "emails": 4378,
      "packed": 4379,
      "meliss": 4380,
      "juice": 4381,
      "flying": 4382,
      "medic": 4383,
      "media": 4384,
      "##john": 4385,
      "comments": 4386,
      "senior": 4387,
      "##books": 4388,
      "##ughes": 4389,
      "mrskut": 4390,
      "esc": 4391,
      "bottom": 4392,
      "techn": 4393,
      "bathroom": 4394,
      "distract": 4395,
      "##world": 4396,
      "massive": 4397,
      "oooh": 4398,
      "##ique": 4399,
      "entertain": 4400,
      "healthy": 4401,
      "lmfa": 4402,
      "floor": 4403,
      "trailer": 4404,
      "afford": 4405,
      "##williams": 4406,
      "folks": 4407,
      "depressing": 4408,
      "deserve": 4409,
      "conversation": 4410,
      "several": 4411,
      "theatre": 4412,
      "brazil": 4413,
      "mrskutcher": 4414,
      "?\"": 4415,
      "cc": 4416,
      "cav": 4417,
      "dest": 4418,
      "dirty": 4419,
      "feat": 4420,
      "gm": 4421,
      "gho": 4422,
      "jr": 4423,
      "kry": 4424,
      "lee": 4425,
      "las": 4426,
      "mile": 4427,
      "mcr": 4428,
      "million": 4429,
      "miami": 4430,
      "nl": 4431,
      "nin": 4432,
      "nooo": 4433,
      "nails": 4434,
      "oven": 4435,
      "pill": 4436,
      "pour": 4437,
      "raw": 4438,
      "rude": 4439,
      "sett": 4440,
      "ts": 4441,
      "viv": 4442,
      "wisdom": 4443,
      "xbox": 4444,
      "##k9": 4445,
      "##eh": 4446,
      "##luk": 4447,
      "##ias": 4448,
      "##hs": 4449,
      "##bow": 4450,
      "##bel": 4451,
      "##bird": 4452,
      "##ns": 4453,
      "##ws": 4454,
      "##web": 4455,
      "##dam": 4456,
      "##dies": 4457,
      "##pol": 4458,
      "##mi": 4459,
      "##mel": 4460,
      "##zi": 4461,
      "##71": 4462,
      "##72": 4463,
      "##erts": 4464,
      "toast": 4465,
      "##ouston": 4466,
      "##ano": 4467,
      "##oned": 4468,
      "havin": 4469,
      "item": 4470,
      "##etcher": 4471,
      "##rend": 4472,
      "##asc": 4473,
      "##leigh": 4474,
      "stal": 4475,
      "beck": 4476,
      "##adam": 4477,
      "lip": 4478,
      "lizz": 4479,
      "lime": 4480,
      "##alo": 4481,
      "france": 4482,
      "##iment": 4483,
      "notes": 4484,
      "heck": 4485,
      "champ": 4486,
      "sus": 4487,
      "upgr": 4488,
      "goodness": 4489,
      "##haps": 4490,
      "##iles": 4491,
      "workout": 4492,
      "##anta": 4493,
      "alive": 4494,
      "pls": 4495,
      "plant": 4496,
      "happiness": 4497,
      "knock": 4498,
      "##ander": 4499,
      "##ntown": 4500,
      "exist": 4501,
      "speaking": 4502,
      "blank": 4503,
      "hows": 4504,
      "##morning": 4505,
      "devel": 4506,
      "##ucky": 4507,
      "##!!!": 4508,
      "watchin": 4509,
      "saving": 4510,
      "cond": 4511,
      "truck": 4512,
      "against": 4513,
      "usb": 4514,
      "##ittin": 4515,
      "##azine": 4516,
      "quote": 4517,
      "##odes": 4518,
      "##0000": 4519,
      "##ggie": 4520,
      "smooth": 4521,
      "launch": 4522,
      "babies": 4523,
      "born": 4524,
      "##ciety": 4525,
      "biggest": 4526,
      "perhaps": 4527,
      "hearing": 4528,
      "##hahahaha": 4529,
      "boot": 4530,
      "accord": 4531,
      "freez": 4532,
      "##aaaaa": 4533,
      "paint": 4534,
      "plane": 4535,
      "announ": 4536,
      "updated": 4537,
      "scratch": 4538,
      "attention": 4539,
      "robert": 4540,
      "cafe": 4541,
      "lesson": 4542,
      "yeh": 4543,
      "sara": 4544,
      "invol": 4545,
      "avat": 4546,
      "changing": 4547,
      "lights": 4548,
      "praying": 4549,
      "fully": 4550,
      "possibly": 4551,
      "pulled": 4552,
      "britains": 4553,
      "##know": 4554,
      "doctors": 4555,
      "error": 4556,
      "issue": 4557,
      "inspir": 4558,
      "richard": 4559,
      "stories": 4560,
      "certainly": 4561,
      "positive": 4562,
      "rachel": 4563,
      "gunna": 4564,
      "bubble": 4565,
      "search": 4566,
      "2moro": 4567,
      "continue": 4568,
      "including": 4569,
      "obviously": 4570,
      "lemon": 4571,
      "japan": 4572,
      "florida": 4573,
      "simply": 4574,
      "brilliant": 4575,
      "original": 4576,
      "performan": 4577,
      "07": 4578,
      "aid": 4579,
      "ari": 4580,
      "auss": 4581,
      "bt": 4582,
      "bast": 4583,
      "bound": 4584,
      "bunch": 4585,
      "bones": 4586,
      "ce": 4587,
      "cs": 4588,
      "cable": 4589,
      "center": 4590,
      "dee": 4591,
      "dumb": 4592,
      "fur": 4593,
      "jp": 4594,
      "jac": 4595,
      "jtim": 4596,
      "kh": 4597,
      "mt": 4598,
      "mp": 4599,
      "mult": 4600,
      "opt": 4601,
      "odd": 4602,
      "pound": 4603,
      "rough": 4604,
      "rap": 4605,
      "sin": 4606,
      "tiff": 4607,
      "ustre": 4608,
      "yu": 4609,
      "yog": 4610,
      "##lies": 4611,
      "##iu": 4612,
      "##cs": 4613,
      "##rick": 4614,
      "##rich": 4615,
      "##fg": 4616,
      "##fin": 4617,
      "##hrs": 4618,
      "##bn": 4619,
      "##but": 4620,
      "##bour": 4621,
      "##now": 4622,
      "##gam": 4623,
      "##van": 4624,
      "##65": 4625,
      "##jb": 4626,
      "##jones": 4627,
      "##mers": 4628,
      "##73": 4629,
      "##_t": 4630,
      "##_x": 4631,
      "##ouch": 4632,
      "##vey": 4633,
      "##eag": 4634,
      "##eaks": 4635,
      "##enag": 4636,
      "##icip": 4637,
      "fore": 4638,
      "##iding": 4639,
      "##amps": 4640,
      "limit": 4641,
      "##pper": 4642,
      "##iece": 4643,
      "print": 4644,
      "alarm": 4645,
      "impr": 4646,
      "brows": 4647,
      "asap": 4648,
      "knight": 4649,
      "##arts": 4650,
      "##ules": 4651,
      "##ardash": 4652,
      "##alley": 4653,
      "spl": 4654,
      "speech": 4655,
      "blame": 4656,
      "deck": 4657,
      "dece": 4658,
      "wave": 4659,
      "cla": 4660,
      "clar": 4661,
      "arg": 4662,
      "arms": 4663,
      "grade": 4664,
      "tag": 4665,
      "##emy": 4666,
      "##udge": 4667,
      "##istic": 4668,
      "seat": 4669,
      "quot": 4670,
      "scot": 4671,
      "carl": 4672,
      "weekends": 4673,
      "cris": 4674,
      "player": 4675,
      "besties": 4676,
      "smo": 4677,
      "smoke": 4678,
      "##acey": 4679,
      "##athy": 4680,
      "urgh": 4681,
      "girlfriend": 4682,
      "##agement": 4683,
      "bug": 4684,
      "##ivity": 4685,
      "starving": 4686,
      "hurting": 4687,
      "idol": 4688,
      "##ashed": 4689,
      "recently": 4690,
      "server": 4691,
      "runs": 4692,
      "couch": 4693,
      "hung": 4694,
      "##iewahl": 4695,
      "##away": 4696,
      "##oked": 4697,
      "teaching": 4698,
      "adding": 4699,
      "deleted": 4700,
      "walmart": 4701,
      "kept": 4702,
      "rove": 4703,
      "remembered": 4704,
      "cakes": 4705,
      "cookie": 4706,
      "woop": 4707,
      "##elearn": 4708,
      "student": 4709,
      "##aaaay": 4710,
      "effect": 4711,
      "chineselearn": 4712,
      "keyboard": 4713,
      "digital": 4714,
      "closer": 4715,
      "football": 4716,
      "rubbish": 4717,
      "cousins": 4718,
      "burned": 4719,
      "discuss": 4720,
      "large": 4721,
      "golden": 4722,
      "texas": 4723,
      "langu": 4724,
      "donniewahl": 4725,
      "degrees": 4726,
      "building": 4727,
      "yellow": 4728,
      "process": 4729,
      "babysitting": 4730,
      "##mayer": 4731,
      "delayed": 4732,
      "spanish": 4733,
      "tattoo": 4734,
      "spoil": 4735,
      "fashion": 4736,
      "develop": 4737,
      "according": 4738,
      "jtimberlake": 4739,
      "donniewahlberg": 4740,
      "27": 4741,
      "500": 4742,
      "99": 4743,
      "austin": 4744,
      "base": 4745,
      "cu": 4746,
      "cig": 4747,
      "ds": 4748,
      "dud": 4749,
      "ee": 4750,
      "fool": 4751,
      "foc": 4752,
      "gee": 4753,
      "gives": 4754,
      "hills": 4755,
      "ik": 4756,
      "ilove": 4757,
      "jav": 4758,
      "kw": 4759,
      "lin": 4760,
      "lon": 4761,
      "liter": 4762,
      "mtv": 4763,
      "nig": 4764,
      "nathan": 4765,
      "opp": 4766,
      "py": 4767,
      "pee": 4768,
      "pit": 4769,
      "pages": 4770,
      "rent": 4771,
      "rus": 4772,
      "txt": 4773,
      "tears": 4774,
      "vet": 4775,
      "wy": 4776,
      "wen": 4777,
      "wire": 4778,
      "yer": 4779,
      "york": 4780,
      "yrs": 4781,
      "zoo": 4782,
      "##ko": 4783,
      "##kd": 4784,
      "##lan": 4785,
      "##like": 4786,
      "##cmayer": 4787,
      "##sy": 4788,
      "##rw": 4789,
      "##ran": 4790,
      "##run": 4791,
      "##ae": 4792,
      "##fo": 4793,
      "##field": 4794,
      "##hood": 4795,
      "##bit": 4796,
      "##bby": 4797,
      "##bug": 4798,
      "##tra": 4799,
      "##wy": 4800,
      "##win": 4801,
      "##dra": 4802,
      "##py": 4803,
      "##jm": 4804,
      "##44": 4805,
      "##29": 4806,
      "##erence": 4807,
      "tong": 4808,
      "##orious": 4809,
      "##anth": 4810,
      "##onse": 4811,
      "##itor": 4812,
      "hal": 4813,
      "haw": 4814,
      "hack": 4815,
      "iti": 4816,
      "##isha": 4817,
      "##ening": 4818,
      "inc": 4819,
      "states": 4820,
      "##ids": 4821,
      "socc": 4822,
      "##ires": 4823,
      "##irts": 4824,
      "##iell": 4825,
      "worries": 4826,
      "chr": 4827,
      "china": 4828,
      "remo": 4829,
      "subs": 4830,
      "##essa": 4831,
      "makin": 4832,
      "##ateful": 4833,
      "above": 4834,
      "spark": 4835,
      "funn": 4836,
      "funer": 4837,
      "gud": 4838,
      "climb": 4839,
      "##aaay": 4840,
      "##aud": 4841,
      "grrr": 4842,
      "dressed": 4843,
      "drove": 4844,
      "cock": 4845,
      "coach": 4846,
      "phys": 4847,
      "truth": 4848,
      "##ement": 4849,
      "##anger": 4850,
      "points": 4851,
      "##berries": 4852,
      "swe": 4853,
      "##loves": 4854,
      "headaches": 4855,
      "science": 4856,
      "tweetie": 4857,
      "div": 4858,
      "sucked": 4859,
      "appoint": 4860,
      "urban": 4861,
      "laid": 4862,
      "lawn": 4863,
      "parts": 4864,
      "buzz": 4865,
      "stars": 4866,
      "otherwise": 4867,
      "hott": 4868,
      "hardly": 4869,
      "helped": 4870,
      "listened": 4871,
      "##blue": 4872,
      "perform": 4873,
      "##aked": 4874,
      "paris": 4875,
      "posts": 4876,
      "posting": 4877,
      "accom": 4878,
      "?!?": 4879,
      "##what": 4880,
      "sniff": 4881,
      "rocking": 4882,
      "stayed": 4883,
      "prep": 4884,
      "results": 4885,
      "address": 4886,
      "pair": 4887,
      "roast": 4888,
      "msg": 4889,
      "attempt": 4890,
      "revise": 4891,
      "contest": 4892,
      "unfair": 4893,
      "horse": 4894,
      "typic": 4895,
      "johncmayer": 4896,
      "syn": 4897,
      "network": 4898,
      "paying": 4899,
      "spread": 4900,
      "selenag": 4901,
      "episodes": 4902,
      "basically": 4903,
      "polit": 4904,
      "police": 4905,
      "nicole": 4906,
      "chatting": 4907,
      "regular": 4908,
      "respect": 4909,
      "firefox": 4910,
      "mikey": 4911,
      "##ounge": 4912,
      "kicked": 4913,
      "square": 4914,
      "popular": 4915,
      "growing": 4916,
      "atleast": 4917,
      "stephen": 4918,
      "details": 4919,
      "ummm": 4920,
      "model": 4921,
      "recovering": 4922,
      "eggs": 4923,
      "yahoo": 4924,
      "screwed": 4925,
      "texting": 4926,
      "bothered": 4927,
      "signing": 4928,
      "migraine": 4929,
      "mariah": 4930,
      "counting": 4931,
      "awhile": 4932,
      "extremely": 4933,
      "shooting": 4934,
      "anthony": 4935,
      "slightly": 4936,
      "situation": 4937,
      "custom": 4938,
      "downtown": 4939,
      "regret": 4940,
      "avatar": 4941,
      "selenagomez": 4942,
      "'.": 4943,
      "26": 4944,
      ">.": 4945,
      "aka": 4946,
      "ber": 4947,
      "bing": 4948,
      "bills": 4949,
      "cer": 4950,
      "crow": 4951,
      "cult": 4952,
      "dork": 4953,
      "eww": 4954,
      "ftw": 4955,
      "hr": 4956,
      "hd": 4957,
      "hood": 4958,
      "kl": 4959,
      "mow": 4960,
      "mater": 4961,
      "mouse": 4962,
      "mandy": 4963,
      "noooooooo": 4964,
      "oooo": 4965,
      "pad": 4966,
      "rush": 4967,
      "sour": 4968,
      "sist": 4969,
      "size": 4970,
      "sittin": 4971,
      "ti": 4972,
      "ted": 4973,
      "tam": 4974,
      "tun": 4975,
      "tap": 4976,
      "tips": 4977,
      "und": 4978,
      "vs": 4979,
      "wo": 4980,
      "ways": 4981,
      "yard": 4982,
      "zach": 4983,
      "##kay": 4984,
      "##iod": 4985,
      "##cook": 4986,
      "##sk": 4987,
      "##ser": 4988,
      "##some": 4989,
      "##ral": 4990,
      "##och": 4991,
      "##oft": 4992,
      "##fol": 4993,
      "##hl": 4994,
      "##bor": 4995,
      "##tell": 4996,
      "##yi": 4997,
      "##uj": 4998,
      "##uct": 4999,
      "##gi": 5000,
      "##pher": 5001,
      "##pack": 5002,
      "##vv": 5003,
      "##66": 5004,
      "##68": 5005,
      "##31": 5006,
      "##jan": 5007,
      "##jen": 5008,
      "##jab": 5009,
      "##mb": 5010,
      "##,,": 5011,
      "##ered": 5012,
      "tooo": 5013,
      "todd": 5014,
      "##orter": 5015,
      "thel": 5016,
      "thes": 5017,
      "##eem": 5018,
      "##stone": 5019,
      "##each": 5020,
      "##isc": 5021,
      "##chool": 5022,
      "ish": 5023,
      "##reck": 5024,
      "##ashing": 5025,
      "##lex": 5026,
      "##lem": 5027,
      "##lect": 5028,
      "stack": 5029,
      "steak": 5030,
      "bein": 5031,
      "lies": 5032,
      "##sell": 5033,
      "##alian": 5034,
      "fridays": 5035,
      "##eremy": 5036,
      "within": 5037,
      "chels": 5038,
      "suit": 5039,
      "susp": 5040,
      "neg": 5041,
      "commer": 5042,
      "outfit": 5043,
      "##ential": 5044,
      "##aining": 5045,
      "##antic": 5046,
      "##issy": 5047,
      "bron": 5048,
      "aswell": 5049,
      "##rage": 5050,
      "##elow": 5051,
      "##obs": 5052,
      "spider": 5053,
      "hopes": 5054,
      "cloud": 5055,
      "##aah": 5056,
      "##aund": 5057,
      "faith": 5058,
      "organ": 5059,
      "orange": 5060,
      "greatest": 5061,
      "groc": 5062,
      "grateful": 5063,
      "saf": 5064,
      "yeahh": 5065,
      "##aga": 5066,
      "theme": 5067,
      "seattle": 5068,
      "whoa": 5069,
      "pean": 5070,
      "##orts": 5071,
      "admit": 5072,
      "advice": 5073,
      "##show": 5074,
      "suns": 5075,
      "##gging": 5076,
      "url": 5077,
      "##break": 5078,
      "feelings": 5079,
      "bigger": 5080,
      "amazon": 5081,
      "excuse": 5082,
      "##cream": 5083,
      "ending": 5084,
      "parking": 5085,
      "snugg": 5086,
      "driver": 5087,
      "desp": 5088,
      "previous": 5089,
      "mostly": 5090,
      "dads": 5091,
      "killer": 5092,
      "soooooo": 5093,
      "charger": 5094,
      "charlie": 5095,
      "surv": 5096,
      "termin": 5097,
      "hitting": 5098,
      "indian": 5099,
      "handle": 5100,
      "##aylor": 5101,
      "revising": 5102,
      "robluk": 5103,
      "editing": 5104,
      "personal": 5105,
      "##yyyyy": 5106,
      "apolog": 5107,
      "xxxx": 5108,
      "invited": 5109,
      "picking": 5110,
      "confir": 5111,
      "conference": 5112,
      "difference": 5113,
      "fellow": 5114,
      "laughed": 5115,
      "signed": 5116,
      "##fficial": 5117,
      "downloading": 5118,
      "140": 5119,
      "correct": 5120,
      "polar": 5121,
      "response": 5122,
      "surprised": 5123,
      "annoyed": 5124,
      "##street": 5125,
      "solange": 5126,
      "camping": 5127,
      "connection": 5128,
      "selling": 5129,
      "##news": 5130,
      "tweeters": 5131,
      "europe": 5132,
      "##ribly": 5133,
      "hollie": 5134,
      "journey": 5135,
      "searching": 5136,
      "honestly": 5137,
      "##donald": 5138,
      "frustrated": 5139,
      "competition": 5140,
      "allergies": 5141,
      "becoming": 5142,
      "miserable": 5143,
      "research": 5144,
      "ghost": 5145,
      "performance": 5146,
      "literally": 5147,
      "tongue": 5148,
      "soccer": 5149,
      "robluketic": 5150,
      "//": 5151,
      "48": 5152,
      "6th": 5153,
      "bul": 5154,
      "bomb": 5155,
      "cind": 5156,
      "cine": 5157,
      "cub": 5158,
      "ec": 5159,
      "fed": 5160,
      "gam": 5161,
      "hulu": 5162,
      "jt": 5163,
      "jd": 5164,
      "jj": 5165,
      "jake": 5166,
      "jazz": 5167,
      "jeremy": 5168,
      "ky": 5169,
      "lic": 5170,
      "lul": 5171,
      "nj": 5172,
      "oz": 5173,
      "pure": 5174,
      "path": 5175,
      "ray": 5176,
      "river": 5177,
      "sd": 5178,
      "tend": 5179,
      "virt": 5180,
      "vista": 5181,
      "wil": 5182,
      "##lu": 5183,
      "##iea": 5184,
      "##ients": 5185,
      "##say": 5186,
      "##sen": 5187,
      "##rea": 5188,
      "##real": 5189,
      "##oen": 5190,
      "##fm": 5191,
      "##far": 5192,
      "##hip": 5193,
      "##bc": 5194,
      "##bu": 5195,
      "##bot": 5196,
      "##bear": 5197,
      "##bunny": 5198,
      "##yc": 5199,
      "##n1": 5200,
      "##net": 5201,
      "##nam": 5202,
      "##nia": 5203,
      "##ui": 5204,
      "##ued": 5205,
      "##gm": 5206,
      "##part": 5207,
      "##pool": 5208,
      "##vee": 5209,
      "##64": 5210,
      "##55": 5211,
      "##jess": 5212,
      "##mich": 5213,
      "##zel": 5214,
      "##91": 5215,
      "##94": 5216,
      "##92": 5217,
      "##98": 5218,
      "##03": 5219,
      "tht": 5220,
      "##erd": 5221,
      "tow": 5222,
      "##anie": 5223,
      "##anny": 5224,
      "##ati": 5225,
      "##online": 5226,
      "##itas": 5227,
      "##oman": 5228,
      "##eah": 5229,
      "##eaut": 5230,
      "myst": 5231,
      "whis": 5232,
      "whew": 5233,
      "meh": 5234,
      "##ami": 5235,
      "shock": 5236,
      "shiny": 5237,
      "liz": 5238,
      "##usting": 5239,
      "##sex": 5240,
      "##urse": 5241,
      "##urance": 5242,
      "fridge": 5243,
      "anx": 5244,
      "twpp": 5245,
      "##oph": 5246,
      "cho": 5247,
      "chas": 5248,
      "chees": 5249,
      "reun": 5250,
      "refu": 5251,
      "neph": 5252,
      "goodmorning": 5253,
      "ali": 5254,
      "bra": 5255,
      "##riff": 5256,
      "##elt": 5257,
      "knowing": 5258,
      "mode": 5259,
      "##iney": 5260,
      "spir": 5261,
      "spoke": 5262,
      "bleed": 5263,
      "blond": 5264,
      "##mmmm": 5265,
      "##mmensen": 5266,
      "twitterland": 5267,
      "army": 5268,
      "gr8": 5269,
      "gree": 5270,
      "grass": 5271,
      "sav": 5272,
      "sadness": 5273,
      "user": 5274,
      "waitin": 5275,
      "swee": 5276,
      "switch": 5277,
      "sweat": 5278,
      "heads": 5279,
      "quality": 5280,
      "score": 5281,
      "scare": 5282,
      "carry": 5283,
      "adop": 5284,
      "advent": 5285,
      "sunbur": 5286,
      "##ggy": 5287,
      "thankful": 5288,
      "schools": 5289,
      "picnic": 5290,
      "rains": 5291,
      "rained": 5292,
      "applic": 5293,
      "ears": 5294,
      "##ossible": 5295,
      "##from": 5296,
      "##fresh": 5297,
      "##spot": 5298,
      "older": 5299,
      "trips": 5300,
      "birds": 5301,
      "tele": 5302,
      "embar": 5303,
      "bush": 5304,
      "##zzz": 5305,
      "checking": 5306,
      "ughhh": 5307,
      "fucked": 5308,
      "partying": 5309,
      "rocked": 5310,
      "photography": 5311,
      "beauty": 5312,
      "##dddd": 5313,
      "cleaned": 5314,
      "retweet": 5315,
      "boil": 5316,
      "term": 5317,
      "##sweet": 5318,
      "control": 5319,
      "erin": 5320,
      "jamie": 5321,
      "##fletcher": 5322,
      "metal": 5323,
      "harry": 5324,
      "##clemmensen": 5325,
      "danger": 5326,
      "psych": 5327,
      "nick_": 5328,
      "christmas": 5329,
      "##boys": 5330,
      "mmmm": 5331,
      "insane": 5332,
      "##chester": 5333,
      "standing": 5334,
      "teena": 5335,
      "subway": 5336,
      "subject": 5337,
      "prayers": 5338,
      "heavy": 5339,
      "broad": 5340,
      "!?!": 5341,
      "transl": 5342,
      "hollyoa": 5343,
      "potato": 5344,
      "andyclemmensen": 5345,
      "auto": 5346,
      "##2009": 5347,
      "garage": 5348,
      "jennif": 5349,
      "voting": 5350,
      "voted": 5351,
      "viol": 5352,
      "bowl": 5353,
      "jordan": 5354,
      "breath": 5355,
      "breathe": 5356,
      "successful": 5357,
      "nikk": 5358,
      "glasses": 5359,
      "##natural": 5360,
      "degree": 5361,
      "jesus": 5362,
      "smiling": 5363,
      "duty": 5364,
      "chapter": 5365,
      "martin": 5366,
      "cuddle": 5367,
      "utter": 5368,
      "##addict": 5369,
      "surprisingly": 5370,
      "depends": 5371,
      "freezing": 5372,
      "aussie": 5373,
      "december": 5374,
      "smoking": 5375,
      "subscri": 5376,
      "typical": 5377,
      "nephew": 5378,
      "sunburnt": 5379,
      "hollyoaks": 5380,
      "!..": 5381,
      "\"...": 5382,
      "))": 5383,
      "***": 5384,
      "28": 5385,
      "31": 5386,
      "55": 5387,
      "9am": 5388,
      "apr": 5389,
      "aaron": 5390,
      "bh": 5391,
      "bam": 5392,
      "bun": 5393,
      "boom": 5394,
      "bio": 5395,
      "bump": 5396,
      "cart": 5397,
      "cob": 5398,
      "curl": 5399,
      "dick": 5400,
      "dies": 5401,
      "dedic": 5402,
      "eu": 5403,
      "equ": 5404,
      "fyi": 5405,
      "gifts": 5406,
      "hen": 5407,
      "houston": 5408,
      "ie": 5409,
      "jose": 5410,
      "jane": 5411,
      "ker": 5412,
      "keen": 5413,
      "kitt": 5414,
      "kris": 5415,
      "moo": 5416,
      "mas": 5417,
      "ment": 5418,
      "nt": 5419,
      "nu": 5420,
      "nood": 5421,
      "ness": 5422,
      "names": 5423,
      "nooooo": 5424,
      "nuts": 5425,
      "oy": 5426,
      "pd": 5427,
      "pity": 5428,
      "punch": 5429,
      "pier": 5430,
      "rs": 5431,
      "rout": 5432,
      "sow": 5433,
      "sry": 5434,
      "sab": 5435,
      "sens": 5436,
      "tb": 5437,
      "td": 5438,
      "tight": 5439,
      "tast": 5440,
      "tink": 5441,
      "tig": 5442,
      "tune": 5443,
      "uber": 5444,
      "voc": 5445,
      "valley": 5446,
      "wise": 5447,
      "woken": 5448,
      "wicked": 5449,
      "~~": 5450,
      "##kardash": 5451,
      "##lady": 5452,
      "##ih": 5453,
      "##iors": 5454,
      "##cd": 5455,
      "##cra": 5456,
      "##cos": 5457,
      "##city": 5458,
      "##1q": 5459,
      "##rt": 5460,
      "##rin": 5461,
      "##rid": 5462,
      "##reed": 5463,
      "##oi": 5464,
      "##fs": 5465,
      "##food": 5466,
      "##fest": 5467,
      "##hm": 5468,
      "##hot": 5469,
      "##bing": 5470,
      "##bat": 5471,
      "##bon": 5472,
      "##brown": 5473,
      "##bstack": 5474,
      "##ture": 5475,
      "##ye": 5476,
      "##nger": 5477,
      "##wi": 5478,
      "##wal": 5479,
      "##writ": 5480,
      "##wolf": 5481,
      "##uit": 5482,
      "##gb": 5483,
      "##gon": 5484,
      "##gee": 5485,
      "##pan": 5486,
      "##pal": 5487,
      "##vt": 5488,
      "##jac": 5489,
      "##mond": 5490,
      "##mike": 5491,
      "##42": 5492,
      "##_f": 5493,
      "##27": 5494,
      "##inson": 5495,
      "toys": 5496,
      "##oray": 5497,
      "##ata": 5498,
      "##eday": 5499,
      "##store": 5500,
      "##otic": 5501,
      "##eta": 5502,
      "##ences": 5503,
      "##kelly": 5504,
      "stub": 5505,
      "stage": 5506,
      "steel": 5507,
      "staff": 5508,
      "stoked": 5509,
      "beans": 5510,
      "sober": 5511,
      "soph": 5512,
      "##aded": 5513,
      "shad": 5514,
      "##ira": 5515,
      "##ali": 5516,
      "fred": 5517,
      "fried": 5518,
      "##ims": 5519,
      "cand": 5520,
      "cance": 5521,
      "##hern": 5522,
      "twist": 5523,
      "reh": 5524,
      "sup": 5525,
      "##ryan": 5526,
      "comin": 5527,
      "comfy": 5528,
      "comedy": 5529,
      "comfort": 5530,
      "##hah": 5531,
      "nov": 5532,
      "##usk": 5533,
      "##usion": 5534,
      "##ushing": 5535,
      "gots": 5536,
      "##outs": 5537,
      "bri": 5538,
      "##ctor": 5539,
      "awsome": 5540,
      "##rik": 5541,
      "##riage": 5542,
      "twitt": 5543,
      "known": 5544,
      "##allas": 5545,
      "##alltim": 5546,
      "##obe": 5547,
      "bla": 5548,
      "howie": 5549,
      "slee": 5550,
      "##ella": 5551,
      "clip": 5552,
      "clue": 5553,
      "gray": 5554,
      "saved": 5555,
      "thingy": 5556,
      "sept": 5557,
      "swift": 5558,
      "##lover": 5559,
      "bitter": 5560,
      "uns": 5561,
      "##shop": 5562,
      "##ocks": 5563,
      "##ockey": 5564,
      "tweetphoto": 5565,
      "##tsk": 5566,
      "##acy": 5567,
      "thankyou": 5568,
      "##princess": 5569,
      "joel": 5570,
      "smack": 5571,
      "appro": 5572,
      "glorious": 5573,
      "letting": 5574,
      "borrow": 5575,
      "bugs": 5576,
      "surely": 5577,
      "##ossy": 5578,
      "acting": 5579,
      "actual": 5580,
      "yayy": 5581,
      "craz": 5582,
      "realised": 5583,
      "employ": 5584,
      "##bled": 5585,
      "##black": 5586,
      "##iki": 5587,
      "period": 5588,
      "forgive": 5589,
      "##hahaha": 5590,
      "skills": 5591,
      "musical": 5592,
      "trace": 5593,
      "snack": 5594,
      "snip": 5595,
      "crystal": 5596,
      "##nnnn": 5597,
      "supernatural": 5598,
      "prem": 5599,
      "##nold": 5600,
      "30pm": 5601,
      "walked": 5602,
      "trending": 5603,
      "##otten": 5604,
      "boat": 5605,
      "terr": 5606,
      "hmmmm": 5607,
      "attemp": 5608,
      "doug": 5609,
      "cait": 5610,
      "content": 5611,
      "edit": 5612,
      "horror": 5613,
      "films": 5614,
      "cutting": 5615,
      "decision": 5616,
      "curious": 5617,
      "chilling": 5618,
      "##101": 5619,
      "released": 5620,
      "testing": 5621,
      "opening": 5622,
      "burning": 5623,
      "##ebbstack": 5624,
      "avoid": 5625,
      "laura": 5626,
      "human": 5627,
      "humid": 5628,
      "jessic": 5629,
      "salad": 5630,
      "graduate": 5631,
      "george": 5632,
      "giant": 5633,
      "##ledge": 5634,
      "cyrus": 5635,
      "rule": 5636,
      "captain": 5637,
      "transfer": 5638,
      "replied": 5639,
      "sanct": 5640,
      "entry": 5641,
      "ruby": 5642,
      "##iiiiiiii": 5643,
      "holding": 5644,
      "grown": 5645,
      "!!!!!!!!!": 5646,
      "laws": 5647,
      "jerry": 5648,
      "mcdonald": 5649,
      "motor": 5650,
      "mamas": 5651,
      "events": 5652,
      "emma": 5653,
      "impossible": 5654,
      "creative": 5655,
      "matthew": 5656,
      "kisses": 5657,
      "dannywood": 5658,
      "banana": 5659,
      "shoutout": 5660,
      "turning": 5661,
      "animal": 5662,
      "neighbor": 5663,
      "ignore": 5664,
      "mistake": 5665,
      "constantly": 5666,
      "kenny": 5667,
      "named": 5668,
      "semester": 5669,
      "assignment": 5670,
      "assignments": 5671,
      "general": 5672,
      "alyss": 5673,
      "ultim": 5674,
      "mexican": 5675,
      "festival": 5676,
      "beyond": 5677,
      "tweeple": 5678,
      "economy": 5679,
      "photoshop": 5680,
      "shannon": 5681,
      "lmfao": 5682,
      "##knowles": 5683,
      "##bourne": 5684,
      "baseball": 5685,
      "grocery": 5686,
      "peanut": 5687,
      "despite": 5688,
      "solangeknowles": 5689,
      "nick_carter": 5690,
      "##alltimelow": 5691,
      "$$": 5692,
      ".)": 5693,
      ".!": 5694,
      "23": 5695,
      "300": 5696,
      "4am": 5697,
      "70": 5698,
      "=/": 5699,
      "?)": 5700,
      "aa": 5701,
      "aj": 5702,
      "biz": 5703,
      "bbl": 5704,
      "cnt": 5705,
      "doo": 5706,
      "dust": 5707,
      "duck": 5708,
      "dizzy": 5709,
      "dallas": 5710,
      "e3": 5711,
      "eth": 5712,
      "emo": 5713,
      "f1": 5714,
      "gall": 5715,
      "geez": 5716,
      "js": 5717,
      "jst": 5718,
      "kel": 5719,
      "kyle": 5720,
      "lounge": 5721,
      "mn": 5722,
      "mia": 5723,
      "mcc": 5724,
      "nz": 5725,
      "niece": 5726,
      "oo": 5727,
      "ox": 5728,
      "ore": 5729,
      "ping": 5730,
      "pand": 5731,
      "pff": 5732,
      "pump": 5733,
      "rp": 5734,
      "ron": 5735,
      "ris": 5736,
      "rick": 5737,
      "tenn": 5738,
      "una": 5739,
      "vill": 5740,
      "vent": 5741,
      "weak": 5742,
      "wats": 5743,
      "wings": 5744,
      "wasted": 5745,
      "ze": 5746,
      "##ket": 5747,
      "##kiss": 5748,
      "##lam": 5749,
      "##cor": 5750,
      "##cam": 5751,
      "##cent": 5752,
      "##cus": 5753,
      "##call": 5754,
      "##cia": 5755,
      "##ses": 5756,
      "##100": 5757,
      "##right": 5758,
      "##roll": 5759,
      "##roy": 5760,
      "##round": 5761,
      "##ointing": 5762,
      "##fi": 5763,
      "##fab": 5764,
      "##fel": 5765,
      "##town": 5766,
      "##ni": 5767,
      "##nor": 5768,
      "##wd": 5769,
      "##dest": 5770,
      "##dav": 5771,
      "##dave": 5772,
      "##gic": 5773,
      "##xc": 5774,
      "##pn": 5775,
      "##pap": 5776,
      "##vm": 5777,
      "##35": 5778,
      "##jee": 5779,
      "##zs": 5780,
      "##zilla": 5781,
      "##70": 5782,
      "##_o": 5783,
      "##28": 5784,
      "##06": 5785,
      "##inst": 5786,
      "##inea": 5787,
      "thor": 5788,
      "thnx": 5789,
      "toss": 5790,
      "toron": 5791,
      "##ington": 5792,
      "##an_": 5793,
      "##anoid": 5794,
      "theater": 5795,
      "theory": 5796,
      "##onica": 5797,
      "##ayy": 5798,
      "##storm": 5799,
      "##vet": 5800,
      "##isf": 5801,
      "##isy": 5802,
      "##isher": 5803,
      "##eno": 5804,
      "##ened": 5805,
      "##icles": 5806,
      "infect": 5807,
      "fort": 5808,
      "##idy": 5809,
      "mell": 5810,
      "soap": 5811,
      "socks": 5812,
      "society": 5813,
      "##amed": 5814,
      "##ament": 5815,
      "shak": 5816,
      "shops": 5817,
      "shitty": 5818,
      "shaund": 5819,
      "goal": 5820,
      "liver": 5821,
      "liking": 5822,
      "##ura": 5823,
      "##urity": 5824,
      "##iring": 5825,
      "##iron": 5826,
      "##pppp": 5827,
      "##alcon": 5828,
      "##imo": 5829,
      "nothin": 5830,
      "canucks": 5831,
      "cancel": 5832,
      "chips": 5833,
      "refer": 5834,
      "neil": 5835,
      "##entr": 5836,
      "..?": 5837,
      "##hac": 5838,
      "##ilo": 5839,
      "##ilty": 5840,
      "nove": 5841,
      "prot": 5842,
      "prim": 5843,
      "alter": 5844,
      "##ksha": 5845,
      "imm": 5846,
      "broo": 5847,
      "assh": 5848,
      "mission": 5849,
      "backstreet": 5850,
      "##ula": 5851,
      "##oliver": 5852,
      "##igan": 5853,
      "##igirl": 5854,
      "william": 5855,
      "exerc": 5856,
      "nighty": 5857,
      "blind": 5858,
      "hadn": 5859,
      "agent": 5860,
      "##mme": 5861,
      "##ollen": 5862,
      "whenever": 5863,
      "##oyd": 5864,
      "##oytell": 5865,
      "client": 5866,
      "##apr": 5867,
      "drugs": 5868,
      "coke": 5869,
      "phew": 5870,
      "##istry": 5871,
      "monica": 5872,
      "sway": 5873,
      "swed": 5874,
      "makeup": 5875,
      "##ewart": 5876,
      "scri": 5877,
      "tryin": 5878,
      "##odd": 5879,
      "advert": 5880,
      "united": 5881,
      "unlim": 5882,
      "##mac": 5883,
      "someday": 5884,
      "mars": 5885,
      "marriage": 5886,
      "##ggg": 5887,
      "joey": 5888,
      "##eeeeeee": 5889,
      "daw": 5890,
      "probs": 5891,
      "minus": 5892,
      "##moon": 5893,
      "##freak": 5894,
      "luckily": 5895,
      "guessing": 5896,
      "harder": 5897,
      "famous": 5898,
      "emotion": 5899,
      "##anknight": 5900,
      "kidd": 5901,
      "##bling": 5902,
      "##ika": 5903,
      "hole": 5904,
      "ughh": 5905,
      "paranoid": 5906,
      "belong": 5907,
      "##white": 5908,
      "sneez": 5909,
      "haircut": 5910,
      "sites": 5911,
      "hunting": 5912,
      "farm": 5913,
      "classic": 5914,
      "##awa": 5915,
      "useful": 5916,
      "desper": 5917,
      "##lando": 5918,
      "##uuu": 5919,
      "stops": 5920,
      "kev": 5921,
      "##club": 5922,
      "boston": 5923,
      "annivers": 5924,
      "restaur": 5925,
      "blogging": 5926,
      "blogspot": 5927,
      "##kkk": 5928,
      "provid": 5929,
      "contract": 5930,
      "cutie": 5931,
      "##1974": 5932,
      "acad": 5933,
      "##106": 5934,
      "##umpet": 5935,
      "burrit": 5936,
      "grandpa": 5937,
      "invest": 5938,
      "artist": 5939,
      "##medi": 5940,
      "tommor": 5941,
      "juicy": 5942,
      "##carey": 5943,
      "brings": 5944,
      "colour": 5945,
      "joining": 5946,
      "##uffy": 5947,
      "meds": 5948,
      "ps3": 5949,
      "##!!!!!!!!!!!!!!!!": 5950,
      "students": 5951,
      "cupcakes": 5952,
      "jenna": 5953,
      "karma": 5954,
      "sales": 5955,
      "geor": 5956,
      "##rrrrrrrr": 5957,
      "insurance": 5958,
      "ruin": 5959,
      "balls": 5960,
      "quickly": 5961,
      "obama": 5962,
      "##---": 5963,
      "arrive": 5964,
      "pleased": 5965,
      "magazine": 5966,
      "covered": 5967,
      "recording": 5968,
      "##works": 5969,
      "portug": 5970,
      "##llllllll": 5971,
      "errands": 5972,
      "massage": 5973,
      "normally": 5974,
      "panic": 5975,
      "souljab": 5976,
      "bleh": 5977,
      "bowling": 5978,
      "jordanknight": 5979,
      "michelle": 5980,
      "clouds": 5981,
      "delivered": 5982,
      "neighbors": 5983,
      "2morrow": 5984,
      "central": 5985,
      "suggestions": 5986,
      "constant": 5987,
      "tradition": 5988,
      "dutch": 5989,
      "considering": 5990,
      "mexico": 5991,
      "##design": 5992,
      "##hilton": 5993,
      "limited": 5994,
      "collection": 5995,
      "mountain": 5996,
      "character": 5997,
      "community": 5998,
      "electric": 5999,
      "podcast": 6000,
      "motivation": 6001,
      "medicine": 6002,
      "cavs": 6003,
      "quotes": 6004,
      "language": 6005,
      "focus": 6006,
      "funeral": 6007,
      "appointment": 6008,
      "accompl": 6009,
      "mariahcarey": 6010,
      "cinema": 6011,
      "pathetic": 6012,
      "canceled": 6013,
      "sanctu": 6014,
      "toronto": 6015,
      "##oytellem": 6016,
      "unlimited": 6017,
      "anniversary": 6018,
      "souljaboytellem": 6019,
      "05": 6020,
      "08": 6021,
      "29": 6022,
      "5k": 6023,
      "5am": 6024,
      "5th": 6025,
      ":@": 6026,
      "ally": 6027,
      "bah": 6028,
      "brew": 6029,
      "corn": 6030,
      "cries": 6031,
      "dum": 6032,
      "eight": 6033,
      "foo": 6034,
      "fid": 6035,
      "goooo": 6036,
      "hw": 6037,
      "hob": 6038,
      "hating": 6039,
      "ib": 6040,
      "jet": 6041,
      "jos": 6042,
      "jew": 6043,
      "junk": 6044,
      "led": 6045,
      "lac": 6046,
      "lines": 6047,
      "lance": 6048,
      "lisa": 6049,
      "mb": 6050,
      "md": 6051,
      "mos": 6052,
      "munch": 6053,
      "mask": 6054,
      "nun": 6055,
      "naw": 6056,
      "nurs": 6057,
      "national": 6058,
      "oil": 6059,
      "ohhhh": 6060,
      "option": 6061,
      "pt": 6062,
      "pian": 6063,
      "pens": 6064,
      "pitch": 6065,
      "pony": 6066,
      "rq": 6067,
      "rog": 6068,
      "ross": 6069,
      "sr": 6070,
      "sau": 6071,
      "sized": 6072,
      "va": 6073,
      "vod": 6074,
      "wink": 6075,
      "wreck": 6076,
      "wossy": 6077,
      "##kar": 6078,
      "##luck": 6079,
      "##iya": 6080,
      "##cess": 6081,
      "##cord": 6082,
      "##cott": 6083,
      "##corn": 6084,
      "##cullen": 6085,
      "##sn": 6086,
      "##ru": 6087,
      "##ras": 6088,
      "##rose": 6089,
      "##akes": 6090,
      "##ault": 6091,
      "##hu": 6092,
      "##hee": 6093,
      "##him": 6094,
      "##hod": 6095,
      "##bi": 6096,
      "##bra": 6097,
      "##bank": 6098,
      "##bster": 6099,
      "##tg": 6100,
      "##tar": 6101,
      "##ners": 6102,
      "##wil": 6103,
      "##woman": 6104,
      "##uum": 6105,
      "##dee": 6106,
      "##got": 6107,
      "##great": 6108,
      "##geek": 6109,
      "##xd": 6110,
      "##park": 6111,
      "##vl": 6112,
      "##67": 6113,
      "##39": 6114,
      "##ji": 6115,
      "##jp": 6116,
      "##jud": 6117,
      "##md": 6118,
      "##master": 6119,
      "##zen": 6120,
      "##zie": 6121,
      "##45": 6122,
      "##inion": 6123,
      "##erie": 6124,
      "toes": 6125,
      "##oust": 6126,
      "##anch": 6127,
      "##oni": 6128,
      "##eesh": 6129,
      "##itz": 6130,
      "##itions": 6131,
      "##oof": 6132,
      "##arr": 6133,
      "##aries": 6134,
      "##arian": 6135,
      "##oma": 6136,
      "##sty": 6137,
      "##stairs": 6138,
      "##ota": 6139,
      "##otha": 6140,
      "##otton": 6141,
      "italian": 6142,
      "##iser": 6143,
      "##icing": 6144,
      "ing": 6145,
      "##ched": 6146,
      "force": 6147,
      "forum": 6148,
      "forced": 6149,
      "##rel": 6150,
      "##asg": 6151,
      "whit": 6152,
      "##cket": 6153,
      "steal": 6154,
      "begins": 6155,
      "solo": 6156,
      "##amous": 6157,
      "##amore": 6158,
      "shell": 6159,
      "shud": 6160,
      "##uring": 6161,
      "##ales": 6162,
      "##alog": 6163,
      "wel": 6164,
      "frm": 6165,
      "heid": 6166,
      "held": 6167,
      "twurl": 6168,
      "wassup": 6169,
      "chest": 6170,
      "upon": 6171,
      "##happy": 6172,
      "noon": 6173,
      "noes": 6174,
      "##thin": 6175,
      "##thomas": 6176,
      "alp": 6177,
      "plays": 6178,
      "likely": 6179,
      "##abl": 6180,
      "magn": 6181,
      "##inky": 6182,
      "##ctic": 6183,
      "awa": 6184,
      "##ria": 6185,
      "timing": 6186,
      "abby": 6187,
      "##rap": 6188,
      "##raz": 6189,
      "missx": 6190,
      "backup": 6191,
      "knowledge": 6192,
      "##arded": 6193,
      "##olo": 6194,
      "willing": 6195,
      "mock": 6196,
      "##ober": 6197,
      "spec": 6198,
      "blo": 6199,
      "blows": 6200,
      "agreed": 6201,
      "demo": 6202,
      "guilty": 6203,
      "faces": 6204,
      "every1": 6205,
      "greeting": 6206,
      "##apore": 6207,
      "drank": 6208,
      "##ified": 6209,
      "phones": 6210,
      "conv": 6211,
      "##eme": 6212,
      "beta": 6213,
      "uses": 6214,
      "usern": 6215,
      "tomorow": 6216,
      "follows": 6217,
      "##ysh": 6218,
      "nicely": 6219,
      "swollen": 6220,
      "scan": 6221,
      "cares": 6222,
      "adm": 6223,
      "unc": 6224,
      "bedtime": 6225,
      "##shit": 6226,
      "##shirt": 6227,
      "flav": 6228,
      "himself": 6229,
      "hiya": 6230,
      "##beck": 6231,
      "appl": 6232,
      "appt": 6233,
      "letter": 6234,
      "became": 6235,
      "##irsty": 6236,
      "##ivan": 6237,
      "##iviney": 6238,
      "##bron": 6239,
      "##ected": 6240,
      "##ection": 6241,
      "omfg": 6242,
      "crawl": 6243,
      "pretend": 6244,
      "##ended": 6245,
      "strugg": 6246,
      "tells": 6247,
      "daniell": 6248,
      "##oxy": 6249,
      "babygirl": 6250,
      "hooray": 6251,
      "eliz": 6252,
      "##grl": 6253,
      "##green": 6254,
      "drivers": 6255,
      "hunt": 6256,
      "awwwww": 6257,
      "useless": 6258,
      "preview": 6259,
      "resist": 6260,
      "30am": 6261,
      "singer": 6262,
      "singapore": 6263,
      "##ddd": 6264,
      "killers": 6265,
      "sooooooo": 6266,
      "##dev": 6267,
      "steven": 6268,
      "keith": 6269,
      "dreaming": 6270,
      "oprah": 6271,
      "terry": 6272,
      "role": 6273,
      "indo": 6274,
      "robin": 6275,
      "bars": 6276,
      "jamie_": 6277,
      "dogbook": 6278,
      "typing": 6279,
      "##conrad": 6280,
      "johnny": 6281,
      "goood": 6282,
      "grandpar": 6283,
      "colleag": 6284,
      "package": 6285,
      "definately": 6286,
      "darren": 6287,
      "trains": 6288,
      "colin": 6289,
      "faster": 6290,
      "tomfel": 6291,
      "angels": 6292,
      "katy": 6293,
      "blocks": 6294,
      "##coming": 6295,
      "4jb": 6296,
      "profession": 6297,
      "felic": 6298,
      "karen": 6299,
      "corner": 6300,
      "nicol": 6301,
      "salt": 6302,
      "insom": 6303,
      "budget": 6304,
      "regard": 6305,
      "fund": 6306,
      "##paris": 6307,
      "disappointing": 6308,
      "hollywood": 6309,
      "americ": 6310,
      "digg": 6311,
      "potter": 6312,
      "replies": 6313,
      "wolf": 6314,
      "technic": 6315,
      "bags": 6316,
      "##nicole": 6317,
      "mommas": 6318,
      "maths": 6319,
      "mentioned": 6320,
      "empire": 6321,
      "homie": 6322,
      "roomm": 6323,
      "dhughes": 6324,
      "pieces": 6325,
      "bella": 6326,
      "blew": 6327,
      "pigs": 6328,
      "anticip": 6329,
      "##steph": 6330,
      "##isdale": 6331,
      "explain": 6332,
      "snap": 6333,
      "spelling": 6334,
      "crashed": 6335,
      "bkite": 6336,
      "dragon": 6337,
      "journal": 6338,
      "##rosoft": 6339,
      "irish": 6340,
      "queens": 6341,
      "dublin": 6342,
      "hooked": 6343,
      "smiles": 6344,
      "locked": 6345,
      "settings": 6346,
      "dawnrich": 6347,
      "title": 6348,
      "##rupt": 6349,
      "wendy": 6350,
      "challenge": 6351,
      "october": 6352,
      "victoria": 6353,
      "ebay": 6354,
      "female": 6355,
      "obsessed": 6356,
      "members": 6357,
      "brittany": 6358,
      "carolina": 6359,
      "html": 6360,
      "perezhilton": 6361,
      "ankle": 6362,
      "brooklyn": 6363,
      "creepy": 6364,
      "starwarsday": 6365,
      "technology": 6366,
      "destroy": 6367,
      "pillow": 6368,
      "settle": 6369,
      "pounds": 6370,
      "browser": 6371,
      "claire": 6372,
      "dudes": 6373,
      "java": 6374,
      "wireless": 6375,
      "sweating": 6376,
      ">.<": 6377,
      "cereal": 6378,
      "##oenix": 6379,
      "reunion": 6380,
      "snipurl": 6381,
      "mcdonalds": 6382,
      "shaundiviney": 6383,
      "november": 6384,
      "username": 6385,
      "grandparents": 6386,
      "tomfelton": 6387,
      "dhughesy": 6388,
      "dawnrichard": 6389,
      "->": 6390,
      "/?": 6391,
      "38": 6392,
      "400": 6393,
      "75": 6394,
      "8am": 6395,
      "apt": 6396,
      "aching": 6397,
      "bm": 6398,
      "bot": 6399,
      "bust": 6400,
      "boooo": 6401,
      "billy": 6402,
      "berry": 6403,
      "cit": 6404,
      "cre": 6405,
      "crew": 6406,
      "diss": 6407,
      "dates": 6408,
      "duh": 6409,
      "edd": 6410,
      "furn": 6411,
      "ftsk": 6412,
      "g1": 6413,
      "ginger": 6414,
      "hp": 6415,
      "hq": 6416,
      "hind": 6417,
      "heal": 6418,
      "hockey": 6419,
      "jail": 6420,
      "ki": 6421,
      "kp": 6422,
      "kor": 6423,
      "kore": 6424,
      "lit": 6425,
      "ml": 6426,
      "mut": 6427,
      "mill": 6428,
      "mite": 6429,
      "meeee": 6430,
      "nail": 6431,
      "naked": 6432,
      "occ": 6433,
      "pant": 6434,
      "pork": 6435,
      "punk": 6436,
      "pete": 6437,
      "rd": 6438,
      "rou": 6439,
      "rat": 6440,
      "ric": 6441,
      "rum": 6442,
      "rio": 6443,
      "rave": 6444,
      "russ": 6445,
      "rabb": 6446,
      "rarely": 6447,
      "sight": 6448,
      "tu": 6449,
      "tx": 6450,
      "tes": 6451,
      "tem": 6452,
      "tub": 6453,
      "tape": 6454,
      "tempt": 6455,
      "vel": 6456,
      "xp": 6457,
      "yi": 6458,
      "yee": 6459,
      "yipp": 6460,
      "zac": 6461,
      "##ku": 6462,
      "##kas": 6463,
      "##kies": 6464,
      "##ep": 6465,
      "##lest": 6466,
      "##list": 6467,
      "##lace": 6468,
      "##lets": 6469,
      "##lott": 6470,
      "##luv": 6471,
      "##cal": 6472,
      "##read": 6473,
      "##o_": 6474,
      "##oons": 6475,
      "##hat": 6476,
      "##holl": 6477,
      "##hem": 6478,
      "##bill": 6479,
      "##bud": 6480,
      "##beaut": 6481,
      "##tn": 6482,
      "##tle": 6483,
      "##yk": 6484,
      "##nk": 6485,
      "##name": 6486,
      "##won": 6487,
      "##west": 6488,
      "##uy": 6489,
      "##uel": 6490,
      "##dh": 6491,
      "##dom": 6492,
      "##dia": 6493,
      "##g3": 6494,
      "##gre": 6495,
      "##xs": 6496,
      "##pes": 6497,
      "##put": 6498,
      "##pix": 6499,
      "##power": 6500,
      "##vp": 6501,
      "##vie": 6502,
      "##54": 6503,
      "##js": 6504,
      "##junk": 6505,
      "##j106": 6506,
      "##mur": 6507,
      "##mother": 6508,
      "##mate": 6509,
      "##mine": 6510,
      "##mation": 6511,
      "##mary": 6512,
      "##made": 6513,
      "##zp": 6514,
      "##zm": 6515,
      "##_xx": 6516,
      "##_me": 6517,
      "##81": 6518,
      "##inis": 6519,
      "##inating": 6520,
      "thi": 6521,
      "thumb": 6522,
      "##orting": 6523,
      "##anks": 6524,
      "thee": 6525,
      "##iture": 6526,
      "##arah": 6527,
      "##oms": 6528,
      "##stor": 6529,
      "hai": 6530,
      "younger": 6531,
      "##vell": 6532,
      "itself": 6533,
      "##eapp": 6534,
      "##isco": 6535,
      "##eting": 6536,
      "##ether": 6537,
      "##etty": 6538,
      "##enc": 6539,
      "##enson": 6540,
      "##iculous": 6541,
      "##iceless": 6542,
      "inn": 6543,
      "infl": 6544,
      "invent": 6545,
      "...)": 6546,
      "...\"": 6547,
      "##chu": 6548,
      "##chris": 6549,
      "##lew": 6550,
      "whore": 6551,
      "stre": 6552,
      "stood": 6553,
      "stole": 6554,
      "##iders": 6555,
      "megan": 6556,
      "belly": 6557,
      "beats": 6558,
      "bears": 6559,
      "sof": 6560,
      "sod": 6561,
      "loll": 6562,
      "lover": 6563,
      "lovin": 6564,
      "lobster": 6565,
      "##ams": 6566,
      "##amor": 6567,
      "##amar": 6568,
      "ship": 6569,
      "shade": 6570,
      "lily": 6571,
      "##sem": 6572,
      "##irou": 6573,
      "##ppin": 6574,
      "frig": 6575,
      "fries": 6576,
      "frost": 6577,
      "anton": 6578,
      "anime": 6579,
      "chin": 6580,
      "chant": 6581,
      "chip": 6582,
      "rebe": 6583,
      "recept": 6584,
      "negle": 6585,
      "reall": 6586,
      "realy": 6587,
      "..!": 6588,
      "##ilar": 6589,
      "##ileen": 6590,
      "##aint": 6591,
      "pride": 6592,
      "prior": 6593,
      "alice": 6594,
      "plants": 6595,
      "amount": 6596,
      "##abel": 6597,
      "##ability": 6598,
      "tool": 6599,
      "image": 6600,
      "immedi": 6601,
      "brent": 6602,
      "bridge": 6603,
      "##rig": 6604,
      "missin": 6605,
      "##osa": 6606,
      "##osis": 6607,
      "##eline": 6608,
      "lolz": 6609,
      "##olic": 6610,
      "moder": 6611,
      "thinkin": 6612,
      "##eeds": 6613,
      "spa": 6614,
      "spain": 6615,
      "slam": 6616,
      "slice": 6617,
      "sleee": 6618,
      "##ello": 6619,
      "function": 6620,
      "guest": 6621,
      "twitterverse": 6622,
      "taco": 6623,
      "php": 6624,
      "trade": 6625,
      "trees": 6626,
      "enth": 6627,
      "##eman": 6628,
      "wouldnt": 6629,
      "betty": 6630,
      "##itted": 6631,
      "pocket": 6632,
      "wonders": 6633,
      "##agr": 6634,
      "manchester": 6635,
      "seats": 6636,
      "##azing": 6637,
      "swing": 6638,
      "quar": 6639,
      "scene": 6640,
      "##izes": 6641,
      "leavin": 6642,
      "lect": 6643,
      "adore": 6644,
      "adult": 6645,
      "univers": 6646,
      "##phot": 6647,
      "cramps": 6648,
      "peoples": 6649,
      "longest": 6650,
      "marry": 6651,
      "marley": 6652,
      "margar": 6653,
      "##eye": 6654,
      "flood": 6655,
      "diam": 6656,
      "sucky": 6657,
      "babes": 6658,
      "partner": 6659,
      "coolest": 6660,
      "active": 6661,
      "loose": 6662,
      "##free": 6663,
      "craig": 6664,
      "compared": 6665,
      "lying": 6666,
      "warning": 6667,
      "perth": 6668,
      "##aki": 6669,
      "##aker": 6670,
      "paramore": 6671,
      "recipe": 6672,
      "belg": 6673,
      "skip": 6674,
      "clever": 6675,
      "travis": 6676,
      "##encej106": 6677,
      "##ierd": 6678,
      "##twitter": 6679,
      "meaning": 6680,
      "rockin": 6681,
      "prepar": 6682,
      "kills": 6683,
      "delete": 6684,
      "charge": 6685,
      "instant": 6686,
      "hangin": 6687,
      "##nessee": 6688,
      "opinion": 6689,
      "failing": 6690,
      "winning": 6691,
      "international": 6692,
      "##roid": 6693,
      "terribly": 6694,
      "lucy": 6695,
      "scrubs": 6696,
      "completed": 6697,
      "##iction": 6698,
      "concentr": 6699,
      "tyler": 6700,
      "computers": 6701,
      "chilly": 6702,
      "promised": 6703,
      "bbc": 6704,
      "goose": 6705,
      "milksha": 6706,
      "passes": 6707,
      "texts": 6708,
      "security": 6709,
      "melt": 6710,
      "melbourne": 6711,
      "confusing": 6712,
      "tomato": 6713,
      "touring": 6714,
      "##check": 6715,
      "jeans": 6716,
      "sentence": 6717,
      "nature": 6718,
      "changes": 6719,
      "humor": 6720,
      "cupcake": 6721,
      "ahhhhh": 6722,
      "basket": 6723,
      "bands": 6724,
      "dye": 6725,
      "diego": 6726,
      "cyber": 6727,
      "numbers": 6728,
      "seniors": 6729,
      "inform": 6730,
      "pupp": 6731,
      "register": 6732,
      "celebrity": 6733,
      "effort": 6734,
      "crossing": 6735,
      "purse": 6736,
      "viewing": 6737,
      "experien": 6738,
      "potential": 6739,
      "boxes": 6740,
      "##babe": 6741,
      "audio": 6742,
      "audition": 6743,
      "vancou": 6744,
      "hahahahaha": 6745,
      "kimber": 6746,
      "britain": 6747,
      "!!!!!!!!": 6748,
      "portfol": 6749,
      "stressful": 6750,
      "homes": 6751,
      "penny": 6752,
      "progress": 6753,
      "vids": 6754,
      "tennessee": 6755,
      "data": 6756,
      "owe": 6757,
      "torn": 6758,
      "talented": 6759,
      "include": 6760,
      "anti": 6761,
      "models": 6762,
      "created": 6763,
      "##jonathan": 6764,
      "james_": 6765,
      "riding": 6766,
      "tmrw": 6767,
      "animals": 6768,
      "tweeter": 6769,
      "filling": 6770,
      "memory": 6771,
      "accidentally": 6772,
      "aye": 6773,
      "delivery": 6774,
      "installed": 6775,
      "baked": 6776,
      "silver": 6777,
      "silence": 6778,
      "centre": 6779,
      "contacts": 6780,
      "pressure": 6781,
      "wknd": 6782,
      "chemistry": 6783,
      ".............": 6784,
      "drawing": 6785,
      "characters": 6786,
      "strawberry": 6787,
      "strawberries": 6788,
      "incredible": 6789,
      "kirk": 6790,
      "symp": 6791,
      "dreading": 6792,
      "beginning": 6793,
      "recognize": 6794,
      "escape": 6795,
      "distracted": 6796,
      "feature": 6797,
      "kryst": 6798,
      "pouring": 6799,
      "items": 6800,
      "involved": 6801,
      "inspiration": 6802,
      "japanese": 6803,
      "kwk9": 6804,
      "sisters": 6805,
      "safari": 6806,
      "survive": 6807,
      "terminator": 6808,
      "##party": 6809,
      "april": 6810,
      "tastes": 6811,
      "##kardashian": 6812,
      "terrencej106": 6813,
      "village": 6814,
      "infection": 6815,
      "restaurant": 6816,
      "##cessary": 6817,
      "furniture": 6818,
      "friggin": 6819,
      "neglect": 6820,
      "vancouver": 6821,
      "portfolio": 6822,
      ")...": 6823,
      ".,": 6824,
      "3am": 6825,
      "6am": 6826,
      "7am": 6827,
      "8th": 6828,
      "800": 6829,
      "95": 6830,
      "</": 6831,
      "=]": 6832,
      "ai": 6833,
      "ack": 6834,
      "aun": 6835,
      "apl": 6836,
      "aqu": 6837,
      "bin": 6838,
      "bite": 6839,
      "bass": 6840,
      "brend": 6841,
      "ct": 6842,
      "cord": 6843,
      "db": 6844,
      "dv": 6845,
      "dre": 6846,
      "drow": 6847,
      "dip": 6848,
      "dash": 6849,
      "dare": 6850,
      "dump": 6851,
      "eee": 6852,
      "ets": 6853,
      "fe": 6854,
      "ft": 6855,
      "fir": 6856,
      "fif": 6857,
      "file": 6858,
      "fudge": 6859,
      "gt": 6860,
      "gal": 6861,
      "gum": 6862,
      "gem": 6863,
      "gaga": 6864,
      "hide": 6865,
      "hated": 6866,
      "hors": 6867,
      "iz": 6868,
      "ian": 6869,
      "ire": 6870,
      "irr": 6871,
      "jc": 6872,
      "jill": 6873,
      "jod": 6874,
      "juss": 6875,
      "jury": 6876,
      "kk": 6877,
      "kas": 6878,
      "kam": 6879,
      "kenn": 6880,
      "lc": 6881,
      "lan": 6882,
      "lun": 6883,
      "lah": 6884,
      "lamb": 6885,
      "mim": 6886,
      "mang": 6887,
      "mud": 6888,
      "mister": 6889,
      "nh": 6890,
      "nas": 6891,
      "nine": 6892,
      "nash": 6893,
      "nurse": 6894,
      "od": 6895,
      "ooooo": 6896,
      "pas": 6897,
      "pun": 6898,
      "pil": 6899,
      "pays": 6900,
      "pud": 6901,
      "pac": 6902,
      "pills": 6903,
      "ri": 6904,
      "rc": 6905,
      "rr": 6906,
      "ras": 6907,
      "rate": 6908,
      "rise": 6909,
      "sq": 6910,
      "sack": 6911,
      "sant": 6912,
      "sink": 6913,
      "sally": 6914,
      "sang": 6915,
      "sass": 6916,
      "tess": 6917,
      "uhh": 6918,
      "vo": 6919,
      "vog": 6920,
      "vip": 6921,
      "wid": 6922,
      "wack": 6923,
      "wud": 6924,
      "xk": 6925,
      "yas": 6926,
      "##lou": 6927,
      "##look": 6928,
      "##iee": 6929,
      "##ios": 6930,
      "##cie": 6931,
      "##cul": 6932,
      "##cup": 6933,
      "##camp": 6934,
      "##s_": 6935,
      "##spr": 6936,
      "##rain": 6937,
      "##rass": 6938,
      "##ream": 6939,
      "##rica": 6940,
      "##o3": 6941,
      "##official": 6942,
      "##ael": 6943,
      "##fon": 6944,
      "##fic": 6945,
      "##fiss": 6946,
      "##fall": 6947,
      "##fah": 6948,
      "##full": 6949,
      "##hill": 6950,
      "##hours": 6951,
      "##bir": 6952,
      "##big": 6953,
      "##bob": 6954,
      "##bies": 6955,
      "##bath": 6956,
      "##bull": 6957,
      "##brell": 6958,
      "##nl": 6959,
      "##nb": 6960,
      "##nm": 6961,
      "##nate": 6962,
      "##wing": 6963,
      "##wan": 6964,
      "##wit": 6965,
      "##del": 6966,
      "##gun": 6967,
      "##gate": 6968,
      "##xter": 6969,
      "##xox": 6970,
      "##patt": 6971,
      "##var": 6972,
      "##vest": 6973,
      "##517": 6974,
      "##3r": 6975,
      "##ju": 6976,
      "##james": 6977,
      "##jirou": 6978,
      "##qp": 6979,
      "##mr": 6980,
      "##mat": 6981,
      "##met": 6982,
      "##mie": 6983,
      "##mil": 6984,
      "##mates": 6985,
      "##maine": 6986,
      "##41": 6987,
      "##49": 6988,
      "##_in": 6989,
      "##_xo": 6990,
      "##210": 6991,
      "##80": 6992,
      "threw": 6993,
      "toooo": 6994,
      "##orp": 6995,
      "##atives": 6996,
      "thed": 6997,
      "##lla": 6998,
      "##lley": 6999,
      "##aya": 7000,
      "##itis": 7001,
      "##nds": 7002,
      "##arin": 7003,
      "##arys": 7004,
      "##stick": 7005,
      "hamm": 7006,
      "italy": 7007,
      "##etry": 7008,
      "inj": 7009,
      "##ghhh": 7010,
      "##chi": 7011,
      "##chin": 7012,
      "##chell": 7013,
      "##change": 7014,
      "##lection": 7015,
      "whee": 7016,
      "whoop": 7017,
      "wheel": 7018,
      "whether": 7019,
      "##kel": 7020,
      "stol": 7021,
      "stacey": 7022,
      "##iden": 7023,
      "bebo": 7024,
      "##lym": 7025,
      "loser": 7026,
      "##adee": 7027,
      "##amon": 7028,
      "shr": 7029,
      "shine": 7030,
      "shatter": 7031,
      "gover": 7032,
      "##lda": 7033,
      "##sec": 7034,
      "##urb": 7035,
      "dayy": 7036,
      "##unn": 7037,
      "##ppers": 7038,
      "##alis": 7039,
      "fry": 7040,
      "fran": 7041,
      "frog": 7042,
      "fruit": 7043,
      "anne": 7044,
      "withdra": 7045,
      "twins": 7046,
      "chili": 7047,
      "chores": 7048,
      "repres": 7049,
      "reinst": 7050,
      "supr": 7051,
      "upcoming": 7052,
      "comb": 7053,
      "allah": 7054,
      "##esss": 7055,
      "no1": 7056,
      "##thon": 7057,
      "prices": 7058,
      "priceless": 7059,
      "##ante": 7060,
      "plain": 7061,
      "##tttt": 7062,
      "morris": 7063,
      "##abeth": 7064,
      "happier": 7065,
      "happiest": 7066,
      "imac": 7067,
      "todays": 7068,
      "brun": 7069,
      "brunch": 7070,
      "brandy": 7071,
      "awk": 7072,
      "aband": 7073,
      "twitting": 7074,
      "##andra": 7075,
      "missy": 7076,
      "##uma": 7077,
      "somewhat": 7078,
      "##ffe": 7079,
      "##ulin": 7080,
      "##uled": 7081,
      "##ardo": 7082,
      "##inez": 7083,
      "spock": 7084,
      "sports": 7085,
      "blues": 7086,
      "hopeless": 7087,
      "dean": 7088,
      "defe": 7089,
      "ohio": 7090,
      "clients": 7091,
      "moments": 7092,
      "arent": 7093,
      "groo": 7094,
      "grabb": 7095,
      "##aph": 7096,
      "tags": 7097,
      "coc": 7098,
      "convin": 7099,
      "convo": 7100,
      "poker": 7101,
      "##iph": 7102,
      "##iped": 7103,
      "##ags": 7104,
      "##agn": 7105,
      "##ager": 7106,
      "monster": 7107,
      "##nyc": 7108,
      "overall": 7109,
      "shouldnt": 7110,
      "whoever": 7111,
      "##ewl": 7112,
      "quin": 7113,
      "scen": 7114,
      "carr": 7115,
      "bits": 7116,
      "bitches": 7117,
      "leaves": 7118,
      "lemme": 7119,
      "adri": 7120,
      "sayin": 7121,
      "unable": 7122,
      "unhappy": 7123,
      "##phones": 7124,
      "bedroom": 7125,
      "##anson": 7126,
      "marks": 7127,
      "##aced": 7128,
      "jokes": 7129,
      "sms": 7130,
      "smiley": 7131,
      "glasg": 7132,
      "sooner": 7133,
      "wrk": 7134,
      "##cious": 7135,
      "##atherine": 7136,
      "mint": 7137,
      "mines": 7138,
      "##tail": 7139,
      "##sons": 7140,
      "beast": 7141,
      "loop": 7142,
      "##spark": 7143,
      "##quet": 7144,
      "realise": 7145,
      "disg": 7146,
      "helpful": 7147,
      "famili": 7148,
      "##zzi": 7149,
      "parent": 7150,
      "forgotten": 7151,
      "recital": 7152,
      "stuffed": 7153,
      "##who": 7154,
      "drives": 7155,
      "##tones": 7156,
      "##iewebbstack": 7157,
      "##tweet": 7158,
      "sundays": 7159,
      "##aaaaaa": 7160,
      "##awd": 7161,
      "photogra": 7162,
      "pregn": 7163,
      "result": 7164,
      "coldplay": 7165,
      "tease": 7166,
      "foods": 7167,
      "default": 7168,
      "##etti": 7169,
      "##ettes": 7170,
      "charity": 7171,
      "charged": 7172,
      "hahahah": 7173,
      "retarded": 7174,
      "luke": 7175,
      "index": 7176,
      "complain": 7177,
      "##hhhhhh": 7178,
      "educ": 7179,
      "barry": 7180,
      "filming": 7181,
      "cooked": 7182,
      "chilled": 7183,
      "##connect": 7184,
      "deadline": 7185,
      "bb517": 7186,
      "relation": 7187,
      "##glass": 7188,
      "texted": 7189,
      "presents": 7190,
      "##marsh": 7191,
      "##marisa": 7192,
      "careful": 7193,
      "replying": 7194,
      "icecream": 7195,
      "microsoft": 7196,
      "bringing": 7197,
      "dragged": 7198,
      "darling": 7199,
      "gregg": 7200,
      "iamjonathan": 7201,
      "##joe": 7202,
      "2008": 7203,
      "honor": 7204,
      "patrick": 7205,
      "##monkey": 7206,
      "accounts": 7207,
      "infamous": 7208,
      "buddies": 7209,
      "cheesecake": 7210,
      "respons": 7211,
      "##kyo": 7212,
      "wordpress": 7213,
      "sharon": 7214,
      "transport": 7215,
      "ryans": 7216,
      "touched": 7217,
      "kicking": 7218,
      "squir": 7219,
      "arrival": 7220,
      "appreciated": 7221,
      "##eeeeeeeeeeeeeeee": 7222,
      "18th": 7223,
      "bahaha": 7224,
      "##paul": 7225,
      "mommys": 7226,
      "muse": 7227,
      "xoxox": 7228,
      "engine": 7229,
      "jerk": 7230,
      "jersey": 7231,
      "umbrell": 7232,
      "traveling": 7233,
      "roads": 7234,
      "roof": 7235,
      "skype": 7236,
      "location": 7237,
      "pancakes": 7238,
      "##2001": 7239,
      "connected": 7240,
      "ellen": 7241,
      "haters": 7242,
      "ringtones": 7243,
      "shaun": 7244,
      "shawn": 7245,
      "smells": 7246,
      ":-/": 7247,
      "filled": 7248,
      "hmph": 7249,
      "kristen": 7250,
      "tanning": 7251,
      "target": 7252,
      "##smith": 7253,
      "##harris": 7254,
      "freering": 7255,
      "heels": 7256,
      "michigan": 7257,
      "topics": 7258,
      "heroes": 7259,
      "bangs": 7260,
      "fold": 7261,
      "##((((": 7262,
      "##words": 7263,
      "feedback": 7264,
      "palm": 7265,
      "screaming": 7266,
      "rosie": 7267,
      "bradiewebbstack": 7268,
      "cruise": 7269,
      "castle": 7270,
      "judge": 7271,
      "renew": 7272,
      "strip": 7273,
      "bruce": 7274,
      "murder": 7275,
      "mountains": 7276,
      "wifi": 7277,
      "thomasfiss": 7278,
      "unfollowed": 7279,
      "muffin": 7280,
      "muffins": 7281,
      "pamper": 7282,
      "courtney": 7283,
      "dishes": 7284,
      "spinning": 7285,
      "##????????????????": 7286,
      "incredibly": 7287,
      "girly": 7288,
      "zombie": 7289,
      "awesomeness": 7290,
      "cameron": 7291,
      "replacement": 7292,
      "virgin": 7293,
      "melissa": 7294,
      "entertaining": 7295,
      "lizzie": 7296,
      "limeice": 7297,
      "upgrade": 7298,
      "bastard": 7299,
      "printed": 7300,
      "ikea": 7301,
      "removed": 7302,
      "stephenfry": 7303,
      "customer": 7304,
      "material": 7305,
      "chelsea": 7306,
      "commercial": 7307,
      "virtual": 7308,
      "shocked": 7309,
      "anxious": 7310,
      "spirit": 7311,
      "application": 7312,
      "kitties": 7313,
      "noodles": 7314,
      "##writer": 7315,
      "twisted": 7316,
      "howie_d": 7317,
      "september": 7318,
      "ultimate": 7319,
      "gallery": 7320,
      "tennis": 7321,
      "liverpool": 7322,
      "asshole": 7323,
      "script": 7324,
      "emotional": 7325,
      "burrito": 7326,
      "missxmarisa": 7327,
      "colleagues": 7328,
      "insomnia": 7329,
      "americans": 7330,
      "roommate": 7331,
      "korea": 7332,
      "##lotte": 7333,
      "reception": 7334,
      "diamond": 7335,
      "stolen": 7336,
      "reinstall": 7337,
      "convinced": 7338,
      "glasgow": 7339,
      "pregnant": 7340,
      "iamjonathancook": 7341,
      "freeringring": 7342,
      "!.": 7343,
      "\"?": 7344,
      "4v": 7345,
      "5pm": 7346,
      "64": 7347,
      "7th": 7348,
      "<--": 7349,
      "aer": 7350,
      "aub": 7351,
      "aaaaa": 7352,
      "aaaa": 7353,
      "bre": 7354,
      "bid": 7355,
      "bone": 7356,
      "bry": 7357,
      "buck": 7358,
      "boun": 7359,
      "cad": 7360,
      "cage": 7361,
      "cinn": 7362,
      "df": 7363,
      "ding": 7364,
      "dor": 7365,
      "dill": 7366,
      "ewww": 7367,
      "fone": 7368,
      "gg": 7369,
      "g4": 7370,
      "gil": 7371,
      "gary": 7372,
      "gnite": 7373,
      "hed": 7374,
      "hic": 7375,
      "hid": 7376,
      "hog": 7377,
      "hiding": 7378,
      "ia": 7379,
      "ick": 7380,
      "izz": 7381,
      "iced": 7382,
      "jar": 7383,
      "jaz": 7384,
      "kin": 7385,
      "kra": 7386,
      "lal": 7387,
      "loooo": 7388,
      "lew": 7389,
      "mf": 7390,
      "mz": 7391,
      "m8": 7392,
      "mango": 7393,
      "nc": 7394,
      "nad": 7395,
      "nich": 7396,
      "nint": 7397,
      "nana": 7398,
      "napp": 7399,
      "nugg": 7400,
      "nhi": 7401,
      "oj": 7402,
      "pb": 7403,
      "pw": 7404,
      "pg": 7405,
      "pp": 7406,
      "ped": 7407,
      "pir": 7408,
      "pem": 7409,
      "pup": 7410,
      "pets": 7411,
      "peas": 7412,
      "pedic": 7413,
      "rly": 7414,
      "rome": 7415,
      "rant": 7416,
      "rang": 7417,
      "rod": 7418,
      "ripped": 7419,
      "sv": 7420,
      "sj": 7421,
      "sed": 7422,
      "sic": 7423,
      "sasha": 7424,
      "tc": 7425,
      "tay": 7426,
      "tas": 7427,
      "tiss": 7428,
      "task": 7429,
      "ub": 7430,
      "ugg": 7431,
      "vine": 7432,
      "vamp": 7433,
      "wi": 7434,
      "wand": 7435,
      "wook": 7436,
      "wooo": 7437,
      "wik": 7438,
      "wana": 7439,
      "wrist": 7440,
      "yey": 7441,
      "yuk": 7442,
      "yucky": 7443,
      "##kill": 7444,
      "##kim": 7445,
      "##lt": 7446,
      "##lea": 7447,
      "##lib": 7448,
      "##lines": 7449,
      "##iott": 7450,
      "##cee": 7451,
      "##coo": 7452,
      "##cil": 7453,
      "##coll": 7454,
      "##cool": 7455,
      "##cass": 7456,
      "##cla": 7457,
      "##sat": 7458,
      "##sed": 7459,
      "##rated": 7460,
      "##ridge": 7461,
      "##ody": 7462,
      "##fter": 7463,
      "##fair": 7464,
      "##hes": 7465,
      "##hel": 7466,
      "##bk": 7467,
      "##biz": 7468,
      "##bomb": 7469,
      "##tastic": 7470,
      "##yo": 7471,
      "##wm": 7472,
      "##wee": 7473,
      "##was": 7474,
      "##wid": 7475,
      "##dad": 7476,
      "##die": 7477,
      "##dday": 7478,
      "##dess": 7479,
      "##date": 7480,
      "##gig": 7481,
      "##xa": 7482,
      "##pot": 7483,
      "##pea": 7484,
      "##pir": 7485,
      "##pink": 7486,
      "##pri": 7487,
      "##pting": 7488,
      "##point": 7489,
      "##v3": 7490,
      "##vity": 7491,
      "##62": 7492,
      "##360": 7493,
      "##zo": 7494,
      "##zon": 7495,
      "##96": 7496,
      "##_h": 7497,
      "##_st": 7498,
      "##_the": 7499,
      "##2k": 7500,
      "##214": 7501,
      "##0o": 7502,
      "##0n1": 7503,
      "##iner": 7504,
      "##inee": 7505,
      "tokyo": 7506,
      "##inge": 7507,
      "##anche": 7508,
      "##ature": 7509,
      "##oning": 7510,
      "##onic": 7511,
      "##once": 7512,
      "##eezy": 7513,
      "##ooms": 7514,
      "##stood": 7515,
      "##stell": 7516,
      "hawa": 7517,
      "youu": 7518,
      "youth": 7519,
      "##ealy": 7520,
      "##isn": 7521,
      "##ency": 7522,
      "andre": 7523,
      "##icated": 7524,
      "##icular": 7525,
      "intr": 7526,
      "onion": 7527,
      "##cho": 7528,
      "##chan": 7529,
      "##chem": 7530,
      "##chase": 7531,
      "##rem": 7532,
      "wher": 7533,
      "whil": 7534,
      "whist": 7535,
      "stun": 7536,
      "styl": 7537,
      "##idel": 7538,
      "meat": 7539,
      "meow": 7540,
      "member": 7541,
      "sos": 7542,
      "lovato": 7543,
      "##adas": 7544,
      "##adget": 7545,
      "##amber": 7546,
      "shared": 7547,
      "shuff": 7548,
      "shape": 7549,
      "shifts": 7550,
      "##iro": 7551,
      "frick": 7552,
      "freed": 7553,
      "##imi": 7554,
      "doh": 7555,
      "dod": 7556,
      "twi": 7557,
      "twin": 7558,
      "chal": 7559,
      "chase": 7560,
      "rey": 7561,
      "reck": 7562,
      "reject": 7563,
      "suz": 7564,
      "outs": 7565,
      "reader": 7566,
      "##ilee": 7567,
      "nola": 7568,
      "##thes": 7569,
      "prison": 7570,
      "##antom": 7571,
      "alm": 7572,
      "alan": 7573,
      "amusing": 7574,
      "morgan": 7575,
      "##asting": 7576,
      "##abs": 7577,
      "##abear": 7578,
      "##abelle": 7579,
      "mah": 7580,
      "male": 7581,
      "brb": 7582,
      "brid": 7583,
      "bros": 7584,
      "bride": 7585,
      "sees": 7586,
      "seemed": 7587,
      "##rix": 7588,
      "##ando": 7589,
      "miss_": 7590,
      "##osen": 7591,
      "##elin": 7592,
      "##oles": 7593,
      "##olar": 7594,
      "##ership": 7595,
      "##ige": 7596,
      "moi": 7597,
      "molly": 7598,
      "##gend": 7599,
      "exchange": 7600,
      "##obile": 7601,
      "nightmar": 7602,
      "spong": 7603,
      "blink": 7604,
      "slack": 7605,
      "slap": 7606,
      "slower": 7607,
      "##morris": 7608,
      "##ellen": 7609,
      "dew": 7610,
      "decl": 7611,
      "ohmy": 7612,
      "wah": 7613,
      "waves": 7614,
      "##ourt": 7615,
      "guinea": 7616,
      "clap": 7617,
      "twitterers": 7618,
      "twitterberry": 7619,
      "orlando": 7620,
      "##eared": 7621,
      "grrrrr": 7622,
      "granny": 7623,
      "saus": 7624,
      "sorta": 7625,
      "saddest": 7626,
      "tail": 7627,
      "tacos": 7628,
      "coco": 7629,
      "phill": 7630,
      "trash": 7631,
      "finan": 7632,
      "##ittle": 7633,
      "yeaa": 7634,
      "waited": 7635,
      "friendster": 7636,
      "overcast": 7637,
      "manage": 7638,
      "management": 7639,
      "sean": 7640,
      "seven": 7641,
      "separ": 7642,
      "shoulder": 7643,
      "##iac": 7644,
      "##iao": 7645,
      "pepper": 7646,
      "carn": 7647,
      "weekly": 7648,
      "leon": 7649,
      "leigh": 7650,
      "lebron": 7651,
      "##phic": 7652,
      "crashing": 7653,
      "##max": 7654,
      "##ples": 7655,
      "##place": 7656,
      "downstairs": 7657,
      "##aching": 7658,
      "tweetup": 7659,
      "mari": 7660,
      "##ggage": 7661,
      "##perry": 7662,
      "flower": 7663,
      "##pro": 7664,
      "##produ": 7665,
      "##cca": 7666,
      "##beat": 7667,
      "##belly": 7668,
      "apples": 7669,
      "littlefletcher": 7670,
      "lappy": 7671,
      "yearbook": 7672,
      "particular": 7673,
      "built": 7674,
      "##pton": 7675,
      "##moore": 7676,
      "##iana": 7677,
      "##fred": 7678,
      "##quin": 7679,
      "craw": 7680,
      "##nerd": 7681,
      "##mann": 7682,
      "display": 7683,
      "excite": 7684,
      "damnit": 7685,
      "mush": 7686,
      "##anky": 7687,
      "lynn": 7688,
      "listenin": 7689,
      "##blond": 7690,
      "kinds": 7691,
      "##iko": 7692,
      "remote": 7693,
      "reminis": 7694,
      "ends": 7695,
      "recent": 7696,
      "stuffs": 7697,
      "coup": 7698,
      "belive": 7699,
      "skate": 7700,
      "mighty": 7701,
      "chances": 7702,
      "cryin": 7703,
      "##coff": 7704,
      "eaten": 7705,
      "desig": 7706,
      "satisf": 7707,
      "repair": 7708,
      "wales": 7709,
      "##meg": 7710,
      "keza": 7711,
      "surf": 7712,
      "surround": 7713,
      "##ina_": 7714,
      "retire": 7715,
      "assume": 7716,
      "lucas": 7717,
      "luggage": 7718,
      "indust": 7719,
      "indie": 7720,
      "india": 7721,
      "indiv": 7722,
      "highly": 7723,
      "##aylee": 7724,
      "attics": 7725,
      "attract": 7726,
      "##onte": 7727,
      "robbie": 7728,
      "##unky": 7729,
      "prove": 7730,
      "cale": 7731,
      "edin": 7732,
      "edge": 7733,
      "erm": 7734,
      "personally": 7735,
      "##yyyyyy": 7736,
      "cutest": 7737,
      "windy": 7738,
      "decent": 7739,
      "curly": 7740,
      "metro": 7741,
      "calm": 7742,
      "similar": 7743,
      "related": 7744,
      "gooood": 7745,
      "tests": 7746,
      "shorts": 7747,
      "shortly": 7748,
      "seafood": 7749,
      "##iverse": 7750,
      "xxxxx": 7751,
      "xxxxxxx": 7752,
      "##ronic": 7753,
      "grandmother": 7754,
      "67hac": 7755,
      "micha": 7756,
      "##carr": 7757,
      "harley": 7758,
      "##uffin": 7759,
      "##gold": 7760,
      "##_benson": 7761,
      "angie": 7762,
      "##burg": 7763,
      "##burgh": 7764,
      "papers": 7765,
      "loaded": 7766,
      "##track": 7767,
      "##theart": 7768,
      "##thegreat": 7769,
      "shoe": 7770,
      "honour": 7771,
      "1000": 7772,
      "genius": 7773,
      "jessica": 7774,
      "patron": 7775,
      "##monday": 7776,
      "##monster": 7777,
      "mmmmm": 7778,
      "geoff": 7779,
      "numb": 7780,
      "heaps": 7781,
      "factory": 7782,
      "smaller": 7783,
      "projects": 7784,
      "reminder": 7785,
      "##untu": 7786,
      "audi": 7787,
      "denver": 7788,
      "pulling": 7789,
      "stephanie": 7790,
      "muah": 7791,
      "groups": 7792,
      "engagement": 7793,
      "distance": 7794,
      "##jean": 7795,
      "costs": 7796,
      "gigs": 7797,
      "imax": 7798,
      "document": 7799,
      "matters": 7800,
      "##wwwwwwww": 7801,
      "require": 7802,
      "legal": 7803,
      "reviews": 7804,
      "##cript": 7805,
      "lovee": 7806,
      "debbie": 7807,
      "devil": 7808,
      "current": 7809,
      "##roberts": 7810,
      "brandon": 7811,
      "recovered": 7812,
      "##leton": 7813,
      "inspired": 7814,
      "ridiculous": 7815,
      "##stein": 7816,
      "stores": 7817,
      "turtle": 7818,
      "bobby": 7819,
      "refuses": 7820,
      "addiction": 7821,
      "laurenconrad": 7822,
      "nikki": 7823,
      "oliv": 7824,
      "manager": 7825,
      "holla": 7826,
      "washed": 7827,
      "returned": 7828,
      "80s": 7829,
      "batman": 7830,
      "jesse": 7831,
      "skinny": 7832,
      "semi": 7833,
      "yelled": 7834,
      "##unday": 7835,
      "##hawk": 7836,
      "juddday": 7837,
      "##mommy": 7838,
      "cowork": 7839,
      "taxi": 7840,
      "advance": 7841,
      "opera": 7842,
      "attacked": 7843,
      "suddenly": 7844,
      "louis": 7845,
      "lesley": 7846,
      "beyonce": 7847,
      "suffering": 7848,
      "##selves": 7849,
      "chaos": 7850,
      "grounded": 7851,
      "photoshoot": 7852,
      "natalie": 7853,
      "kirstiea": 7854,
      "zombies": 7855,
      "buffalo": 7856,
      "marketing": 7857,
      "discovered": 7858,
      "wrap": 7859,
      "##frye": 7860,
      "impression": 7861,
      "impressive": 7862,
      "##rific": 7863,
      "accepted": 7864,
      "stalker": 7865,
      "susan": 7866,
      "condition": 7867,
      "announce": 7868,
      "multip": 7869,
      "sinus": 7870,
      "foreign": 7871,
      "rove1974": 7872,
      "cigar": 7873,
      "linux": 7874,
      "python": 7875,
      "sync": 7876,
      "crowd": 7877,
      "ooooh": 7878,
      "teddy": 7879,
      "woah": 7880,
      "negative": 7881,
      "apologies": 7882,
      "license": 7883,
      "mystery": 7884,
      "cheesy": 7885,
      "adopt": 7886,
      "adventure": 7887,
      "translation": 7888,
      ")))": 7889,
      "dedicated": 7890,
      "tbh": 7891,
      "stubborn": 7892,
      "rehears": 7893,
      "brooke": 7894,
      "exercise": 7895,
      "academy": 7896,
      "portugal": 7897,
      "accomplished": 7898,
      "sanctuarys": 7899,
      "nursing": 7900,
      "piano": 7901,
      "convince": 7902,
      "babygirlparis": 7903,
      "technically": 7904,
      "hq0n1": 7905,
      "##junkie": 7906,
      "immediately": 7907,
      "milkshake": 7908,
      "aplusk": 7909,
      "etsy": 7910,
      "represent": 7911,
      "familiar": 7912,
      "##connected": 7913,
      "nintend": 7914,
      "hawaii": 7915,
      "whilst": 7916,
      "nightmares": 7917,
      "keza34": 7918,
      "kirstiealley": 7919,
      "sanctuarysunday": 7920,
      "!:": 7921,
      "',": 7922,
      "''": 7923,
      "-.": 7924,
      "06": 7925,
      "2am": 7926,
      "36": 7927,
      "360": 7928,
      "4pm": 7929,
      "79": 7930,
      "88": 7931,
      ":[": 7932,
      "?,": 7933,
      "?...": 7934,
      "au": 7935,
      "aver": 7936,
      "aches": 7937,
      "bg": 7938,
      "bol": 7939,
      "bby": 7940,
      "bare": 7941,
      "boooooooo": 7942,
      "battle": 7943,
      "cf": 7944,
      "cn": 7945,
      "cw": 7946,
      "cp": 7947,
      "cate": 7948,
      "cac": 7949,
      "cure": 7950,
      "css": 7951,
      "civ": 7952,
      "cops": 7953,
      "crown": 7954,
      "cupp": 7955,
      "cubs": 7956,
      "dl": 7957,
      "dot": 7958,
      "dess": 7959,
      "dag": 7960,
      "dia": 7961,
      "doom": 7962,
      "duc": 7963,
      "ether": 7964,
      "ego": 7965,
      "erik": 7966,
      "fot": 7967,
      "fog": 7968,
      "font": 7969,
      "fuk": 7970,
      "flew": 7971,
      "gent": 7972,
      "gul": 7973,
      "giv": 7974,
      "gail": 7975,
      "gmail": 7976,
      "gained": 7977,
      "han": 7978,
      "hve": 7979,
      "ira": 7980,
      "icon": 7981,
      "ji": 7982,
      "kan": 7983,
      "kal": 7984,
      "kicks": 7985,
      "kerry": 7986,
      "kitten": 7987,
      "kewl": 7988,
      "mk": 7989,
      "mh": 7990,
      "mw": 7991,
      "mck": 7992,
      "mun": 7993,
      "miz": 7994,
      "meee": 7995,
      "nou": 7996,
      "nest": 7997,
      "nag": 7998,
      "nort": 7999,
      "naught": 8000,
      "nba": 8001,
      "nvm": 8002,
      "oi": 8003,
      "og": 8004,
      "por": 8005,
      "pon": 8006,
      "peep": 8007,
      "patch": 8008,
      "pear": 8009,
      "pak": 8010,
      "paw": 8011,
      "patter": 8012,
      "rot": 8013,
      "rust": 8014,
      "rays": 8015,
      "rah": 8016,
      "rss": 8017,
      "rug": 8018,
      "riot": 8019,
      "ruth": 8020,
      "rules": 8021,
      "srs": 8022,
      "santa": 8023,
      "tall": 8024,
      "tuck": 8025,
      "tire": 8026,
      "tank": 8027,
      "tires": 8028,
      "tierd": 8029,
      "uuu": 8030,
      "vib": 8031,
      "vicky": 8032,
      "wu": 8033,
      "wing": 8034,
      "wot": 8035,
      "wth": 8036,
      "woooo": 8037,
      "wins": 8038,
      "woe": 8039,
      "yan": 8040,
      "zack": 8041,
      "zero": 8042,
      "##kf": 8043,
      "##km": 8044,
      "##kee": 8045,
      "##kia": 8046,
      "##kitty": 8047,
      "##lon": 8048,
      "##iving": 8049,
      "##cj": 8050,
      "##can": 8051,
      "##cash": 8052,
      "##rom": 8053,
      "##rast": 8054,
      "##ross": 8055,
      "##rina": 8056,
      "##oha": 8057,
      "##aj": 8058,
      "##aver": 8059,
      "##aoke": 8060,
      "##f4": 8061,
      "##fty": 8062,
      "##hun": 8063,
      "##hum": 8064,
      "##hard": 8065,
      "##bg": 8066,
      "##bad": 8067,
      "##bol": 8068,
      "##bod": 8069,
      "##bach": 8070,
      "##bitch": 8071,
      "##bears": 8072,
      "##tu": 8073,
      "##tal": 8074,
      "##times": 8075,
      "##tila": 8076,
      "##taylor": 8077,
      "##nz": 8078,
      "##nut": 8079,
      "##w5": 8080,
      "##wed": 8081,
      "##wall": 8082,
      "##wang": 8083,
      "##wild": 8084,
      "##walk": 8085,
      "##uous": 8086,
      "##uary": 8087,
      "##dj": 8088,
      "##dar": 8089,
      "##dem": 8090,
      "##dling": 8091,
      "##dress": 8092,
      "##gur": 8093,
      "##gir": 8094,
      "##gth": 8095,
      "##gory": 8096,
      "##gets": 8097,
      "##xi": 8098,
      "##pi": 8099,
      "##pos": 8100,
      "##vine": 8101,
      "##vation": 8102,
      "##via": 8103,
      "##61": 8104,
      "##63": 8105,
      "##57": 8106,
      "##jk": 8107,
      "##jer": 8108,
      "##jour": 8109,
      "##jew": 8110,
      "##mee": 8111,
      "##mes": 8112,
      "##mod": 8113,
      "##mcc": 8114,
      "##mare": 8115,
      "##zle": 8116,
      "##93": 8117,
      "##_tr": 8118,
      "##_hen": 8119,
      "##0r": 8120,
      "##\\/": 8121,
      "##==": 8122,
      "##``": 8123,
      "##inal": 8124,
      "##inner": 8125,
      "##inthe": 8126,
      "thn": 8127,
      "thou": 8128,
      "thous": 8129,
      "thail": 8130,
      "thai": 8131,
      "thirsty": 8132,
      "##erto": 8133,
      "torr": 8134,
      "##ingo": 8135,
      "##oup": 8136,
      "##orate": 8137,
      "##ories": 8138,
      "##order": 8139,
      "##orary": 8140,
      "##anz": 8141,
      "thef": 8142,
      "the_": 8143,
      "##llike": 8144,
      "##itude": 8145,
      "##ares": 8146,
      "##army": 8147,
      "##omo": 8148,
      "##omic": 8149,
      "##edict": 8150,
      "##sta": 8151,
      "##stud": 8152,
      "##stage": 8153,
      "##style": 8154,
      "##othing": 8155,
      "##otcom": 8156,
      "##isis": 8157,
      "##enna": 8158,
      "andr": 8159,
      "android": 8160,
      "ink": 8161,
      "ingr": 8162,
      "input": 8163,
      "##ghh": 8164,
      "##chik": 8165,
      "##christ": 8166,
      "ford": 8167,
      "forth": 8168,
      "forms": 8169,
      "forums": 8170,
      "offf": 8171,
      "##rek": 8172,
      "##record": 8173,
      "wha": 8174,
      "whom": 8175,
      "stone": 8176,
      "stitch": 8177,
      "stinks": 8178,
      "stung": 8179,
      "mega": 8180,
      "bever": 8181,
      "beard": 8182,
      "##lying": 8183,
      "loan": 8184,
      "logging": 8185,
      "##adi": 8186,
      "##ads": 8187,
      "##amc": 8188,
      "shy": 8189,
      "sham": 8190,
      "shir": 8191,
      "shopp": 8192,
      "shaw": 8193,
      "shirts": 8194,
      "liqu": 8195,
      "##lder": 8196,
      "##ights": 8197,
      "##ternal": 8198,
      "##urdy": 8199,
      "frame": 8200,
      "franc": 8201,
      "##imm": 8202,
      "ants": 8203,
      "analy": 8204,
      "doggy": 8205,
      "hectic": 8206,
      "##days": 8207,
      "ath": 8208,
      "wore": 8209,
      "##opo": 8210,
      "chlo": 8211,
      "chose": 8212,
      "cheek": 8213,
      "chai": 8214,
      "reb": 8215,
      "suzy": 8216,
      "neat": 8217,
      "necessary": 8218,
      "outlook": 8219,
      "##entz": 8220,
      "##have": 8221,
      "##hale": 8222,
      "##ilton": 8223,
      "thisis": 8224,
      "noise": 8225,
      "##ths": 8226,
      "##them": 8227,
      "pra": 8228,
      "prat": 8229,
      "pros": 8230,
      "prince": 8231,
      "proof": 8232,
      "predict": 8233,
      "##antal": 8234,
      "##antha": 8235,
      "plat": 8236,
      "plug": 8237,
      "amb": 8238,
      "donna": 8239,
      "maps": 8240,
      "##este": 8241,
      "tools": 8242,
      "imo": 8243,
      "breast": 8244,
      "##ctose": 8245,
      "award": 8246,
      "awwh": 8247,
      "##rive": 8248,
      "twits": 8249,
      "##rae": 8250,
      "##umm": 8251,
      "##umbs": 8252,
      "##arten": 8253,
      "lolol": 8254,
      "weed": 8255,
      "##ffy": 8256,
      "##ffff": 8257,
      "##ardi": 8258,
      "##ola": 8259,
      "##olis": 8260,
      "##oline": 8261,
      "##olution": 8262,
      "##nington": 8263,
      "offline": 8264,
      "moan": 8265,
      "moll": 8266,
      "##inda": 8267,
      "exit": 8268,
      "spit": 8269,
      "blur": 8270,
      "slip": 8271,
      "##olley": 8272,
      "##morgan": 8273,
      "dez": 8274,
      "device": 8275,
      "##uckle": 8276,
      "funky": 8277,
      "wax": 8278,
      "twitterville": 8279,
      "##aaah": 8280,
      "##rows": 8281,
      "needle": 8282,
      "hopeful": 8283,
      "grin": 8284,
      "gram": 8285,
      "grill": 8286,
      "grrrr": 8287,
      "sacr": 8288,
      "##ooooooo": 8289,
      "sorted": 8290,
      "lasted": 8291,
      "mornings": 8292,
      "coat": 8293,
      "coding": 8294,
      "phoenix": 8295,
      "trent": 8296,
      "trick": 8297,
      "tramp": 8298,
      "env": 8299,
      "envy": 8300,
      "##emic": 8301,
      "veget": 8302,
      "finale": 8303,
      "beth": 8304,
      "sleepover": 8305,
      "popp": 8306,
      "poison": 8307,
      "popping": 8308,
      "##udos": 8309,
      "##iper": 8310,
      "##ipop": 8311,
      "##aged": 8312,
      "monkey": 8313,
      "monitor": 8314,
      "##nya": 8315,
      "overnight": 8316,
      "##fever": 8317,
      "select": 8318,
      "showed": 8319,
      "showers": 8320,
      "##yyjirou": 8321,
      "##irlines": 8322,
      "##uper": 8323,
      "shoulda": 8324,
      "##iah": 8325,
      "##aze": 8326,
      "##loved": 8327,
      "##ewell": 8328,
      "headin": 8329,
      "gona": 8330,
      "##aholic": 8331,
      "##izon": 8332,
      "admin": 8333,
      "cran": 8334,
      "crunch": 8335,
      "cramp": 8336,
      "croch": 8337,
      "##make": 8338,
      "##she": 8339,
      "##shed": 8340,
      "##shot": 8341,
      "##shots": 8342,
      "##ships": 8343,
      "march": 8344,
      "marie": 8345,
      "##eyes": 8346,
      "##keslib": 8347,
      "##acity": 8348,
      "bestie": 8349,
      "werewolf": 8350,
      "##prom": 8351,
      "joh": 8352,
      "smith": 8353,
      "rainbow": 8354,
      "##rrl": 8355,
      "glenn": 8356,
      "laker": 8357,
      "lactose": 8358,
      "letters": 8359,
      "girlie": 8360,
      "daft": 8361,
      "parties": 8362,
      "chef": 8363,
      "damage": 8364,
      "minor": 8365,
      "thrilled": 8366,
      "loosing": 8367,
      "##ques": 8368,
      "hardest": 8369,
      "strate": 8370,
      "strand": 8371,
      "##ordan": 8372,
      "teh": 8373,
      "muscle": 8374,
      "mushy": 8375,
      "nothings": 8376,
      "##zzle": 8377,
      "##ikki": 8378,
      "remix": 8379,
      "sounded": 8380,
      "soundtrack": 8381,
      "boredom": 8382,
      "perry": 8383,
      "percent": 8384,
      "##aka": 8385,
      "gods": 8386,
      "belie": 8387,
      "cleared": 8388,
      "tracy": 8389,
      "travell": 8390,
      "10am": 8391,
      "10th": 8392,
      "10pm": 8393,
      "hairdress": 8394,
      "##cynic": 8395,
      "##ierce": 8396,
      "farewell": 8397,
      "supply": 8398,
      "descri": 8399,
      "##oker": 8400,
      "prec": 8401,
      "prejud": 8402,
      "##ibi": 8403,
      "##ibb": 8404,
      "##ibu": 8405,
      "##ibility": 8406,
      "resched": 8407,
      "sings": 8408,
      "bookstore": 8409,
      "drinkin": 8410,
      "charm": 8411,
      "planet": 8412,
      "failure": 8413,
      "##cloud": 8414,
      "winner": 8415,
      "assum": 8416,
      "blogs": 8417,
      "##roe": 8418,
      "higher": 8419,
      "highlight": 8420,
      "attach": 8421,
      "prov": 8422,
      "complicated": 8423,
      "##ippers": 8424,
      "contrib": 8425,
      "yumm": 8426,
      "david_hen": 8427,
      "##venue": 8428,
      "##flu": 8429,
      "##flies": 8430,
      "decis": 8431,
      "##1986": 8432,
      "curve": 8433,
      "curse": 8434,
      "-->": 8435,
      "metall": 8436,
      "macar": 8437,
      "calvin": 8438,
      "midday": 8439,
      "##umpy": 8440,
      "relay": 8441,
      "explo": 8442,
      "googl": 8443,
      "password": 8444,
      "##anned": 8445,
      "president": 8446,
      "invit": 8447,
      "##a_guy": 8448,
      "melted": 8449,
      "##ampa": 8450,
      "2010": 8451,
      "wears": 8452,
      "##iety": 8453,
      "jacket": 8454,
      "jackalltimelow": 8455,
      "chocolates": 8456,
      "spray": 8457,
      "ashamed": 8458,
      "##3333": 8459,
      "##incol": 8460,
      "##burger": 8461,
      "fixing": 8462,
      "##presso": 8463,
      "fairly": 8464,
      "publ": 8465,
      "gravity": 8466,
      "##easy": 8467,
      "reasons": 8468,
      "evry": 8469,
      "nicky": 8470,
      "studied": 8471,
      "forgetting": 8472,
      "honored": 8473,
      "karaoke": 8474,
      "meetings": 8475,
      "##ugging": 8476,
      "lightning": 8477,
      "salon": 8478,
      "graduating": 8479,
      "answered": 8480,
      "cyn": 8481,
      "layout": 8482,
      "bene": 8483,
      "##star007": 8484,
      "effing": 8485,
      "gardening": 8486,
      "factor": 8487,
      "fuel": 8488,
      "vacuum": 8489,
      "##boots": 8490,
      "reminding": 8491,
      "reminded": 8492,
      "daughters": 8493,
      "apartments": 8494,
      "vanilla": 8495,
      "propos": 8496,
      "popcorn": 8497,
      "##mcn": 8498,
      "solid": 8499,
      "solution": 8500,
      "elev": 8501,
      "blessings": 8502,
      "rolls": 8503,
      "rolling": 8504,
      "##eeze": 8505,
      "britney": 8506,
      "recorded": 8507,
      "motion": 8508,
      "##jeans": 8509,
      "moonfrye": 8510,
      "costume": 8511,
      "selfish": 8512,
      "sumthin": 8513,
      "rooms": 8514,
      "randomly": 8515,
      "##young": 8516,
      "peaceful": 8517,
      "landed": 8518,
      "veronica": 8519,
      "autom": 8520,
      "fishing": 8521,
      "loveeee": 8522,
      "devon": 8523,
      "soulja": 8524,
      "datab": 8525,
      "fatty": 8526,
      "piggy": 8527,
      "torture": 8528,
      "elliott": 8529,
      "antib": 8530,
      "streets": 8531,
      "expecting": 8532,
      "officialtila": 8533,
      "latin": 8534,
      "discount": 8535,
      "straighten": 8536,
      "mixed": 8537,
      "votes": 8538,
      "notebook": 8539,
      "receive": 8540,
      "format": 8541,
      "balance": 8542,
      "balcon": 8543,
      "jumped": 8544,
      "havnt": 8545,
      "hayfever": 8546,
      "kingdom": 8547,
      "disneyland": 8548,
      ",,,": 8549,
      "freck": 8550,
      "spotify": 8551,
      "leads": 8552,
      "dollar": 8553,
      "sunburned": 8554,
      "ahhhhhh": 8555,
      "victory": 8556,
      "##tech": 8557,
      "thunderstorm": 8558,
      "ignoring": 8559,
      "sigjeans": 8560,
      "domin": 8561,
      "trading": 8562,
      "coughing": 8563,
      "procrast": 8564,
      "considered": 8565,
      "included": 8566,
      "coollike": 8567,
      "venus": 8568,
      "frustrating": 8569,
      "cruel": 8570,
      "bonus": 8571,
      "circus": 8572,
      "##egal": 8573,
      "counter": 8574,
      "estate": 8575,
      "amber_benson": 8576,
      "biology": 8577,
      "##resp": 8578,
      "lifes": 8579,
      "blowing": 8580,
      "advant": 8581,
      "##rocks": 8582,
      "##aurus": 8583,
      "software": 8584,
      "thereals": 8585,
      "cabin": 8586,
      "mandyyjirou": 8587,
      "whoops": 8588,
      "##lauren": 8589,
      "achieve": 8590,
      "kellie": 8591,
      "flickr": 8592,
      "bugger": 8593,
      "##bradie": 8594,
      "##bradbury": 8595,
      "cameras": 8596,
      "##________": 8597,
      "##ropri": 8598,
      "##grace": 8599,
      "##damn": 8600,
      "becky": 8601,
      "champion": 8602,
      "knocked": 8603,
      "##00000000": 8604,
      "announced": 8605,
      "optim": 8606,
      "yoga": 8607,
      "improve": 8608,
      "scotland": 8609,
      "hungover": 8610,
      "spoiled": 8611,
      "opportun": 8612,
      "russell": 8613,
      "chrome": 8614,
      "climbing": 8615,
      "politics": 8616,
      "culture": 8617,
      "mowing": 8618,
      "tuned": 8619,
      "##pherd": 8620,
      "thelonely": 8621,
      "sunset": 8622,
      "snuggle": 8623,
      "confirmation": 8624,
      "gaming": 8625,
      "whisper": 8626,
      "refuse": 8627,
      "##riffin": 8628,
      "bleeding": 8629,
      "embarrass": 8630,
      "shadow": 8631,
      "##nolds": 8632,
      "attempting": 8633,
      "##kisses": 8634,
      "reference": 8635,
      "##iloves": 8636,
      "sneezing": 8637,
      "tommorow": 8638,
      "juicystar007": 8639,
      "traditional": 8640,
      "sauce": 8641,
      "alpha": 8642,
      "blokeslib": 8643,
      "greetings": 8644,
      "applied": 8645,
      "indoors": 8646,
      "citiz": 8647,
      "eddie": 8648,
      "korean": 8649,
      "tesco": 8650,
      "tubes": 8651,
      "tempted": 8652,
      "yikes": 8653,
      "shadez": 8654,
      "modern": 8655,
      "preparing": 8656,
      "basketball": 8657,
      "fifth": 8658,
      "ireland": 8659,
      "shattered": 8660,
      "govern": 8661,
      "awkward": 8662,
      "##glasses": 8663,
      "umbrella": 8664,
      "aubrey": 8665,
      "cinnamon": 8666,
      "shuffle": 8667,
      "freedom": 8668,
      "spongeb": 8669,
      "separate": 8670,
      "crawling": 8671,
      "excitement": 8672,
      "satisfied": 8673,
      "edinburgh": 8674,
      "nintendo": 8675,
      "cuppa": 8676,
      "pattern": 8677,
      "srsly": 8678,
      "thailand": 8679,
      "prejudice": 8680,
      "david_henrie": 8681,
      "!]": 8682,
      "\"!": 8683,
      "'!": 8684,
      "'...": 8685,
      "1am": 8686,
      "2m": 8687,
      "3word": 8688,
      "3000": 8689,
      "42": 8690,
      "4wh": 8691,
      "7pm": 8692,
      "94": 8693,
      ":\"": 8694,
      ":\\": 8695,
      ";(": 8696,
      "=(": 8697,
      "?'": 8698,
      "?!!": 8699,
      "aust": 8700,
      "aus": 8701,
      "asth": 8702,
      "avenue": 8703,
      "bj": 8704,
      "bould": 8705,
      "bart": 8706,
      "bod": 8707,
      "bake": 8708,
      "bash": 8709,
      "bail": 8710,
      "bkk": 8711,
      "bots": 8712,
      "busted": 8713,
      "bwa": 8714,
      "cm": 8715,
      "cath": 8716,
      "dea": 8717,
      "dere": 8718,
      "dull": 8719,
      "dunk": 8720,
      "dirt": 8721,
      "et": 8722,
      "eag": 8723,
      "ecl": 8724,
      "eug": 8725,
      "fc": 8726,
      "fer": 8727,
      "fift": 8728,
      "gw": 8729,
      "gq": 8730,
      "git": 8731,
      "gnight": 8732,
      "gang": 8733,
      "gurl": 8734,
      "goooooooo": 8735,
      "gala": 8736,
      "gawd": 8737,
      "hk": 8738,
      "hs": 8739,
      "hul": 8740,
      "hud": 8741,
      "hint": 8742,
      "ih": 8743,
      "ist": 8744,
      "iantal": 8745,
      "jin": 8746,
      "jur": 8747,
      "jum": 8748,
      "jays": 8749,
      "jog": 8750,
      "juz": 8751,
      "ku": 8752,
      "kg": 8753,
      "km": 8754,
      "kon": 8755,
      "kle": 8756,
      "kap": 8757,
      "kath": 8758,
      "kale": 8759,
      "khi": 8760,
      "kiw": 8761,
      "kudos": 8762,
      "ls": 8763,
      "lt": 8764,
      "lj": 8765,
      "lys": 8766,
      "lens": 8767,
      "luna": 8768,
      "lulu": 8769,
      "leeds": 8770,
      "mast": 8771,
      "mish": 8772,
      "mates": 8773,
      "meeeee": 8774,
      "nm": 8775,
      "nit": 8776,
      "nar": 8777,
      "nxt": 8778,
      "nause": 8779,
      "nach": 8780,
      "nett": 8781,
      "nina": 8782,
      "nipp": 8783,
      "niq": 8784,
      "oww": 8785,
      "olym": 8786,
      "pow": 8787,
      "pout": 8788,
      "pong": 8789,
      "pine": 8790,
      "poll": 8791,
      "porn": 8792,
      "posh": 8793,
      "pops": 8794,
      "puff": 8795,
      "rb": 8796,
      "rer": 8797,
      "rul": 8798,
      "rated": 8799,
      "root": 8800,
      "rides": 8801,
      "sess": 8802,
      "sets": 8803,
      "sons": 8804,
      "sissy": 8805,
      "tp": 8806,
      "tie": 8807,
      "tel": 8808,
      "teen": 8809,
      "tang": 8810,
      "tys": 8811,
      "tia": 8812,
      "tasty": 8813,
      "var": 8814,
      "vic": 8815,
      "wes": 8816,
      "weep": 8817,
      "witty": 8818,
      "weth": 8819,
      "wives": 8820,
      "wooooo": 8821,
      "wasting": 8822,
      "x3": 8823,
      "xmen": 8824,
      "yeeee": 8825,
      "zo": 8826,
      "zoe": 8827,
      "##kb": 8828,
      "##kit": 8829,
      "##kea": 8830,
      "##kra": 8831,
      "##eer": 8832,
      "##egr": 8833,
      "##eva": 8834,
      "##lj": 8835,
      "##loo": 8836,
      "##lap": 8837,
      "##lif": 8838,
      "##live": 8839,
      "##lah": 8840,
      "##lord": 8841,
      "##iar": 8842,
      "##iers": 8843,
      "##iap": 8844,
      "##ieee": 8845,
      "##cin": 8846,
      "##come": 8847,
      "##cop": 8848,
      "##cum": 8849,
      "##col": 8850,
      "##cers": 8851,
      "##cue": 8852,
      "##cles": 8853,
      "##cups": 8854,
      "##sure": 8855,
      "##seth": 8856,
      "##1w": 8857,
      "##rat": 8858,
      "##rent": 8859,
      "##ril": 8860,
      "##roc": 8861,
      "##rox": 8862,
      "##rict": 8863,
      "##oj": 8864,
      "##a4": 8865,
      "##aan": 8866,
      "##aid": 8867,
      "##fuck": 8868,
      "##follow": 8869,
      "##fillion": 8870,
      "##hey": 8871,
      "##hopp": 8872,
      "##hib": 8873,
      "##high": 8874,
      "##hole": 8875,
      "##hughes": 8876,
      "##healy": 8877,
      "##bw": 8878,
      "##bz": 8879,
      "##bes": 8880,
      "##bet": 8881,
      "##bre": 8882,
      "##bal": 8883,
      "##bag": 8884,
      "##btr": 8885,
      "##beth": 8886,
      "##belle": 8887,
      "##tea": 8888,
      "##tri": 8889,
      "##tisdale": 8890,
      "##yan": 8891,
      "##nin": 8892,
      "##nar": 8893,
      "##nter": 8894,
      "##nation": 8895,
      "##wc": 8896,
      "##wer": 8897,
      "##wow": 8898,
      "##wel": 8899,
      "##watch": 8900,
      "##wife": 8901,
      "##u2": 8902,
      "##ught": 8903,
      "##ucc": 8904,
      "##dc": 8905,
      "##df": 8906,
      "##du": 8907,
      "##dx": 8908,
      "##din": 8909,
      "##ded": 8910,
      "##drive": 8911,
      "##gust": 8912,
      "##gal": 8913,
      "##gab": 8914,
      "##gies": 8915,
      "##gia": 8916,
      "##grey": 8917,
      "##xe": 8918,
      "##xj": 8919,
      "##xic": 8920,
      "##xie": 8921,
      "##pin": 8922,
      "##pit": 8923,
      "##pad": 8924,
      "##pie": 8925,
      "##pop": 8926,
      "##pers": 8927,
      "##pose": 8928,
      "##5t": 8929,
      "##53": 8930,
      "##52": 8931,
      "##3d": 8932,
      "##300": 8933,
      "##j4": 8934,
      "##jul": 8935,
      "##jose": 8936,
      "##qt": 8937,
      "##mp": 8938,
      "##mell": 8939,
      "##mies": 8940,
      "##money": 8941,
      "##muse": 8942,
      "##zh": 8943,
      "##zart": 8944,
      "##97": 8945,
      "##4h": 8946,
      "##40": 8947,
      "##_y": 8948,
      "##_4": 8949,
      "##_0": 8950,
      "##_au": 8951,
      "##_sh": 8952,
      "##_girl": 8953,
      "##_mcfly": 8954,
      "##2b": 8955,
      "##2t": 8956,
      "##0y": 8957,
      "##8r": 8958,
      "##inter": 8959,
      "##inty": 8960,
      "##info": 8961,
      "thick": 8962,
      "threat": 8963,
      "##eric": 8964,
      "toil": 8965,
      "tourn": 8966,
      "tops": 8967,
      "tootha": 8968,
      "##inging": 8969,
      "##ouble": 8970,
      "##orth": 8971,
      "##oria": 8972,
      "##anar": 8973,
      "##ancy": 8974,
      "##anley": 8975,
      "##anced": 8976,
      "##atomy": 8977,
      "theellen": 8978,
      "##eeks": 8979,
      "##eena": 8980,
      "##ayyy": 8981,
      "##eshing": 8982,
      "##esign": 8983,
      "##iters": 8984,
      "##ndo": 8985,
      "##arks": 8986,
      "##ario": 8987,
      "##omor": 8988,
      "##omed": 8989,
      "##omet": 8990,
      "##eds": 8991,
      "##edin": 8992,
      "##eded": 8993,
      "##edly": 8994,
      "##stop": 8995,
      "##stats": 8996,
      "##stars": 8997,
      "haa": 8998,
      "halo": 8999,
      "hairst": 9000,
      "hazel": 9001,
      "youuu": 9002,
      "##oty": 9003,
      "##veland": 9004,
      "##.....": 9005,
      "itchy": 9006,
      "##eau": 9007,
      "##ealf": 9008,
      "##ismo": 9009,
      "mys": 9010,
      "##etime": 9011,
      "##uto": 9012,
      "##utches": 9013,
      "##enz": 9014,
      "##enger": 9015,
      "inlove": 9016,
      "##ghan": 9017,
      "##chic": 9018,
      "isaa": 9019,
      "forest": 9020,
      "##rex": 9021,
      "##leg": 9022,
      "##lev": 9023,
      "whack": 9024,
      "##kell": 9025,
      "stere": 9026,
      "stink": 9027,
      "stell": 9028,
      "stamp": 9029,
      "stealth": 9030,
      "stairs": 9031,
      "##idence": 9032,
      "mein": 9033,
      "melo": 9034,
      "beers": 9035,
      "bebe": 9036,
      "sox": 9037,
      "sofa": 9038,
      "soda": 9039,
      "##lys": 9040,
      "logo": 9041,
      "logged": 9042,
      "lobby": 9043,
      "##aday": 9044,
      "##aden": 9045,
      "##amy": 9046,
      "##aming": 9047,
      "##amas": 9048,
      "sheep": 9049,
      "shark": 9050,
      "shane": 9051,
      "shipped": 9052,
      "sheesh": 9053,
      "gos": 9054,
      "goals": 9055,
      "lied": 9056,
      "lift": 9057,
      "limo": 9058,
      "##urning": 9059,
      "##uns": 9060,
      "##unshine": 9061,
      "##alu": 9062,
      "##aling": 9063,
      "##alie": 9064,
      "##aline": 9065,
      "##alicious": 9066,
      "##ala_guy": 9067,
      "##iev": 9068,
      "froz": 9069,
      "##erell": 9070,
      "##imon": 9071,
      "##imont": 9072,
      "justice": 9073,
      "dol": 9074,
      "doors": 9075,
      "dope": 9076,
      "heyyy": 9077,
      "worn": 9078,
      "cani": 9079,
      "canal": 9080,
      "##hers": 9081,
      "##hero": 9082,
      "twas": 9083,
      "##opia": 9084,
      "chir": 9085,
      "chain": 9086,
      "chel": 9087,
      "chew": 9088,
      "chatt": 9089,
      "chair": 9090,
      "refr": 9091,
      "reven": 9092,
      "refresh": 9093,
      "suic": 9094,
      "goodby": 9095,
      "##cepting": 9096,
      "##ryl": 9097,
      "##ryder": 9098,
      "comed": 9099,
      "comet": 9100,
      "comic": 9101,
      "comics": 9102,
      "allen": 9103,
      "allison": 9104,
      "##haa": 9105,
      "##essive": 9106,
      "##iling": 9107,
      "novel": 9108,
      "princ": 9109,
      "alt": 9110,
      "alab": 9111,
      "alison": 9112,
      "plate": 9113,
      "plastic": 9114,
      "##usive": 9115,
      "##ttttt": 9116,
      "likey": 9117,
      "amor": 9118,
      "amanda": 9119,
      "##aston": 9120,
      "##astar": 9121,
      "##abi": 9122,
      "##abby": 9123,
      "donny": 9124,
      "mak": 9125,
      "##eston": 9126,
      "##ested": 9127,
      "##outhern": 9128,
      "todayy": 9129,
      "bris": 9130,
      "brick": 9131,
      "brett": 9132,
      "brief": 9133,
      "asian": 9134,
      "awak": 9135,
      "##rier": 9136,
      "abc": 9137,
      "ability": 9138,
      "##ravel": 9139,
      "!!!...": 9140,
      "missk": 9141,
      "misss": 9142,
      "##oso": 9143,
      "##ela": 9144,
      "backpack": 9145,
      "##ulg": 9146,
      "##arde": 9147,
      "##icket": 9148,
      "##allow": 9149,
      "willy": 9150,
      "newest": 9151,
      "newcast": 9152,
      "##inem": 9153,
      "##obal": 9154,
      "nightsh": 9155,
      "nightmare": 9156,
      "spill": 9157,
      "spook": 9158,
      "spare": 9159,
      "spoon": 9160,
      "spicy": 9161,
      "spiders": 9162,
      "bloom": 9163,
      "blair": 9164,
      "hoped": 9165,
      "homeless": 9166,
      "##mma": 9167,
      "dexter": 9168,
      "guild": 9169,
      "guilt": 9170,
      "clint": 9171,
      "clair": 9172,
      "claud": 9173,
      "clothing": 9174,
      "twitterific": 9175,
      "faire": 9176,
      "orb": 9177,
      "arc": 9178,
      "arth": 9179,
      "gran": 9180,
      "grim": 9181,
      "grum": 9182,
      "grub": 9183,
      "grilled": 9184,
      "sac": 9185,
      "sao": 9186,
      "##aps": 9187,
      "##apa": 9188,
      "##apan": 9189,
      "##apat": 9190,
      "dropping": 9191,
      "sorting": 9192,
      "lasts": 9193,
      "takers": 9194,
      "phr": 9195,
      "phase": 9196,
      "confl": 9197,
      "concept": 9198,
      "convert": 9199,
      "converse": 9200,
      "encou": 9201,
      "##emo": 9202,
      "##empl": 9203,
      "veggie": 9204,
      "##angs": 9205,
      "##angle": 9206,
      "##angers": 9207,
      "sleepin": 9208,
      "pole": 9209,
      "poly": 9210,
      "popped": 9211,
      "##xton": 9212,
      "##owns": 9213,
      "##istan": 9214,
      "##istol": 9215,
      "tonights": 9216,
      "##ipse": 9217,
      "##agu": 9218,
      "##agg": 9219,
      "##ague": 9220,
      "overs": 9221,
      "overtime": 9222,
      "mann": 9223,
      "##assic": 9224,
      "africa": 9225,
      "##ysp": 9226,
      "section": 9227,
      "selection": 9228,
      "pend": 9229,
      "quad": 9230,
      "qual": 9231,
      "quilt": 9232,
      "sci": 9233,
      "tryna": 9234,
      "bites": 9235,
      "leah": 9236,
      "afterwards": 9237,
      "leather": 9238,
      "mothersday": 9239,
      "ada": 9240,
      "unite": 9241,
      "uncom": 9242,
      "##phere": 9243,
      "crit": 9244,
      "crime": 9245,
      "creek": 9246,
      "##anscott": 9247,
      "##sho": 9248,
      "sunglasses": 9249,
      "madre": 9250,
      "playin": 9251,
      "playoff": 9252,
      "playlist": 9253,
      "marian": 9254,
      "marvel": 9255,
      "##gger": 9256,
      "##acre": 9257,
      "bestfriend": 9258,
      "movin": 9259,
      "thankfully": 9260,
      "flow": 9261,
      "flies": 9262,
      "flip": 9263,
      "joj": 9264,
      "joes": 9265,
      "joint": 9266,
      "diana": 9267,
      "##beats": 9268,
      "sucker": 9269,
      "talks": 9270,
      "##eams": 9271,
      "littlemiss": 9272,
      "gloss": 9273,
      "global": 9274,
      "nevermind": 9275,
      "written": 9276,
      "##cier": 9277,
      "dav": 9278,
      "daved": 9279,
      "daisy": 9280,
      "becuz": 9281,
      "##soci": 9282,
      "##society": 9283,
      "##toad": 9284,
      "##sssss": 9285,
      "listed": 9286,
      "damoh": 9287,
      "hurray": 9288,
      "thread": 9289,
      "##tails": 9290,
      "##brush": 9291,
      "##boards": 9292,
      "omar": 9293,
      "##iance": 9294,
      "##heather": 9295,
      "looove": 9296,
      "##fran": 9297,
      "##frank": 9298,
      "##ender": 9299,
      "##mania": 9300,
      "##ashes": 9301,
      "realbill": 9302,
      "dislike": 9303,
      "string": 9304,
      "stranger": 9305,
      "yaay": 9306,
      "famil": 9307,
      "dann": 9308,
      "##blood": 9309,
      "amazingly": 9310,
      "warped": 9311,
      "##ikk": 9312,
      "##crest": 9313,
      "##creen": 9314,
      "##crumpet": 9315,
      "pero": 9316,
      "perman": 9317,
      "##aken": 9318,
      "##akid": 9319,
      "parade": 9320,
      "recession": 9321,
      "##hahah": 9322,
      "ski": 9323,
      "skies": 9324,
      "musicmonday": 9325,
      "postp": 9326,
      "accent": 9327,
      "##whit": 9328,
      "##itchell": 9329,
      "sneak": 9330,
      "snoring": 9331,
      "##cycle": 9332,
      "##ierra": 9333,
      "poorly": 9334,
      "hunny": 9335,
      "##cole": 9336,
      "rocket": 9337,
      "rockstar": 9338,
      "##atte": 9339,
      "awwwwwww": 9340,
      "superman": 9341,
      "##oko": 9342,
      "resume": 9343,
      "messy": 9344,
      "delhi": 9345,
      "##avin": 9346,
      "##avid": 9347,
      "pains": 9348,
      "##ettem": 9349,
      "charles": 9350,
      "instr": 9351,
      "dreambears": 9352,
      "trend": 9353,
      "holes": 9354,
      "##cler": 9355,
      "bold": 9356,
      "assist": 9357,
      "blogger": 9358,
      "##roit": 9359,
      "hits": 9360,
      "scram": 9361,
      "handy": 9362,
      "##aseer": 9363,
      "compliment": 9364,
      "concer": 9365,
      "owner": 9366,
      "##ippin": 9367,
      "##ipper": 9368,
      "##hhhhhhh": 9369,
      "yummm": 9370,
      "eden": 9371,
      "edition": 9372,
      "4wl": 9373,
      "barack": 9374,
      "barcel": 9375,
      "ernie": 9376,
      "promote": 9377,
      "promotion": 9378,
      "##owski": 9379,
      "acid": 9380,
[...]
